<unk>	0
<s>	0
</s>	0
▁.	-3.05724
,	-4.19279
에	-4.6949
▁	-4.7644
의	-4.78371
을	-4.79657
이	-4.81421
는	-4.88862
도	-5.05113
은	-5.05697
가	-5.10664
'	-5.1524
를	-5.19385
▁'	-5.22578
"	-5.415
)	-5.43187
▁"	-5.47159
로	-5.48527
일	-5.49471
▁있다	-5.52796
·	-5.62549
고	-5.65082
과	-5.67275
▁1	-5.69574
...	-5.75867
’	-5.77314
▁‘	-5.78643
년	-5.78966
(	-5.81433
에서	-5.86795
한	-5.87035
▁수	-5.88977
만	-5.89715
▁이	-5.92428
으로	-5.97795
▁2	-6.01706
▁“	-6.04113
와	-6.06632
▁?	-6.08647
▁3	-6.10905
월	-6.11098
인	-6.13597
.	-6.14907
다	-6.16048
”	-6.16755
대	-6.25538
]	-6.27095
▁[	-6.27545
▁전	-6.278
▁한	-6.32724
▁등	-6.34703
▁4	-6.42018
서	-6.43476
하는	-6.45981
▁5	-6.48172
>	-6.49146
지	-6.49926
명	-6.50108
▁것으로	-6.53026
했다	-6.55877
해	-6.5614
할	-6.57431
▁-	-6.60043
시	-6.60971
기	-6.62737
하고	-6.64098
▁있는	-6.66878
▁및	-6.67964
▁10	-6.70012
▁<	-6.72171
이다	-6.72452
▁6	-6.77255
-	-6.79749
▁금지	-6.86717
자	-6.86804
▁중	-6.86887
▁것	-6.91882
개	-6.92168
▁또	-6.92817
▁안	-6.93571
▁7	-6.94154
원	-6.94321
억	-6.94854
나	-6.97531
까지	-6.98075
▁▶	-6.98834
▁대한	-7.01072
▁그	-7.02111
▁서울	-7.04217
입니다	-7.04322
▁c	-7.05421
▁있습니다	-7.05756
▁8	-7.06244
조	-7.06949
▁9	-7.06953
천	-7.07831
▁더	-7.07985
▁했다	-7.09494
2	-7.0955
▁한다	-7.12704
장	-7.13487
▁김	-7.15381
주	-7.16468
수	-7.1663
1	-7.17602
면	-7.17626
▁지난	-7.19896
▁재배포	-7.20049
▁:	-7.21473
된	-7.21879
▁(	-7.22328
▁박	-7.23044
▁것이다	-7.23559
▁가장	-7.25381
사	-7.26656
한다	-7.29094
▁지난해	-7.2949
성	-7.3036
차	-7.30937
▁20	-7.30975
에는	-7.31598
▁대통령	-7.32868
선	-7.32877
진	-7.34226
▁하지만	-7.35303
▁무단전재	-7.36563
제	-7.36601
▁위해	-7.37878
▁두	-7.38772
▁이후	-7.39299
적	-7.40874
보다	-7.40886
▁...	-7.40985
▁같은	-7.4158
전	-7.43179
▁올해	-7.43207
▁한국	-7.44096
세	-7.44195
▁함께	-7.44286
동	-7.44611
▁│	-7.45013
▁A	-7.45148
▁이날	-7.4616
▁◆	-7.46664
▁이런	-7.47001
위	-7.47917
▁없다	-7.48182
상	-7.48848
▁할	-7.49656
▁30	-7.50074
▁제	-7.5153
화	-7.51802
리	-7.51948
들이	-7.525
며	-7.53324
▁11	-7.5335
라고	-7.54223
▁이번	-7.54678
▁원	-7.54723
▁12	-7.55258
해야	-7.57221
비	-7.57678
▁오늘	-7.58237
▁때	-7.58554
▁◇	-7.59172
▁것은	-7.59223
정	-7.59411
▁현재	-7.59418
당	-7.59679
▁이상	-7.59682
▁첫	-7.59828
▁모두	-7.59856
여	-7.60534
▁위한	-7.60872
3	-7.60971
만원	-7.6098
▁통해	-7.61858
▁하는	-7.62221
▁큰	-7.62281
부	-7.62752
분	-7.62932
▁오후	-7.63632
게	-7.64259
▁내	-7.64883
▁말했다	-7.64936
▁▲	-7.65145
▁밝혔다	-7.65459
라	-7.65582
억원	-7.65737
회	-7.66248
▁뉴스	-7.66597
어	-7.66799
하지	-7.67236
중	-7.67688
에게	-7.67832
이라고	-7.67955
호	-7.68273
▁후	-7.6878
▁정부	-7.68858
▁된다	-7.69374
▁대표	-7.69888
▁무단	-7.7032
미	-7.7051
됐다	-7.70725
▁다	-7.70734
요	-7.7091
야	-7.71597
▁게	-7.7201
▁정	-7.72028
▁국내	-7.72054
m	-7.72831
하게	-7.72895
/	-7.72906
▁오전	-7.73033
▁전재	-7.73179
▁따라	-7.73691
들	-7.73778
형	-7.73779
▁그러나	-7.7425
용	-7.74407
▁이어	-7.7473
산	-7.75039
했습니다	-7.75065
:	-7.76237
스	-7.77096
▁문	-7.77239
▁특히	-7.78282
▁다른	-7.78687
▁!	-7.78783
▁총	-7.79296
신	-7.79537
식	-7.79546
뉴스	-7.80951
▁관련	-7.82844
▁의원	-7.84214
▁것이	-7.84312
▁우리	-7.84337
구	-7.84706
▁없는	-7.85288
▁대해	-7.85324
소	-7.8555
▁지원	-7.85908
부터	-7.86264
▁최근	-7.86354
▁만에	-7.86461
▁잘	-7.86806
▁뒤	-7.8691
5	-7.87102
배	-7.87574
보	-7.88174
▁말	-7.88442
▁최대	-7.89218
▁다시	-7.90302
에서는	-7.90787
▁어떻게	-7.90795
였다	-7.90877
▁15	-7.90939
▁/	-7.90944
에도	-7.91079
아	-7.91084
▁부산	-7.91298
▁그는	-7.92559
▁조사	-7.92601
▁예정이다	-7.92821
▁경우	-7.92995
▁많이	-7.93243
▁기자가	-7.93375
▁때문에	-7.93391
하면	-7.9352
하기	-7.93818
ᆞ	-7.94828
▁해	-7.95043
법	-7.95812
라는	-7.96204
▁중국	-7.96224
석	-7.96911
포토	-7.97039
▁100	-7.97795
4	-7.97888
건	-7.98073
재	-7.98193
▁전국	-7.98517
명이	-7.98536
▁이에	-7.99072
),	-7.99579
이나	-7.99594
▁하고	-7.99741
6	-7.99902
▁주	-8.00032
▁일	-8.00082
우	-8.00489
실	-8.00977
권	-8.0138
될	-8.01382
▁시	-8.0155
com	-8.0183
경	-8.02042
▁미국	-8.02151
▁■	-8.02316
▁박근혜	-8.02584
▁문재인	-8.02946
안	-8.0354
▁국회	-8.03574
▁많은	-8.03758
▁지금	-8.04152
▁지	-8.04551
▁등을	-8.04583
치	-8.0469
▁건	-8.05262
영	-8.05732
개월	-8.05904
▁경제	-8.05922
▁고	-8.06632
▁후보	-8.06745
국	-8.07178
관	-8.07504
▁약	-8.07522
문	-8.07693
돼	-8.07737
단	-8.07859
▁못	-8.07951
시간	-8.08463
던	-8.08568
▁당시	-8.08846
▁어떤	-8.08969
들은	-8.09033
▁비	-8.09065
▁50	-8.09342
되는	-8.09369
▁오는	-8.09549
▁◀	-8.097
▁평균	-8.09743
▁될	-8.10333
▁검찰	-8.10361
▁19	-8.10552
이었다	-8.10614
▁그런데	-8.10819
▁대	-8.10969
민	-8.11428
▁그런	-8.11472
▁세계	-8.11812
▁달	-8.11953
www	-8.12498
▁가운데	-8.125
▁수사	-8.12648
▁않았다	-8.1286
▁경찰	-8.13423
분기	-8.1368
엔	-8.13851
된다	-8.13899
▁여성	-8.14007
▁&	-8.14158
▁대비	-8.14412
▁오	-8.14954
▁지역	-8.15046
합니다	-8.15234
7	-8.15743
종	-8.15766
오	-8.1583
모	-8.15853
▁조	-8.15866
연	-8.16188
▁유	-8.16191
유	-8.16417
군	-8.17205
▁`	-8.17334
▁이는	-8.17466
급	-8.17862
▁사고	-8.18045
하	-8.18114
적인	-8.18244
씨	-8.18468
하다	-8.18507
=	-8.18717
▁경찰은	-8.1883
▁13	-8.18854
▁때문이다	-8.1897
종합	-8.19137
▁추진	-8.19205
▁40	-8.19246
▁있었다	-8.19449
▁최	-8.19525
▁보고	-8.19715
계	-8.19965
▁18	-8.19967
무	-8.21435
▁시장	-8.21835
씨는	-8.21836
▁신	-8.22201
▁새	-8.22257
▁서	-8.2239
▁아니다	-8.22446
▁14	-8.22487
..."	-8.22898
▁16	-8.22906
▁”	-8.23549
내	-8.24105
▁SNS	-8.24236
일까지	-8.24355
방	-8.24534
8	-8.25331
▁기업	-8.25386
c	-8.25574
이라는	-8.25937
물	-8.26267
마	-8.2637
▁장관	-8.26528
▁역시	-8.26757
▁미	-8.26775
▁진행	-8.2701
점	-8.27102
▁당	-8.27475
▁17	-8.2753
일부터	-8.2754
▁직접	-8.27707
▁개최	-8.27833
▁추가	-8.27834
▁합니다	-8.2806
▁일본	-8.2829
▁내년	-8.28508
▁이렇게	-8.28584
▁장	-8.28585
청	-8.28602
박	-8.28775
니	-8.29343
▁투자	-8.29695
▁세	-8.29891
▁일부	-8.29989
▁북한	-8.30192
▁제공	-8.30382
포인트	-8.3059
▁KBS	-8.31096
▁강	-8.31364
간	-8.31435
금	-8.3152
▁전체	-8.31645
현	-8.31679
kr	-8.31923
▁피해	-8.32042
층	-8.32284
저작권자	-8.32291
▁25	-8.32555
트	-8.32922
년간	-8.33018
9	-8.33066
▁간	-8.3325
▁앵커	-8.33828
▁공개	-8.34526
▁경기	-8.34733
▁발표	-8.34813
▁눈	-8.35222
▁판매	-8.35324
▁초	-8.35425
▁크게	-8.35453
드	-8.35644
▁문제	-8.35659
▁공식	-8.35686
들의	-8.36071
▁보인다	-8.36193
심	-8.36212
▁한편	-8.36213
▁보는	-8.36281
▁날	-8.36458
▁알려졌다	-8.36575
▁>	-8.36713
▁가	-8.3673
▁동안	-8.3678
하며	-8.36863
곳	-8.36867
▁세월호	-8.36975
▁모든	-8.37214
▁확대	-8.37247
▁회장	-8.37423
병	-8.37544
▁수출	-8.37674
▁이를	-8.3819
파	-8.38237
▁운영	-8.38291
▁사	-8.38407
▁그래서	-8.38423
▁사업	-8.38688
▁각각	-8.39781
등	-8.39944
▁최고	-8.39962
강	-8.4003
양	-8.40211
▁됐다	-8.40347
▁국민	-8.40357
▁24	-8.40763
▁=	-8.40781
▁불	-8.40832
▁청와대	-8.41187
~	-8.41285
적으로	-8.41475
`	-8.41877
▁왜	-8.41918
▁보도합니다	-8.42414
▁속	-8.42492
▁나	-8.42582
▁계속	-8.42936
▁교육	-8.43018
▁연	-8.43272
▁모	-8.43326
질	-8.4341
▁않은	-8.43579
▁높은	-8.43771
▁새누리당	-8.44138
▁양	-8.44629
▁네	-8.44667
▁바로	-8.44754
▁해외	-8.45175
▁기준	-8.45225
▁데	-8.45305
공	-8.45338
A	-8.45611
▁부	-8.45673
▁것을	-8.45789
되고	-8.45935
▁반면	-8.46379
▁그리고	-8.4644
▁대선	-8.46533
역	-8.46941
▁선	-8.47087
▁않고	-8.47096
년생	-8.47129
▁계획이다	-8.47177
▁정책	-8.47544
▁출시	-8.47595
(1	-8.47764
감	-8.4795
▁교수	-8.47994
"...	-8.48365
co	-8.48521
반	-8.48766
포	-8.48796
▁인사	-8.49065
▁된	-8.49265
길	-8.49289
▁21	-8.49488
▁들어	-8.4953
면서	-8.49536
▁국가	-8.49667
▁아파트	-8.49717
발	-8.49826
▁주요	-8.49923
초	-8.50137
▁..	-8.50365
▁아니라	-8.504
▁올	-8.50477
▁나타났다	-8.50573
준	-8.5064
▁시작	-8.50661
▁22	-8.50915
▁연속	-8.50971
▁사건	-8.51604
▁먼저	-8.51744
표	-8.51926
▁반	-8.52009
▁결국	-8.52153
30	-8.52456
▁구	-8.52583
▁하루	-8.52887
▁보면	-8.52951
태	-8.53024
▁받고	-8.53149
직	-8.53176
▁좋은	-8.53376
▁바	-8.53417
▁다만	-8.53539
▁논란	-8.53557
▁증가	-8.53842
▁의혹	-8.53851
▁지난달	-8.54133
서울	-8.54202
▁결과	-8.5456
▁재	-8.5466
교	-8.54931
▁23	-8.54987
▁정도	-8.54999
▁결정	-8.55016
▁또한	-8.55075
▁정치	-8.55185
▁대구	-8.55186
▁있다는	-8.55346
TV	-8.55682
▁강화	-8.55695
▁되는	-8.55767
▁글로벌	-8.55902
▁없이	-8.561
▁채	-8.56167
대통령	-8.56173
▁이미	-8.5621
▁좀	-8.56254
▁안철수	-8.56271
▁명	-8.56619
▁따르면	-8.56779
▁B	-8.56834
▁방문	-8.57676
살	-8.57749
희	-8.57899
하면서	-8.58039
통	-8.58154
설	-8.58171
▁다양한	-8.58275
철	-8.58433
재배포	-8.58492
처럼	-8.58638
▁손	-8.58772
▁27	-8.59043
했던	-8.5927
&	-8.59383
▁없어	-8.59825
▁볼	-8.59855
▁개발	-8.60055
▁민주당	-8.60079
남	-8.60448
▁의원은	-8.60548
▁60	-8.60619
▁기간	-8.60833
▁인터뷰	-8.60952
▁차	-8.60953
시장	-8.61067
지만	-8.61097
▁다음	-8.61115
▁인천	-8.61194
▁구속	-8.6149
▁반대	-8.61701
▁Q	-8.61779
▁무	-8.62247
히	-8.62282
▁28	-8.62747
▁배	-8.62747
기업	-8.62811
▁26	-8.62926
▁인상	-8.62926
지역	-8.63108
▁논의	-8.6367
▁현장	-8.63699
▁선거	-8.63879
▁대통령이	-8.64043
▁광주	-8.64229
에서도	-8.6423
▁여야	-8.64291
▁해당	-8.64526
▁새로운	-8.64572
▁각	-8.64635
▁정부가	-8.64731
러	-8.64874
근	-8.64876
'...	-8.6517
판	-8.65301
▁있다고	-8.65543
▁앞서	-8.65567
▁듯	-8.65649
▁자	-8.6567
▁것도	-8.65708
죠	-8.65803
번	-8.66028
▁연합뉴스	-8.66031
▁물	-8.66077
사업	-8.66117
▁국제	-8.66212
▁아	-8.66281
김	-8.66344
학	-8.66354
▁등의	-8.66575
▁대상	-8.67163
경제	-8.67204
▁중이다	-8.67313
▁LG	-8.67729
약	-8.67914
▁있을	-8.6805
▁군	-8.68203
론	-8.68237
란	-8.68394
불	-8.68516
▁동	-8.68566
임	-8.68817
생	-8.68939
▁단	-8.69184
▁있어	-8.69279
km	-8.69423
사진	-8.69549
▁않다	-8.6958
▁이제	-8.69678
▁거	-8.69734
▁2014	-8.69803
▁정부는	-8.69837
▁우려	-8.6994
▁앞으로	-8.69998
▁받은	-8.7007
▁번	-8.70189
▁등이	-8.70379
산업	-8.70645
두	-8.70941
▁해야	-8.714
▁2015	-8.71563
▁성	-8.71593
▁행사	-8.71756
▁개선	-8.71836
▁너무	-8.71852
별	-8.71892
▁차량	-8.71912
▁불법	-8.72061
▁저	-8.72236
센터	-8.724
▁관리	-8.72471
▁수도	-8.72665
▁노	-8.72688
▁화재	-8.72693
▁제주	-8.72728
행	-8.72781
▁작년	-8.72857
▁29	-8.72862
▁줄	-8.7305
▁상승	-8.73086
하기로	-8.73172
▁씨	-8.73239
▁우선	-8.73379
체	-8.73437
복	-8.73611
▁하	-8.73943
▁학교	-8.74078
▁사망	-8.7411
10	-8.74288
▁경기도	-8.74339
▁기록했다	-8.74442
▁서울시	-8.74478
데	-8.74626
▁남	-8.7466
▁없었다	-8.75285
▁S	-8.75449
▁황	-8.7558
20	-8.75636
순	-8.75848
들을	-8.75899
▁대통령은	-8.76082
▁상	-8.76288
려	-8.76437
▁서비스	-8.76709
▁받았다	-8.7672
▁소	-8.76951
▁문제가	-8.76964
타	-8.76994
교육	-8.77193
▁생산	-8.77516
▁분	-8.77644
▁씨는	-8.77754
▁송	-8.7801
노	-8.782
환	-8.78419
승	-8.78465
▁기	-8.78485
▁않는	-8.78645
범	-8.78679
온	-8.78749
▁집중	-8.78851
▁겁니다	-8.79009
▁평가	-8.79271
저	-8.79346
▁그렇게	-8.79407
▁안전	-8.79431
▁가격	-8.79464
운	-8.79487
▁늘었다	-8.79588
▁임	-8.79741
정부	-8.79753
창	-8.79759
▁검토	-8.79883
▁일이	-8.80023
▁앞두고	-8.80036
명으로	-8.8005
▁아닌	-8.80106
거	-8.80109
그	-8.80155
▁백	-8.8023
▁2013	-8.80296
▁2012	-8.80301
▁보였다	-8.80758
▁Copyrights	-8.80794
▁확인	-8.80816
▁사회	-8.80941
▁홍	-8.8122
▁일반	-8.81525
▁하지	-8.81564
▁대표는	-8.81649
증	-8.81731
▁아직	-8.81755
▁처리	-8.81884
▁대통령의	-8.81914
▁사람이	-8.82026
▁보	-8.82067
열	-8.82131
▁필요	-8.82422
▁MBN	-8.82424
대로	-8.82449
한국	-8.82499
▁부동산	-8.82564
▁삼성	-8.82654
집	-8.82676
관리	-8.82727
▁도입	-8.82731
▁윤	-8.82901
▁사실	-8.83141
▁설	-8.83172
D	-8.83227
▁혐의	-8.83387
는데	-8.83768
카	-8.83878
▁SK	-8.84039
▁준비	-8.84184
▁본	-8.84237
▁일자리	-8.84476
▁참여	-8.8489
습니다	-8.849
▁물론	-8.85605
▁온	-8.85679
▁않는다	-8.85701
지는	-8.8582
▁비해	-8.85976
▁규모	-8.85987
명을	-8.86038
▁이용	-8.86135
됐습니다	-8.8617
▁돈	-8.86612
지원	-8.86687
었다	-8.86714
▁하락	-8.86726
▁요구	-8.86933
S	-8.8696
▁셈이다	-8.87092
▁발생	-8.87124
금융	-8.87178
p	-8.87193
바	-8.87298
▁원내대표	-8.87335
▁하나	-8.87525
난	-8.87562
▁Copyright	-8.87587
▁2016	-8.87728
▁내일	-8.87803
피	-8.87927
▁금융	-8.87957
▁따른	-8.88011
네	-8.88066
▁처음	-8.88074
코리아	-8.88153
후	-8.8817
백	-8.88196
▁증가했다	-8.88321
▁했습니다	-8.88452
23	-8.88554
t	-8.88583
해서	-8.88596
▁예상	-8.88772
▁외	-8.88783
▁자동차	-8.89119
▁주택	-8.89146
▁예산	-8.89311
▁사진	-8.89334
▁선정	-8.8944
▁산	-8.89487
▁대학	-8.8956
▁기존	-8.89692
▁가능성이	-8.89766
▁사용	-8.8982
▁이들은	-8.89853
▁대출	-8.8995
▁SBS	-8.90213
▁합의	-8.90333
▁방송	-8.9043
▁생각	-8.9059
▁채용	-8.90599
▁하면	-8.9077
▁사람	-8.90862
디	-8.90862
입	-8.91113
겠다	-8.91127
▁저작권자	-8.91275
▁대응	-8.91348
▁가지	-8.91536
▁검찰은	-8.9161
▁오른	-8.91665
▁여러	-8.91746
에선	-8.91924
▁2011	-8.92235
규	-8.92311
▁생활	-8.9263
P	-8.92771
▁최종	-8.9288
▁집	-8.93007
르	-8.93123
▁31	-8.93309
▁대부분	-8.93506
▁낮	-8.93588
절	-8.93662
달러	-8.93677
▁우	-8.93741
▁성장	-8.93762
▁혐의로	-8.93797
▁70	-8.93946
▁전망이다	-8.94021
▁많다	-8.94042
▁타	-8.94043
▁징역	-8.94048
▁신고	-8.94327
▁울산	-8.94494
▁어	-8.94676
▁더욱	-8.94707
▁개	-8.94767
▁가능하다	-8.94813
▁공동	-8.94874
▁이들	-8.94892
▁2017	-8.95097
▁자신의	-8.95118
▁받아	-8.95175
▁총리	-8.95352
▁TV	-8.95685
▁피	-8.95926
▁만	-8.95932
광	-8.95961
▁시행	-8.96035
속	-8.96231
평	-8.96707
▁남북	-8.96801
▁이야기	-8.96904
▁달러	-8.96965
▁직원	-8.96979
▁문제는	-8.96983
▁앞	-8.97061
▁제품	-8.97187
▁통합	-8.97203
▁저는	-8.97205
▁조성	-8.9739
▁감소	-8.97477
외	-8.97499
▁경남	-8.97625
채	-8.97871
▁강조했다	-8.97948
▁놓고	-8.98023
되지	-8.98072
정책	-8.98266
력	-8.98317
▁기술	-8.98457
▁알	-8.98499
▁심	-8.98524
▁신청	-8.9858
▁방	-8.98718
▁나왔다	-8.98872
(2	-8.99024
하라	-8.99046
▁경영	-8.99254
량	-8.99437
명의	-8.99498
▁정부의	-8.99551
▁중단	-8.99581
▁공무원	-8.99768
시설	-8.99985
▁핵심	-9.00084
▁위반	-9.00121
▁가족	-9.00136
▁발견	-9.00144
▁총선	-9.00389
▁전망	-9.00485
▁할인	-9.005
▁살	-9.00712
월부터	-9.0076
▁정보	-9.00867
▁대형	-9.00872
▁실제	-9.00878
져	-9.0091
▁브랜드	-9.00953
▁여	-9.00972
▁외국인	-9.01172
▁후보는	-9.01202
▁열린	-9.0122
봉	-9.0139
▁사상	-9.01405
▁수입	-9.01543
▁여전히	-9.01674
▁건설	-9.0179
▁대신	-9.01985
▁200	-9.02054
항	-9.02087
조원	-9.0215
▁시간	-9.02236
업	-9.0237
▁올랐다	-9.02471
▁두고	-9.02568
▁같다	-9.02648
▁제가	-9.02655
▁구조	-9.02671
류	-9.02757
▁현	-9.02862
▁설치	-9.03126
▁특별	-9.03276
▁경찰에	-9.03553
▁청년	-9.03573
기도	-9.03664
▁전년	-9.03723
더	-9.03847
▁마련	-9.03866
B	-9.0398
린	-9.04168
▁열	-9.04198
▁어제	-9.04218
터	-9.04268
▁기자의	-9.04325
▁것입니다	-9.04476
▁마지막	-9.04481
▁활동	-9.04499
까	-9.04547
▁사실상	-9.04722
▁▷	-9.0474
그룹	-9.04744
▁전환	-9.04958
억원을	-9.04971
▁주민	-9.05036
▁돼	-9.05239
크	-9.0525
▁맞아	-9.05612
림	-9.05627
명은	-9.05839
▁적용	-9.05853
▁받을	-9.05915
▁길	-9.0593
▁통과	-9.05943
▁北	-9.06067
▁얘기	-9.06079
▁산업	-9.06083
G	-9.0621
▁선고	-9.06307
▁기대	-9.06321
▁매출	-9.06423
액	-9.06556
▁예	-9.06602
▁변호사	-9.0668
▁성공	-9.06685
▁★	-9.06726
목	-9.06729
C	-9.06794
▁대전	-9.06797
속보	-9.06808
년부터	-9.06881
업체	-9.06942
토	-9.0695
인데	-9.06981
▁보수	-9.0701
▁실시	-9.07079
색	-9.0714
▁문화	-9.07143
▁사장	-9.0716
▁찾아	-9.0727
▁확정	-9.07287
▁지급	-9.07439
▁공급	-9.07452
▁난	-9.07534
▁신규	-9.08096
▁내용은	-9.08106
▁어느	-9.08336
▁인근	-9.08354
각	-9.08697
...'	-9.08834
티	-9.08922
▁만들어	-9.08955
▁위	-9.09036
▁남성	-9.09113
▁전했다	-9.09151
▁우리나라	-9.09222
본	-9.09225
되면	-9.09356
문화	-9.09402
▁대책	-9.09523
▁대한민국	-9.09545
▁제대로	-9.09554
▁입장	-9.09577
▁검사	-9.09579
▁진	-9.09596
▁소환	-9.09682
▁공감	-9.09735
▁삼	-9.0975
▁중요한	-9.09755
▁과정에서	-9.09775
레	-9.09791
말	-9.09872
▁고용	-9.09891
▁전문	-9.09895
▁참	-9.09936
▁美	-9.09999
▁연구	-9.1001
▁나온다	-9.10095
▁몇	-9.10159
달	-9.10295
▁2010	-9.10387
투자	-9.10434
▁북	-9.10442
덕	-9.10469
▁대해서는	-9.10493
▁측은	-9.10628
코	-9.1064
래	-9.10647
▁가능	-9.11022
▁유지	-9.11168
▁계획	-9.1126
▁발	-9.11325
▁시민	-9.11419
▁500	-9.11741
▁않을	-9.1175
음	-9.11832
▁조정	-9.11961
▁1000	-9.11982
매	-9.12101
▁이달	-9.12168
▁경	-9.12379
▁방침이다	-9.1243
위원회	-9.12467
▁상황	-9.12509
만명	-9.1252
▁받는	-9.12667
▁은행	-9.12881
라인	-9.12885
▁김현정	-9.13045
▁마	-9.13135
▁모바일	-9.1315
가구	-9.13218
▁전달	-9.13325
북	-9.13338
▁국민의당	-9.13404
억원으로	-9.1346
▁지방	-9.13518
▁지금까지	-9.1354
▁특검	-9.13568
▁인터넷	-9.13572
▁금	-9.13576
▁이전	-9.13599
40	-9.13646
▁못했다	-9.13725
▁분석	-9.13734
▁월	-9.13756
▁공	-9.13828
윤	-9.13953
▁피해자	-9.13979
▁보도입니다	-9.14031
안전	-9.14042
▁인정	-9.14044
했지만	-9.14048
▁경북	-9.14056
함	-9.1426
▁내부	-9.14305
씨가	-9.14355
▁거래	-9.14386
▁구성	-9.14491
+	-9.14547
▁회사	-9.14675
▁관계자는	-9.14764
▁투표	-9.1478
병원	-9.14822
▁삼성전자	-9.1496
령	-9.14993
▁학생	-9.15069
▁갈	-9.15134
▁2000	-9.15267
하겠다	-9.15318
▁발언	-9.15383
▁온라인	-9.15393
▁설명했다	-9.15466
▁한다는	-9.15495
▁미세먼지	-9.15503
▁정말	-9.15518
▁상품	-9.15629
▁필요한	-9.15724
▁기록	-9.15762
팀	-9.15861
▁예정	-9.15893
▁만큼	-9.15896
됩니다	-9.15961
▁가능성	-9.16077
▁자세한	-9.1609
▁규제	-9.16099
프	-9.16451
랑	-9.16668
▁허	-9.16672
▁개혁	-9.16702
인데요	-9.17025
국민	-9.17036
▁입	-9.17051
▁전남	-9.17051
▁등에	-9.17124
▁해결	-9.17222
▁사과	-9.17251
출	-9.17262
▁걸	-9.17372
▁2018	-9.17462
▁촉구	-9.17477
▁분양	-9.17541
▁나섰다	-9.17656
학교	-9.17659
▁부인	-9.17807
▁출마	-9.17887
망	-9.18074
▁그동안	-9.18086
정보	-9.18183
▁개인	-9.18272
▁전해졌다	-9.18296
든	-9.18438
▁K	-9.18554
▁메르스	-9.18718
(3	-9.18758
▁기자	-9.18921
▁위원장	-9.18926
▁책임	-9.19029
경찰	-9.19124
▁확산	-9.19231
▁대화	-9.1928
▁도시	-9.19306
언론	-9.19312
▁모습	-9.19392
▁의원이	-9.19414
▁수도권	-9.19465
▁중소기업	-9.19649
숙	-9.19689
▁아침	-9.19754
▁밤	-9.19776
졌다	-9.19819
▁법원	-9.19874
자는	-9.20059
▁갖고	-9.20123
▁말씀	-9.20185
처	-9.20354
▁일단	-9.20408
▁300	-9.20412
▁창업	-9.20513
▁이동	-9.20515
기관	-9.20684
▁역대	-9.2071
▁긴급	-9.208
▁강원	-9.20815
▁모집	-9.20828
들에게	-9.20877
날	-9.20931
▁돈을	-9.20992
▁사퇴	-9.21262
▁번째	-9.21278
(0	-9.21489
하기도	-9.21503
▁건물	-9.21523
▁영향을	-9.21558
∼	-9.21632
▁상반기	-9.21824
▁만나	-9.21841
▁업무	-9.21893
▁환경	-9.22005
▁조금	-9.22137
새	-9.22279
▁미래	-9.22362
▁병원	-9.22489
▁있고	-9.22513
▁비판	-9.22527
주년	-9.22554
▁보이는	-9.22569
주의	-9.2267
회의	-9.2275
들도	-9.22771
▁발전	-9.22789
▁세상을	-9.22904
▁출신	-9.22946
500	-9.23068
0	-9.23069
년까지	-9.23207
▁등으로	-9.23274
▁찾은	-9.23316
▁고객	-9.23331
갑	-9.23332
▁홈페이지	-9.23363
▁매	-9.23481
▁폐지	-9.23508
▁참석	-9.23535
예	-9.23643
▁추석	-9.23808
▁민간	-9.23875
▁변	-9.23986
▁회복	-9.24005
s	-9.24012
▁처음으로	-9.2412
▁경쟁	-9.24134
▁지정	-9.24179
거나	-9.2418
▁가입	-9.24183
▁환자	-9.24228
▁기자회견	-9.24243
▁많았다	-9.24248
▁이유는	-9.24358
은행	-9.24628
▁한국당	-9.24632
▁법	-9.24822
▁취업	-9.24845
▁그대로	-9.24942
▁재배포금지	-9.24947
▁있는데요	-9.25005
▁일을	-9.25077
▁?"	-9.25112
▁이유	-9.25269
▁홍준표	-9.25462
▁내린	-9.25618
▁덧붙였다	-9.25679
▁인기	-9.25691
▁중인	-9.25705
19	-9.25765
▁있던	-9.25829
▁후보자	-9.25847
대회	-9.26045
▁소득	-9.26095
▁거의	-9.26101
▁알고	-9.26116
▁부담	-9.2612
▁인하	-9.26122
▁열린다	-9.26136
▁주식	-9.26271
겠습니다	-9.26306
▁김정은	-9.26311
▁복지	-9.26466
조사	-9.26613
▁출석	-9.26639
▁연장	-9.26712
▁10%	-9.26713
▁버스	-9.26832
▁박원순	-9.26997
▁영화	-9.27101
▁건강	-9.27104
▁출범	-9.27132
부산	-9.27168
하던	-9.27258
품	-9.27312
▁점검	-9.2743
▁계약	-9.27486
암	-9.2751
편	-9.27547
했고	-9.27595
송	-9.27605
단체	-9.27614
▁사람은	-9.27642
▁국정원	-9.2768
▁2009	-9.27698
▁더불어민주당	-9.2785
훈	-9.27856
▁압수수색	-9.27913
▁있기	-9.28068
▁꼭	-9.28071
울	-9.28075
씩	-9.28123
▁거죠	-9.2813
▁전문가	-9.28182
했다고	-9.28246
▁확보	-9.28265
▁회의	-9.2828
▁입장을	-9.283
▁검거	-9.28332
락	-9.28347
”...	-9.28403
K	-9.28445
▁협상	-9.28486
질문	-9.28654
즈	-9.28706
▁협력	-9.28784
▁들	-9.28907
▁공천	-9.29143
▁국회의원	-9.29262
▁적발	-9.29407
▁80	-9.2952
▁정상	-9.29536
▁줄었다	-9.29545
▁가격은	-9.29563
책	-9.29623
▁매년	-9.29636
▁C	-9.29644
▁주변	-9.2976
▁못한	-9.29762
▁각종	-9.29853
▁나서	-9.2991
▁열어	-9.29952
▁사진은	-9.30017
▁오히려	-9.30029
▁인수	-9.30137
위원장	-9.30144
▁정확한	-9.30201
줄	-9.30257
추	-9.30292
▁연간	-9.30353
▁자유한국당	-9.30391
▁금리	-9.30458
M	-9.30484
▁지속	-9.30511
▁않아	-9.30651
▁말을	-9.3067
▁사이	-9.30734
▁매우	-9.30873
▁우리가	-9.30951
▁실적	-9.30996
▁대표가	-9.31041
경향포토	-9.31142
▁되면	-9.31255
▁활용	-9.31262
홍	-9.31275
▁혁신	-9.31319
변	-9.31327
▁==========	-9.31332
한다는	-9.31443
▁어린이	-9.31548
▁D	-9.31594
▁수밖에	-9.31665
▁넘는	-9.31668
▁이와	-9.31676
▁거쳐	-9.3171
▁정당	-9.31724
▁대기업	-9.31743
풍	-9.31794
▁천	-9.31843
▁낮은	-9.3191
하자	-9.31952
▁중심으로	-9.32037
찬	-9.32045
▁반발	-9.32186
▁광고	-9.32204
▁대상으로	-9.32208
▁내가	-9.32229
▁재정	-9.32233
▁수준이다	-9.32298
▁코스피	-9.32313
▁같이	-9.32331
옥	-9.32368
정치	-9.32368
▁유럽	-9.32425
▁개정	-9.32494
11	-9.32533
기술	-9.32545
▁폭행	-9.32654
▁없습니다	-9.32789
▁문제를	-9.32919
님	-9.33069
▁나는	-9.33097
▁구매	-9.3319
▁선언	-9.33315
▁위기	-9.3333
탄	-9.33332
▁됩니다	-9.33401
▁朴	-9.33422
기를	-9.33473
▁주말	-9.33646
▁예상된다	-9.33655
▁지지	-9.33677
▁되고	-9.33685
투	-9.33833
▁있도록	-9.33953
▁스스로	-9.34004
▁보도	-9.34111
▁업체	-9.34148
▁논란이	-9.34164
▁주장	-9.34234
▁선물	-9.34397
친	-9.34442
고요	-9.34509
▁구축	-9.34553
사회	-9.34556
▁권	-9.34622
▁아이	-9.34674
율	-9.34803
▁만든	-9.34805
▁청구	-9.34838
▁상태다	-9.34906
▁文	-9.34926
▁△	-9.34948
▁제안	-9.34964
▁유통	-9.35066
▁영상	-9.3512
만원을	-9.35167
▁신임	-9.35259
▁정도로	-9.35281
▁포함	-9.35303
▁어려운	-9.35307
▁보니	-9.35325
▁소송	-9.35367
▁해도	-9.35388
결	-9.35389
▁향후	-9.35414
15	-9.35454
▁전북	-9.355
독	-9.35543
손	-9.3572
▁에너지	-9.35752
▁절반	-9.35849
▁20%	-9.36
▁해서	-9.36064
▁노력	-9.36065
▁카드	-9.36075
▁나라	-9.36076
총	-9.362
▁스마트폰	-9.36264
회사	-9.3627
▁FTA	-9.36272
가지	-9.36332
▁이벤트	-9.36747
▁시도	-9.36802
서비스	-9.36825
이란	-9.3688
▁범죄	-9.3704
▁걱정	-9.37061
13	-9.37147
▁2008	-9.37292
▁체험	-9.373
루	-9.37442
돈	-9.37443
▁처벌	-9.37498
▁사람들이	-9.37621
▁접수	-9.37667
▁나온	-9.37679
▁필요하다	-9.37717
▁조직	-9.37778
▁야당	-9.37833
▁수는	-9.3802
담	-9.38025
▁관심이	-9.38029
씨의	-9.38069
▁30%	-9.38124
▁예방	-9.38192
▁제한	-9.38323
mbn	-9.38672
▁카톡	-9.38744
▁롯데	-9.38874
▁감사	-9.38889
▁왔다	-9.38938
▁시작했다	-9.38974
▁기준으로	-9.39054
▁설립	-9.39105
▁돌파	-9.39107
▁전날	-9.39143
▁불이	-9.39145
▁넘어	-9.39167
▁호	-9.39202
▁체결	-9.39231
▁KT	-9.39268
▁일정	-9.39374
···	-9.39436
▁홍보	-9.3945
향	-9.39536
기사문의	-9.39538
▁보장	-9.39678
▁실제로	-9.39692
▁※	-9.39708
▁스	-9.39784
자가	-9.39795
▁요청	-9.3984
▁보험	-9.39857
삼	-9.3989
▁참사	-9.40014
마다	-9.4008
▁전략	-9.40147
▁전면	-9.40148
▁얼마나	-9.4016
▁과거	-9.40192
▁적극	-9.40253
▁노인	-9.40404
▁적	-9.40478
▁태풍	-9.40516
▁전혀	-9.40523
mm	-9.40627
12	-9.40646
g	-9.40701
(4	-9.40754
▁보이고	-9.40822
공사	-9.40845
냐	-9.40848
e	-9.40859
▁높다	-9.41117
이었습니다	-9.41266
▁장애인	-9.41337
▁기소	-9.41365
▁등록	-9.41369
▁이명박	-9.41376
▁취임	-9.41396
▁처음이다	-9.41449
▁재판	-9.41458
▁그러니까	-9.415
카드	-9.41625
우리	-9.41667
도로	-9.4171
▁vs	-9.41718
박근혜	-9.41807
▁판단	-9.41817
원으로	-9.41828
70	-9.41831
이며	-9.41837
▁재개	-9.41857
▁늘어	-9.42012
▁제출	-9.42042
▁민주	-9.42087
▁암	-9.4213
립	-9.42138
경기	-9.42171
격	-9.42225
▁보호	-9.42307
▁50%	-9.42359
버	-9.42366
수사	-9.42371
▁선택	-9.42404
막	-9.42413
▁늘어난	-9.42416
▁상황이	-9.4243
▁의사	-9.42483
▁소비	-9.42501
▁있게	-9.42502
료	-9.42609
▁차례	-9.42824
▁채널	-9.42845
작	-9.42867
연합뉴스	-9.42907
▁올라	-9.42931
▁또는	-9.42982
▁말이	-9.43071
▁☎	-9.43121
으면	-9.43146
▁이게	-9.43174
25	-9.43261
▁거부	-9.43278
▁기부	-9.43291
▁감소했다	-9.43312
▁한반도	-9.43338
▁리	-9.43345
▁바랍니다	-9.43401
▁경선	-9.43611
▁주목	-9.43749
▁팔	-9.43749
▁사기	-9.43843
▁편	-9.43909
▁비리	-9.4393
▁김무성	-9.43974
▁中	-9.4398
▁완화	-9.44026
▁여기에	-9.44108
▁화	-9.44134
▁공장	-9.44302
北	-9.44319
▁매각	-9.44361
▁소비자	-9.44402
▁달라	-9.44425
애	-9.4449
대학	-9.445
▁수능	-9.44599
키	-9.44619
▁고발	-9.44646
▁상대로	-9.44685
▁변경	-9.44696
보험	-9.44841
였습니다	-9.44848
▁결혼	-9.45064
곡	-9.45118
▁청	-9.45133
...“	-9.45156
▁창	-9.45237
▁MBC	-9.4533
▁좋다	-9.45342
▁행정	-9.45362
▁북한의	-9.45405
▁때는	-9.45521
촌	-9.45558
▁현대	-9.45664
▁자기	-9.45676
▁공사	-9.45698
▁0	-9.45728
▁측	-9.45875
▁타고	-9.45916
▁관계	-9.45951
개발	-9.45992
▁한번	-9.46002
▁시각	-9.46014
▁트럼프	-9.46025
사고	-9.46074
▁청소년	-9.46096
대가	-9.46103
▁강남	-9.46182
▁시간이	-9.46194
▁진출	-9.46277
▁기사제보	-9.46287
▁G	-9.46339
거리	-9.46366
▁집회	-9.46473
▁배치	-9.46611
▁작은	-9.46622
▁충북	-9.46738
별로	-9.46821
▁마무리	-9.46821
폭	-9.46859
월까지	-9.46872
▁위험	-9.46938
▁요즘	-9.46947
▁기관	-9.46959
▁받는다	-9.46972
▁씨가	-9.46985
▁공약	-9.4699
▁35	-9.47122
▁따라서	-9.47125
5000	-9.47132
▁감	-9.47181
▁취소	-9.47302
위를	-9.47337
▁역사	-9.47367
필	-9.47373
▁정관용	-9.47404
▁쉽게	-9.47588
▁CJ	-9.476
▁노조	-9.47666
▁무슨	-9.47688
▁전화	-9.47751
▁영	-9.47789
▁한다고	-9.47869
▁원전	-9.47882
60	-9.48029
▁갈등	-9.48058
▁세계일보	-9.48091
▁친	-9.48286
대상	-9.48286
▁탄핵	-9.48412
▁증가한	-9.48551
▁비상	-9.48564
▁점	-9.48568
▁시험	-9.48621
▁시기	-9.48646
▁그러면	-9.48648
익	-9.48676
▁늘	-9.48821
▁상승했다	-9.48858
▁그의	-9.48868
의원	-9.48952
▁유출	-9.48976
▁나와	-9.48984
▁☞	-9.49035
▁조치	-9.49066
▁보입니다	-9.49213
▁시대	-9.4924
▁인	-9.49246
▁내용을	-9.49296
▁비가	-9.4933
▁모습을	-9.49461
▁숨진	-9.4948
50	-9.49519
▁마을	-9.4967
장을	-9.49732
▁후보가	-9.49745
협회	-9.49782
▁치료	-9.49795
▁단지	-9.49837
▁교통	-9.49932
▁이러한	-9.49934
▁조사를	-9.49985
▁가구	-9.49987
세대	-9.50061
왕	-9.50073
▁명이	-9.5011
▁도로	-9.50152
▁뭐	-9.50168
▁영업	-9.50171
▁눈에	-9.50201
▁겨울	-9.50275
▁연기	-9.50285
▁통	-9.50333
▁있지만	-9.50467
▁순	-9.50503
▁주장했다	-9.50655
▁의견	-9.50682
▁그러면서	-9.50733
▁달리	-9.50773
▁무료	-9.50773
업계	-9.50779
▁관심	-9.50959
한다고	-9.51023
워	-9.51029
▁희망	-9.51067
원에	-9.51073
▁많아	-9.51182
탈	-9.51255
갈	-9.51367
▁관심을	-9.51386
▁훈련	-9.51415
▁회장은	-9.5144
5%	-9.51542
▁독일	-9.51552
24	-9.51623
라며	-9.51664
도록	-9.51708
▁분야	-9.5184
▁아들	-9.51963
│	-9.51967
▁여름	-9.51981
▁기념	-9.51992
▁경찰이	-9.51996
→	-9.51998
▁실	-9.52024
▁시설	-9.52117
▁가지고	-9.52242
▁활성화	-9.52435
▁충돌	-9.52462
▁자금	-9.52474
▁소속	-9.52483
▁관광	-9.52511
▁막	-9.52526
전자	-9.52572
▁안에	-9.52613
▁내용	-9.52614
경영	-9.52667
▁게임	-9.52731
100	-9.52775
▁판	-9.52776
▁운동	-9.52788
데요	-9.52802
▁jebo	-9.52895
주는	-9.5294
▁없다는	-9.53003
▁매장	-9.53013
이고	-9.5304
▁애	-9.5312
18	-9.532
되면서	-9.53373
하나	-9.53456
▁역할을	-9.53478
긴	-9.53481
▁쉽지	-9.53506
▁교체	-9.53585
▁못하고	-9.53588
률	-9.5365
▁발사	-9.53652
▁인해	-9.5366
▁관련해	-9.53664
지도	-9.53674
▁고민	-9.53734
▁가는	-9.53735
▁변화	-9.53815
▁투입	-9.53837
▁출발	-9.53884
▁제기	-9.53989
▁영향	-9.54046
▁기억	-9.54232
▁현대차	-9.54233
▁주로	-9.54319
는데요	-9.54451
▁추	-9.54469
▁강원도	-9.54477
▁충남	-9.54509
▁전기	-9.5459
▁단속	-9.54714
키로	-9.54723
▁지하철	-9.54731
▁자체	-9.54771
▁우리는	-9.548
▁민	-9.54852
만원으로	-9.5491
기간	-9.5492
씨를	-9.54923
▁개편	-9.5496
균	-9.54973
▁수준	-9.54997
생활	-9.55047
▁서울대	-9.55071
건설	-9.55116
▁지진	-9.55149
세월호	-9.55208
▁진행된다	-9.55297
▁도전	-9.55321
글	-9.55336
▁사전	-9.5534
(5	-9.55345
▁발생한	-9.55363
▁사회적	-9.55412
▁반응을	-9.55515
▁조사하고	-9.55545
▁與	-9.55603
▁공모	-9.55604
척	-9.55635
▁밝혔습니다	-9.55735
▁靑	-9.55805
▁굉장히	-9.55838
▁부르는	-9.55915
▁나머지	-9.55935
호선	-9.56036
측	-9.56074
▁딸	-9.56139
▁있지	-9.56148
▁의심	-9.56151
▁단체	-9.56207
▁같습니다	-9.56225
▁참가	-9.56232
하겠다는	-9.5626
▁종합	-9.56279
▁교사	-9.56367
▁뉴시스통신사	-9.56498
▁대규모	-9.56522
▁원을	-9.56527
▁임명	-9.5658
200	-9.56588
차례	-9.56659
평가	-9.56736
인사	-9.56749
▁자리	-9.56852
주택	-9.57088
너	-9.57111
▁□	-9.57184
16	-9.57255
▁공공	-9.57332
보다는	-9.57337
▁지적	-9.57382
▁유승민	-9.57504
▁○	-9.57522
▁사는	-9.57603
들과	-9.57618
▁外	-9.57765
▁중앙	-9.57817
17	-9.57841
▁하다	-9.57856
▁그룹	-9.57859
▁미디어	-9.57883
▁야	-9.57911
▁피의자	-9.57965
▁최저임금	-9.57973
▁한미	-9.58
▁오픈	-9.58008
로부터	-9.58073
▁곳이	-9.58097
▁근무	-9.58206
▁연휴	-9.58211
▁자료	-9.58263
▁크다	-9.58276
▁신설	-9.58282
▁반영	-9.58348
▁여행	-9.58349
인지	-9.58384
▁습관	-9.58417
▁보내	-9.58439
▁대폭	-9.58484
▁발행	-9.58504
악	-9.58533
릴	-9.58547
▁지하	-9.58643
▁내려	-9.58716
▁범행	-9.58835
▁총장	-9.58894
▁한국경제	-9.58919
▁베트남	-9.5895
▁사랑	-9.58982
▁마감	-9.58997
14	-9.59126
▁추천	-9.59145
▁반드시	-9.59285
▁가동	-9.59351
▁운행	-9.59393
▁있는데	-9.59411
▁통일	-9.59418
▁조사됐다	-9.59431
▁힘	-9.59434
▁현지	-9.59446
▁비슷한	-9.59512
▁가을	-9.59573
▁이하	-9.59699
▁수가	-9.59725
기준	-9.59736
제도	-9.59764
▁부상	-9.59803
▁시스템	-9.59821
북한	-9.59914
대표	-9.6005
운동	-9.60081
▁곧	-9.60098
▁이유로	-9.6023
▁곳	-9.60252
▁커	-9.60286
▁잇따라	-9.60316
단계	-9.60337
인당	-9.60379
소득	-9.60382
▁최순실	-9.60419
값	-9.60438
▁재산	-9.60462
▁디자인	-9.60464
대를	-9.60513
▁것이라는	-9.60597
주기	-9.60678
▁청문회	-9.60679
▁내달	-9.60686
▁전용	-9.60723
▁아시아	-9.60771
축제	-9.60773
▁도심	-9.60905
▁벌	-9.60984
▁본격	-9.61047
▁압박	-9.61071
▁장기	-9.61172
▁제도	-9.61183
▁효과	-9.61208
▁관계자	-9.61312
올	-9.61321
▁급증	-9.61343
▁치	-9.61358
▁병	-9.61361
▁교	-9.61404
▁달한다	-9.61485
▁최저	-9.61508
▁근로자	-9.61605
▁서로	-9.61765
▁약속	-9.61771
▁인도	-9.61826
▁가까이	-9.6184
▁지방선거	-9.61901
개국	-9.61907
▁프로그램	-9.61954
▁목	-9.62027
검사	-9.62052
▁축소	-9.62054
▁만드는	-9.62125
300	-9.62297
없이	-9.62304
▁부족	-9.62311
언	-9.62319
▁파	-9.62327
▁외부	-9.62339
kg	-9.62414
↑	-9.62426
공원	-9.62457
▁기본	-9.62471
▁이른바	-9.6249
▁보다	-9.62524
’...	-9.62533
▁다음달	-9.62546
▁최초	-9.62674
충	-9.6271
합	-9.62736
▁집계됐다	-9.62754
▁펀드	-9.62845
▁●	-9.62859
브	-9.62863
▁나오고	-9.62884
여성	-9.63052
대책	-9.63092
▁정상회담	-9.63102
국회	-9.63235
▁나선	-9.63281
▁간담회	-9.63287
▁작업	-9.63317
▁가능한	-9.63568
어요	-9.63589
▁이번에	-9.63702
▁창출	-9.6386
▁되지	-9.63878
마을	-9.6388
▁前	-9.63909
▁공연	-9.63943
▁북한이	-9.63985
위는	-9.63989
검찰	-9.64017
환경	-9.64041
▁하반기	-9.64064
▁호남	-9.6416
▁유치	-9.64206
때	-9.64277
▁자산	-9.6439
▁언급	-9.64407
여명	-9.64447
▁M	-9.64483
▁AI	-9.6458
▁..."	-9.64595
21	-9.64605
▁누가	-9.64686
▁넘게	-9.64737
국가	-9.64775
▁상담	-9.64796
▁못해	-9.64797
▁등은	-9.6482
▁한국의	-9.64833
▁언론	-9.64907
▁새벽	-9.64918
▁핵	-9.64921
▁증시	-9.64926
▁헤럴드경제	-9.64976
▁전에	-9.65013
▁발생했다	-9.65084
biz	-9.65086
▁당장	-9.6513
▁어렵다	-9.65163
▁전력	-9.65195
▁착수	-9.65204
▁호텔	-9.65228
▁하락했다	-9.65254
▁의료	-9.65265
▁협의	-9.65284
▁아울러	-9.65287
▁사고로	-9.65292
▁부과	-9.65305
라도	-9.65322
▁징계	-9.65358
이라	-9.65373
지구	-9.65385
▁조기	-9.65401
▁차지했다	-9.65407
사건	-9.65469
▁환율	-9.65505
니까	-9.65522
L	-9.65557
▁표현	-9.65566
▁임금	-9.65611
▁의장	-9.65643
상품	-9.65652
▁영국	-9.65676
▁대학생	-9.65726
▁뿐	-9.65733
▁않습니다	-9.65763
▁국회에서	-9.65858
▁당선	-9.65947
▁소통	-9.65978
1%	-9.66007
▁예고	-9.66034
▁성과	-9.6611
▁여러분	-9.66142
▁세금	-9.66171
▁가격이	-9.66181
▁부분	-9.66191
거래	-9.66294
▁곳은	-9.66348
▁지자체	-9.66351
26	-9.66442
활동	-9.66573
▁허용	-9.66635
전략	-9.66716
▁아주	-9.66733
▁임원	-9.66794
▁설명	-9.66897
방송	-9.66904
▁회담	-9.66948
욱	-9.66957
▁지적했다	-9.67001
▁준	-9.67005
▁잘못	-9.67104
▁진행한다	-9.67118
복지	-9.67174
▁부실	-9.67193
▁쓰	-9.67265
혁신	-9.67308
▁새해	-9.67321
빈	-9.67378
년에	-9.67422
▁나눠	-9.67423
▁떨어졌다	-9.67462
▁혐의를	-9.67483
재단	-9.67489
헌	-9.67498
▁다소	-9.67574
▁동아닷컴	-9.6763
대출	-9.6769
뿐	-9.67694
▁러시아	-9.67838
▁주는	-9.67879
▁사드	-9.67896
▁동시에	-9.67912
▁이상의	-9.6802
취	-9.68096
▁아동	-9.68121
견	-9.68134
▁해소	-9.6819
었습니다	-9.6819
▁실패	-9.68375
▁책	-9.68459
://	-9.68471
▁제작	-9.68515
제보	-9.68527
▁미국의	-9.68569
자금	-9.686
‘	-9.68702
▁통한	-9.68735
▁인한	-9.68741
▁코스닥	-9.68962
▁상황이다	-9.69007
▁앞둔	-9.69013
▁새로	-9.69021
▁대회	-9.69046
▁90	-9.69083
▁특수	-9.69098
▁법정	-9.69169
▁대해서	-9.69186
cm	-9.69212
듯	-9.69256
▁수상	-9.69379
▁늘고	-9.69401
▁판결	-9.69422
▁문을	-9.69436
▁인구	-9.69443
본부	-9.69478
▁국민의	-9.69683
▁목표	-9.69735
지방	-9.69747
으며	-9.69771
시부터	-9.69841
중국	-9.69849
▁심사	-9.69979
년만에	-9.69982
이면	-9.69991
▁고속도로	-9.70032
몰	-9.70071
▁씨의	-9.70073
▁대해서도	-9.70077
800	-9.70089
▁그게	-9.7017
관계	-9.70242
▁여의도	-9.70249
네요	-9.70309
▁회동	-9.70408
참	-9.70431
▁축제	-9.70436
▁이사장	-9.70457
▁꽃	-9.70491
▁본다	-9.70522
▁육성	-9.70559
▁선박	-9.70771
▁코	-9.70855
▁망	-9.70875
▁여부	-9.70892
최	-9.70895
▁있어요	-9.70904
▁앱	-9.70913
▁높았다	-9.70939
귀	-9.7095
▁평화	-9.70991
하도록	-9.71008
▁음식	-9.71011
▁찾는	-9.71044
▁herald	-9.71051
▁승리	-9.71074
▁확인할	-9.71105
▁KB	-9.71117
▁취재했습니다	-9.71141
▁식품	-9.71148
27	-9.71208
왔다	-9.71309
문재인	-9.71349
지수	-9.71387
▁제시	-9.71451
▁직	-9.71466
▁노동	-9.71516
▁전쟁	-9.71533
8%	-9.71571
행사	-9.71667
▁없다고	-9.71669
▁택시	-9.71729
▁영어	-9.71731
▁결과를	-9.71775
알	-9.71803
아이	-9.71832
▁사고가	-9.71861
인가	-9.71866
▁발표했다	-9.71889
▁사실을	-9.71965
성공을	-9.72016
▁위협	-9.72076
았다	-9.721
성을	-9.72132
▁들고	-9.72139
계획	-9.72165
천만	-9.72394
▁새누리	-9.72445
▁순간	-9.72463
버스	-9.72464
▁탈당	-9.72549
▁동기	-9.72598
▁2007	-9.72607
▁조선	-9.72633
▁복	-9.72655
▁김씨는	-9.72668
▁45	-9.72676
▁野	-9.72677
▁서울시장	-9.72688
발전	-9.72703
▁강한	-9.72824
▁공공기관	-9.72826
기로	-9.72828
▁찬성	-9.72886
28	-9.73049
egye	-9.73057
였던	-9.73128
H	-9.73166
▁봄	-9.73176
술	-9.73185
▁포	-9.73246
▁되	-9.73296
y	-9.73319
▁스마트	-9.73347
▁회원	-9.73386
훈련	-9.7339
되어	-9.7348
착	-9.73501
▁상태	-9.73539
▁싶다	-9.73667
(6	-9.73702
R	-9.73705
▁어린이집	-9.73712
▁의견을	-9.73795
9%	-9.73802
▁의미	-9.73928
▁5000	-9.73968
▁귀	-9.74043
▁진입	-9.7416
선거	-9.74161
▁외교	-9.74166
번째	-9.7421
▁자유	-9.74222
섭	-9.74228
▁생각이	-9.74233
22	-9.74267
▁것이라고	-9.74279
▁여당	-9.743
▁규모의	-9.74329
▁국	-9.74345
▁부총리	-9.74405
▁행복	-9.74521
▁떨어진	-9.74575
▁앞에	-9.74588
▁힘을	-9.7462
▁40%	-9.74841
▁높아	-9.74972
▁제재	-9.74978
▁통제	-9.75069
▁물가	-9.75133
▁코리아	-9.7526
▁적이	-9.75306
▁박지원	-9.75339
▁질	-9.75354
▁날씨	-9.75465
▁우수	-9.75513
▁악화	-9.75513
노조	-9.75556
▁수석	-9.7556
▁정권	-9.75656
F	-9.75693
조차	-9.75705
골	-9.75763
▁검증	-9.75784
▁동아일보	-9.75788
▁없을	-9.75797
하거나	-9.75804
월에	-9.75817
조선	-9.75842
년대	-9.75875
퍼	-9.75886
▁한국인	-9.75909
▁상황을	-9.75951
▁쌀	-9.7601
▁무려	-9.76025
▁리포트	-9.76123
▁강조	-9.7615
장이	-9.76155
족	-9.76206
▁마케팅	-9.76227
▁상당히	-9.7625
▁캠페인	-9.76283
오늘	-9.76302
문제	-9.76355
▁경향신문	-9.76394
▁인력	-9.76452
▁동의	-9.76465
볼	-9.76487
공장	-9.76523
▁담	-9.76534
▁포인트	-9.76535
▁원인	-9.76576
▁계열사	-9.76581
▁빨리	-9.76594
▁입주	-9.76599
600	-9.7661
학과	-9.76654
▁영장	-9.76656
▁통화	-9.76666
n	-9.76694
가량	-9.76696
▁중요하다	-9.76768
스트	-9.76778
▁저녁	-9.76792
▁자연	-9.768
▁33	-9.76816
▁생각한다	-9.76822
▁종	-9.76825
돌	-9.76843
▁아니	-9.76917
i	-9.76924
▁만난	-9.76937
▁불러	-9.7697
▁집단	-9.76984
▁수치다	-9.7701
현장	-9.77027
▁규정	-9.77044
거든요	-9.77084
패	-9.77109
▁인식	-9.7718
▁직후	-9.77193
▁|	-9.77225
▁이번이	-9.7724
▁만족도	-9.77257
▁글	-9.77257
4%	-9.77257
▁가진	-9.77294
▁수용	-9.77372
▁야권	-9.77395
▁연결	-9.77423
▁지금은	-9.77464
▁역	-9.77478
▁개입	-9.77538
▁생	-9.77587
▁낸	-9.77608
▁뜻	-9.77618
기가	-9.77686
황	-9.77686
▁배우	-9.77707
▁석	-9.77731
▁자주	-9.77766
천만원	-9.77832
▁지분	-9.77837
▁달했다	-9.78043
▁70%	-9.78084
▁열고	-9.781
▁살해	-9.78117
▁답했다	-9.78139
29	-9.78157
했을	-9.78158
▁수색	-9.78222
▁檢	-9.78226
▁훨씬	-9.78244
▁앞에서	-9.78245
니다	-9.783
▁필요가	-9.78309
▁그렇다면	-9.78334
▁자살	-9.78346
▁방안	-9.78375
▁가정	-9.78401
▁법안	-9.78501
스타	-9.78532
▁의원의	-9.78551
▁제조업	-9.78569
▁상장	-9.78638
학년	-9.78691
택	-9.78695
▁백화점	-9.78787
▁100%	-9.78831
7%	-9.78867
▁가량	-9.7899
▁설계	-9.79031
장관	-9.79062
▁추가로	-9.79072
o	-9.79132
▁그쳤다	-9.79143
▁참석한	-9.79159
▁원장	-9.79187
▁외국	-9.79286
습	-9.79298
▁전시	-9.79321
▁나올	-9.79332
▁만들	-9.79459
죄	-9.79512
▁황교안	-9.79532
▁거예요	-9.7967
l	-9.79741
▁공격	-9.79742
▁150	-9.79747
링	-9.79783
등급	-9.79847
▁그만큼	-9.7986
세요	-9.79896
개혁	-9.79903
▁안보	-9.79927
▁탄	-9.79934
▁1%	-9.79934
▁국민연금	-9.79935
명이다	-9.79941
▁지시	-9.79954
▁인권	-9.79973
▁이사	-9.80018
▁정치적	-9.80037
▁선발	-9.80113
2%	-9.80116
▁얼마	-9.80204
▁따	-9.80213
▁기사	-9.80282
협력	-9.80313
U	-9.80386
연구원	-9.80399
▁대표적인	-9.80534
▁그냥	-9.80545
▁32	-9.80579
▁조작	-9.80591
▁완료	-9.8066
▁유명	-9.80672
▁지도부	-9.8069
▁미사일	-9.8075
▁중심	-9.80797
6%	-9.80832
▁한나라당	-9.80911
▁모델	-9.80915
세계	-9.80925
▁커피	-9.80928
▁촬영	-9.80964
단독	-9.80982
법인	-9.81009
례	-9.81014
구조	-9.8106
▁대통령과	-9.8107
▁공정위	-9.81105
▁사태	-9.81132
▁사업을	-9.81197
▁고려	-9.81201
▁냈다	-9.81209
▁국정	-9.81216
▁<<	-9.81266
(7	-9.81286
▁검찰에	-9.81425
▁부진	-9.81437
▁경우가	-9.81511
▁무죄	-9.81523
▁죽	-9.81537
춘	-9.81625
▁평	-9.8166
▁차이가	-9.81694
분의	-9.81731
▁부회장	-9.8177
▁질문	-9.81795
▁정치권	-9.81805
▁맞는	-9.81809
축	-9.81879
▁선임	-9.8194
▁국방부	-9.81993
▁내렸다	-9.8204
▁불과	-9.82084
3%	-9.82132
▁업계	-9.82132
▁?'	-9.82149
▁비용	-9.82202
O	-9.82225
▁불안	-9.82315
▁검찰이	-9.82328
▁개막	-9.82398
▁주문	-9.82422
단지	-9.82456
▁분위기	-9.82492
과의	-9.82517
▁기회	-9.82656
완	-9.82694
T	-9.82779
돈이	-9.8281
▁규모는	-9.82811
▁그때	-9.82818
▁대표의	-9.82823
▁경험	-9.82867
▁기획	-9.82868
▁JTBC	-9.82947
▁이슈	-9.82973
시민	-9.82985
▁프랑스	-9.83043
▁비난	-9.83049
▁눈길을	-9.83056
▁자녀	-9.83074
기는	-9.83141
▁개장	-9.83159
년째	-9.83172
▁폭발	-9.83188
▁언제	-9.83278
▁초청	-9.8328
▁거리	-9.83349
▁다르다	-9.83389
이지만	-9.83451
▁손학규	-9.83481
31	-9.83497
▁F	-9.83628
00	-9.83647
록	-9.83652
▁단독	-9.83658
▁용	-9.83721
▁차관	-9.8386
▁상대	-9.83904
시스템	-9.84108
▁인증	-9.84145
▁생각을	-9.8422
진다	-9.84256
▁전자	-9.84279
▁결제	-9.8432
▁유엔	-9.84374
포토뉴스	-9.8445
▁여자	-9.8446
처리	-9.84527
▁개통	-9.84531
▁않으면	-9.84541
▁맞	-9.84554
▁왕	-9.84572
하겠다고	-9.84618
겠다는	-9.84663
▁본격화	-9.84767
억원의	-9.84781
도시	-9.84803
▁토론회	-9.84886
▁추모	-9.84924
▁광	-9.84934
▁방안을	-9.85031
▁맞춰	-9.85066
했다는	-9.85096
삼성	-9.851
전문	-9.85109
▁떠나	-9.85121
▁운전자	-9.8513
▁이름	-9.85158
하여	-9.85177
국제	-9.852
▁체포	-9.85219
▁시절	-9.85221
▁고소	-9.85244
▁과정	-9.85255
▁속에	-9.85255
▁채택	-9.85353
▁싶은	-9.85366
▁관	-9.85385
▁파악	-9.85405
▁여부를	-9.85423
▁시간을	-9.85537
▁점을	-9.85643
명에	-9.85647
▁올해는	-9.8565
▁개성공단	-9.8567
▁중요	-9.85681
▁가능성도	-9.85687
▁강제	-9.858
▁시장은	-9.85826
2000	-9.85855
▁구입	-9.85933
녀	-9.85939
▁비정규직	-9.86017
▁나오는	-9.86065
▁65	-9.86074
▁이야기를	-9.86101
▁개방	-9.86101
▁보십니까	-9.86109
▁대체로	-9.86131
400	-9.86157
▁식	-9.86166
▁수주	-9.86215
녹취	-9.86266
▁--	-9.86289
▁승용차	-9.86328
포럼	-9.86397
▁농협	-9.86444
▁400	-9.86461
회장	-9.86496
▁길이	-9.86559
▁다음은	-9.86667
▁중구	-9.86685
▁친구	-9.86757
▁현금	-9.86762
▁대변인	-9.86831
▁대북	-9.86876
▁나선다	-9.86923
년에는	-9.86941
라면	-9.87041
▁3000	-9.87049
▁선출	-9.87186
E	-9.87206
안철수	-9.87217
▁안내	-9.87335
▁매일	-9.87394
▁피해를	-9.87397
▁국감	-9.8742
▁미리	-9.87437
▁법률	-9.87457
▁CCTV	-9.87486
▁제주도	-9.8752
W	-9.87551
▁부부	-9.8758
▁바른정당	-9.87599
▁사이에	-9.87637
▁병원으로	-9.87641
▁폭	-9.87694
▁벌금	-9.8772
▁일대	-9.87732
▁표	-9.87737
▁머니투데이	-9.87743
해도	-9.87788
▁차단	-9.87807
▁대한항공	-9.8781
받은	-9.87827
▁젊은	-9.87843
▁빈	-9.87868
▁수요	-9.8792
▁더민주	-9.87938
▁관광객	-9.87942
▁이들이	-9.8795
▁브리핑	-9.87964
▁전통	-9.87966
▁작성	-9.87978
90	-9.88032
있는	-9.88116
▁36	-9.88156
▁봐야	-9.8816
혁	-9.88183
▁마친	-9.88195
▁성폭행	-9.88268
▁감독	-9.88285
X	-9.88353
▁쓴	-9.88373
▁최고위원	-9.88452
▁수사를	-9.88453
펀드	-9.88465
▁술	-9.88528
일에는	-9.8853
▁토	-9.88536
호기	-9.88553
▁말고	-9.88561
▁남성이	-9.88567
▁남은	-9.88592
▁땅	-9.88593
권을	-9.88667
▁별	-9.88918
▁등도	-9.88929
정관용	-9.88933
▁승진	-9.88961
▁IT	-9.88968
▁마음	-9.88971
천원	-9.88996
▁오래	-9.89002
▁감사합니다	-9.89077
▁공부	-9.89097
▁같아요	-9.8914
없는	-9.89141
...‘	-9.89143
▁명의	-9.89213
농	-9.8933
시험	-9.89353
▁역할	-9.89364
▁이르면	-9.89374
▁과연	-9.89416
성이	-9.89436
금리	-9.89436
▁지지율	-9.89557
▁한강	-9.89625
렸다	-9.89669
▁둘	-9.89751
원을	-9.89773
▁소폭	-9.89801
▁마음을	-9.89804
▁공유	-9.8981
..	-9.89995
▁!'	-9.90016
700	-9.90141
▁P	-9.90163
이자	-9.90183
▁아닙니다	-9.90225
▁스포츠	-9.90364
▁받지	-9.90376
▁얘기를	-9.90388
학생	-9.90431
쪽	-9.90452
▁대법원	-9.90484
제품	-9.90507
▁있었던	-9.90513
▁교수는	-9.9053
▁입건	-9.90572
돼야	-9.90574
▁경고	-9.90594
▁편의점	-9.90629
▁지사	-9.90722
▁땐	-9.90728
▁준다	-9.90759
일간	-9.9077
▁올렸다	-9.90835
donga	-9.90838
▁시청자	-9.9085
▁꿈	-9.9085
꽃	-9.90903
▁갑자기	-9.90909
▁폐	-9.90912
▁출연	-9.90935
▁좋아	-9.90966
▁직업	-9.90998
하지만	-9.91021
▁이해	-9.91054
지고	-9.91081
▁구속영장	-9.91085
액은	-9.91101
▁풀	-9.91143
▁보통	-9.91188
▁부정	-9.91194
▁손을	-9.91194
▁캠프	-9.91203
▁34	-9.91228
▁달성	-9.91244
▁개헌	-9.91272
▁시작한	-9.91276
▁단일화	-9.91302
▁못하는	-9.91312
▁파업	-9.91324
▁귀국	-9.91372
기구	-9.91372
▁글을	-9.91378
▁안돼	-9.91406
가족	-9.9149
하겠습니다	-9.91497
▁부문	-9.91502
보호	-9.91551
▁성추행	-9.91556
▁합동	-9.91556
▁수술	-9.91572
분께	-9.91578
55	-9.91618
▁MB	-9.9163
▁보기	-9.9164
▁진화	-9.91655
"(	-9.9169
보고	-9.91708
▁없고	-9.91718
되기	-9.9179
신고	-9.9183
▁기업의	-9.9192
▁회장의	-9.91954
하세요	-9.91958
▁전주	-9.91974
▁카페	-9.92015
▁독	-9.9207
▁주고	-9.92188
▁법인	-9.92217
▁보유	-9.92227
▁선수	-9.92265
▁되어	-9.92301
▁제공한다	-9.92304
▁진보	-9.92349
▁정비	-9.92355
▁아래	-9.92378
▁후보의	-9.9243
▁끝	-9.92461
쯤	-9.9247
▁평양	-9.92531
▁무역	-9.92579
▁최초로	-9.92587
▁밝힌	-9.9259
▁시민들	-9.92598
▁관한	-9.92655
▁침몰	-9.92727
▁나누는	-9.92731
▁이들의	-9.92754
밥	-9.92802
▁종료	-9.92823
▁남자	-9.92882
▁특정	-9.9298
▁행동	-9.93038
▁않습니까	-9.93039
▁여론조사	-9.93149
▁하기	-9.93174
▁말한다	-9.93175
▁GS	-9.93185
▁누구	-9.93185
▁추정	-9.93211
▁대체	-9.93242
련	-9.93353
▁포항	-9.93373
▁직장	-9.93377
▁소식	-9.9339
▁자리를	-9.93419
▁구조조정	-9.93421
▁채권	-9.93468
▁주가	-9.93483
▁감염	-9.93488
▁밝혀	-9.93556
▁즉	-9.93566
▁격	-9.93607
▁부처	-9.93609
▁회장이	-9.93695
▁위로	-9.93704
▁얼굴	-9.93713
이라며	-9.93719
▁책임을	-9.93722
▁때문	-9.93732
▁증거	-9.93748
▁복귀	-9.93769
쳐	-9.93808
밀	-9.93809
▁초과	-9.9381
▁최소	-9.93827
▁日	-9.93861
▁라	-9.9389
▁R	-9.93936
▁정의당	-9.93951
▁대기	-9.94055
테	-9.94127
▁지나	-9.94159
▁소개	-9.94179
존	-9.94184
▁치료를	-9.94189
▁계정	-9.94273
▁집행	-9.94305
▁들었다	-9.94374
장은	-9.94453
슬	-9.94454
▁카	-9.94511
▁거듭	-9.94523
사는	-9.94536
▁위해서	-9.94541
▁드러났다	-9.94595
▁미만	-9.94612
▁담당	-9.94624
▁있었습니다	-9.94624
▁동물	-9.94676
▁현장에서	-9.94678
▁철도	-9.94718
▁사람들	-9.94766
위원	-9.94771
▁통신	-9.94861
▁둔	-9.94874
▁몸	-9.94926
▁의지	-9.95004
▁안정	-9.95049
▁향해	-9.95081
▁리얼타임	-9.9511
▁세대	-9.9512
▁확장	-9.95132
보수	-9.9514
▁보상	-9.95148
혜	-9.95174
▁답	-9.95182
▁시위	-9.9519
▁있을까	-9.95257
▁적지	-9.95272
▁파견	-9.95311
▁수준으로	-9.9533
노동	-9.95357
▁중국의	-9.95436
▁프리미엄	-9.95459
▁토론	-9.95468
▁프로젝트	-9.95475
폐	-9.95502
朴	-9.95542
▁이틀	-9.95648
N	-9.95664
▁남편	-9.95669
▁후원	-9.95669
▁할머니	-9.95707
▁실종	-9.95731
▁폐쇄	-9.95791
▁노무현	-9.95828
▁진술	-9.95932
▁어디	-9.95962
▁끝에	-9.96
▁마감했다	-9.96031
▁사람을	-9.96038
▁농가	-9.96041
▁가치	-9.96129
▁어려워	-9.96159
▁친환경	-9.96159
판매	-9.96182
▁주도	-9.96191
▁접근	-9.96276
▁반도체	-9.96279
▁자신이	-9.96316
느냐	-9.96318
▁운전	-9.96321
▁도움이	-9.96375
▁이른다	-9.9643
▁권력	-9.96481
▁규모다	-9.96505
이기도	-9.96557
▁명절	-9.96576
▁먹	-9.96588
k	-9.96609
▁공방	-9.96664
▁원칙	-9.96664
효	-9.96679
▁이유가	-9.9672
▁정리	-9.96768
▁가까운	-9.9681
▁촛불	-9.9699
대학교	-9.97001
▁주력	-9.97014
▁열려	-9.97023
▁창원	-9.97056
▁당초	-9.97074
투표	-9.97146
▁공간	-9.97248
관광	-9.97301
▁누구나	-9.97302
▁있으면	-9.97315
▁위안부	-9.97323
▁대표이사	-9.97396
식품	-9.97484
▁이같은	-9.97486
▁절대	-9.97508
▁됐습니다	-9.97545
으로부터	-9.9761
▁38	-9.97651
▁비중은	-9.97665
▁하는데	-9.97694
▁영업이익	-9.97738
▁잠시	-9.97769
낸	-9.97783
건으로	-9.97785
▁탓	-9.97799
곤	-9.97818
▁피부	-9.97882
지를	-9.97917
밖에	-9.9793
▁단계	-9.97981
▁들어가	-9.97997
▁꾸준히	-9.98014
증권	-9.98033
▁―	-9.98062
연구소	-9.98151
▁휴대전화	-9.98158
▁돌입	-9.98185
▁내고	-9.98229
▁대피	-9.9842
文	-9.98446
칠	-9.98457
▁방법	-9.98462
행위	-9.98484
▁구체적인	-9.98557
▁외교부	-9.98688
▁청주	-9.98688
▁이어질	-9.98712
커	-9.98828
잖아요	-9.98844
흥	-9.98856
침	-9.98903
▁해석	-9.98941
▁보여	-9.98954
▁하늘	-9.98975
개의	-9.98983
▁이중	-9.99114
▁접촉	-9.99119
▁2020	-9.99126
▁지연	-9.99199
앤	-9.99214
▁해경	-9.99214
▁#	-9.99232
마리	-9.99332
후보	-9.99341
▁마쳤다	-9.99383
▁법적	-9.99418
메	-9.99505
▁해명	-9.9951
가격	-9.99538
▁혼자	-9.99571
900	-9.99593
육	-9.99636
▁사실이	-9.99669
인천	-9.99677
▁있어야	-9.99682
만큼	-9.99685
▁걸쳐	-9.99762
▁붕괴	-9.99785
▁발의	-9.998
▁직장인	-9.99802
▁이래	-9.99812
▁소리	-9.99821
▁살인	-9.99869
▁본회의	-9.99928
▁열차	-9.9994
▁사건이	-9.99956
▁건립	-9.9998
▁열었다	-9.99984
▁차기	-10.0001
▁원하는	-10.0009
▁있나	-10.0011
▁포함해	-10.0011
▶	-10.0017
▁화장품	-10.0018
美	-10.0018
▁노후	-10.002
▁이어졌다	-10.002
▁면담	-10.0029
▁철거	-10.0035
▁철	-10.0036
▁오늘의	-10.0037
▁확인됐다	-10.0038
▁본사	-10.004
▁시신	-10.0043
대구	-10.0045
▁남아	-10.0046
▁노동자	-10.0049
▁높이	-10.005
다가	-10.005
▁CEO	-10.005
35	-10.0052
걸	-10.0058
더니	-10.0063
▁얘기다	-10.0063
극	-10.0068
45	-10.0069
▁세상	-10.0069
▁강릉	-10.0073
80	-10.0078
▁연다	-10.0078
▁열리는	-10.008
▁한경닷컴	-10.008
원이다	-10.0081
▁예약	-10.0082
서를	-10.0089
▁동원	-10.0091
▁간부	-10.0093
▁등장	-10.0101
▁지출	-10.0103
▁생각합니다	-10.0104
억원이	-10.0106
▁국민일보	-10.0106
▁기능	-10.0107
차량	-10.0107
▁질문에	-10.0115
▁상황에서	-10.0116
3000	-10.0116
▁유족	-10.0118
했는데	-10.0128
▁철회	-10.013
▁즉각	-10.0134
▁예정입니다	-10.0135
염	-10.0136
▁2019	-10.0137
▁밖에	-10.0138
▁연금	-10.0139
d	-10.0139
받는	-10.014
체제	-10.0141
올해	-10.0141
▁정상화	-10.0145
▁새정치민주연합	-10.0148
▁비율은	-10.0158
다는	-10.0158
a	-10.0158
▁엄마	-10.016
▁제외	-10.0163
▁60%	-10.0165
▁돈이	-10.0166
▁눈이	-10.0168
▁종목	-10.0168
▁실천	-10.018
▁키	-10.0183
▁이재명	-10.0185
▁위해서는	-10.0185
벌	-10.0186
▁쓸	-10.0187
▁법무부	-10.0188
▁처분	-10.0192
▁37	-10.0194
▁경향	-10.0194
▁그렇습니다	-10.0196
일본	-10.0196
▁포스코	-10.0205
▁완전히	-10.0217
▁정치인	-10.0217
▁5%	-10.022
▁자체가	-10.0227
▁발언하는	-10.0228
영상	-10.0229
▁H	-10.0235
▁제조	-10.0235
▁내용이	-10.0236
으	-10.0237
▁밀	-10.024
▁그가	-10.0246
▁반복	-10.0248
▁정기	-10.0251
▁강하게	-10.0253
▁통보	-10.0254
▁흑자	-10.0255
44	-10.0264
▁보안	-10.0267
▁따로	-10.0269
▁가득	-10.0276
기에	-10.0277
▁내수	-10.0278
▁아예	-10.0279
킹	-10.0282
▁해제	-10.0284
▁교통사고	-10.0288
▁도착	-10.0289
▁심각한	-10.0289
천억	-10.029
▁서비스를	-10.0304
▁판사	-10.0305
고용	-10.0305
▁중에	-10.0317
▁민주통합당	-10.0318
억달러	-10.0321
9000	-10.0325
▁노선	-10.0326
▁수원	-10.0329
▁적은	-10.033
▁페이스북	-10.0333
하려는	-10.0346
▁주의	-10.0348
억원에	-10.0353
▁관련된	-10.0354
▁요	-10.0364
츠	-10.0367
되	-10.0372
▁결과가	-10.0372
▁상가	-10.0374
▁방향	-10.0381
▁돌	-10.0385
있다	-10.0389
▁기업이	-10.0394
렌	-10.0394
▁현재까지	-10.0395
▁연말	-10.0398
V	-10.0399
▁풍	-10.0401
▁부분이	-10.0402
씨와	-10.0404
▁헌재	-10.0404
▁대형마트	-10.0406
▁교육부	-10.0406
▁추락	-10.0409
▁접	-10.041
대는	-10.0416
▁이상이	-10.0417
▁120	-10.0421
자세한	-10.0423
▁기각	-10.0424
▁공항	-10.0426
행정	-10.0426
▁떨어져	-10.0427
▁80%	-10.0428
▁ᆞ	-10.0444
▁아닌가	-10.0449
광주	-10.0453
▁작품	-10.0453
▁예비	-10.0457
▁불구속	-10.0461
년이	-10.0465
▁바람	-10.0467
49	-10.0469
▁급	-10.047
▁공포	-10.0475
▁본격적인	-10.0475
▁시작된	-10.0477
▁음악	-10.0478
▁담배	-10.0483
8000	-10.0487
▁*	-10.0492
▁원인을	-10.0495
분야	-10.0501
▁국무총리	-10.0504
으로는	-10.0508
▁강도	-10.051
협	-10.0513
나는	-10.0524
4000	-10.0527
▁무엇보다	-10.0529
)’	-10.0529
▁유치원	-10.0532
▁뜻을	-10.0535
시까지	-10.0537
▁개설	-10.0538
▁면	-10.054
▁도발	-10.0543
▁봤다	-10.0547
▁나가	-10.0549
▁시는	-10.056
▁임시	-10.0565
에게는	-10.0572
▁적자	-10.0572
시대	-10.0582
▁당일	-10.0584
하는데	-10.0584
위에	-10.0587
협의회	-10.0589
▁독도	-10.059
▁컸다	-10.059
▁식당	-10.0595
▁형	-10.0597
▁입학	-10.0609
▁입장이다	-10.0613
이죠	-10.0615
▁비중이	-10.0616
수록	-10.0616
▁항공	-10.0617
▁시장의	-10.062
▁횡령	-10.0625
▁예측	-10.0625
▁누적	-10.0637
▁인재	-10.0637
▁예산안	-10.0638
검	-10.0639
조치	-10.064
한테	-10.0649
▁경제를	-10.065
▁과제	-10.0654
▁교육감	-10.0664
▁위원장은	-10.0665
▁시장에	-10.0666
예산	-10.0666
이었던	-10.0672
▁메	-10.0676
▁시사	-10.0676
▁승인	-10.0677
▁종편	-10.068
제주	-10.0686
▁소장	-10.0687
해왔다	-10.0688
빛	-10.0689
▁한때	-10.069
▁아버지	-10.0692
▁점포	-10.0694
천억원	-10.0695
6000	-10.0698
▁잠	-10.07
대전	-10.0701
▁참고	-10.0703
▁형사	-10.0703
▁승객	-10.0704
시켜	-10.0711
▁소재	-10.0716
▁신뢰	-10.0719
객	-10.0723
▁모아	-10.0724
▁전날보다	-10.0728
▁나눔	-10.0733
News	-10.0737
▁52	-10.0738
▁친박	-10.0738
▁2006	-10.0747
▁발효	-10.0751
▁탈	-10.0751
리는	-10.0753
▁표시	-10.0758
점을	-10.0761
▁체제	-10.0765
▁졸업	-10.0767
▁일이다	-10.0769
▁댓글	-10.0769
▁환영	-10.0774
누	-10.0779
이기	-10.0781
▁대로	-10.0784
▁진단	-10.0787
▁쓰는	-10.079
▁부산시	-10.0792
잠	-10.0797
▁119	-10.0801
▁폭력	-10.0803
▁패션	-10.0803
교사	-10.0806
▁제정	-10.0807
▁실현	-10.0807
▁피해가	-10.0809
▁투	-10.081
33	-10.0814
▁없	-10.0817
▁제품을	-10.0817
▁배당	-10.0818
▁담은	-10.0821
의료	-10.0828
▁장관은	-10.0832
▁빠른	-10.0833
▁효과가	-10.0833
다고	-10.0843
▁이행	-10.0843
서는	-10.0849
▁내년부터	-10.0849
▁진짜	-10.085
▁발견됐다	-10.0852
비용	-10.0855
인터뷰	-10.0856
▁부품	-10.086
▁향	-10.086
▁55	-10.086
▁제외한	-10.0861
▁충분히	-10.0862
▁받게	-10.0862
▁평소	-10.087
▁항의	-10.0872
▁수수료	-10.0872
자를	-10.0872
▁입법	-10.0881
▁수행	-10.0884
왜	-10.0885
움	-10.0894
▁초등학교	-10.0894
▁연대	-10.0899
제를	-10.0901
▁협약	-10.0905
▁기념식	-10.0906
죽	-10.0911
▁신문	-10.0912
▁터	-10.0921
받아	-10.0922
▁씨를	-10.093
▁I	-10.0933
▁때문입니다	-10.0935
혼	-10.0942
▁광화문	-10.0945
부장	-10.0955
▁서울의	-10.0959
▁문의	-10.0962
▁일은	-10.0962
▁가계	-10.0964
▁끌고	-10.0968
▁사건을	-10.0975
▁3%	-10.0979
▁정신	-10.0984
▁않았습니다	-10.099
탕	-10.0991
▁맛	-10.0991
▁경주	-10.0993
▁제일	-10.0994
만달러	-10.0997
▁열렸다	-10.1
▁문건	-10.1
▁둘러싼	-10.1
▁반기문	-10.1
銀	-10.1
▁장애	-10.1001
능력	-10.1002
▁금감원	-10.1005
▁성폭력	-10.1025
...1	-10.1027
▁의무	-10.1027
통합	-10.1029
려고	-10.1034
▁양성	-10.1035
▁특	-10.1035
▁민생	-10.1036
(8	-10.1036
▁빠져	-10.1037
▁만이다	-10.1038
47	-10.1041
지요	-10.1042
▁위치	-10.1044
▁여사	-10.1057
▁제보	-10.1057
▁만들기	-10.1065
▁봉	-10.1067
39	-10.107
▁중간	-10.1072
88	-10.1073
▁동결	-10.1077
57	-10.108
▁이용해	-10.1081
▁경계	-10.1084
른	-10.1084
자의	-10.1085
▁혜택을	-10.1086
▁있죠	-10.1088
▁방지	-10.1095
▁여성이	-10.1096
▁빠르게	-10.1096
▁사례	-10.1096
▁이름을	-10.1097
34	-10.1105
▁본인	-10.1107
▁운용	-10.1107
▁힘든	-10.1108
▁통상	-10.1113
▁있다면	-10.1114
nela	-10.1114
▁뒤를	-10.1115
ichan	-10.1115
여명이	-10.1117
CHANNEL	-10.1117
▁전문가들은	-10.1119
구역	-10.112
▁늘어났다	-10.1134
▁경우도	-10.1138
FTA	-10.114
▁우려가	-10.1143
▁테러	-10.1145
▁당내	-10.1152
되며	-10.1152
▁먹고	-10.116
▁재벌	-10.1167
▁규탄	-10.1175
▁특별한	-10.1191
▁39	-10.1193
▁OECD	-10.1193
▁대처	-10.1198
나무	-10.1204
▁절차	-10.1208
48	-10.1212
▁경위를	-10.1215
▁세종시	-10.1217
▁지역구	-10.1234
받을	-10.1234
▁태	-10.1235
▁소방	-10.1236
율은	-10.1237
청년	-10.1237
최순실	-10.1237
▁갈수록	-10.1238
58	-10.1243
▁계산	-10.1243
46	-10.1252
▁마음이	-10.1253
▁시장이	-10.1255
▁있는지	-10.1256
▁성장률	-10.1262
▁2%	-10.1262
▁사무총장	-10.1262
▁추적	-10.1263
마저	-10.1264
▁커지고	-10.1265
▁이같이	-10.1268
연대	-10.1271
▁의해	-10.1274
▁국세청	-10.1275
▁군사	-10.1279
치는	-10.128
개를	-10.128
평화	-10.1287
or	-10.1288
▁민원	-10.129
▁부분은	-10.1292
▁산불	-10.1294
▁있고요	-10.1297
37	-10.1302
▁빼	-10.1315
▁부모	-10.1315
심사	-10.1316
▁기초	-10.1318
▁존재	-10.1319
▁가스	-10.1319
▁달하는	-10.1321
1000	-10.1329
▁포함한	-10.1336
7000	-10.1337
▁결과는	-10.1342
)'	-10.1349
b	-10.1353
▁호소	-10.1355
▁여성의	-10.1359
59	-10.1361
▁활동을	-10.1361
시키는	-10.1362
주민	-10.1365
▁저축은행	-10.1367
해진	-10.1368
▁전세	-10.137
▁수익	-10.1372
사를	-10.1372
기획	-10.1381
▁줄어든	-10.1382
▁품목	-10.1384
▁누	-10.1387
▁업종	-10.1391
▁편성	-10.1396
혀	-10.1397
▁방식으로	-10.1398
中	-10.1398
비리	-10.1399
▁이어지고	-10.1402
▁들어서	-10.1402
▁지원을	-10.1402
▁유가족	-10.1406
▁말까지	-10.1406
대강	-10.1407
▁특허	-10.141
제가	-10.1411
팔	-10.1414
▁머리	-10.1416
▁점차	-10.1416
▁답변	-10.1417
▁포기	-10.1418
사가	-10.1422
됐던	-10.1424
▁이낙연	-10.1426
베	-10.1426
달라	-10.1427
션	-10.1428
청와대	-10.1432
▁지역의	-10.1435
피해	-10.1436
▁빚	-10.1439
▁조만간	-10.144
▁그럼	-10.1441
▁동반	-10.1446
▁쇼핑	-10.1447
▁해양	-10.1454
▁지역에	-10.1456
▁것인가	-10.146
▁북한은	-10.1462
▁운항	-10.1464
▁때마다	-10.1464
▁허위	-10.1465
▁이처럼	-10.1468
▁있	-10.147
탑	-10.147
▁육	-10.1472
▁모여	-10.1473
▁국회의장	-10.1473
▁심각	-10.1474
▁평창	-10.1476
과학	-10.1478
공간	-10.1481
업무	-10.1486
▁경찰과	-10.1488
▁혜택	-10.1488
▁섬	-10.1489
공무원	-10.149
▁인물	-10.1492
에너지	-10.15
▁만남	-10.1501
▁paper	-10.1506
▁오늘은	-10.151
▁딱	-10.1512
웅	-10.1512
생명	-10.152
▁보고서	-10.1521
▁부사장	-10.1521
께	-10.1523
▁임직원	-10.1525
▁속도	-10.1529
▁입원	-10.1532
▁E	-10.1535
▁명품	-10.1536
▁사람의	-10.1537
▁올림픽	-10.1538
▁모임	-10.154
▁경쟁력	-10.1543
년을	-10.1544
▁구제역	-10.1551
▁관련한	-10.1551
쇼	-10.1551
▁예술	-10.1551
▁이혼	-10.1559
▁수습	-10.156
▁2005	-10.1562
▁강세	-10.1563
개로	-10.1563
▁서민	-10.1565
▁기온	-10.1565
▁수정	-10.1569
▁매입	-10.157
미국	-10.1571
▁길을	-10.1572
▁김영	-10.1573
▁옷	-10.1573
것	-10.1574
▁인천공항	-10.1574
▁영하	-10.1575
혈	-10.1576
▁목소리	-10.1577
계약	-10.1578
▁지도	-10.1579
국장	-10.1584
▁사무실	-10.1591
먹	-10.1596
▁훼손	-10.1599
▁의결	-10.1599
▁비롯한	-10.16
▁All	-10.1603
름	-10.1603
자로	-10.1605
▁강남구	-10.1608
▁주거	-10.161
상황	-10.161
▁추경	-10.1611
▁신용카드	-10.1611
체험	-10.1612
▁환	-10.1616
▁것처럼	-10.1635
▁기준금리	-10.1636
▁시작됐다	-10.1643
▁경찰관	-10.1645
▁점도	-10.1645
▁면세점	-10.1647
사랑	-10.1652
▁이유다	-10.1663
▁결론	-10.1669
▁폭염	-10.1671
▁발굴	-10.1676
▁이웃	-10.1677
운영	-10.168
만원이다	-10.1681
대선	-10.1684
▁마찬가지다	-10.169
톤	-10.17
66	-10.1701
▁개정안	-10.1702
▁이건	-10.1703
월에는	-10.1704
▁독립	-10.1707
▁지원한다	-10.1714
본부장	-10.1715
▁출근	-10.1719
▁시장에서	-10.1719
▁당연히	-10.1719
집니다	-10.1723
▁류	-10.1725
▁현직	-10.1732
▁매매	-10.1734
소식	-10.1744
▁춘천	-10.1744
▁국토부	-10.1748
이라도	-10.1748
▁현장에	-10.1751
▁총재	-10.1752
▁등이다	-10.1753
▁여기서	-10.1754
▁이마트	-10.1764
▁사람들은	-10.1766
▁뉴욕	-10.1768
▁있을까요	-10.1774
▁뿌리	-10.1775
룡	-10.1777
▁하겠습니다	-10.1786
▁있어서	-10.1787
▁몰려	-10.1788
▁시민들이	-10.1794
▁공판	-10.1794
77	-10.18
감사	-10.1801
감을	-10.1802
▁증인	-10.1804
▁강력	-10.1804
▁때도	-10.1805
▁나타냈다	-10.1811
▁건축	-10.1811
▁T	-10.1815
▁600	-10.1823
▁여기	-10.1823
▁성인	-10.183
▁입찰	-10.1835
여야	-10.1836
▁정체	-10.1838
▁1.	-10.184
▁정보를	-10.1842
▁월급	-10.1844
▁폐기	-10.1844
▁오피스텔	-10.1847
▁경우는	-10.1848
▁점이다	-10.1854
▁현행	-10.1855
페	-10.1856
▁02-398-4441(	-10.1857
▁재판부는	-10.1858
▁상위	-10.1872
▁비판했다	-10.1872
▁빠진	-10.1876
84	-10.1878
부고	-10.1882
▁필수	-10.1882
▁범	-10.1883
32	-10.1884
▁43	-10.1888
부문	-10.1889
▁엄	-10.1889
▁반응	-10.1892
▁그래도	-10.1896
▁벌써	-10.19
99	-10.19
▁마치고	-10.1904
▁노사	-10.1905
연구	-10.1913
▁했던	-10.1917
▁부채	-10.1918
▁분들	-10.1918
▁문제로	-10.1918
나라	-10.1921
▁계좌	-10.1923
▁대법원장	-10.1923
▁회	-10.1926
서도	-10.1928
결과	-10.1932
▁마리	-10.1932
▁동참	-10.1935
52	-10.1935
경남	-10.1937
▁어머니	-10.1937
허	-10.1938
▁목소리를	-10.1938
일자리	-10.1939
▁전원	-10.1942
▁동해	-10.1942
▁협박	-10.1945
▁배포금지	-10.1947
▁제거	-10.195
▁세종	-10.195
▁여론	-10.1955
▁때까지	-10.1957
▁긴장	-10.1967
56	-10.1968
하려면	-10.197
오후	-10.1973
납	-10.1976
▁수십	-10.1978
▁용의자	-10.199
▁지적이	-10.1991
▁맞은	-10.1993
▁정부와	-10.1995
▁부여	-10.1996
▁이제는	-10.1996
▁성매매	-10.2002
▁상당	-10.2002
▁만나는	-10.2004
36	-10.2005
▁교과서	-10.2012
▁해상	-10.2014
▁구간	-10.2014
38	-10.2014
▁나경원	-10.2018
▁그건	-10.202
▁무산	-10.2025
▁뒷	-10.2028
눈	-10.2029
▁수사에	-10.2031
▁동영상	-10.2031
▁못한다	-10.2032
▁상대적으로	-10.2033
▁출국	-10.2035
▁규모가	-10.2037
와의	-10.2045
▁육군	-10.2045
분쯤	-10.2045
▁생명	-10.2051
▁한은	-10.2052
▁Good	-10.2056
▁방문한	-10.2057
▁학부모	-10.2059
▁응원	-10.2061
머	-10.2064
▁급등	-10.2068
▁들어갔다	-10.207
▁숨	-10.2071
플러스	-10.2072
▁대표와	-10.2074
▁헬기	-10.2075
▁분리	-10.2075
▁양국	-10.2078
신청	-10.2079
▁새누리당은	-10.208
▁최경환	-10.208
▁지난해보다	-10.2081
▁대법관	-10.2087
▁극복	-10.209
54	-10.2093
플	-10.2093
▁헌법	-10.2099
함을	-10.2099
어야	-10.21
▁통계	-10.2102
씨에게	-10.2103
▁강연	-10.2104
범죄	-10.2105
읍	-10.211
75	-10.211
▁사망자	-10.2114
▁해군	-10.2115
▁국민이	-10.2119
▁42	-10.2124
▁함	-10.2124
▁규모로	-10.2126
▁고급	-10.2128
해요	-10.2129
64	-10.2131
▁심리	-10.2134
▁방한	-10.2139
로는	-10.2139
▁비서실장	-10.214
▁준공	-10.2141
▁났다	-10.2141
▁별점	-10.2154
▁봅니다	-10.2155
▁자전거	-10.2158
▁애플	-10.2161
▁듣고	-10.2161
지지	-10.2161
▁소방당국은	-10.2164
조직	-10.2169
▁의혹을	-10.2175
▁써	-10.2176
▁줄어	-10.2178
▁감정	-10.218
▁점점	-10.218
▁둔화	-10.2183
▁주차	-10.2188
▁유세	-10.2196
▁곧바로	-10.2197
▁행사를	-10.2197
▁연계	-10.2199
▁매수	-10.22
▁복원	-10.221
▁골프	-10.2216
▁48	-10.222
▁2.	-10.2226
▁걸어	-10.2228
벽	-10.223
▁추미애	-10.2233
▁도움을	-10.2235
팅	-10.2239
▁숫자	-10.2239
▁나무	-10.224
▁나이	-10.224
▁입고	-10.224
▁쓰레기	-10.224
▁품질	-10.2243
▁절	-10.2243
천여	-10.2247
▁거론	-10.2247
▁메시지	-10.2249
▁만기	-10.225
체계	-10.225
▁바다	-10.2251
유통	-10.2253
비를	-10.2257
쿠	-10.226
장에	-10.2264
▁열심히	-10.2265
ha	-10.227
이라면	-10.227
▁신세계	-10.2274
▁긴	-10.2276
▁무소속	-10.2276
▁후보를	-10.2279
▁취득	-10.2283
▁이번에는	-10.2285
▁비핵화	-10.2288
▁면접	-10.2288
▁숨져	-10.2288
▁매출은	-10.2289
▁방침	-10.229
▁매달	-10.2291
▁가수	-10.2295
▁사진을	-10.2296
▁달려	-10.2302
▁옛	-10.2302
▁안희정	-10.2302
런	-10.2303
▁것과	-10.2303
▁마약	-10.2304
상담	-10.2305
▁실험	-10.2305
아파트	-10.2306
호텔	-10.2306
▁서울시는	-10.2306
▁먹는	-10.2308
수가	-10.2313
차관	-10.2315
쳤다	-10.2318
통신	-10.2319
성과	-10.2323
▁메뉴	-10.2328
이상	-10.2328
었던	-10.2331
▁거래를	-10.2338
▁지수는	-10.2338
▁인간	-10.2339
▁아냐	-10.234
지금	-10.234
경북	-10.235
43	-10.2351
▁위원	-10.2353
▁청약	-10.2353
위로	-10.2355
▁대사	-10.2356
▁배출	-10.2358
▁당분간	-10.2361
▁차별	-10.2363
별로는	-10.2363
▁아내	-10.2366
▁집에	-10.2367
▁감시	-10.237
▁처	-10.2372
▁특혜	-10.2374
53	-10.2375
대응	-10.2381
▁요리	-10.2383
▁눈물	-10.2387
▁살아	-10.2388
▁리더	-10.2388
자료	-10.2389
▁덜	-10.2389
압	-10.2393
▁>>	-10.2398
▁찾기	-10.2398
▁둘째	-10.2402
▁판매한다	-10.2403
▁감소한	-10.2404
화학	-10.2408
▁팀장	-10.2408
▁위에	-10.2409
▁경우에는	-10.2409
▁하겠다	-10.2414
▁여권	-10.2416
▁레	-10.2417
▁구형	-10.2418
▁지표	-10.2418
대교	-10.2418
▁김동연	-10.2418
▁너	-10.2422
신문	-10.2427
선을	-10.2427
▁바꿔	-10.2427
기지	-10.2433
▁했는데	-10.245
▁하락한	-10.2452
▁의견이	-10.2455
▁KTX	-10.246
공항	-10.2462
▁말이다	-10.2464
h	-10.2464
▁일상	-10.2467
▁재건축	-10.2468
▁정국	-10.2468
았습니다	-10.247
▁항공기	-10.2472
▁도내	-10.2472
오늘의	-10.2478
▁이재용	-10.2479
▁항상	-10.2486
▁투자자	-10.2486
▁발급	-10.2487
▁바란다	-10.2488
▁환율은	-10.2493
95	-10.2496
63	-10.2501
법원	-10.2503
▁그림	-10.2505
▁차원에서	-10.2507
▁주차장	-10.2508
▁연설	-10.2513
▁인기를	-10.2515
▁과세	-10.2518
▁공략	-10.2518
졌습니다	-10.2526
▁이로써	-10.2528
겨	-10.2528
슨	-10.2529
▁배달	-10.2532
▁좋겠다	-10.254
▁모습이	-10.2542
▁비율이	-10.2544
▁김종	-10.2545
▁의도	-10.2547
위기	-10.2551
▁진실	-10.2556
▁비교	-10.2557
했기	-10.2557
▁농업	-10.2558
▁정규직	-10.2559
▁결	-10.256
▁적극적으로	-10.2561
텍	-10.2562
시켰다	-10.2563
▁완성	-10.2564
▁선진국	-10.2564
▁비교해	-10.2566
▁합병	-10.2568
미래	-10.257
울산	-10.2571
▁아시아경제	-10.2574
▁지켜	-10.2575
▁초기	-10.2576
일까	-10.2577
▁새롭게	-10.2579
▁국립	-10.2579
▁분노	-10.258
내년	-10.2581
여행	-10.2582
실장	-10.2583
전국	-10.2587
▁시민단체	-10.2591
▁직전	-10.2593
교육청	-10.2596
▁완공	-10.2596
65	-10.2599
▁사유	-10.2601
▁부지	-10.2603
싱	-10.2603
▁비롯해	-10.261
▁어선	-10.2615
▁취업자	-10.2618
▁장을	-10.2619
▁불편	-10.2626
▁변화가	-10.2626
日	-10.2628
▁고향	-10.2632
▁46	-10.2633
▁그리	-10.2634
▁등에서	-10.2638
▁예금	-10.2639
개선	-10.2642
▁요금	-10.2643
▁디지털	-10.2645
맨	-10.2652
▁한국은행	-10.2653
▁임기	-10.2654
▁좋지	-10.2656
▁이씨는	-10.2669
▁뇌물	-10.267
재정	-10.2671
▁?)	-10.2672
▁전보다	-10.2675
▁기계	-10.268
▁뜻이다	-10.2682
▁퇴진	-10.2683
▁아니면	-10.2684
률은	-10.2687
▁협조	-10.269
현대	-10.2699
▁보이지	-10.2701
▁일주일	-10.2709
득	-10.271
▁알아	-10.2713
▁대거	-10.2715
▁----------	-10.2717
▁정도다	-10.2717
▁문제다	-10.2718
토론	-10.2719
개사	-10.2721
군요	-10.2722
▁마치	-10.2724
▁이자	-10.2726
하다는	-10.2729
▁상황은	-10.2732
▁항	-10.2733
특별	-10.2735
생산	-10.2736
뿐만	-10.2736
khan	-10.2737
▁하면서	-10.274
▁맥주	-10.2745
▁투쟁	-10.2748
▁은퇴	-10.2748
▁취지	-10.2749
원이	-10.2752
-1	-10.2753
▁진행자	-10.2753
▁N	-10.2754
▁통일부	-10.2762
됐고	-10.2763
▁점이	-10.2764
과정	-10.2765
▁민주당은	-10.2766
안보	-10.2768
낼	-10.277
▁하게	-10.2773
▁보관	-10.2774
▁불과하다	-10.2775
▁!"	-10.2778
▁전부	-10.2782
▁급락	-10.2782
조정	-10.2783
▁발령	-10.279
롯데	-10.2795
▁베	-10.2797
▁가계부채	-10.2798
▁시내	-10.2799
▁증언	-10.2802
▁영향으로	-10.2802
▁가능성은	-10.2803
▁아빠	-10.2803
▁단축	-10.2804
▁남부	-10.2804
▁예비후보	-10.2806
▁한전	-10.281
▁낙	-10.2812
▁나설	-10.2815
▁낼	-10.2819
86	-10.2819
사항	-10.282
69	-10.2822
연금	-10.2822
▁독자	-10.2823
▁풀어	-10.2825
팀장	-10.2831
▁과징금	-10.2837
력을	-10.2841
내가	-10.2843
작업	-10.2848
▁겸	-10.2851
▁PC	-10.2852
머니	-10.2853
만원의	-10.286
▁바른미래당	-10.286
▁속에서	-10.2861
68	-10.2862
▁44	-10.2862
▁트	-10.2865
▁고통	-10.2868
▁서명	-10.2869
▁41	-10.287
▁지상	-10.287
▁팀	-10.2875
▁원래	-10.2875
무역	-10.2876
▁자리에서	-10.2878
잔	-10.2878
▁골	-10.2878
▁현상	-10.2879
▁현안	-10.2881
룸	-10.2885
▁분명히	-10.2886
▁이용할	-10.2886
▁지역에서	-10.2889
▁전통시장	-10.2893
67	-10.2894
직원	-10.2894
▁나타났습니다	-10.2894
기록	-10.2896
▁관세	-10.2897
▁쪽	-10.2901
▁기반	-10.2902
띠	-10.2905
▁혼	-10.2907
▁돌아	-10.2909
▁가입자	-10.2912
방안	-10.2912
남북	-10.2914
▁호주	-10.2922
▁축하	-10.2923
▁상승한	-10.2928
▁지적도	-10.293
▁효과를	-10.2931
▁납부	-10.2933
(10	-10.2934
▁59	-10.2934
전쟁	-10.2936
민주당	-10.2939
▁소형	-10.2948
용품	-10.2948
▁뉴	-10.2951
▁임대	-10.2953
▁GDP	-10.2958
▁불과했다	-10.2958
▁대선후보	-10.2962
▁인양	-10.2965
▁정책을	-10.297
▁음주운전	-10.2971
▁남녀	-10.2972
▁과일	-10.2972
▁강력한	-10.2973
▁"(	-10.2974
▁쓰고	-10.2974
▁보완	-10.2982
▁우리의	-10.2984
▁위치한	-10.2984
▁지수	-10.2984
▁디	-10.2989
▁형성	-10.299
▁47	-10.2991
▁현실	-10.2993
▁창립	-10.3002
증시	-10.3002
▁주인	-10.3006
중앙	-10.3012
▁중소	-10.3013
▁수준을	-10.3016
규제	-10.3017
▁네이버	-10.3019
▁그걸	-10.3019
▁표명	-10.3024
국내	-10.3027
관련	-10.3028
▁중국인	-10.3028
▁로또	-10.3034
수출	-10.3039
▁밥	-10.3044
74	-10.3044
▁떠	-10.3045
87	-10.305
잡	-10.305
▁선보인다	-10.3055
▁자본	-10.3058
여개	-10.3062
솔	-10.3063
▁합격	-10.3076
▁기록한	-10.3077
▁맞이	-10.3079
▁목소리가	-10.3081
▁해임	-10.3082
▁서해	-10.3087
▁발표한	-10.3087
▁출산	-10.3088
힌	-10.3089
▁49	-10.3089
▁유병언	-10.309
▁학생들	-10.3092
“	-10.3093
할까	-10.3096
▁휴	-10.3096
85	-10.3101
▁패	-10.3104
▁주재	-10.3105
건강	-10.3108
주간	-10.3112
▁가야	-10.3113
했는데요	-10.312
▁가능성을	-10.3123
경찰서	-10.3124
인력	-10.3124
기금	-10.313
▁대해선	-10.313
▁성적	-10.3136
▁희생자	-10.314
▁개시	-10.3142
▁올려	-10.3144
항공	-10.3144
과장	-10.3144
시티	-10.3155
42	-10.3157
▁유력	-10.3164
▁돌아가	-10.3166
▁계	-10.3166
▁태극기	-10.3167
세무서	-10.3168
▁전년보다	-10.317
▁수업	-10.3172
▁개별	-10.3175
이냐	-10.3178
▁韓	-10.318
▁음주	-10.3181
▁자택	-10.3181
▁문자	-10.3184
▁발인	-10.3186
%	-10.3186
겠다고	-10.319
▁만한	-10.3192
수입	-10.3192
▁지역은	-10.3192
▁학원	-10.3193
▁행위	-10.3202
▁매주	-10.3204
▁전체의	-10.3207
▁중부	-10.3207
데이	-10.3209
▁크기	-10.321
▁작가	-10.3211
▁차장	-10.3212
▁인선	-10.3213
▁동생	-10.3216
▁조건	-10.3216
보는	-10.3216
▁토지	-10.3219
▁장비	-10.3221
▁민주노총	-10.3223
▁인사청문회	-10.3223
▁숨졌다	-10.3223
퇴	-10.3224
희망	-10.3226
▁이내	-10.3227
▁콘텐츠	-10.3228
▁주최	-10.3231
▁썼다	-10.3232
▁저도	-10.3233
▁잡고	-10.3233
▁비밀	-10.3233
▁가서	-10.3234
▁평가를	-10.3238
민주	-10.3239
▁이메일	-10.3239
국정원	-10.3242
▁전격	-10.3245
76	-10.3251
▁반등	-10.3252
글로벌	-10.3252
▁농촌	-10.3252
▁그렇지	-10.3253
대한민국	-10.3256
▁향상	-10.326
▁유도	-10.3264
▁복구	-10.3264
▁단기	-10.3279
▁전직	-10.3281
▁요구했다	-10.3283
휴	-10.3286
▁진행됐다	-10.3289
51	-10.329
▁소식이	-10.3291
냈다	-10.3295
▁필리핀	-10.3295
▁배제	-10.3296
▁관람	-10.33
자산	-10.3302
▁초반	-10.3304
▁강행	-10.3306
시에	-10.3309
▁과정을	-10.331
▁아니냐	-10.331
▁부담이	-10.3315
▁작업을	-10.332
물가	-10.3326
▁정지	-10.3326
98	-10.3327
밤	-10.3328
▁저희	-10.3333
▁차지하는	-10.3333
▁지점	-10.3334
▁리더십	-10.3335
전화	-10.3338
▁시즌	-10.3339
(9	-10.334
블	-10.334
▁유입	-10.3348
▁목적	-10.3348
창업	-10.3348
▁사업자	-10.3349
금액	-10.3349
▁하는데요	-10.3351
▁이익	-10.3351
▁잡	-10.3352
▁올린	-10.3355
78	-10.3357
까요	-10.3358
▁옆	-10.3359
실적	-10.3359
요금	-10.3359
▁능력	-10.336
▁모른다	-10.3362
▁극	-10.3362
장애	-10.3362
현재	-10.3363
방식	-10.3363
▁칼	-10.3364
환자	-10.3367
▁즉시	-10.3369
▁최고의	-10.3371
수는	-10.3371
▁생각하는	-10.3375
▁옮겨	-10.3379
스러운	-10.3382
엽	-10.3384
▁이때	-10.3384
▁살고	-10.3386
▁한국은	-10.3387
▁국내에서	-10.3387
▁농	-10.3391
▁방식	-10.3392
▁주제로	-10.3395
▁90%	-10.3396
▁맞춤형	-10.3397
▁공시	-10.34
빙	-10.3411
▁틀	-10.3412
▁담긴	-10.3413
▁붙	-10.3414
▁연봉	-10.3417
▁울	-10.3418
군은	-10.3419
▁박사	-10.3421
▁동네	-10.3423
▁말라	-10.3424
교통	-10.3429
▁나왔습니다	-10.3434
▁깨	-10.344
▁실무	-10.3444
▁공정	-10.3445
79	-10.3448
▁곳곳에	-10.3448
▁입지	-10.3449
광고	-10.3452
해졌다	-10.3453
외교	-10.3453
▁찾았다	-10.3453
총리	-10.3456
▁신제품	-10.3456
▁상봉	-10.3456
▁동료	-10.3459
자들	-10.346
협상	-10.3461
▁급여	-10.3463
↓	-10.3464
대에	-10.3467
▁봉사	-10.3471
당국	-10.3473
▁부당	-10.3473
▁금액	-10.3474
▁새정치연합	-10.3476
▁보도자료	-10.3478
▁방북	-10.348
▁수리	-10.348
서울시	-10.3483
▁2004	-10.3486
▁나오	-10.3487
이에요	-10.3487
수도	-10.3488
했으며	-10.3496
▁분들이	-10.3496
▁줄어들	-10.3498
의회	-10.35
▁쌓	-10.35
▁알려져	-10.3502
▁비교하면	-10.3502
▁3.	-10.3505
▁상무	-10.3506
▁유가	-10.3506
▁J	-10.3507
장으로	-10.351
▁공개했다	-10.3512
땐	-10.3516
롱	-10.3524
▁위축	-10.3524
▁죄	-10.3526
▁분당	-10.3527
▁가게	-10.3527
만여	-10.3528
▁이번엔	-10.3531
▁있으며	-10.3531
▁무료로	-10.3535
상태	-10.3536
이번	-10.3537
▁구상	-10.3538
▁아직도	-10.3543
▁했지만	-10.3544
▁유리	-10.3544
▁한우	-10.3545
장비	-10.3546
▁김종인	-10.3549
▁문제에	-10.3553
▁집을	-10.3554
▁공원	-10.3555
▁그렇죠	-10.3558
짜리	-10.3561
에만	-10.3562
▁사안	-10.3569
▁원내대표는	-10.3569
▁농산물	-10.357
▁이뤄졌다	-10.3571
▁높게	-10.3574
er	-10.3574
97	-10.358
▁선장	-10.3581
▁학생들이	-10.3583
▁시범	-10.3585
▁재난	-10.359
준다	-10.3591
▁84	-10.3595
▁설득	-10.3595
시킬	-10.3601
▁화제다	-10.3603
▁권고	-10.3603
▁변형	-10.3607
지수는	-10.3608
▁명예	-10.361
째	-10.3613
▁기타	-10.3614
▁조사에서	-10.3615
효과	-10.3616
책임	-10.362
▁상황에	-10.3623
▁폭로	-10.3625
▁보험료	-10.3626
▁아이템	-10.3627
▁75	-10.3634
▁별세	-10.3634
▁인생	-10.3635
장치	-10.3638
폰	-10.364
▁재단	-10.3641
▁수립	-10.3645
▁휴가	-10.3647
▁CBS	-10.3649
시킨	-10.365
▁민주주의	-10.3651
▁의미다	-10.3653
▁합	-10.3658
▁허가	-10.3659
소송	-10.3661
▁포럼	-10.3663
▁버	-10.3663
세를	-10.3663
▁사이트	-10.3672
▁만든다	-10.3673
▁곳에	-10.3674
▁순위	-10.3676
▁한정	-10.3677
됐지만	-10.3678
▁부대	-10.3679
학년도	-10.3679
더라도	-10.3682
▁노출	-10.3683
▁한달	-10.3683
▁입증	-10.3684
▁타결	-10.3685
▁곳곳	-10.3691
▁장소	-10.3694
▁전국에	-10.37
섬	-10.3702
▁신경	-10.3704
▁입을	-10.3705
▁곳곳에서	-10.3709
▁것에	-10.3709
따	-10.3709
▁참석했다	-10.3713
력이	-10.3715
▁갔다	-10.3718
▁BMW	-10.3723
▁목표로	-10.3727
▁응	-10.3733
▁상향	-10.3733
▁기온이	-10.3734
▁입은	-10.3736
I	-10.3737
▁불가피	-10.374
▁대통령을	-10.3741
▁홍콩	-10.3744
89	-10.3744
갓	-10.3748
▁의원들	-10.3753
▁동부	-10.3754
대의	-10.3754
▁신당	-10.3757
로서	-10.3758
f	-10.3767
▁거다	-10.3768
▁간다	-10.3769
▁근거	-10.3772
▁전망된다	-10.3776
▁즐길	-10.3777
▁다행히	-10.3779
▁절감	-10.3781
특	-10.3788
▁모색	-10.3793
▁꼽힌다	-10.3798
▁창당	-10.3798
▁실종자	-10.3806
정당	-10.3807
▁공기	-10.3809
▁사장은	-10.381
▁원의	-10.3812
▁내리	-10.3814
▁대책을	-10.3817
▁그럴	-10.3818
▁5·18	-10.3818
했으나	-10.3821
탁	-10.3825
▁들여	-10.3829
▁사실은	-10.383
밭	-10.3831
▁©	-10.3831
▁전당대회	-10.3833
▁매출이	-10.3835
▁와인	-10.3837
▁제품은	-10.3839
▁계획을	-10.3842
▁매출액	-10.3842
▁연내	-10.3845
최고	-10.3845
▁브라질	-10.3845
▁전액	-10.3848
안을	-10.385
▁아니었다	-10.3855
대비	-10.3855
▁배상	-10.3855
불법	-10.3856
▁향하는	-10.3857
▁안팎	-10.3858
▁금융위기	-10.3861
▁끝난	-10.3861
▁집행유예	-10.3864
▁심의	-10.3866
▁일당	-10.3868
▁내정	-10.3869
▁북미	-10.3869
엄	-10.387
▁전기차	-10.3873
▁정식	-10.3874
▁아니고	-10.3875
▁과장	-10.3878
▁일본의	-10.3879
▁식사	-10.388
학원	-10.3882
연합	-10.3884
가치	-10.3887
▁사이에서	-10.3887
▁쟁점	-10.3889
MB	-10.389
▁학대	-10.3891
▁15%	-10.3892
▁0.1	-10.3895
▁하자	-10.3899
통일	-10.3903
▁한화	-10.3903
▁끝내	-10.3905
▁염	-10.3909
▁아마	-10.391
▁등급	-10.3916
▁않도록	-10.3919
혐의	-10.392
공단	-10.3921
▁공기업	-10.3921
▁숙	-10.3922
▁입국	-10.3923
홀	-10.3924
받고	-10.3925
▁아기	-10.3926
자원	-10.3928
▁사용할	-10.3929
▁700	-10.3937
▁지난주	-10.3938
▁해체	-10.3938
사드	-10.3946
▁전국이	-10.3947
▁→	-10.3949
궁	-10.395
▁심상정	-10.3956
천명	-10.3957
▁면제	-10.396
▁잡아	-10.3962
▁원으로	-10.3962
원장	-10.3962
▁모르는	-10.3963
▁개인정보	-10.3963
▁불만	-10.3964
▁사이버	-10.3966
입니까	-10.3968
]'	-10.3974
임을	-10.3975
겠죠	-10.3975
딩	-10.3979
61	-10.398
▁선거구	-10.398
▁경력	-10.398
▁안에서	-10.3983
▁현장을	-10.3983
▁민심	-10.3985
▁결정을	-10.3989
▁전월	-10.3992
08	-10.3993
▁교류	-10.3996
곳에	-10.3997
▁월세	-10.3998
▁리스크	-10.4
▁상품을	-10.4002
96	-10.4002
▁설명회	-10.4003
▁학습	-10.4005
▁규명	-10.4007
▁침체	-10.4009
▁행진	-10.4011
▁삭제	-10.4013
▁집에서	-10.4022
▁상생	-10.4028
▁태양광	-10.4029
▁확충	-10.403
성장	-10.4038
▁4.	-10.4039
먼	-10.4041
▁행보	-10.4045
▁재보선	-10.4047
▁증권사	-10.4048
▁돼지	-10.405
▁나섰습니다	-10.4052
▁김성태	-10.4053
▁생존	-10.4054
▁사업에	-10.4056
▁출입	-10.4058
▁용인	-10.4059
만원에	-10.406
▁설정	-10.4063
▁성과를	-10.4064
▁경제성장률	-10.4067
▁아이폰	-10.4067
▁계란	-10.4068
▁엔진	-10.4074
▁운영하는	-10.4075
▁본격적으로	-10.4078
렬	-10.408
▁이해찬	-10.4084
▁자격	-10.4086
▁청와대는	-10.4091
찰	-10.4091
▁알려진	-10.4092
상을	-10.4093
하려	-10.4094
▁기업은	-10.411
▁환경부	-10.411
▁아무	-10.411
▁행	-10.4112
▁세력	-10.4114
J	-10.4116
▁고위	-10.4117
▁닭	-10.412
▁기재부	-10.4122
▁프랜차이즈	-10.4124
규모	-10.4126
▁라고	-10.4126
보니	-10.4127
개가	-10.4128
▁조세일보	-10.413
▁침해	-10.4132
▁철강	-10.4133
▁저희가	-10.4137
▁일제히	-10.4139
▁영입	-10.4145
▁만족	-10.4146
▁1996	-10.415
▁구속영장을	-10.4155
한다면	-10.4161
려면	-10.4163
순위	-10.4165
사의	-10.4174
▁심판	-10.4175
▁경매	-10.4176
▁많습니다	-10.4176
▁평택	-10.4177
▁뉴시스	-10.4178
▁통합진보당	-10.4181
케이	-10.4184
케	-10.4184
▁인프라	-10.4184
▁재계	-10.4189
▁노래	-10.4189
▁아이디어	-10.419
고객	-10.4193
▁도박	-10.4195
▁해킹	-10.4196
▁연일	-10.4197
▁스타일	-10.4197
▁등록금	-10.4204
▁53	-10.4205
박람회	-10.4207
자동차	-10.4209
더라고요	-10.4211
소리	-10.4212
▁정원	-10.4215
맛	-10.4215
▁값	-10.4221
▁인사하는	-10.4221
취업	-10.4224
▁당선인	-10.4225
▁자리에	-10.4226
▁만약	-10.4231
▁든	-10.4232
▁비중	-10.4236
▁대상이	-10.4238
김정은	-10.4239
▁명단	-10.4243
▁막기	-10.4244
▁집권	-10.4248
▁감축	-10.4252
▁잔	-10.4259
▁대상은	-10.4261
2)	-10.4262
▁화장실	-10.4262
▁원유	-10.4263
억원이다	-10.4264
▁시장을	-10.4268
둔	-10.4269
▁전무	-10.4276
▁이것이	-10.428
회담	-10.4281
▁슈퍼	-10.4281
▁늘어날	-10.4282
▁북측	-10.4287
▁현역	-10.4287
▁회수	-10.4288
▁여수	-10.4288
▁스타	-10.4291
73	-10.4291
농협	-10.4292
http	-10.4292
▁유해	-10.4292
▁발견된	-10.4293
▁높였다	-10.4296
▁났습니다	-10.4296
▁세미나	-10.4296
▁로비	-10.4296
▁변화를	-10.43
명에게	-10.43
▁더불어	-10.4301
▁종로구	-10.4302
▁카메라	-10.4303
게임	-10.4303
▁백운기	-10.4305
▁불리는	-10.4306
▁반박	-10.4306
▁배경	-10.4306
72	-10.4306
역사	-10.4307
▁건조	-10.431
▁참가자	-10.431
▁화면	-10.431
▁인천시	-10.4312
사무소	-10.4316
▁아이들	-10.432
▁분류	-10.432
▁도움	-10.4324
▁국내외	-10.4324
▁해고	-10.4326
려는	-10.4326
사태	-10.4329
▁벌이고	-10.4329
▁홈플러스	-10.4332
▁:[	-10.4334
▁검찰총장	-10.4336
마켓	-10.4337
▁디지털뉴스팀	-10.4341
▁자동	-10.4344
▁만들었다	-10.4347
▁대외	-10.435
▁검찰의	-10.4351
▁생각해	-10.4357
▁구분	-10.4358
개월간	-10.4359
▁마지막으로	-10.4359
▁가해자	-10.4367
굴	-10.4368
▁다수	-10.4376
▁보세요	-10.4377
▁부정적	-10.4377
경찰서는	-10.4378
▁또다시	-10.4378
▁불참	-10.438
▁신고를	-10.4381
▁무기	-10.4383
▁방법은	-10.4384
▁컴퓨터	-10.4386
▁사항은	-10.4387
▁불구하고	-10.4391
야당	-10.4392
0%)	-10.4395
소비	-10.4399
▁취재	-10.4406
▁과학	-10.4408
▁탈출	-10.4411
▁의원과	-10.4414
▁취재진	-10.4416
▁MOU	-10.4417
▁대법	-10.4417
▁목포	-10.4419
▁기회를	-10.4421
▁주민들	-10.4424
▁전공	-10.4427
▁자신을	-10.4429
▁우리나라의	-10.443
▁절차를	-10.4435
▁영역	-10.4438
욕	-10.4438
▁확인하실	-10.4438
▁납품	-10.4439
▁고교	-10.4441
▁자신	-10.4444
세계를	-10.4444
▁내내	-10.4446
▁범위	-10.4447
곳이	-10.4449
▁자영업자	-10.4451
▁꼽았다	-10.4456
▁부활	-10.4466
세력	-10.4467
▁알려	-10.4468
자리	-10.4468
▁방치	-10.447
94	-10.4474
▁인사를	-10.4476
野	-10.4476
▁검출	-10.4481
▁이사회	-10.4482
▁실내	-10.4483
재산	-10.449
으나	-10.4493
▁외에	-10.4498
▁프로	-10.4499
도서관	-10.4502
▁동해안	-10.4505
▁부분에	-10.4511
힐	-10.4517
▁검색	-10.4517
▁250	-10.4524
▁상징	-10.4525
인권	-10.4526
▁권한대행	-10.4531
▁코레일	-10.4537
▁중앙일보	-10.4538
이던	-10.4538
내일	-10.4539
▁수확	-10.454
▁선관위	-10.4542
▁모두발언	-10.4544
▁하나로	-10.4548
동의	-10.4552
62	-10.4552
사실	-10.4555
정권	-10.4556
▁말씀을	-10.4556
사람	-10.4557
안정	-10.4562
▁시청	-10.4562
기자	-10.4562
▁여전	-10.4565
▁업무를	-10.4569
▁티	-10.4571
▁시인	-10.4573
▁방안도	-10.4578
스포츠	-10.458
▁지속적으로	-10.4587
▁환자가	-10.4589
보면	-10.459
▁Co	-10.4595
위험	-10.4598
▁전담	-10.46
▁이틀째	-10.4601
브랜드	-10.4602
▁물을	-10.4603
▁서초구	-10.4604
▁방문해	-10.4605
▁측정	-10.4608
까지는	-10.4614
▁참배	-10.4619
▁부서	-10.4623
▁드라마	-10.4626
▁향한	-10.4628
제로	-10.463
▁800	-10.4634
▁숲	-10.4635
▁늘려	-10.4638
▁85	-10.464
업자	-10.4641
41	-10.4643
치료	-10.4652
▁가짜	-10.4652
▁대만	-10.4657
▁신용	-10.4659
▁모습이다	-10.4665
교수	-10.4668
▁매도	-10.4669
▁최대한	-10.4674
05	-10.4675
일째	-10.4676
▁이산가족	-10.4676
▁행사는	-10.4676
▁51	-10.4677
수석	-10.4678
받았다	-10.4679
▁걸려	-10.468
▁스트레스	-10.468
▁조세	-10.4682
▁동영상을	-10.469
청소년	-10.4691
▁4000	-10.4693
▁찬	-10.4699
▁보겠습니다	-10.4699
▁이용한	-10.4702
▁의무화	-10.4703
갔다	-10.4704
▁아니냐는	-10.4704
▁않	-10.4706
▁굴	-10.4707
▁시급	-10.4709
준비	-10.4709
▁내용의	-10.4709
u	-10.471
으로서	-10.471
경쟁	-10.4711
브리핑	-10.4717
정신	-10.4717
건의	-10.4717
▁말하는	-10.4718
▁이송	-10.4721
▁근	-10.4725
▁포착	-10.4726
▁소식을	-10.4728
▁정황	-10.4729
▁항소심	-10.4732
시쯤	-10.4733
▁게다가	-10.4734
0%	-10.4737
▁것이란	-10.4738
▁국회에	-10.4739
▁의사를	-10.4742
▁그러	-10.4746
수준	-10.4746
주가	-10.4751
▁54	-10.4751
▁파문	-10.4753
▁기름	-10.4754
캠프	-10.4755
데일리안	-10.4755
▁받	-10.4763
▁없어요	-10.4765
▁전부터	-10.4769
▁못할	-10.4772
▁싱가포르	-10.4772
▁직무	-10.4775
▁대결	-10.4777
▁힘이	-10.4779
▁어린	-10.4782
▁과태료	-10.4788
▁구워낸	-10.4788
▁증세	-10.4791
▁복합	-10.4792
되었다	-10.4798
▁뇌	-10.4799
▁2002	-10.4802
▁손님	-10.4804
▁뿐이다	-10.4811
▁전두환	-10.4812
▁갖춘	-10.482
▁국정감사	-10.4821
▁교환	-10.4825
Y	-10.4825
▁내외	-10.4827
▁가고	-10.4829
재판	-10.4834
▁장관이	-10.4835
▁대중	-10.4836
▁하나의	-10.4837
▁점에서	-10.4838
-2	-10.4839
▁쿠키뉴스	-10.4839
▁미국과	-10.4839
▁넘겨	-10.4842
▁국산	-10.4844
▁빛	-10.4844
▁이미지	-10.4846
▁56	-10.4848
▁심화	-10.4848
<	-10.4853
▁취	-10.4854
▁시작으로	-10.4854
▁다리	-10.4856
▁논리	-10.4857
청사	-10.4858
▁로봇	-10.4859
▁비교적	-10.4863
▁완	-10.4865
▁착공	-10.4867
▁63	-10.4869
▁기여	-10.4869
▁지명	-10.4871
점검	-10.4876
▁권리	-10.4877
▁거주	-10.4878
▁청원	-10.4882
이어서	-10.4884
▁심지어	-10.4884
▁선거운동	-10.4886
▁김경수	-10.4887
▁바삭바삭한	-10.4887
kuk	-10.4888
▁이용자	-10.4893
▁사람들의	-10.4894
▁양산	-10.4903
▁바람이	-10.4903
LG	-10.4905
▁한계	-10.4905
▁첫날	-10.4908
교육감	-10.4909
모델	-10.4912
▁U	-10.4912
▁목숨을	-10.4914
▁힘들다	-10.4916
게시판	-10.4916
▁일정을	-10.4917
율이	-10.4919
inews	-10.492
▁핵실험	-10.4921
▁2003	-10.4921
▁2~3	-10.4922
▁이었다	-10.4924
▁조치를	-10.4925
▁무단복제	-10.4926
▁W	-10.493
▁이완구	-10.4931
▁보급	-10.4932
쉬	-10.4932
▁혹시	-10.4935
맥	-10.4937
해외	-10.4938
원은	-10.4942
▁25%	-10.4943
▁고문	-10.4944
▁시간은	-10.4946
▁촛불집회	-10.4948
▁서류	-10.4948
▁의뢰	-10.4951
명과	-10.4952
부동산	-10.4961
▁그린	-10.4961
▁출근길	-10.4964
▁기온은	-10.4967
▁변신	-10.4972
▁아이를	-10.4976
활	-10.4976
▁기간은	-10.4981
▁끌어	-10.4981
▁투자를	-10.4983
▁삶	-10.4984
▁논	-10.4991
▁자료를	-10.5
들에	-10.5004
▁안녕하세요	-10.5005
▁지금도	-10.5005
▁퍼	-10.5007
개월째	-10.5007
▁팔아	-10.501
▁논란에	-10.5012
람	-10.5017
▁원이	-10.5018
al	-10.5021
▁휴일	-10.5024
1)	-10.5024
전망	-10.5026
▁사건은	-10.5026
93	-10.5028
▁입사	-10.503
▁업무협약	-10.5035
콘텐츠허브	-10.5037
하려고	-10.5039
▁부탁	-10.504
콘	-10.5042
▁속도를	-10.5043
▁의한	-10.5045
▁저소득층	-10.5046
▁저축	-10.5046
▁금융권	-10.5046
▁축	-10.5047
▁진영	-10.5049
▁오늘부터	-10.505
▁주제	-10.5051
▁최소화	-10.5052
기능	-10.5053
▁도주	-10.5053
▁감사원	-10.5054
▁포장	-10.5055
엘	-10.5055
▁내는	-10.5056
▁청소	-10.5056
▁집계	-10.5057
▁실장	-10.5061
▁가면	-10.5062
▁특징이다	-10.5063
▁조합원	-10.5064
0.0	-10.5068
▁아닙니까	-10.5069
▁발부	-10.5071
▁했다고	-10.5071
▁태도	-10.5074
해지고	-10.5079
▁코스피는	-10.5079
▁원화	-10.5079
▁항목	-10.5081
스마트	-10.5083
들어	-10.5084
IT	-10.5086
▁페	-10.5087
▁돌려	-10.5088
놓고	-10.5089
답	-10.509
▁이성	-10.5092
▁낮다	-10.5093
▁첫째	-10.5093
장애인	-10.5099
▁부담을	-10.5101
▁용산	-10.5106
▁자제	-10.5106
▁확진	-10.5107
▁수급	-10.5108
▁재판에	-10.5108
▁내릴	-10.5111
렸습니다	-10.5112
낙	-10.5113
▁추세	-10.5116
▁분이	-10.5118
▁경찰의	-10.5119
▁아는	-10.5121
▁진료	-10.5121
일로	-10.5129
▁아니라고	-10.5135
▁계기로	-10.5137
▁전국에서	-10.5139
▁해당하는	-10.514
▁끝까지	-10.5142
▁질환	-10.5143
▁차이	-10.5145
▁여부는	-10.515
▁퇴직	-10.5152
▁유죄	-10.5154
▁혼란	-10.5156
▁세수	-10.5157
이하	-10.5157
▁김성	-10.516
청장	-10.5164
▁운영한다	-10.5168
▁곳이다	-10.5169
▁김해	-10.5169
십	-10.5173
▁의미가	-10.5175
▁세부	-10.5179
▁잘못된	-10.518
▁YTN	-10.5182
▁바탕으로	-10.5182
▁최다	-10.5183
▁넘어섰다	-10.5189
▁소유	-10.519
▁가맹점	-10.5191
해달라	-10.5196
▁드	-10.5197
▁지구	-10.5197
▁남경필	-10.5201
▁비율	-10.5206
메르스	-10.5211
▁물건	-10.5216
제한	-10.5217
▁거래소	-10.5218
▁비싼	-10.5219
가스	-10.5219
▁증권	-10.5221
▁순이었다	-10.5221
SNS	-10.5223
▁예를	-10.5224
▁알겠습니다	-10.523
▁김용	-10.5232
▁가뭄	-10.5232
▁경위	-10.5234
▁공군	-10.5234
▁유권자	-10.5234
▁66	-10.5234
▁쇼핑몰	-10.5236
▁어려울	-10.5236
▁구호	-10.5241
세로	-10.5243
날씨	-10.5249
등록	-10.5249
▁제시했다	-10.525
▁여성은	-10.5251
▁전화를	-10.5251
▁기획재정부	-10.5254
▁되기	-10.5255
▁안산	-10.5255
▁충격	-10.5259
▁음성	-10.5264
▁탓에	-10.5266
▁하며	-10.5266
▁SBSCNBC	-10.5267
나요	-10.5269
원전	-10.5272
풀	-10.5273
저축은행	-10.5275
공연	-10.5282
지법	-10.5284
웠다	-10.5285
▁뜨거운	-10.5286
▁통해서	-10.5286
▁무단배포	-10.5287
▁상환	-10.5287
구나	-10.5288
▁감면	-10.5289
▁소송을	-10.5292
▁거래일	-10.5292
▁진도	-10.5295
합의	-10.5296
채권	-10.5298
▁사례가	-10.53
▁박람회	-10.5303
▁미군	-10.5304
▁신율	-10.5306
▁64	-10.5308
▁비즈니스	-10.5308
만대	-10.5314
▁캐	-10.5315
▁데이터	-10.5318
▁밀양	-10.5318
▁완전	-10.5319
▁아름다운	-10.532
▁희생	-10.5326
▁귀가	-10.5328
▁연락	-10.533
대사	-10.5332
주년을	-10.5334
▁챙겨	-10.5337
▁바이러스	-10.5338
▁열릴	-10.5345
으니	-10.5345
을까	-10.5349
습니까	-10.5349
▁구글	-10.535
▁부족한	-10.5352
▁참여했다	-10.5356
텔레콤	-10.5365
응	-10.5366
▁악	-10.5366
▁삶을	-10.537
▁얘기가	-10.5374
량이	-10.5374
▁목사	-10.5377
둥	-10.5378
▁그것이	-10.5378
▁내에	-10.5379
▁경제적	-10.538
▁변호인	-10.5381
▁전망이	-10.5383
▁4%	-10.5385
▁패키지	-10.5385
▁고장	-10.5388
▁추진한다	-10.5389
▁트위터	-10.5394
카페	-10.5399
▁Hub	-10.5401
영업	-10.5405
▁착용	-10.5405
▁초대	-10.5406
▁탄생	-10.5406
금지	-10.5406
▁그만	-10.5409
▁첨단	-10.5409
▁않을까	-10.5409
▁당원	-10.5411
▁의혹이	-10.5411
▁훔친	-10.5417
주세요	-10.5418
▁산업부	-10.5425
in	-10.5426
▁따뜻한	-10.543
▁내에서	-10.543
▁동행	-10.543
▁않게	-10.5441
▁맡고	-10.5441
사단	-10.5441
▁된다고	-10.5442
▁보낸	-10.5445
▁정의	-10.5445
▁현황	-10.545
▁잠정	-10.545
새누리당	-10.5452
택시	-10.5453
▁치매	-10.5456
▁보조금	-10.5458
▁바닥	-10.546
▁그리스	-10.5462
▁체	-10.5463
▁그럼에도	-10.5463
▁중동	-10.5468
▁57	-10.547
(19	-10.5473
비가	-10.5474
▁화제	-10.5475
▁줄여	-10.5477
▁뛰어	-10.5485
잘	-10.5488
▁담아	-10.5489
▁보니까	-10.5489
▁북핵	-10.5493
▁이상을	-10.5494
靑	-10.55
▁깊은	-10.55
▁반성	-10.55
▁한국에	-10.5504
틀	-10.5505
▁투표율	-10.5505
▁정도가	-10.5507
랩	-10.5509
▁단순	-10.5513
▁이종	-10.5518
▁배려	-10.5519
▁겪고	-10.552
▁갤럭시	-10.5525
▁쪽으로	-10.5526
▁맨	-10.5527
▁클	-10.5527
▁서울역	-10.5532
▁모인	-10.5534
▁내지	-10.5535
▁개관	-10.5542
▁들어간	-10.5545
▁동시	-10.5546
re	-10.5551
04	-10.5551
▁관행	-10.5552
▁매체	-10.5552
▁코스	-10.5555
▁표정	-10.5563
▁매출액은	-10.5563
▁탑승	-10.5563
▁전망했다	-10.5566
▁02-398-4409	-10.5567
학회	-10.5571
▁누군가	-10.5571
▁장학금	-10.5575
▁만날	-10.5575
4441(	-10.5578
▁사업장	-10.5579
▁헤	-10.5579
▁법인세	-10.5582
▁rights	-10.5584
▁원인은	-10.5585
고속도로	-10.5585
▁방역	-10.5587
▁3.3	-10.5588
전남	-10.5588
▁존중	-10.5598
짓	-10.5598
▁검	-10.5601
▁근절	-10.5602
▁비대위	-10.5604
▁reserved	-10.5606
▁들어서는	-10.5607
▁유감	-10.561
▁국면	-10.561
칙	-10.561
▁분야에서	-10.5616
▁영상을	-10.562
▁보자	-10.5622
▁배우자	-10.5624
념	-10.5625
▁기조	-10.5626
▁곽	-10.5628
▁고등학교	-10.5629
▁교수님	-10.5631
▁붙잡혔다	-10.5631
83	-10.5632
▁루	-10.5632
▁http	-10.5637
▁축구	-10.5638
▁뭔가	-10.5639
▁시가총액	-10.564
▁구체적으로	-10.564
▁휘발유	-10.5641
▁손실	-10.5641
▁한해	-10.5641
w	-10.5642
▁플랫폼	-10.5644
▁전시회	-10.5645
▁해마다	-10.5651
▁유형	-10.5652
▁국정조사	-10.5653
머리	-10.5656
▁경남도	-10.5656
▁내야	-10.5656
...2	-10.5661
▁마련했다	-10.5662
비는	-10.5662
▁O	-10.5663
만개	-10.5664
하다고	-10.5667
주식	-10.5668
▁된다는	-10.5669
▁금액은	-10.5669
장에서	-10.567
▁불가	-10.567
▁점은	-10.5671
▁어려움을	-10.5672
▁발언을	-10.5675
▁끼	-10.5676
▁비행	-10.5682
▁분쟁	-10.5682
▁성향	-10.5683
▁색	-10.5683
▁오랜	-10.5685
▁몸을	-10.5688
▁막판	-10.5689
운전	-10.5689
특검	-10.569
률이	-10.5692
▁마이너스	-10.5693
해온	-10.5694
▁무효	-10.5697
▁기아차	-10.57
▁68	-10.5701
▁커뮤니티	-10.5702
▁토대로	-10.5703
▁종류	-10.5704
▁떨	-10.5711
일은	-10.5712
닝	-10.5712
▁김치	-10.5715
▁헤럴드	-10.5716
▁측근	-10.5717
▁중학교	-10.5721
09	-10.5721
▁편이다	-10.5727
▁말했습니다	-10.5728
▁1.5	-10.5731
해경	-10.5733
▁고려해	-10.5734
▁...'	-10.5738
SS	-10.5738
했어요	-10.5739
보고서	-10.5739
▁알려졌습니다	-10.574
▁비대위원장	-10.5742
▁나옵니다	-10.5744
▁보유한	-10.5744
▁태국	-10.5745
▁매력	-10.5747
▁미칠	-10.5751
▁전과	-10.5751
▁박영선	-10.5755
전문가	-10.5755
▁이어갔다	-10.5756
투자증권	-10.5756
▁작	-10.576
랜드	-10.576
▁차지	-10.5764
▁이것은	-10.5765
드는	-10.5765
분이	-10.5766
71	-10.5769
▁크	-10.5769
▁선정됐다	-10.577
▁쇄신	-10.5771
▁관측	-10.5773
▁고가	-10.5774
▁별로	-10.5778
▁싸움	-10.5782
▁조율	-10.5785
▁강요	-10.5788
▁최근에는	-10.5788
▁놓	-10.5789
▁화학	-10.579
▁충청	-10.5793
▁가격을	-10.5793
▁건의	-10.5795
▁의원을	-10.5797
▁녹	-10.5797
▁총리는	-10.5798
▁강의	-10.5801
▁성격	-10.5803
▁기상	-10.5806
▁야간	-10.5808
특위	-10.5809
▁이뤄질	-10.5809
▁승	-10.5809
▁라디오	-10.5811
여건	-10.5812
예술	-10.5812
▁항소	-10.5816
▁옥	-10.5819
▁사고를	-10.5819
▁법원은	-10.5822
수당	-10.5823
▁받아야	-10.5824
▁사건의	-10.5825
▁오찬	-10.583
▁싶어	-10.5831
r	-10.5835
▁참여할	-10.5836
▁지사는	-10.5837
감독	-10.584
▁58	-10.5842
좌	-10.5844
▁설명이다	-10.5845
개월만에	-10.5847
▁여야가	-10.5849
겼다	-10.586
▁.."	-10.5862
▁벗어나	-10.5863
▁식으로	-10.5873
▁부자	-10.5876
부대	-10.5876
▁표결	-10.588
▁이란	-10.5881
▁회사는	-10.5884
▁의류	-10.5886
▁집안	-10.589
▁김한길	-10.5891
▁아나운서	-10.5893
▁광장	-10.5898
▁수여	-10.5901
▁생생뉴스	-10.5903
▁침수	-10.5903
총선	-10.5904
▁▼	-10.5909
▁www	-10.5913
물질	-10.5916
▁약세	-10.5918
▁송치	-10.5919
▁조문	-10.592
▁여객선	-10.592
▁위해서다	-10.5922
▁수요가	-10.5923
▁갑	-10.5923
▁방해	-10.5924
질환	-10.5926
원에서	-10.5927
▁빅	-10.5928
타운	-10.5929
식을	-10.5929
징	-10.593
▁당부	-10.5931
▁풀이된다	-10.5934
▁우병우	-10.5935
▁크리스마스	-10.5936
절차	-10.5944
▁특징	-10.5946
▁찾을	-10.5953
▁곳에서	-10.5954
▁추산	-10.5954
▁병원에서	-10.5957
▁그렇다고	-10.5957
▁행운	-10.596
ilbo	-10.5963
▁안된다	-10.5964
▁경비	-10.5968
jose	-10.5969
▁전해	-10.5974
▁사람도	-10.5974
▁전형	-10.5976
▁자회사	-10.5976
▁주관	-10.5979
▁촉구했다	-10.5979
▁즐기는	-10.5979
06	-10.5983
▁주유소	-10.5984
▁점유율	-10.5985
▁중국은	-10.5987
▁비례대표	-10.5987
▁소비자물가	-10.5989
比	-10.5989
▁당한	-10.599
▁조사할	-10.5992
...”	-10.5992
▁덕	-10.5994
▁신용등급	-10.5995
▁정도의	-10.5995
빅	-10.5995
▁하이	-10.5996
▁함께하는	-10.5996
▁인사말	-10.6
▁챙긴	-10.6001
맞	-10.6002
▁적용된다	-10.601
▁덮	-10.6011
▁결정할	-10.6014
▁막을	-10.6015
▁방법이	-10.6016
분석	-10.6016
▁친박계	-10.602
▁진정	-10.6021
▁눈길	-10.6026
▁박정희	-10.6028
▁실형	-10.6028
▁떼	-10.6028
▁0.1%	-10.6031
▁계파	-10.6031
▁선원	-10.6036
▁나서는	-10.6041
▁돼야	-10.6044
립니다	-10.6046
칼	-10.6047
▁악재	-10.6048
▁국방	-10.6048
▁시세	-10.6049
▁색상	-10.605
▁180	-10.6051
받	-10.6053
▁만들고	-10.6053
92	-10.6058
▁130	-10.606
▁외면	-10.6061
▁결정했다	-10.6062
▁조항	-10.6063
▁후보로	-10.6068
▁지식	-10.607
젠	-10.6071
▁개념	-10.6074
▁원에	-10.6074
▁삼성전자는	-10.6077
▁특별법	-10.6078
▁安	-10.608
▁철수	-10.6083
▁센터	-10.6087
▁의지를	-10.6088
▁부장	-10.6091
상의	-10.6094
▁내놨다	-10.6094
▁대가	-10.6095
▁닫	-10.6096
나눔	-10.6098
▁불가능	-10.6098
▁캐나다	-10.6099
▁당국은	-10.6099
▁리콜	-10.6102
▁죽음	-10.6103
인증	-10.6105
능	-10.6111
▁보냈다	-10.6112
▁격려	-10.6114
▁회의를	-10.6119
▁and	-10.6122
▁롯데마트	-10.6122
▁롯데백화점	-10.6123
▁L	-10.6124
▁결과에	-10.6127
▁해산	-10.6129
▁소식에	-10.613
벨	-10.6131
▁변수	-10.6132
▁출동	-10.6132
▁결심	-10.6133
발표	-10.6136
▁재원	-10.6137
번호	-10.6138
액이	-10.6139
▁일하는	-10.6143
▁폭탄	-10.6146
끝	-10.6147
▁기능을	-10.6151
▁해수부	-10.6151
▁입점	-10.6157
▁짜	-10.6159
▁그것은	-10.6161
▁자랑	-10.6162
82	-10.6163
▁경찰청	-10.6166
▁나갈	-10.6167
▁바이오	-10.6168
▁늘어나는	-10.6171
▁세트	-10.6171
문을	-10.6172
▁하향	-10.6173
부담	-10.6173
▁토요일	-10.6175
▁갑질	-10.6176
▁서울에서	-10.6176
▁Δ	-10.6177
량은	-10.6182
▁드론	-10.6182
▁겁니까	-10.6187
▁농장	-10.6188
엠	-10.6189
▁택배	-10.6191
예방	-10.6193
▁우리은행	-10.6193
▁수학	-10.6194
▁부분을	-10.6198
사장	-10.62
▁배정	-10.62
셨	-10.6202
on	-10.6202
조건	-10.6202
집회	-10.6202
▁사용하는	-10.6203
▁곳도	-10.6203
▁음료	-10.6203
▁낮아	-10.6203
▁콘서트	-10.6205
▁사업은	-10.6205
▁현상이	-10.6211
▁사용자	-10.6215
▁삶의	-10.6217
▁넘었다	-10.622
▁기간에	-10.622
설계	-10.6221
▁높아졌다	-10.6221
▁영업익	-10.6222
▁자진	-10.6224
▁사랑의	-10.6224
▁뒤늦게	-10.6226
▁의문	-10.623
▁빈소	-10.6231
▁주주	-10.6232
리스	-10.6233
앵커	-10.6237
▁내리는	-10.6238
지원센터	-10.6242
▁미래를	-10.6243
▁기회가	-10.6244
▁신분	-10.6245
▁만났다	-10.6247
해질	-10.6249
▁흔들	-10.625
▁운명	-10.6251
▁공조	-10.6252
07	-10.6253
단은	-10.6255
▁오를	-10.6255
▁농민	-10.6261
세상	-10.6262
▁김대중	-10.6264
▁최고기온은	-10.6269
▁간의	-10.6271
安	-10.6272
▁말은	-10.6276
폭탄	-10.6279
▁벌였다	-10.6283
만원이	-10.6284
▁나오지	-10.6287
▁질병	-10.6288
공급	-10.629
▁판문점	-10.6292
▁정부에	-10.6293
▁석방	-10.6294
▁무조건	-10.6295
올림픽	-10.6295
▁눈을	-10.6297
▁당선자	-10.6297
▁풍경	-10.6298
▁않기	-10.63
▁주간	-10.6301
▁계절	-10.6302
▁의회	-10.6304
▁금요일	-10.6305
공천	-10.631
더라	-10.6312
보통	-10.6313
▁예산을	-10.6314
▁유포	-10.6315
▁김정	-10.6317
▁늘어나	-10.6318
▁대상자	-10.632
▁상당한	-10.632
영화	-10.6321
▁상호	-10.6322
▁수험생	-10.6324
▁이들을	-10.6325
▁표준	-10.6325
끼	-10.633
▁기자회견을	-10.633
▁공제	-10.6332
한국당	-10.6333
▁직원이	-10.6334
2011	-10.6336
▁성범죄	-10.634
ing	-10.634
아동	-10.6342
▁그렇다	-10.6344
▁폭으로	-10.6345
▁왔	-10.6346
▁미국은	-10.6346
지가	-10.6348
▁발간	-10.6351
시위	-10.6353
▁때가	-10.6353
▁많고	-10.6353
수익	-10.6356
해양	-10.6357
▁실시한다	-10.6358
탄핵	-10.6358
쓰	-10.6358
▁보험사	-10.637
▁구도	-10.637
▁늘어난다	-10.6371
▁실행	-10.6372
비서관	-10.6377
▁신년	-10.638
▁보건복지부	-10.6383
▁수준의	-10.6392
▁형태로	-10.6397
▁벽	-10.6398
▁필	-10.6399
▁광주시	-10.6401
▁72	-10.6402
-3	-10.6403
▁삼성물산	-10.6403
▁넣어	-10.6403
▁종이	-10.6403
수도권	-10.6407
▁가방	-10.6408
▁천안	-10.641
▁결코	-10.6412
▁대안	-10.6413
▁대답	-10.6414
▁덕분에	-10.6414
▁67	-10.6414
정지	-10.6416
큰	-10.642
오전	-10.642
▁뽑	-10.6421
몸	-10.6422
세기	-10.6423
▁EU	-10.6426
수를	-10.6426
되나	-10.6427
▁이뤄진다	-10.6431
▁경찰청장	-10.6433
▁일반인	-10.6433
▁주류	-10.6436
▁해운대	-10.6441
▁가슴	-10.6441
▁머	-10.6442
▁트럭	-10.6447
▁전개	-10.6448
▁만찬	-10.6448
▁특강	-10.6448
▁철저히	-10.6449
월말	-10.645
▁별도	-10.6454
▁무대	-10.6455
▁회계	-10.646
▁부각	-10.6461
▁그간	-10.6462
▁가려	-10.6463
▁육박	-10.6465
클	-10.6468
▁영양	-10.6468
▁사찰	-10.6469
▁62	-10.6471
▁참석하는	-10.6474
▁대부분의	-10.6478
시께	-10.6482
▁번째로	-10.6487
▁대표를	-10.6491
▁대화를	-10.6491
▁물량	-10.6492
▁트렌드	-10.6492
▁찍	-10.6492
베이	-10.6493
▁울산시	-10.6495
▁건가요	-10.6495
파크	-10.6498
▁자율	-10.6498
▁위헌	-10.6501
였	-10.6504
▁위촉	-10.6505
▁방어	-10.6508
▁있었	-10.6511
▁수익률	-10.6512
▁내다봤다	-10.6514
자들이	-10.6515
▁보복	-10.6515
또	-10.6516
▁기증	-10.6518
▁듣는	-10.6518
▁탑재	-10.6519
▁교육을	-10.6521
▁공익	-10.6522
▁금융시장	-10.6524
▁상습	-10.6526
▁선전	-10.6529
▁신청을	-10.6531
▁작전	-10.6532
화를	-10.6533
▁소상공인	-10.6533
▁대행	-10.6535
이슈	-10.6537
에겐	-10.6537
▁말해	-10.6538
▁학	-10.6538
▁붙잡혔습니다	-10.6539
▁110	-10.6544
▁체계	-10.6544
▁해요	-10.6546
봄	-10.6547
▁넘어서	-10.6549
▁당국	-10.655
▁그것	-10.6553
▁오늘도	-10.6553
91	-10.6554
▁청산	-10.6554
GM	-10.6556
원의	-10.6556
▁학생들은	-10.6557
▁않겠다	-10.6559
웨이	-10.656
▁선포	-10.656
▁교수가	-10.6561
▁헌법재판소	-10.6562
▁남성은	-10.6562
▁논문	-10.6565
▁해당한다	-10.6567
철도	-10.6572
▁대국민	-10.6579
▁이른	-10.6586
▁권한	-10.6588
▁자세히	-10.6589
AI	-10.659
▁이르는	-10.6591
▁운영하고	-10.6592
▁추세다	-10.6594
▁전망입니다	-10.6595
▁문제도	-10.6596
▁미치는	-10.6597
▁무게	-10.6598
▁1500	-10.6598
▁후속	-10.66
▁휴대폰	-10.6603
업종	-10.6604
▁몰아	-10.6605
스럽다	-10.6608
▁군산	-10.6609
▁여기까지	-10.661
▁말도	-10.6612
▁조현아	-10.6616
▁음식점	-10.6621
▁연평균	-10.6626
▁가끔	-10.6627
▁물질	-10.6629
2015	-10.6629
▁재배	-10.6637
▁조회	-10.6637
같은	-10.6641
▁내륙	-10.6641
▁롯데그룹	-10.6642
▁요구하는	-10.6643
▁출시했다	-10.6645
▁원내대표가	-10.6651
줬다	-10.6652
자본	-10.6653
▁우유	-10.6655
▁많	-10.666
▁수산물	-10.6662
▁잡았다	-10.6662
▁음	-10.6664
▁치킨	-10.6665
▁취약	-10.6669
▁최고치	-10.6669
▁걸린	-10.667
해진다	-10.6671
▁모금	-10.6673
▁신청할	-10.6673
▁나왔	-10.6674
▁실시간	-10.6678
▁이재	-10.668
▁깜짝	-10.6686
▁맹	-10.669
수요	-10.6691
▁송파구	-10.6694
▁많지	-10.6695
지기	-10.67
▁별도로	-10.6702
▁상승세를	-10.6704
▁고성	-10.6705
▁비행기	-10.6706
▁주변에	-10.6713
▁확	-10.6714
▁일자리를	-10.6714
▁오르	-10.6714
▁꺼내	-10.6715
▁깊이	-10.6718
▁수치	-10.6719
▁진행되고	-10.672
▁직원들	-10.672
▁포함됐다	-10.672
▁면적	-10.6723
▁있습니까	-10.6723
참여	-10.6723
▁날씨가	-10.6725
▁절도	-10.6727
쌀	-10.6727
▁모양	-10.6731
▁평생	-10.6732
▁잇단	-10.6734
지면	-10.6739
▁정세균	-10.674
▁노회찬	-10.6742
▁신선한	-10.6743
▁김현	-10.6744
▁교육청	-10.6746
▁수백	-10.6746
▁선호	-10.6747
▁그나마	-10.6748
▁몫	-10.6749
하라고	-10.675
렁	-10.675
▁시점	-10.675
81	-10.675
▁해안	-10.6751
▁상태로	-10.6752
▁아이들이	-10.6753
▁산업혁명	-10.6754
▁아베	-10.6755
與	-10.6758
▁기술을	-10.6759
▁보이	-10.6762
▁내년도	-10.6767
▁선생	-10.6767
신도시	-10.6773
▁받기	-10.6773
▁난민	-10.6773
푸드	-10.6774
▁피해는	-10.6778
지사	-10.6778
전을	-10.6781
▁왜곡	-10.6785
▁관세청	-10.6789
▁당했다	-10.679
▁정전	-10.6792
▁차를	-10.6794
▁농성	-10.6796
▁선체	-10.6803
▁국무회의	-10.6807
▁퇴	-10.6808
꾼	-10.6808
▁거기에	-10.6809
지검	-10.6809
▁감찰	-10.681
▁조사에	-10.6811
▁순으로	-10.6813
▁설치된	-10.6813
▁현대중공업	-10.6813
▁후보자는	-10.6816
▁경제가	-10.6816
▁휘	-10.6816
되자	-10.6817
▁조심	-10.6819
빵	-10.682
▁애초	-10.6823
▁61	-10.6824
▁다섯	-10.6825
▁탈락	-10.6825
칭	-10.6826
▁인도네시아	-10.6828
▁계획입니다	-10.683
치기	-10.6832
▁대치	-10.6834
▁오염	-10.6835
▁흡연	-10.6835
▁1~2	-10.6839
▁이밖에	-10.6842
▁전용면적	-10.6846
▁세금을	-10.6846
▁시작한다	-10.685
▁넘는다	-10.6851
▁힘들어	-10.6852
바다	-10.6852
비율	-10.6854
▁맞서	-10.6855
핵	-10.6857
▁배터리	-10.6858
▁최선을	-10.6858
▁펼쳐	-10.6859
▁노력을	-10.6861
▁건데요	-10.6866
▁투기	-10.6871
▁위조	-10.6876
▁주인공	-10.6878
▁해법	-10.6879
▁산하	-10.6879
둘	-10.6879
▁임시국회	-10.688
▁직원들이	-10.6881
▁국제유가	-10.6883
▁내놓은	-10.6884
▁않다는	-10.6887
교실	-10.6887
▁커졌다	-10.6889
▁Ltd	-10.6891
▁캐릭터	-10.6892
▁경상	-10.6892
▁맡았다	-10.6893
비상	-10.6895
했	-10.6896
▁오리	-10.6898
▁월요일	-10.6901
▁한창	-10.6904
▁생긴	-10.6904
▁꿈을	-10.6906
행복	-10.6906
▁반대로	-10.6907
▁故	-10.6911
▁측면에서	-10.6913
▁가계대출	-10.6913
▁발휘	-10.6913
▁영업이익은	-10.6914
▁서구	-10.6914
~20	-10.6914
▁0.5	-10.6916
공개	-10.6917
▁재료	-10.6918
▁비서관	-10.692
▁있을지	-10.6921
▁0.2%	-10.6923
▁구름	-10.6925
▁경제민주화	-10.6926
▁초등학생	-10.6929
▁결의	-10.693
▁공모전	-10.6932
법을	-10.6933
2012	-10.6935
▁상태에서	-10.6935
▁유행	-10.6937
2013	-10.694
▁가져	-10.6945
▁활용한	-10.6949
▁진행했다	-10.6949
간다	-10.6949
피아	-10.6951
오는	-10.6951
▁의식	-10.6954
▁최장	-10.6958
선물	-10.6961
▁군은	-10.6963
▁성희롱	-10.6966
go	-10.6967
법안	-10.6968
했나	-10.6971
▁Content	-10.6976
쳤	-10.6977
삭	-10.6978
▁한중	-10.6981
▁인기가	-10.6983
▁양보	-10.6986
뜨	-10.6986
▁경제부총리	-10.699
▁나아가	-10.6991
인구	-10.6993
▁이탈	-10.6995
▁건너	-10.6995
농업	-10.6999
▁이정현	-10.6999
▁유발	-10.7
▁와서	-10.7002
거래일	-10.7004
▁목소리도	-10.7004
▁추위	-10.7004
지게	-10.7004
접	-10.7005
의혹	-10.7005
▁담겨	-10.7006
진흥	-10.7006
▁명령	-10.7012
▁무시	-10.7015
▁김모	-10.7015
▁채무	-10.7016
▁슬	-10.7017
▁운	-10.7018
▁화물차	-10.7019
▁중에는	-10.702
▁자원	-10.702
▁이거	-10.7021
▁나도	-10.7022
만원대	-10.7022
▁측이	-10.7026
▁대담	-10.7028
▁이벤트를	-10.7031
▁산림	-10.7032
▁높여	-10.7035
▁발표할	-10.7036
▁소방관	-10.7037
▁한국에서	-10.7037
▁끊	-10.7041
전선	-10.7045
▁퇴임	-10.7046
▁폭락	-10.7047
▁부패	-10.7048
레이	-10.7053
▁밀려	-10.7053
▁군인	-10.7054
▁기업에	-10.7055
확	-10.7056
▁선생님	-10.7056
▁밖으로	-10.7057
SK	-10.7061
▁주가가	-10.7062
호남	-10.7063
▁형태	-10.7064
▁한파	-10.7072
▁'1	-10.7072
▁유지했다	-10.7081
▁담합	-10.7084
▁보증	-10.7092
▁하나는	-10.7093
▁소집	-10.7095
▁치열한	-10.7096
▁홀로	-10.7097
▁활용해	-10.7097
보장	-10.7098
기간은	-10.7101
한미	-10.7101
▁쉬	-10.7104
투쟁	-10.7107
▁112	-10.7111
▁나중에	-10.7112
▁여성신문	-10.7113
점에서	-10.7115
▁차량이	-10.7116
강남	-10.7118
▁물류	-10.7121
박물관	-10.7122
▁한국과	-10.7122
▁후보와	-10.7124
▁성사	-10.7126
았	-10.7127
▁하던	-10.7129
▁쉬운	-10.7129
▁카카오	-10.713
▁올해도	-10.7131
▁현실화	-10.7137
▁수사가	-10.7137
중앙일보	-10.7143
▁범인	-10.7143
▁적극적인	-10.7145
▁김정일	-10.7146
였고	-10.7147
▁지인	-10.7147
▁갖는	-10.7153
트리	-10.7153
▁유일한	-10.7154
▁서울시가	-10.7154
▁약간	-10.7154
▁추정된다	-10.7156
▁얼음	-10.7156
▁여야는	-10.7156
총장	-10.7161
▁견	-10.7165
▁이유를	-10.7165
▁V	-10.7166
▁무엇이	-10.7168
▁당의	-10.7169
▁것인지	-10.7171
▁간사	-10.7171
전환	-10.7177
▁입시	-10.7178
▁페스티벌	-10.7178
▁분위기다	-10.7179
▁놀	-10.7181
▁남북관계	-10.7183
▁이하의	-10.7183
▁범행을	-10.7184
▁거짓말	-10.7184
▁화성	-10.7184
▁역량	-10.7184
뚝	-10.7185
▁사면	-10.7186
실에서	-10.7187
▁병행	-10.7191
▁적었다	-10.7197
▁당대표	-10.7201
▁지휘	-10.7201
▁라면	-10.7203
▁생긴다	-10.7204
▁없으면	-10.7206
▁고려대	-10.7207
▁국채	-10.7207
▁여파	-10.7207
▁오바마	-10.7207
구청장	-10.7207
급여	-10.7208
▁열리고	-10.7209
경선	-10.721
▁♧	-10.7212
▁분위기가	-10.7219
▁라인	-10.7219
빗	-10.7219
▁잡은	-10.7223
방향	-10.7223
▁합류	-10.7224
▁조절	-10.7225
(20	-10.7226
교류	-10.7231
▁기상청은	-10.7231
다리	-10.7234
소방서	-10.7235
▁선도	-10.7236
틴	-10.7238
▁아니라는	-10.7239
▁제약	-10.7239
▁흘러	-10.724
▁힘들	-10.7241
전형	-10.7242
치고	-10.7243
▁보지	-10.7243
▁긍정적	-10.7244
▁그러다	-10.7244
▁의원도	-10.7246
▁없기	-10.7248
유럽	-10.7248
▁수준이	-10.7248
▁저렴한	-10.7249
▁김씨	-10.7253
▁국민들이	-10.7255
멸	-10.7256
▁고심	-10.7257
▁당부했다	-10.7258
▁공동대표	-10.7258
▁시계	-10.7259
푸	-10.726
▁척	-10.7261
심리	-10.7261
▁사업이	-10.7263
▁시정	-10.7263
▁자극	-10.7268
엄마	-10.7271
적이다	-10.7272
▁보인	-10.7272
▁프로모션	-10.7273
▁상임위	-10.7273
▁조국	-10.7274
▁아이가	-10.7275
▁선물세트	-10.7275
▁사법	-10.7275
▁거절	-10.7278
~10	-10.7281
▁거래일보다	-10.7281
03	-10.7287
▁다쳐	-10.7288
▁접속	-10.7293
예요	-10.7293
▁하나다	-10.7296
▁꺼	-10.7297
▁경찰서	-10.7298
▁참여한	-10.7298
▁신호	-10.7299
하이닉스	-10.7303
▁요인	-10.7305
수술	-10.7306
▁1990	-10.7306
▁낮았다	-10.7306
▁NH	-10.7311
▁미니	-10.7312
팩	-10.7313
▁출마를	-10.7313
▁조금씩	-10.7317
▁대립	-10.7319
▁집값	-10.7322
▁원주	-10.7322
▁김태	-10.7324
PC	-10.7327
▁5.	-10.7329
▁IMF	-10.7329
▁혹은	-10.733
▁파행	-10.7331
▁주체	-10.7332
▁연출	-10.7333
세가	-10.7334
임금	-10.7337
▁이어져	-10.7338
방지	-10.7339
▁진행하고	-10.734
▁운세	-10.7341
▁동구	-10.7345
▁영동	-10.7345
▁옆에	-10.7346
겠지만	-10.7348
▁주목된다	-10.735
▁마라	-10.7354
▁구청	-10.7354
얼	-10.7355
▁우리나라는	-10.7356
▁세워	-10.7357
수수료	-10.7359
▁대목	-10.7359
콜	-10.736
▁재무	-10.736
▁같	-10.7361
▁주민들은	-10.7363
지난	-10.7364
국감	-10.7365
▁꼽	-10.7365
▁드러나	-10.7366
샵	-10.7367
▁대통령에게	-10.7367
▁배송	-10.7368
▁통영	-10.737
an	-10.7383
중소기업	-10.7386
▁6000	-10.7387
갈등	-10.7387
(11	-10.7389
▁뒤에	-10.7389
▁상상	-10.7391
▁방화	-10.7397
▁95	-10.7397
▁이걸	-10.7404
▁마찬가지	-10.7404
▁사흘	-10.7405
▁김부겸	-10.7407
▁김동	-10.7409
▁전경련	-10.7413
직을	-10.7416
대화	-10.7418
▁임박	-10.7419
▁도와	-10.7421
가요	-10.7422
다면	-10.7422
▁임신	-10.7424
▁편지	-10.7427
기념	-10.7428
▁맞았다	-10.7428
내용	-10.7429
▁방법을	-10.743
▁아무리	-10.743
▁남북정상회담	-10.743
▁파손	-10.7431
▁통계청	-10.7435
▁말한	-10.7439
▁미국에서	-10.7439
▁동향	-10.744
출연	-10.7441
이지	-10.7443
▁한일	-10.7443
▁체감	-10.7444
▁가결	-10.7444
분간	-10.7445
▁작동	-10.7448
▁인수위	-10.7448
▁북구	-10.7453
▁중순	-10.7453
▁주민들이	-10.746
▁공개된	-10.7461
▁아프리카	-10.7462
▁제도를	-10.7463
▁설비	-10.7465
강원	-10.7466
금을	-10.7467
되기도	-10.7468
▁고정	-10.7468
감이	-10.7469
▁흐름	-10.7471
짐	-10.7474
▁좌	-10.7476
▁공세	-10.7477
▁전국적으로	-10.748
▁나쁜	-10.7481
▁전문위원	-10.7481
▁전망치	-10.7481
▁인공	-10.7482
기사	-10.7483
▁금리인상	-10.7485
▁북부	-10.7485
▁민족	-10.7486
▁단행	-10.7487
▁후폭풍	-10.749
▁돈은	-10.749
▁국적	-10.749
▁팬	-10.7491
▁격리	-10.7494
시기	-10.7496
▁잡기	-10.7498
▁예외	-10.7499
전기	-10.75
▁견제	-10.7502
▁예상했다	-10.7502
▁실질	-10.7502
▁총괄	-10.7503
▁장중	-10.7505
▁의미를	-10.7505
▁나를	-10.7506
프로그램	-10.7507
▁부위원장	-10.7508
▁우려도	-10.7511
▁줄줄이	-10.7512
▁나타나	-10.7513
▁공직	-10.7517
▁몰라	-10.7517
보건	-10.752
군의	-10.7523
▁별다른	-10.7523
닥	-10.7525
▁어디에	-10.753
▁판정	-10.753
▁때부터	-10.753
▁도서관	-10.7535
▁LH	-10.7536
▁시행령	-10.7538
▁인원	-10.7538
Q	-10.7539
▁저지	-10.754
▁영향이	-10.7543
▁방향으로	-10.7544
▁수출이	-10.7544
▁지지를	-10.7545
모임	-10.7546
▁정몽준	-10.7546
▁미국이	-10.7546
▁선보였다	-10.7547
▁말로	-10.7548
만원씩	-10.755
년새	-10.755
▁불황	-10.7551
기기	-10.7554
▁병역	-10.756
▁높아지고	-10.7561
▁오류	-10.7565
줘	-10.7565
▁명을	-10.7565
▁69	-10.7567
▁정착	-10.7569
▁이뤄진	-10.7571
▁갔	-10.7571
▁최악의	-10.7572
▁뒤집	-10.7573
▁대구시	-10.7575
하자는	-10.7576
▁상실	-10.7577
▁청사	-10.758
건이	-10.7581
▁주요뉴스	-10.7581
▁전역	-10.7582
▁밟	-10.7582
▁하나가	-10.7583
▁외에도	-10.7587
▁표심	-10.759
▁기금	-10.759
▁맥	-10.7591
▁시작해	-10.7594
▁취급	-10.7594
▁유서	-10.7595
▁비전	-10.7606
▁되겠다	-10.7607
주고	-10.7611
살인	-10.7612
▁찾아가	-10.7614
▁생각하고	-10.7615
랐	-10.7616
공동	-10.7617
▁편집	-10.7618
윈	-10.762
점이	-10.7621
▁업무보고	-10.7621
▁정밀	-10.7622
▁거라고	-10.7628
▁요청했다	-10.763
▁관계를	-10.7634
▁충전	-10.7634
▁주한	-10.7637
공약	-10.7637
조합	-10.7638
▁정동영	-10.7639
▁비공개	-10.764
▁물었다	-10.7641
▁손에	-10.7642
▁분석이	-10.7644
▁국회가	-10.7645
시장에서	-10.7645
▁금융위	-10.7646
▁0.5%	-10.7648
계좌	-10.765
센	-10.7657
▁신한은행	-10.7659
▁용역	-10.766
세종	-10.7663
지면서	-10.7668
▁연세대	-10.7669
▁인사말하는	-10.7669
중심	-10.767
차로	-10.7672
(15	-10.7673
▁명동	-10.7673
슈	-10.7676
▁언어	-10.7677
▁책을	-10.768
▁잊지	-10.7682
▁될까	-10.7682
조원을	-10.7683
딸	-10.7684
▁임용	-10.7687
▁명칭	-10.7688
▁예상됩니다	-10.7691
▁갈등이	-10.7692
▁이탈리아	-10.7694
▁야당은	-10.7694
▁날이	-10.77
2014	-10.7702
▁카드사	-10.7705
▁늦게	-10.7705
▁고리	-10.7708
▁한류	-10.771
▁진주	-10.7713
▁짧은	-10.7715
▁TF	-10.7716
▁당첨번호	-10.7716
▁주의보	-10.7719
▁이름이	-10.772
▁벌어진	-10.772
▁조명	-10.7723
▁성금	-10.7725
▁걸로	-10.7726
▁알게	-10.7726
속도	-10.7732
▁자문	-10.7734
▁논쟁	-10.7737
▁갚	-10.7737
있	-10.7738
▁에어컨	-10.7738
▁맞다	-10.7738
▁서부	-10.7742
▁맡아	-10.7744
▁잃은	-10.7748
▁타격	-10.7748
진보	-10.7754
대와	-10.7754
▁개의	-10.7754
▁열기	-10.7754
근무	-10.7754
▁=========	-10.7755
▁멈춰	-10.7756
▁강사	-10.7757
▁총파업	-10.7757
▁장기화	-10.7762
▁도쿄	-10.7763
▁심정	-10.7764
▁금연	-10.7765
▁새누리당이	-10.7765
▁증가율	-10.7765
숲	-10.7765
▁드러냈다	-10.7767
보자	-10.7769
▁지내	-10.777
▁사용한	-10.7771
▁만만치	-10.7771
▁오르는	-10.7772
서울신문사	-10.7772
▁요소	-10.7774
▁발생하는	-10.7774
▁프로그램을	-10.7775
▁품	-10.7777
▁달러로	-10.778
보증	-10.7781
▁총수	-10.7782
▁의견도	-10.7783
▁이끌어	-10.7788
지로	-10.7789
사상	-10.7789
▁주장이	-10.779
▁대변인은	-10.779
▁김장	-10.779
클럽	-10.7793
테크	-10.7793
▁이전에	-10.7797
▁시민들의	-10.7798
▁까	-10.7803
분양	-10.7804
▁맞지	-10.7804
▁급감	-10.7805
▁일제	-10.7807
▁도약	-10.7808
▁아무런	-10.7809
▁출발했다	-10.781
▁치열	-10.781
▁74	-10.7813
수원	-10.7813
린다	-10.7815
작전	-10.7816
▁넘어가	-10.7816
▁채소	-10.7816
▁세제	-10.7818
▁남긴	-10.782
▁허리	-10.782
▁시내버스	-10.7824
▁중국이	-10.7827
점은	-10.7827
사와	-10.7828
▁입당	-10.7829
▁수익성	-10.783
▁바라보는	-10.7831
하죠	-10.7835
...3	-10.7835
▁수준에	-10.7836
▁남구	-10.7836
▁적립	-10.7837
▁작업이	-10.7838
▁생각은	-10.7841
▁신흥국	-10.7842
▁왜냐하면	-10.7843
▁장치	-10.7843
▁재고	-10.7843
정의	-10.7844
뒤	-10.7844
▁정확히	-10.7847
▁인적	-10.785
▁부장판사	-10.7853
▁투신	-10.7853
▁주식시장	-10.7854
땅	-10.7857
인가요	-10.7857
▁성분	-10.7859
▁받았습니다	-10.7864
▁계기	-10.7865
리아	-10.7866
▁이상으로	-10.7866
▁소주	-10.7867
▁없었	-10.7872
▁웃	-10.7872
▁기준을	-10.7872
들이다	-10.7875
노동자	-10.7877
▁수많은	-10.7878
행동	-10.7881
중인	-10.7881
▁순방	-10.7883
▁일본은	-10.7885
▁걸렸다	-10.7886
▁은행권	-10.7887
▁반응은	-10.7889
▁빙	-10.789
선언	-10.789
▁행사가	-10.789
▁크지	-10.7893
▁쌍용차	-10.7894
▁사전투표	-10.7895
▁특위	-10.7896
▁출	-10.7896
갔	-10.7897
▁북한에	-10.7898
▁베이징	-10.7899
셀	-10.7899
▁분열	-10.79
▁임대료	-10.7901
▁계속해서	-10.7901
그래픽	-10.7904
▁일종의	-10.7905
동에	-10.7907
▁차원	-10.7907
▁평일	-10.7911
▁조례	-10.7913
한반도	-10.7913
▁진행할	-10.7915
▁목격자	-10.7915
강화	-10.7916
저축	-10.7918
뉴	-10.792
▁드는	-10.7921
▁2001	-10.7921
▁원장은	-10.7924
▁비자금	-10.7926
▁씨와	-10.7926
▁금품	-10.7928
▁안전한	-10.7928
▁것이죠	-10.7928
▁Copyrightsc	-10.793
▁들어가는	-10.793
연맹	-10.7932
▁오해	-10.7933
▁보여주는	-10.7937
▁홈페이지를	-10.7937
▁◎	-10.7937
▁육아	-10.7938
▁같은데요	-10.794
하니	-10.7943
시죠	-10.7944
▁필요하다는	-10.7947
사용	-10.7949
▁위탁	-10.795
▁석유	-10.795
▁김기춘	-10.795
▁장면	-10.7952
▁연루	-10.7952
▁두번째	-10.7956
▁벌금형	-10.7958
▁단장	-10.7961
심판	-10.7961
놀이	-10.7964
혔다	-10.7967
▁순매수	-10.7967
▁이끌	-10.7968
▁주장을	-10.7969
▁모두가	-10.797
내는	-10.7973
▁무상	-10.7975
선수	-10.7978
반대	-10.7979
▁최고치를	-10.798
▁출동한	-10.7981
▁아직까지	-10.7983
▁종로	-10.7983
▁가상화폐	-10.7984
커피	-10.7985
▁피고인	-10.7985
▁삼성그룹	-10.7989
여명의	-10.7996
▁의원들은	-10.7997
봤다	-10.8
▁신발	-10.8002
▁홈페이지에서	-10.8003
▁고맙습니다	-10.8004
▁막아	-10.8006
▁마트	-10.8008
▁얻어	-10.8008
▁없었습니다	-10.8008
끼리	-10.801
로운	-10.801
▁박상	-10.801
▁앞으로도	-10.8012
▁전복	-10.8013
중단	-10.8013
붙	-10.8016
▁할까요	-10.8018
▁불리	-10.8018
▁안해	-10.8018
▁건강보험	-10.802
▁점수	-10.8022
▁줬다	-10.8027
▁후반	-10.8028
▁뿐만	-10.803
▁심장	-10.8033
▁총력	-10.8033
▁경험이	-10.8039
▁이야기가	-10.8041
▁컨설팅	-10.8045
▁77	-10.8046
지표	-10.8046
▁벤처	-10.8047
▁떨어지는	-10.8049
확인	-10.805
배로	-10.805
층에	-10.8055
▁섭취	-10.8055
▁빠졌다	-10.8058
▁수혜	-10.8059
▁급식	-10.8061
▁압력	-10.8062
▁고개를	-10.8062
▁손해배상	-10.8063
▁일에	-10.8064
▁저항	-10.8064
▁이어지는	-10.8067
▁71	-10.8067
광장	-10.8067
▁그것을	-10.8068
기부	-10.8069
하신	-10.8069
▁난다	-10.8069
▁황우여	-10.8069
▁조달	-10.807
▁전국의	-10.8071
▁막말	-10.8072
▁진로	-10.8074
▁객실	-10.8075
▁불을	-10.8076
▁속속	-10.8077
▁구미	-10.8077
▁들어간다	-10.8078
물을	-10.8079
▁도는	-10.8081
도까지	-10.8081
에게도	-10.8082
▁전교조	-10.8082
▁며칠	-10.8084
▁없었던	-10.8087
▁침묵	-10.8088
▁각자	-10.8089
▁일각에서는	-10.8089
▁모르겠다	-10.8091
▁착	-10.8092
(-1	-10.8094
▁검토하고	-10.8094
해지는	-10.8095
▁온도	-10.8099
적이고	-10.8102
▁연수	-10.8102
▁테	-10.8106
▁계약을	-10.8108
▁가졌다	-10.8109
▁높이는	-10.8111
여부	-10.8113
미터	-10.8114
▁올해부터	-10.8115
▁수출은	-10.8116
▁그랬	-10.8116
▁짓	-10.812
▁가치를	-10.812
▁장사	-10.8124
▁꾸	-10.8126
▁사회공헌	-10.8126
최대	-10.8128
타워	-10.8129
▁근로	-10.813
졸	-10.8131
설명회	-10.8134
▁마주	-10.8136
받는다	-10.8136
▁전까지	-10.8138
▁자꾸	-10.8139
▁고용노동부	-10.8141
▁늦	-10.8144
▁밑	-10.8147
INT	-10.8149
튼	-10.815
▁싶	-10.8154
▁끌	-10.8154
▁받았	-10.8154
스는	-10.8155
▁소중한	-10.8157
▁나면	-10.8158
▁보육	-10.8158
▁일도	-10.8159
결제	-10.816
▁경로	-10.8162
▁되었다	-10.8162
▁정작	-10.8162
했는지	-10.8162
▁다니는	-10.8162
수지	-10.8162
▁든다	-10.8165
▁축사	-10.8166
▁걷	-10.8166
▁꽤	-10.8167
▁인권위	-10.8167
▁그날	-10.8168
▁73	-10.817
▁시동	-10.8172
장과	-10.8173
▁소위	-10.8175
▁최우선	-10.8175
▁수거	-10.8177
대한	-10.8177
▁동반성장	-10.8178
▁88	-10.8181
2016	-10.8182
▁주부	-10.8183
▁배추	-10.8184
근로자	-10.8185
▁일시	-10.8186
▁녹색	-10.8186
▁열풍	-10.8186
▁연말정산	-10.8188
▁신체	-10.8188
▁청와대가	-10.819
▁원내	-10.8191
바이오	-10.8191
▁석탄	-10.8192
▁봐도	-10.8194
CC	-10.8194
▁평년	-10.8195
▁전기요금	-10.82
▁다운로드	-10.82
▁진행될	-10.82
▁봐	-10.82
▁때보다	-10.8201
▁적정	-10.8201
본다	-10.8201
▁일찍	-10.8203
▁블랙	-10.8203
▁공고	-10.8205
▁조합	-10.8206
▁파괴	-10.8208
▁흥	-10.8209
▁STX	-10.8209
▁공직자	-10.8209
▁면허	-10.8211
▁제기됐다	-10.8214
▁됐	-10.8214
회를	-10.8217
▁뚝	-10.8219
협정	-10.822
▁비용을	-10.8221
▁맑은	-10.8223
▁임기는	-10.8224
▁협력사	-10.8226
▁순천	-10.8228
▁박씨는	-10.8231
▁상처	-10.8232
해주는	-10.8233
▁마련됐다	-10.8236
▁기업들의	-10.8236
▁강하다	-10.8236
▁고수	-10.8242
농가	-10.8242
▁보유하고	-10.8243
일자	-10.8244
▁번호	-10.8246
▁김문수	-10.8247
▁기원	-10.8247
▁상정	-10.8248
시키고	-10.8249
▁응답	-10.8256
▁오른다	-10.8256
▁현대백화점	-10.8258
▁항공사	-10.8259
법은	-10.826
묘	-10.8261
▁엄청난	-10.8262
▁화물	-10.8263
는지	-10.8265
몽	-10.8267
▁주지	-10.8268
▁이색	-10.827
딜	-10.8271
▁의혹에	-10.8272
▁6.	-10.8273
▁부모님	-10.8273
▁손해	-10.8274
▁무엇인가	-10.8275
▁수면	-10.8275
사기	-10.8277
▁병원에	-10.8277
▁메시지를	-10.8278
▁학생들의	-10.8285
▁살해한	-10.8286
▁먹을	-10.829
▁수단	-10.8291
▁참여하는	-10.8293
목표	-10.8296
▁정치를	-10.8297
2.5%	-10.8299
▁지원할	-10.8301
▁온다	-10.8302
▁의원님	-10.8304
▁침	-10.8304
▁술을	-10.8304
▁뒤로	-10.8305
▁우원식	-10.8308
▁단위	-10.8311
▁부르	-10.8314
▁합격자	-10.8314
마트	-10.8316
▁참조	-10.8318
▁거짓	-10.8318
아직	-10.8321
▁차량을	-10.8322
▁감자	-10.8323
▁경유	-10.8324
▁해운	-10.8324
분에	-10.8326
▁체육	-10.8328
대학원	-10.8337
▁중에서	-10.8338
▁뭘	-10.8339
▁왼쪽부터	-10.8341
▁살인사건	-10.8342
▁나서고	-10.8343
▁농식품부	-10.8343
▁텐데요	-10.8344
▁당첨자	-10.8345
▁기업들이	-10.8347
찌	-10.8347
▁부작용	-10.8349
▁세무조사	-10.8351
▁신축	-10.8352
▁사정	-10.836
▁몰	-10.8361
좋은	-10.8365
학기	-10.8365
▁추억	-10.8366
컬	-10.8366
버린	-10.8367
표를	-10.8367
▁상태였다	-10.8369
▁걸까요	-10.837
▁인턴	-10.837
▁관계가	-10.8371
▁안심	-10.8372
▁말아야	-10.8373
▁실적이	-10.8374
▁2.5	-10.8375
▁있겠다	-10.8375
▁말에	-10.8377
▁실적을	-10.8377
▁키워	-10.8378
▁조선일보	-10.8379
▁했어요	-10.8379
▁차질	-10.838
▁비슷	-10.8381
▁구청장	-10.8381
▁인근에	-10.8386
▁바라	-10.8388
봐야	-10.839
▁교실	-10.8392
▁모으고	-10.8395
▁그렇기	-10.8396
변호사	-10.8398
▁중국에서	-10.8398
▁상품권	-10.8398
▁셋째	-10.8399
▁수집	-10.8399
▁위안화	-10.8399
▁느낄	-10.84
험	-10.8401
▁안녕하십니까	-10.8401
▁신동빈	-10.8406
▁찬반	-10.8406
SYN	-10.841
▁광역	-10.8411
▁관계자들	-10.8414
▁출장	-10.8414
렸	-10.8416
▁한진해운	-10.8416
없다	-10.8416
▁상인들	-10.8416
학습	-10.8417
지점	-10.8417
▁언급했다	-10.8418
▁질문을	-10.8418
▁되나	-10.8419
열차	-10.8422
점으로	-10.8424
몬	-10.8426
▁다이어트	-10.8429
▁실수	-10.843
▁0.3%	-10.8431
▁필요성	-10.8432
▁지원하는	-10.8433
▁거치	-10.8433
0.5%	-10.8434
▁봉사활동	-10.8434
▁무상급식	-10.8436
▁문제점	-10.8437
ed	-10.8439
▁마찬가지로	-10.8443
▁여학생	-10.8445
▁대권	-10.8448
▁일고	-10.845
▁한층	-10.8451
▁반대하는	-10.8451
▁불출마	-10.8452
▁행복한	-10.8453
▁내정자	-10.8454
▁네트워크	-10.8455
女	-10.8458
▁준비를	-10.8459
▁끌었다	-10.8462
▁실망	-10.8462
▁급증했다	-10.8463
모든	-10.8463
핑	-10.8463
▁생겼다	-10.8464
▁위원장이	-10.8467
하우스	-10.8468
▁편입	-10.8469
▁패배	-10.8471
재난	-10.8472
▁신입사원	-10.8473
▁필요하다고	-10.8474
일이다	-10.8474
▁소음	-10.8475
▁여파로	-10.8481
▁지침	-10.8482
▁주택담보대출	-10.8482
놓은	-10.8485
▁軍	-10.8485
▁도중	-10.8485
▁대비해	-10.8487
▁중국과	-10.8488
함이	-10.849
▁시리즈	-10.8492
아시아	-10.8494
▁7%	-10.8494
▁시선	-10.8495
▁0.2	-10.8496
일까요	-10.8496
남부	-10.8498
▁푸	-10.8498
▁이곳에서	-10.8498
낮	-10.85
▁할까	-10.8501
▁복지부	-10.8502
▁성공했다	-10.8503
▁김포	-10.8504
▁예보	-10.8512
▁매월	-10.8514
▁명분	-10.8515
폭력	-10.8515
▁생길	-10.8516
▁조짐	-10.8518
▁아까	-10.8519
▁대다수	-10.8519
▁보이스피싱	-10.8519
▁76	-10.8521
▁믿고	-10.8522
▁현재는	-10.8523
▁수감	-10.8525
웃음	-10.8525
자들은	-10.8527
▁심한	-10.8531
맛있는	-10.8533
▁유사	-10.8533
미세먼지	-10.8534
▁거기	-10.8536
▁신고했다	-10.854
▁마음에	-10.8541
▁일어나	-10.8542
▁고령화	-10.8542
▁현수막	-10.8543
인터넷	-10.8544
▁일요일	-10.8547
소비자	-10.8549
▁브	-10.8549
슈퍼	-10.8549
▁흔적	-10.855
명령	-10.8552
▁앉아	-10.8553
0.1%	-10.856
첫	-10.8561
▁뼈	-10.8563
▁신도시	-10.8565
▁총회	-10.8567
▁87	-10.8567
혁명	-10.8577
채용	-10.8579
▁의정부	-10.8579
▁스타트업	-10.858
▁동영상에서	-10.8581
년여	-10.8584
조작	-10.8584
▁기관은	-10.8584
▁신경전	-10.8588
▁좌우	-10.8592
▁전세계	-10.8594
당한	-10.8596
밍	-10.8596
피해자	-10.8597
▁Since	-10.8603
▁금리를	-10.8604
▁커질	-10.8606
▁선고했다	-10.8606
트럼프	-10.8607
▁도대체	-10.861
▁코스피가	-10.861
경보	-10.8611
▁연령	-10.8614
▁청장	-10.8616
▁않았	-10.8616
▁성장을	-10.8619
▁추돌	-10.8619
▁민정수석	-10.862
▁재심	-10.862
▁핵심은	-10.8622
▁겨울철	-10.8625
▁없애	-10.8625
▁금강산	-10.8625
▁홀	-10.8627
▁공무원연금	-10.8628
▁가족이	-10.8628
▁체류	-10.863
▁형제	-10.8632
▁징역형	-10.8633
▁시기입니다	-10.8636
건에	-10.8637
▁사장이	-10.8641
▁연합	-10.8642
▁발생할	-10.8644
▁화재가	-10.8649
지상	-10.865
▁인명	-10.8651
▁주가는	-10.8651
요구	-10.8652
▁지원금	-10.8654
▁내각	-10.8655
그룹은	-10.8658
▁대입	-10.8659
▁강진	-10.866
번지	-10.8664
▁신입생	-10.8665
▁바다의	-10.8666
▁않아도	-10.8667
▁이어진다	-10.8667
▁다르지	-10.8668
매장	-10.8668
▁7000	-10.8669
▁시스템을	-10.867
▁않나	-10.867
디자인	-10.8671
▁인건비	-10.8672
▁증상	-10.8674
▁신형	-10.8674
박원순	-10.8683
▁평가했다	-10.8684
▁효	-10.8685
▁빌려	-10.8687
▁연구원	-10.8687
▁달아	-10.8687
억원대	-10.8692
큐	-10.8693
개인	-10.8694
▁그러자	-10.8695
보기	-10.8696
▁몰랐다	-10.8697
▁사형	-10.8697
장의	-10.8699
▁시간에	-10.8699
▁야당의	-10.8705
▁입었다	-10.8706
셔	-10.8706
▁논란을	-10.8707
명도	-10.8707
위안부	-10.8712
▁불신	-10.8713
▁여름철	-10.8713
▁무더기	-10.8716
▁월평균	-10.8719
협약	-10.8719
▁대상이다	-10.8723
동안	-10.8725
▁2030	-10.8726
▁클럽	-10.8726
▁사육	-10.8726
▁하죠	-10.8727
전력	-10.8728
▁게이트	-10.8728
▁맞고	-10.873
▁기업인	-10.873
▁진행된	-10.873
▁폭이	-10.8731
(12	-10.8732
▁후임	-10.8733
▁벚꽃	-10.8734
en	-10.8738
▁140	-10.8739
▁진통	-10.874
▁들어갈	-10.8741
자들의	-10.8743
▁기자간담회	-10.8745
▁대량	-10.8747
▁다양	-10.8747
▁통장	-10.8749
▁힘입어	-10.8749
▁예산은	-10.8749
담당	-10.8749
▁이어가고	-10.8752
▁무엇을	-10.8754
릿	-10.8754
▁네티즌들은	-10.8754
▁사건에	-10.8756
▁돌파했다	-10.8757
▁균형	-10.8758
▁종교	-10.8759
▁있으니	-10.8759
▁양극화	-10.8761
▁식약처	-10.8761
▁“‘	-10.8762
▁변동	-10.8764
▁동력	-10.8765
박스	-10.8767
▁측의	-10.8768
▁싸	-10.877
▁인명피해는	-10.8771
▁거취	-10.8771
▁1980	-10.8773
▁변호사는	-10.8774
▁업체가	-10.8777
▁제공하는	-10.8779
▁더위	-10.8779
▁인용	-10.8783
▁본인이	-10.8784
▁동양	-10.8784
갑니다	-10.8784
▁무인	-10.8788
▁78	-10.8788
넷	-10.879
▁라는	-10.8798
▁먹거리	-10.88
▁지냈다	-10.88
▁끈다	-10.8801
▁일가	-10.8801
▁접견	-10.8808
▁적어	-10.881
불안	-10.881
▁탄력	-10.8811
곳을	-10.8812
▁남겼다	-10.8813
▁자식	-10.8815
▁가시	-10.8816
▁재발	-10.8818
예정	-10.882
▁8000	-10.8825
국정	-10.8828
▁호조	-10.8829
▁위법	-10.8829
▁공범	-10.883
▁모자	-10.883
자유	-10.8831
▁기분	-10.8831
만이	-10.8832
ar	-10.8834
▁획득	-10.8837
▁발족	-10.8839
▁유기	-10.8843
자와	-10.8843
▁구속기소	-10.8845
▁살려	-10.8846
▁흑	-10.8847
▁중형	-10.8849
▁보험금	-10.8849
▁청탁	-10.885
▁개소	-10.8852
▁전투	-10.8855
▁홈	-10.8857
▁퇴출	-10.886
▁지낸	-10.8862
▁주행	-10.8865
금액은	-10.8866
어린이	-10.8867
▁발생해	-10.8868
▁전파	-10.8868
▁명시	-10.8869
닉	-10.887
▁개최한다	-10.887
▁성남	-10.8871
▁입장에서	-10.8874
▁서비스업	-10.8874
▁짚어	-10.8875
▁지도자	-10.8876
▁싶습니다	-10.8878
다른	-10.8881
프로	-10.8881
바람	-10.8883
▁원대	-10.8883
▁중도	-10.8884
▁수수	-10.8885
▁탁	-10.889
면적	-10.889
졌	-10.8893
▁업체는	-10.8894
보도	-10.8896
집행	-10.8897
▁총장은	-10.8902
▁후보들	-10.8904
꿈	-10.8906
▁만들겠다	-10.8906
▁이용하는	-10.8908
▁문구	-10.8911
▁저장	-10.8914
분을	-10.8914
▁수익을	-10.8914
▁재개발	-10.8915
▁이석기	-10.892
▁시한	-10.8922
▁김민	-10.8923
▁말할	-10.8923
부가	-10.8923
▁환수	-10.8923
▁조업	-10.8926
▁과도한	-10.8926
최저임금	-10.8926
EU	-10.893
▁경제의	-10.8933
▁물품	-10.8934
오리	-10.8934
하시는	-10.8935
▁연임	-10.8935
▁이견	-10.8937
논란	-10.894
텔	-10.8947
▁이모	-10.8947
▁사진이	-10.8949
▁삭감	-10.8951
▁금리는	-10.8952
터미널	-10.8953
▁벌어졌다	-10.8954
▁성능	-10.8956
▁존	-10.8956
▁파면	-10.8958
▁총선에서	-10.8961
▁상하이	-10.8963
▁입장이	-10.8965
▁줄고	-10.8965
▁7.	-10.8969
▁긍정적인	-10.8971
▁등과	-10.8972
▁있거든요	-10.8976
못	-10.8977
▁지역별	-10.8978
▁창조경제	-10.8978
▁선언했다	-10.8982
리고	-10.8984
헤	-10.8986
▁파리	-10.8987
▁배포	-10.8987
▁위기에	-10.8988
▁본부장	-10.8988
▁그것도	-10.899
▁물에	-10.899
빌	-10.8991
▁계속되고	-10.8992
▁주식을	-10.8992
▁영남	-10.8992
▁넘기	-10.8992
▁이상은	-10.8994
▁남한	-10.8994
▁남해	-10.8995
▁흉기	-10.8995
일까지다	-10.8996
▁충격을	-10.8998
▁방안이	-10.8998
유치원	-10.8999
국민의당	-10.9001
▁생일	-10.9004
▁시작된다	-10.9005
▁일어난	-10.9005
▁상속	-10.9005
▁주춤	-10.9005
쾌	-10.9006
▁장착	-10.9007
▁야외	-10.9008
▁중학생	-10.9011
▁경쟁이	-10.9012
▁묘	-10.9013
스터	-10.9015
럴	-10.9021
▁가족과	-10.9024
▁덜미	-10.9026
▁공채	-10.9027
▁안전성	-10.9029
▁선보여	-10.9037
▁얼	-10.9038
자에게	-10.9038
▁기대감	-10.904
했었다	-10.9041
▁생태	-10.9042
▁대표단	-10.9042
통화	-10.9043
▁국민들의	-10.9043
▁벌인	-10.9045
▁동일	-10.9045
▁중반	-10.9046
원인	-10.9047
▁선착순	-10.905
다음	-10.905
▁장례	-10.905
▁준비하는	-10.9051
▁통행	-10.9055
▁규모를	-10.9062
수능	-10.9063
▁최신	-10.9064
▁별도의	-10.9064
▁법관	-10.9066
▁경신	-10.9066
▁모집한다	-10.9072
▁알아보	-10.9072
▁간호사	-10.9074
▁야구	-10.9077
▁워크숍	-10.9077
촉	-10.9077
▁중독	-10.9078
▁연습	-10.908
대기업	-10.9084
신용	-10.9085
▁일문일답	-10.9088
▁혁명	-10.9088
is	-10.909
▁연말까지	-10.909
사이트	-10.9092
▁종가	-10.9095
▁상대방	-10.9095
▁기다리는	-10.9098
▁상주	-10.9098
▁그쳐	-10.9099
▁내리고	-10.91
▁전달했다	-10.9102
▁외식	-10.9102
▁도착한	-10.9103
▁실효성	-10.9103
▁李	-10.9105
▁포함된	-10.9106
▁재직	-10.9107
▁작년보다	-10.9107
▁남겨	-10.9111
▁반응이	-10.9112
~1	-10.9113
▁있느냐	-10.9113
▁새누리당의	-10.9113
▁넘은	-10.9116
▁분기	-10.9119
▁고시	-10.912
▁맡기	-10.912
▁빅데이터	-10.9122
▁흔히	-10.9122
▁드루킹	-10.9123
▁눈치	-10.9124
▁비용이	-10.9125
▁콜	-10.9129
▁국내에	-10.9134
▁보강	-10.9135
▁특화	-10.9137
▁차별화	-10.9137
▁이기	-10.9138
▁터키	-10.914
▁찍은	-10.914
힘	-10.9143
▁회사가	-10.9143
께서	-10.9144
▁수준인	-10.9144
▁이곳	-10.9144
▁김병준	-10.9148
▁물이	-10.9149
하러	-10.9156
▁교회	-10.9157
▁판매가	-10.9157
▁지방자치단체	-10.9158
▁고위급	-10.9162
▁정유라	-10.9162
▁숨지고	-10.9163
▁묻는	-10.9163
▁물결은	-10.9164
▁줄이기	-10.9164
▁회사의	-10.9164
고등학교	-10.9164
▁오르고	-10.9166
▁소녀상	-10.9168
투어	-10.9168
▁행사장	-10.9168
▁경기가	-10.9168
▁증가하고	-10.917
금융지주	-10.9172
▁않는다는	-10.9173
▁결단	-10.9174
▁벗	-10.9176
▁분명	-10.9176
▁승무원	-10.9178
▁날아	-10.9178
으면서	-10.9182
▁황사	-10.9182
▁뒷받침	-10.9183
현상	-10.9183
▁흐름을	-10.9183
충남	-10.9184
단장	-10.9185
▁할아버지	-10.9188
▁현대자동차	-10.919
▁중부지방	-10.9191
▁발표하는	-10.9194
▁안동	-10.9195
만으로	-10.9198
럽	-10.92
▁다음으로	-10.9201
▁연예인	-10.9203
▁폐업	-10.9204
▁건설사	-10.9205
위해	-10.9206
▁열흘	-10.9207
▁동월	-10.9207
턴	-10.921
▁최선	-10.921
▁불은	-10.9211
▁냉	-10.9212
▁점심	-10.9213
▁수차례	-10.9213
▁광복	-10.9214
▁이수	-10.9216
추가	-10.9216
▁교장	-10.9217
▁새정치	-10.9219
▁근처	-10.9219
02	-10.9221
▁판단했다	-10.9222
▁유망	-10.9223
환율	-10.9224
▁추진하고	-10.9224
▁의제	-10.9226
▁1997	-10.9226
지에	-10.9227
▁런던	-10.923
▁제동	-10.923
▁실태	-10.9231
▁어려움	-10.9231
▁철학	-10.9232
SBS	-10.9234
▁가격에	-10.9235
▁자치구	-10.9236
정원	-10.9237
▁기간보다	-10.9237
▁거친	-10.9239
▁위원장의	-10.924
▁맞게	-10.924
럼	-10.9241
▁서면	-10.9241
▁당정	-10.9243
▁건수는	-10.9244
함께	-10.9245
▁잠실	-10.9248
▁진전	-10.9249
▁묻	-10.925
구간	-10.9251
▁운영된다	-10.9251
▁진술했다	-10.9255
▁방식을	-10.9258
▁신고가	-10.926
▁속출	-10.9261
▁어깨	-10.9262
이동	-10.9262
▁판매량	-10.9263
▁벼	-10.9265
▁눈물을	-10.9268
▁분위기를	-10.9269
▁한수원	-10.927
특보	-10.9274
▁파주	-10.9275
▁형식	-10.9278
곳으로	-10.9279
v	-10.9284
-4	-10.9285
▁사람에게	-10.9285
▁창고	-10.9285
개소	-10.9288
▁강풍	-10.9288
▁겨우	-10.9288
~3	-10.9289
▁모았다	-10.929
▁조리	-10.9293
▁어쨌든	-10.9295
샤	-10.9296
▁논의가	-10.9296
▁활짝	-10.9296
시다	-10.9297
▁과목	-10.93
▁최초의	-10.9302
▁걸릴	-10.9303
▁과정에	-10.9304
▁회원국	-10.9305
▁열정	-10.9307
▁느껴	-10.9307
▁떠난	-10.931
▁사죄	-10.931
▁정우택	-10.9313
▁대표적이다	-10.9314
▁골프장	-10.9319
▁다짐	-10.9319
▁스페인	-10.932
▁기도	-10.9322
▁홍영표	-10.9323
▁단어	-10.9326
▁이젠	-10.9327
▁끊이지	-10.9329
▁수입차	-10.933
미디어	-10.9331
추진	-10.9331
▁방향을	-10.9338
소통	-10.9339
▁中企	-10.934
총회	-10.9341
회복	-10.9341
▁단식	-10.9344
▁900	-10.9344
▁입양	-10.9346
▁셈	-10.9346
핀	-10.9348
▁교황	-10.9355
▁것이었다	-10.9356
▁제기했다	-10.9358
층에서	-10.936
▁견인	-10.9363
제약	-10.9364
▁액수	-10.9365
▁증정	-10.9365
아들	-10.9366
▁서울신문	-10.9367
▁상권	-10.9367
▁포함돼	-10.9367
▁불로	-10.9367
▁창원시	-10.9368
가정	-10.9369
▁1999	-10.9369
▁그렇지만	-10.937
▁소지	-10.9371
▁구성된	-10.9372
▁욕	-10.9372
▁선을	-10.9375
▁온라인뉴스팀	-10.9376
▁평가가	-10.9378
▁상인	-10.9379
▁경품	-10.9381
▁에어	-10.9381
▁의미한다	-10.9383
▁유튜브	-10.9387
▁문서	-10.9388
▁읽	-10.9392
▁우승	-10.9395
it	-10.9396
▁협업	-10.9396
▁생활을	-10.9397
앙	-10.9397
앞	-10.9399
▁시상식	-10.9399
▁81	-10.9402
▁발탁	-10.9402
▁추첨	-10.9403
▁론칭	-10.9405
물량	-10.9406
▁대여	-10.9408
▁찾지	-10.9409
▁서울중앙지검	-10.9409
▁전반	-10.9409
않	-10.941
하늘	-10.941
▁김기	-10.9411
▁틈	-10.9411
▁처방	-10.9412
화가	-10.9412
▁160	-10.9413
▁위기를	-10.9416
▁재판관	-10.9417
자녀	-10.9418
▁사외이사	-10.9419
▁비용은	-10.9419
~6	-10.9419
▁좋을	-10.942
▁강경	-10.942
▁0.4%	-10.9421
▁이주열	-10.9421
▁조언	-10.9422
▁응시	-10.9426
줘야	-10.9426
▁김진	-10.9427
▁보시죠	-10.9429
▁당사자	-10.9429
▁백신	-10.9431
▁이건희	-10.9431
끈	-10.9437
캠퍼스	-10.9439
▁분석했다	-10.9439
▁79	-10.9439
▁오토바이	-10.9443
도에서	-10.9443
▁가치가	-10.9444
▁외환	-10.9446
▁이병	-10.9447
▁없게	-10.9448
곳은	-10.9449
군이	-10.945
▁女	-10.9451
▁사업비	-10.9452
냉	-10.9453
▁업	-10.9453
▁취임식	-10.9456
▁어렵다는	-10.9457
▁제시한	-10.9457
▁반박했다	-10.9458
▁느낌	-10.9458
▁미뤄	-10.9458
▁기업들	-10.9458
▁키워드	-10.9458
▁지목	-10.9458
▁의원들이	-10.9459
▁포털	-10.9461
2018	-10.9465
▁자칫	-10.9465
▁관여	-10.9466
▁부정적인	-10.9468
▁이용객	-10.947
▁낙찰	-10.947
▁정유	-10.9472
▁비판이	-10.9473
▁컨테이너	-10.9473
▁화제가	-10.9473
▁수령	-10.9473
백만	-10.9475
▁재해	-10.9475
▁대우	-10.9475
▁줄일	-10.9476
▁탈북자	-10.9478
▁신분으로	-10.948
▁엔	-10.948
▁이어진	-10.9481
저는	-10.9483
▁파악됐다	-10.9485
▁해병대	-10.9486
▁느끼는	-10.9488
▁가리	-10.9489
▁보너스	-10.949
▁용어	-10.949
▁1.5%	-10.949
▁외국인은	-10.9492
▁이렇다	-10.9492
▁연구개발	-10.9494
▁상당의	-10.9494
컷	-10.9495
▁반전	-10.9496
▁낙동강	-10.9503
유플러스	-10.9505
단계로	-10.9506
▁대중교통	-10.9507
’(	-10.9509
▁사연	-10.951
외국인	-10.9512
▁것들이	-10.9513
▁95%	-10.9514
랜	-10.9517
▁능	-10.9519
▁86	-10.952
▁후원금	-10.952
▁그를	-10.9521
▁고생	-10.9523
평균	-10.9524
▁구체적	-10.9524
▁고객이	-10.9527
▁털	-10.9527
쇼핑	-10.9531
유출	-10.9535
▁찍어	-10.9537
▁리스트	-10.9538
곳에서	-10.9538
해준다	-10.9539
싸움	-10.954
▁예정된	-10.9543
▁대리	-10.9545
▁등장했다	-10.9545
▁확대할	-10.9546
었	-10.9547
▁경북도	-10.9551
▁종사자	-10.9552
여당	-10.9552
▁부착	-10.9553
▁늘어나고	-10.9555
▁떠나는	-10.9558
▁금융사	-10.9559
코스피	-10.9562
▁이준석	-10.9563
▁연결해	-10.9563
터널	-10.9568
▁여건	-10.9569
▁김상	-10.957
▁재판을	-10.9573
▁가전	-10.9574
할지	-10.9574
▁펴	-10.9574
大	-10.9576
세트	-10.9576
▁외치는	-10.9576
▁요건	-10.9577
권력	-10.9578
부품	-10.9578
▁전체회의	-10.9578
▁정성	-10.9579
2017	-10.9579
▁원자력	-10.9581
▁김경	-10.9582
▁연인	-10.9583
▁당신의	-10.9585
▁중복	-10.9585
소방	-10.9585
▁국가가	-10.9588
▁당기순이익은	-10.9588
▁상장사	-10.959
▁소득세	-10.9591
▁비트코인	-10.9592
▁수시	-10.9592
▁먼	-10.9593
선택	-10.9594
▁국장	-10.9595
▁삼성전자가	-10.9596
결혼	-10.9597
아버지	-10.9597
▁미소	-10.9599
FM	-10.96
▁철저한	-10.96
3.3%	-10.9601
▁패소	-10.9604
▁강서구	-10.9605
▁났	-10.9608
왔	-10.9608
▁강점	-10.9608
▁0.3	-10.9609
▁82	-10.961
▁아래로	-10.9613
▁건강한	-10.9613
제는	-10.9613
▁보일	-10.9615
▁대부분이	-10.9615
단위	-10.9616
▁금리가	-10.9616
▁드립니다	-10.9618
▁세웠다	-10.962
▁문의는	-10.9621
▁개표	-10.9621
매수	-10.9624
▁어르신	-10.9624
노인	-10.9625
▁역사를	-10.9625
▁달랐다	-10.9627
▁지적이다	-10.9629
▁전략을	-10.9629
사법	-10.9629
▁겨냥	-10.963
▁구성된다	-10.9631
▁의존	-10.9632
▁일치	-10.9632
▁퍼포먼스	-10.9633
▁연탄	-10.9633
▁올라가	-10.9636
▁박성	-10.9637
▁질의	-10.9638
▁친노	-10.9639
위권	-10.9641
▁기준이	-10.9642
▁산다	-10.9645
닭	-10.9649
▁몰래	-10.9651
▁돕는	-10.9652
문의	-10.9654
▁같아	-10.9654
▁재선	-10.9656
▁시민들은	-10.9656
▁김수	-10.9657
▁당첨	-10.9658
괴	-10.966
페이	-10.9664
▁산업은행	-10.9664
▁중대	-10.9664
▁보조	-10.9665
▁'3	-10.9666
▁산정	-10.9666
▁활	-10.9668
컵	-10.9671
하라는	-10.9672
▁이번주	-10.9673
방문	-10.9673
▁맡은	-10.9674
▁상승세	-10.9677
▁세운	-10.9679
테러	-10.9681
▁이정미	-10.9683
▁경보	-10.9683
▁중국에	-10.9684
▁후퇴	-10.9684
▁관련해서	-10.9685
친박	-10.9685
▁다음날	-10.9687
▁부산에서	-10.9689
우리는	-10.969
하다가	-10.969
▁감지	-10.9695
전년	-10.9695
▁바꿀	-10.9696
곳의	-10.9696
韓	-10.9697
▁가공	-10.9697
▁시공	-10.9698
▁판단을	-10.9699
▁제휴	-10.9699
▁수상자	-10.9699
▁저출산	-10.9703
▁합쳐	-10.9703
▁한글	-10.9708
▁결과다	-10.971
▁증가세	-10.9712
월드	-10.9713
대에서	-10.9713
▁구성됐다	-10.9714
었는데	-10.9717
▁몸에	-10.9717
▁누리꾼들은	-10.972
▁세계에서	-10.9722
전에	-10.9722
▁입장은	-10.9723
▁장성	-10.9723
▁승소	-10.9723
심에서	-10.9724
0.8%	-10.9724
확대	-10.9726
x	-10.9727
▁출자	-10.9727
▁추궁	-10.9727
▁납치	-10.9732
▁유일하게	-10.9733
호점	-10.9735
1.6%	-10.9736
▁의료진	-10.9736
▁건국대	-10.9738
▁숨졌습니다	-10.9739
▁e	-10.974
▁전문가들	-10.9741
▁투약	-10.9748
▁악수하는	-10.975
▁주소	-10.975
왔습니다	-10.9752
▁구현	-10.9753
▁개원	-10.9755
▁이념	-10.9757
▁들었습니다	-10.9758
▁상당수	-10.976
▁양승태	-10.9761
하시	-10.9765
사로	-10.9765
▁하루에	-10.9766
민생	-10.9767
▁성공한	-10.9768
활동을	-10.9768
민간	-10.9769
▁92	-10.9769
▁취하	-10.9771
▁지지율이	-10.9775
▁채권단	-10.9777
초등학교	-10.9779
▁고령	-10.978
▁특사	-10.9783
싸	-10.9784
묵	-10.9785
▁해지	-10.9785
▁X	-10.9786
▁즐거운	-10.9787
▁노조는	-10.9787
칩	-10.9789
▁없어서	-10.9791
▁답변하는	-10.9791
▁사라진	-10.9791
▁좋아하는	-10.9791
▁될까요	-10.9792
▁희망을	-10.9792
▁목표를	-10.9795
이든	-10.9796
▁바꾸는	-10.9796
겠고요	-10.9796
▁언	-10.9799
▁모르	-10.98
▁제출했다	-10.98
▁판결을	-10.9801
▁불가능하다	-10.9801
▁단일	-10.9804
▁살균제	-10.9805
▁기지	-10.9805
▁주당	-10.9808
뱅크	-10.9811
▁판정을	-10.9811
▁추진할	-10.9812
명에서	-10.9813
.0	-10.9815
이니	-10.9818
▁경제채널	-10.982
▁시청하시기	-10.9821
▁이승	-10.9823
▁제공된다	-10.9825
▁소화	-10.9826
▁소년	-10.9827
▁앞바다	-10.983
▁지난해에는	-10.983
다니	-10.9831
▁지지자들	-10.9831
▁종전	-10.9833
▁공청회	-10.9833
▁비중을	-10.9834
▁네티즌	-10.9834
▁엔화	-10.9836
▁전년대비	-10.9837
▁바뀐	-10.984
▁앉	-10.9843
▁순서	-10.9844
▁멀리	-10.9844
임대	-10.9844
드립니다	-10.9845
▁이들에게	-10.9846
▁신원	-10.9846
▁논의를	-10.9846
샘	-10.9846
▁유명한	-10.9847
▁고양	-10.985
▁머리를	-10.9853
▁떡	-10.9855
▁김병	-10.9856
▁빨라	-10.9857
▁워낙	-10.9859
하면서도	-10.9865
분부터	-10.9867
▁금융당국	-10.9867
장소	-10.9868
▁십	-10.9868
▁부인했다	-10.9869
▁없지만	-10.9871
▁나들이	-10.9874
▁선배	-10.9874
▁무더위	-10.9875
▁차원의	-10.9875
▁좋겠습니다	-10.9877
▁냉장고	-10.9877
▁재검토	-10.9879
배에	-10.9879
▁반발하고	-10.9879
▁비타민	-10.9879
구매	-10.9887
1.3%	-10.9888
명이었다	-10.9889
▁안경	-10.9889
이익	-10.989
▁헤어	-10.9891
▁넘어선	-10.9893
▁야당이	-10.9893
진단	-10.9897
▁위생	-10.9898
▁밝힐	-10.9899
▁북상	-10.9899
처분	-10.9899
▁나란히	-10.99
▁있나요	-10.9902
홈	-10.9903
▁이뤄지지	-10.9904
▁의약품	-10.9904
IC	-10.9905
▁회원들	-10.9906
▁입장에서는	-10.9907
홍준표	-10.9907
▁기록을	-10.9909
군수	-10.991
▁어디로	-10.9913
▁잡는	-10.9913
청구	-10.9914
▁기존의	-10.9917
▁고양이	-10.9918
▁쏟아	-10.9919
화재	-10.9919
▁용기	-10.992
사업을	-10.992
▁유일호	-10.9923
▁국민은행	-10.9924
▁다문화	-10.9925
매출	-10.9925
▁쏘	-10.9926
▁이어가	-10.9926
▁반환	-10.9926
▁엘	-10.9929
▁국비	-10.9929
▁국정원장	-10.9931
식이	-10.9932
▁제천	-10.9934
▁지역을	-10.9936
j	-10.9936
▁확인했다	-10.9938
▁도시락	-10.994
하느냐	-10.9943
긋	-10.9943
▁커져	-10.9944
▁자격증	-10.9944
▁대출을	-10.9944
▁교역	-10.9945
▁물놀이	-10.9948
▁재판부	-10.9951
▁촉진	-10.9952
▁협력업체	-10.9954
▁조사결과	-10.9955
▁독점	-10.9958
▁소득이	-10.9959
▁경험을	-10.9959
▁얻을	-10.996
사회적	-10.996
▁지지층	-10.9961
▁끝나	-10.9961
분위	-10.9962
0.6%	-10.9962
▁거제	-10.9965
▁그야말로	-10.9969
요원	-10.9969
1.8%	-10.997
일만에	-10.997
▁소요	-10.9972
▁2022	-10.9973
▁늦어	-10.9974
됐으며	-10.9976
▁제품이	-10.9976
▁83	-10.9976
▁내려가	-10.9979
▁김영란법	-10.9981
▁송도	-10.9981
▁활용할	-10.9981
▁표창	-10.9982
▁노동계	-10.9983
▁이주	-10.9985
▁민주당이	-10.999
▁고스란히	-10.999
▁경제정책	-10.9992
▁웃음	-10.9992
서울포토	-10.9993
룩	-10.9994
놓	-10.9995
▁생활비	-10.9995
▁이영	-10.9996
▁안건	-10.9999
▁측에	-10.9999
▁정면	-11
▁파일	-11.0002
▁당권	-11.0002
▁달에	-11.0003
▁빵	-11.0006
▁참여한다	-11.0006
▁돌아온	-11.0008
▁일산	-11.001
▁정책위의장	-11.0011
▁방침입니다	-11.0014
▁불량	-11.0015
▁주석	-11.0015
빌딩	-11.0016
▁폭설	-11.0017
▁분주	-11.0017
▁코너	-11.0017
▁시술	-11.0019
▁외환은행	-11.0021
▁사태가	-11.0022
취재	-11.0023
▁찌	-11.0023
▁FM	-11.0024
▁장점	-11.0025
▁행사에	-11.0025
▁공중	-11.0026
았던	-11.0026
▁세일	-11.0027
▁공개됐다	-11.0028
▁물건을	-11.0029
▁찾고	-11.003
일반	-11.003
역에서	-11.0031
▁날짜	-11.0032
▁고기	-11.0033
▁글이	-11.0038
▁다음주	-11.0039
▁피해자들	-11.004
▁국민을	-11.0041
해져	-11.0042
여서	-11.0042
▁협상을	-11.0044
▁호소했다	-11.0044
단이	-11.0045
방법	-11.0046
▁달라진	-11.0047
금은	-11.0049
▁연준	-11.005
▁원인으로	-11.0051
▁3~4	-11.0052
▁화상	-11.0054
부분	-11.006
▁선거법	-11.0064
▁손상	-11.0065
▁묵	-11.0066
▁외환시장에서	-11.0067
8.6%	-11.0069
▁영세	-11.0073
▁흐리고	-11.0074
.11	-11.0075
▁남측	-11.0077
▁사격	-11.0077
났다	-11.0078
봤습니다	-11.0078
▁부검	-11.0078
▁민주화	-11.008
▁국정농단	-11.0083
▁군대	-11.0084
7.9%	-11.0084
▁대한민국의	-11.0086
▁높이기	-11.0088
난다	-11.0094
랄	-11.0096
년으로	-11.0096
▁우주	-11.0096
▁김씨의	-11.0097
홍보	-11.0098
▁격차	-11.0099
개헌	-11.01
억대	-11.0101
▁수렴	-11.0104
▁서울과	-11.0105
▁지배	-11.0112
혹	-11.0113
▁물어	-11.0114
▁대통령에	-11.0114
기계	-11.0114
▁얼굴을	-11.0115
▁꼬	-11.0117
▁무엇일까	-11.0118
경찰청	-11.0118
▁작용	-11.0122
설비	-11.0122
맹	-11.0123
-5	-11.0123
▁텐데	-11.0124
▁떨어질	-11.0125
▁환급	-11.0125
▁맺	-11.0126
at	-11.0127
▁음식을	-11.0128
유승민	-11.0129
▁원료	-11.0129
▁문제의	-11.013
▁쌓여	-11.0134
만명이	-11.0135
법에	-11.0136
▁소규모	-11.0136
▁처지	-11.0139
결정	-11.014
▁일선	-11.0141
▁예매	-11.0142
▁어린이들	-11.0144
▁옷을	-11.0145
▁차세대	-11.0145
맘	-11.0148
▁김진태	-11.0148
▁공단	-11.015
▁의원들의	-11.015
▁소개했다	-11.0151
대체	-11.0152
▁분양가	-11.0154
▁증액	-11.0154
개입	-11.0156
▁파장	-11.0157
▁끝났다	-11.0158
▁늘면서	-11.0159
▁실업률	-11.0159
8.3%	-11.016
▁금융기관	-11.0161
▁인파	-11.0161
▁전인	-11.0161
▁지키는	-11.0163
▁여부에	-11.0168
▁윤리	-11.0171
▁보석	-11.0172
▁튀	-11.0173
▁대학생들	-11.0173
▁식물	-11.0174
폭행	-11.0175
▁불투명	-11.0175
▁효성	-11.0177
▁알리는	-11.0179
▁6%	-11.018
털	-11.018
▁보건	-11.018
사에	-11.0181
▁본질	-11.0182
▁계층	-11.0185
인상	-11.0186
▁뛰었다	-11.0186
▁학생이	-11.0186
▁국회는	-11.019
하이	-11.0191
▁키우는	-11.0193
▁숙박	-11.0193
▁표정의	-11.0195
▁학교폭력	-11.0196
▁의총	-11.0196
녹	-11.0197
▁지진이	-11.0197
▁오세훈	-11.0198
▁고조	-11.0198
▁줄이는	-11.0201
▁선정된	-11.0203
▁기간이	-11.0206
▁고속	-11.0208
.12	-11.0209
▁경영권	-11.021
▁못하면	-11.0212
▁진학	-11.0212
노무현	-11.0213
▁퇴근	-11.0216
칸	-11.0216
ml	-11.0218
지진	-11.0218
▁익	-11.0218
▁크고	-11.0219
▁예산이	-11.0222
▁결혼식	-11.0227
▁LED	-11.0229
▁개척	-11.0229
▁유동성	-11.0232
▁대검	-11.0232
▁달걀	-11.0233
▁발주	-11.0238
▁악용	-11.0238
...4	-11.0239
8.8%	-11.0242
▁최저기온은	-11.0243
▁부산지역	-11.0246
le	-11.0246
▁과잉	-11.0246
차장	-11.0247
하기는	-11.0248
▁황금	-11.0248
▁여러분의	-11.0249
▁생태계	-11.0251
▁대표적	-11.0253
▁확신	-11.0253
▁한쪽	-11.0254
있습니다	-11.0256
▁골라	-11.0257
년물	-11.0258
9.3%	-11.0259
▁가족들	-11.026
▁발전소	-11.0261
▁들려	-11.0262
▁분할	-11.0262
▁시대를	-11.0264
▁교원	-11.0265
▁겨냥한	-11.0265
▁공시했다	-11.0271
뇌	-11.0271
▁선거에서	-11.0271
분기에	-11.0272
▁LTE	-11.0273
▁생기는	-11.0276
▁탈세	-11.0276
▁횟수	-11.0276
▁거래가	-11.0276
▁학교에	-11.0277
▁전셋값	-11.0278
~5	-11.0279
▁민영화	-11.0281
느	-11.0282
▁8%	-11.0283
▁아들이	-11.0285
버리	-11.0288
건물	-11.0289
▁대박	-11.0289
▁나의	-11.0291
▁가중	-11.0293
▁전망은	-11.0293
륜	-11.0294
자산운용	-11.0295
▁유지하고	-11.0295
▁잠깐	-11.0296
▁주민들의	-11.0296
▁텃밭	-11.0298
앱	-11.0299
▁좋습니다	-11.0301
▁지어	-11.0301
▁탈북	-11.0302
▁이럴	-11.0302
▁은폐	-11.0303
▁만취	-11.0304
9.9%	-11.0305
▁들어선다	-11.0305
▁매물	-11.0306
▁•	-11.0306
▁비슷하다	-11.0307
될까	-11.0309
▁우울증	-11.0312
음식	-11.0312
▁쇼	-11.0313
▁관건	-11.0313
▁부천	-11.0314
▁싼	-11.0315
▁것일까	-11.0316
▁분산	-11.0318
▁끈	-11.0324
▁환율이	-11.0324
▁계단	-11.0325
▁참여해	-11.0325
비즈	-11.0326
▁순이익	-11.0327
▁내주	-11.0327
▁분석이다	-11.0329
(13	-11.0334
▁듯한	-11.0337
▁모레	-11.0338
▁뛰어난	-11.034
(18	-11.0341
▁내년에	-11.0343
▁대상에	-11.0345
▁혐의도	-11.0347
▁연료	-11.0348
▁중심의	-11.0349
▁4409(	-11.035
▁희	-11.0351
▁장남	-11.0353
▁증가율은	-11.0353
▁위상	-11.0353
▁이재오	-11.0354
▁최씨는	-11.0354
2.8%	-11.0355
▁늦은	-11.0356
▁밝은	-11.0357
▁불발	-11.0359
▁콩	-11.0361
사령부	-11.0366
부모	-11.0367
▁기준금리를	-11.0372
▁박수	-11.0374
▁병역필	-11.0375
▁발표한다	-11.0383
▁학부모들	-11.0386
▁하더라도	-11.0387
▁대목이다	-11.0388
인재	-11.0391
이었고	-11.0393
▁상품은	-11.0393
▁마음으로	-11.0394
▁터널	-11.0396
▁혈	-11.0396
▁주장도	-11.0397
▁환자는	-11.0397
개정	-11.0399
▁제출한	-11.0399
지출	-11.0401
▁전해드립니다	-11.0402
▁압수	-11.0403
▁외출	-11.0404
▁보내는	-11.0404
마케팅	-11.0405
▁참고인	-11.0405
일정	-11.0405
▁워싱턴	-11.0407
▁상승률	-11.0408
▁법원이	-11.0411
▁행태	-11.0411
▁시진핑	-11.0412
▁전망도	-11.0414
▁응모	-11.0414
여대	-11.0414
▁나타난	-11.0417
▁한마디	-11.0417
▁사내	-11.0419
▁호재	-11.0419
▁참석해	-11.0421
▁나서야	-11.0422
▁했고	-11.0422
▁원금	-11.0424
▁재미있는	-11.0425
▁기준치	-11.0426
▁기다리고	-11.0427
▁사회의	-11.0427
억원에서	-11.0427
통제	-11.043
중이다	-11.043
▁계열	-11.043
현직	-11.043
▁맞추	-11.0431
▁정책이	-11.0432
▁기부금	-11.0436
맥주	-11.0436
▁스위스	-11.0437
▁해경은	-11.0437
▁구름이	-11.0437
▁간접	-11.0437
▁정부에서	-11.044
휘	-11.0441
▁한국이	-11.0443
▁금융회사	-11.0451
▁할지	-11.0452
▁뭐가	-11.0453
▁접한	-11.0455
▁심해	-11.0455
▁잇	-11.0456
정상	-11.0457
▁채워	-11.0457
시간이	-11.0458
▁듣	-11.046
▁안다	-11.0461
흐	-11.0463
▁얻고	-11.0463
▁바꿔야	-11.0464
주일	-11.0464
백화점	-11.0465
▁드러났습니다	-11.0465
▁얻었다	-11.0472
▁사례는	-11.0473
짜	-11.0475
사랑의	-11.0476
▁PD	-11.0477
▁아동학대	-11.048
男	-11.0481
>>	-11.0482
이제	-11.0482
▁관측이	-11.0482
▁걸림돌	-11.0482
▁부상자	-11.0485
▁고액	-11.0486
▁차량은	-11.0486
2.6%	-11.0489
▁살리기	-11.049
▁정청래	-11.049
▁여유	-11.0492
수단	-11.0493
▁가질	-11.0496
▁건수	-11.0497
▁옥상	-11.0497
▁낮춰	-11.0498
▁꼴	-11.05
제공	-11.05
▁재활용	-11.0503
▁천안함	-11.0507
3)	-11.0508
▁상황입니다	-11.0508
해서는	-11.051
사업자	-11.0513
▁방위	-11.0514
진흥원	-11.0515
▁기대된다	-11.0516
▁우수한	-11.0516
▁흡수	-11.0518
가능	-11.0518
▁관할	-11.0522
▁억제	-11.0522
▁데는	-11.0524
▁기기	-11.0524
니아	-11.0525
▁재테크	-11.0528
▁빌	-11.0528
▁얻은	-11.0529
▁섬유	-11.0529
▁신한	-11.053
▁협정	-11.053
▁테마	-11.0532
▁총기	-11.0532
▁융합	-11.0533
▁재미	-11.0533
▁잇는	-11.0534
▁맛을	-11.0535
▁어렵게	-11.0536
▁속도가	-11.0538
▁강경화	-11.0539
9.2%	-11.0541
▁후보자의	-11.0541
같이	-11.0541
년전	-11.0542
▁장악	-11.0545
지방선거	-11.0545
▁통증	-11.0546
▁단순히	-11.0549
▁사임	-11.0549
▁지지도	-11.0549
▁정책에	-11.0549
▁신입	-11.055
▁예전	-11.0551
채널	-11.0553
▁맡는다	-11.0555
명씩	-11.0558
▁노사정	-11.0558
▁출하	-11.0558
▁없지	-11.0559
1.7%	-11.0559
였지만	-11.056
겨울	-11.0561
▁시간당	-11.0563
▁제고	-11.0563
▁김상조	-11.0564
종을	-11.0565
넘	-11.0565
▁진상규명	-11.0566
▁사전에	-11.0567
지역에	-11.0571
▁책정	-11.0572
▁상시	-11.0574
추석	-11.0574
▁전후	-11.0575
▁진정한	-11.0578
FC	-11.0578
▁막바지	-11.0578
▁원인이	-11.0579
▁명예훼손	-11.0579
▁증명	-11.058
▁후회	-11.058
▁빚을	-11.0581
▁이곳에	-11.0582
▁1998	-11.0584
▁사항	-11.0585
▁인상을	-11.0586
패션	-11.0586
▁같은데	-11.0587
었지만	-11.0589
▁땀	-11.059
일수록	-11.059
facebook	-11.0591
회계	-11.0592
▁만의	-11.0593
▁발언에	-11.0593
했죠	-11.0595
▁수원시	-11.0595
조세일보	-11.0597
▁1200	-11.0597
▁했	-11.0597
▁상해	-11.0598
▁띈다	-11.0599
▁자수	-11.0599
▁강화한다	-11.0603
토록	-11.0605
▁아무도	-11.0606
라이	-11.0608
만명을	-11.0609
▁귀농	-11.0609
▁보증금	-11.061
▁제안했다	-11.0613
▁노동자들	-11.0614
▁계시	-11.0614
▁승부	-11.0615
▁똑같은	-11.0616
롭게	-11.0619
▁주자	-11.0621
▁도망	-11.0622
▁수요일	-11.0622
▁노동당	-11.0623
▁고민이	-11.0625
음을	-11.0628
으니까	-11.0628
만한	-11.0629
▁경영진	-11.0632
▁기초연금	-11.0632
뷰	-11.0633
▁고졸	-11.0634
▁플러스	-11.0636
전용	-11.0637
▁독서	-11.0639
▁프	-11.0639
▁근로시간	-11.0639
▁바뀌었다	-11.064
▁실체	-11.064
공공	-11.0643
▁여는	-11.0643
▁영광	-11.0643
▁대전시	-11.0644
▁청와대에서	-11.0646
▁주세요	-11.0648
▁이후에도	-11.0651
9.6%	-11.0652
▁빌딩	-11.0654
▁열리	-11.0655
▁표기	-11.0655
용으로	-11.0656
▁최씨	-11.0657
아야	-11.0657
▁중기	-11.0658
▁고객에게	-11.066
근로	-11.066
시킨다	-11.0662
1.1%	-11.0663
▁축사하는	-11.0666
됐다고	-11.0668
▁판결이	-11.0669
어도	-11.0669
▁성남시	-11.0672
▁잊	-11.0674
▁기록했습니다	-11.0674
~8	-11.0676
▁나가는	-11.0677
▁실력	-11.0678
▁독려	-11.068
DA	-11.068
사례	-11.068
치킨	-11.0685
▁아산	-11.0686
9.4%	-11.0686
▁파트너	-11.0686
▁확인해	-11.0686
▁사법부	-11.0687
▁넘	-11.0687
과제	-11.0689
꼬	-11.0691
식당	-11.0692
▁준비하고	-11.0696
▁메모	-11.0696
▁비준	-11.0696
8.7%	-11.0696
▁연중	-11.0696
▁화가	-11.0697
▁검사를	-11.0698
▁보좌관	-11.07
▁일부는	-11.0701
▁친구들	-11.0703
▁함유	-11.0703
쇄	-11.0703
▁서울광장	-11.0704
숨	-11.0705
▁모범	-11.0706
▁돕기	-11.0707
셨어요	-11.0707
▁SUV	-11.0707
▁사람들을	-11.0708
▁대책이	-11.0709
▁훌쩍	-11.0711
▁마시는	-11.0713
8.4%	-11.0714
▁화려한	-11.0715
∼6	-11.0716
▁리모델링	-11.0716
드림	-11.0718
▁칠	-11.0719
▁인원은	-11.0721
만원까지	-11.0721
미사일	-11.0723
▁곳으로	-11.0724
▁민간인	-11.0727
▁91	-11.0733
▁목요일	-11.0733
년이다	-11.0735
▁제목	-11.0735
량을	-11.0736
▁단원고	-11.0737
▁그래야	-11.0738
▁개발한	-11.0739
▁넓	-11.074
▁정권교체	-11.0741
▁걸고	-11.0742
기반	-11.0743
▁시중	-11.0745
▁상처를	-11.0746
▁마시	-11.0746
방위	-11.0746
▁답답	-11.0746
▁생각했다	-11.0747
이용	-11.0749
▁어찌	-11.075
됐	-11.0752
1.9%	-11.0752
일에도	-11.0752
▁김재	-11.0754
▁결정에	-11.0756
법이	-11.0758
▁가축	-11.0758
▁파는	-11.0758
▁인테리어	-11.0758
보안	-11.076
▁켜	-11.0762
▁남쪽	-11.0762
▁화장	-11.0763
보상	-11.0765
▁시중은행	-11.0765
▁주시	-11.0767
▁확인된	-11.0768
▁속초	-11.0768
▁공사를	-11.0769
▁공주	-11.0769
▁한국경제신문	-11.0769
가구가	-11.0771
봉사	-11.0772
▁훈	-11.0774
져야	-11.0776
▁태어난	-11.0776
허가	-11.0776
▁블랙리스트	-11.0777
바이	-11.0777
▁최고위	-11.0777
일부	-11.0778
경비	-11.0779
▁추정되는	-11.0779
▁드러난	-11.078
▁택시기사	-11.0783
▁촉구하는	-11.0784
▁취해	-11.0785
양은	-11.0786
▁들어온	-11.0786
▁국토	-11.0786
▁개각	-11.0787
다운	-11.0788
▁급격히	-11.0789
▁서해안	-11.079
▁쓰지	-11.079
▁밤사이	-11.079
▁못했습니다	-11.0792
▁동남아	-11.0795
▁홈쇼핑	-11.0796
▁쉽다	-11.0797
▁국정화	-11.0798
작년	-11.0801
▁공개한	-11.0806
▁시비	-11.0806
▁것보다	-11.0806
▁서울중앙지법	-11.0806
자격	-11.0808
▁94	-11.0809
▁마스크	-11.0809
▁줄이고	-11.081
▁학과	-11.081
▁후배	-11.0811
▁김영삼	-11.0812
▁내놓	-11.0812
▁천연	-11.0816
▁절정	-11.0817
▁회사를	-11.0818
▁구치소	-11.082
▁사용해	-11.0822
사과	-11.0824
▁주위	-11.0824
인치	-11.0825
▁없도록	-11.0827
정비	-11.0827
▁늘었습니다	-11.083
▁방식이다	-11.0832
숭	-11.0833
주를	-11.0833
▁복수	-11.0833
▁만들어야	-11.0833
▁보여주	-11.0834
▁민주당의	-11.0835
▁유아	-11.0835
▁부양	-11.0838
▁소환조사	-11.0838
▁나타나고	-11.084
▁상식	-11.084
▁꿈꾸는	-11.084
(14	-11.0841
컨	-11.0842
심을	-11.0845
▁밝혀졌다	-11.0845
홀딩스	-11.0847
공정	-11.0848
▁협동조합	-11.0848
▁멕시코	-11.0848
▁부위	-11.0849
연합회	-11.085
▁자연스럽게	-11.0853
▁피자	-11.0853
▁시나리오	-11.0854
▁그들은	-11.0856
▁사람과	-11.0858
▁설문조사	-11.0859
마당	-11.0859
▁밝히는	-11.086
권은	-11.0862
▁부근	-11.0863
▁유보	-11.0865
만원에서	-11.0866
▁아프	-11.0867
▁영결식	-11.0867
▁수시로	-11.0868
▁월드컵	-11.0872
건을	-11.0872
▁과정이	-11.0873
▁면에서	-11.0874
▁한국을	-11.0875
꾸	-11.0876
대장	-11.0881
▁너무나	-11.0884
팬	-11.0884
이런	-11.0884
▁무리	-11.0885
▁장마	-11.0886
▁걸음	-11.0887
▁1·2	-11.0889
첩	-11.0891
▁갈등을	-11.0892
▁산림청	-11.0892
▁주영진	-11.0894
▁휴식	-11.0898
▁했는데요	-11.0899
▁많았	-11.09
▁발송	-11.0901
▁나라가	-11.0902
▁국가의	-11.0902
▁이번에도	-11.0903
▁적발된	-11.0904
▁컬러	-11.0906
▁고유	-11.0906
유지	-11.0909
▁나누	-11.0913
▁국토교통부	-11.0913
▁산은	-11.0913
▁경상수지	-11.0916
▁냈	-11.0916
놀	-11.0916
▁내일부터	-11.0917
▁내면	-11.0917
▁불편한	-11.0917
▁갖췄다	-11.0918
▁낸다	-11.092
▁93	-11.092
▁핀	-11.0921
▁노컷뉴스	-11.0923
▁참여를	-11.0925
▁책임이	-11.0928
캐	-11.093
▁안정적인	-11.0931
▁하세요	-11.0933
9.7%	-11.0933
IN	-11.0933
▁다친	-11.0933
렉	-11.0934
매매	-11.0936
▁89	-11.0937
면세점	-11.094
▁전월보다	-11.094
▁몰카	-11.0942
▁알아보겠습니다	-11.0945
▁이루	-11.0945
▁연관	-11.0945
▁후에	-11.0949
▁줄어든다	-11.095
연수	-11.0953
▁송환	-11.0953
▁아무래도	-11.0954
▁책임자	-11.0954
▁하시	-11.0954
▁담보	-11.0957
▁하천	-11.0959
▁이것	-11.096
▁사실이다	-11.0963
▁않았다고	-11.0964
▁죄송	-11.0968
▁조세뉴스	-11.0968
▁유학	-11.0969
▁다행	-11.0972
▁자체를	-11.0973
▁시민이	-11.0973
▁떨어진다	-11.0974
▁2.5%	-11.0975
▁말이죠	-11.0976
▁지나치게	-11.0977
▁프리	-11.0978
▁달간	-11.0979
▁김희	-11.0979
대금	-11.0982
▁조사한	-11.0982
▁국민들	-11.0987
▁남산	-11.099
▁신장	-11.0991
▁수술을	-11.0991
▁소매	-11.0995
▁중소형	-11.0995
▁왔습니다	-11.0996
▁쓴다	-11.0996
▁전보	-11.0997
▁훔쳐	-11.0999
▁'4	-11.1
었어요	-11.1001
▁좋	-11.1002
4.5%	-11.1003
▁답하는	-11.1004
▁차이를	-11.1005
▁본점	-11.1006
함에	-11.1006
▁겪는	-11.1006
▁갖춰	-11.1006
지대	-11.1006
주의보	-11.1007
충격	-11.1007
▁자금이	-11.1008
떡	-11.101
▁위험한	-11.1012
▁예상치	-11.1013
▁필요합니다	-11.1016
▁거야	-11.1016
▁계획이	-11.1016
▁극대화	-11.1018
▁속으로	-11.1018
▁소수	-11.1018
▁고양시	-11.1019
리조트	-11.1019
▁페이스북에	-11.1021
▁입구	-11.1022
▁고지	-11.1022
▁건데	-11.1024
▁세계적인	-11.1027
창원	-11.1028
▁씨에게	-11.103
▁시기에	-11.103
▁시속	-11.1032
토론회	-11.1034
▁캠핑	-11.1036
▁전투기	-11.1036
독도	-11.1037
▁충족	-11.1037
▁법원에	-11.104
프레	-11.1041
▁하락세	-11.1041
노선	-11.1041
▁적절한	-11.1043
▁체크	-11.1043
지난해	-11.1043
8.9%	-11.1044
년차	-11.1045
9.8%	-11.1045
하였다	-11.1045
▁진행되는	-11.1046
▁올리는	-11.1047
어떤	-11.1047
액을	-11.1047
보드	-11.105
갑질	-11.1051
▁공통	-11.1052
▁추구	-11.1053
▁언론에	-11.1055
▁곁	-11.1058
▁제품의	-11.1058
하지는	-11.1062
▁앞장서	-11.1063
▁위장	-11.1064
원대	-11.1066
댐	-11.1067
▁투자가	-11.1068
▁주기	-11.107
코스	-11.107
▁조사가	-11.1071
▁충분한	-11.1072
▁가습기	-11.1074
▁떠났다	-11.1074
▁수사권	-11.1075
▁한명숙	-11.1076
순환	-11.1076
▁떨어지	-11.1076
▁수송	-11.1077
▁선거에	-11.1077
▁진상	-11.1078
▁물러나	-11.108
▁당황	-11.108
▁같았다	-11.1081
▁영향력	-11.1082
()	-11.1085
▁유예	-11.1088
▁퇴원	-11.1088
▁총리가	-11.1088
▁바라는	-11.1089
▁이뤄	-11.1091
▁선사	-11.1093
▁디지털타임스	-11.1093
▁받으면	-11.1095
갔습니다	-11.1096
3.8%	-11.1097
▁아닐	-11.11
법상	-11.1101
·4	-11.1103
▁파산	-11.1104
▁99	-11.1104
▁확정됐다	-11.1105
4.3%	-11.1108
▁저가	-11.1108
▁그중	-11.1109
▁dt	-11.1111
실을	-11.1113
▁주방	-11.1114
▁창문	-11.1115
3.6%	-11.1116
농장	-11.1118
▁중산층	-11.1119
▁용량	-11.112
▁남성의	-11.1121
▁자금을	-11.1121
▁제조업체	-11.1121
▁진압	-11.1121
▁국군	-11.1122
▁배가	-11.1123
▁치고	-11.1123
▁생중계	-11.1125
▁회장과	-11.1126
▁금융위원장	-11.1131
▁차가	-11.1133
▁맛이	-11.1136
▁보면서	-11.1137
▁기술이	-11.114
▁흉	-11.1141
▁했다는	-11.1144
▁금융감독원	-11.1144
배나	-11.1144
▁여부가	-11.1144
▁부재	-11.1147
연장	-11.1152
▁간판	-11.1153
킬	-11.1156
위원회를	-11.1157
▁인공지능	-11.1163
▁복권	-11.1168
개동	-11.1169
▁하태경	-11.117
배당	-11.117
앞으로	-11.117
▁일괄	-11.1171
의견	-11.1171
▁삼성생명	-11.1175
▁하락세를	-11.1175
됐다는	-11.1175
▁확대한다	-11.1176
▁유로존	-11.1177
▁매출을	-11.1177
▁발견됐습니다	-11.1178
▁납입	-11.118
▁내려진	-11.118
▁오지	-11.1181
▁들어와	-11.1183
대병원	-11.1184
세금	-11.119
램	-11.1191
논	-11.1191
▁베이	-11.1191
릉	-11.1193
계열	-11.1194
▁난동	-11.1195
▁저금리	-11.1195
심은	-11.1196
▁공동체	-11.1196
▁투입해	-11.1196
▁발대식	-11.1198
▁웹	-11.12
▁임대주택	-11.1202
▁비싸	-11.1202
▁유독	-11.1206
▁경호	-11.1209
▁권유	-11.1211
▁통화정책	-11.1213
3.1%	-11.1215
▁검은	-11.1215
▁재차	-11.1218
▁적혀	-11.122
▁뺑소니	-11.1221
]“	-11.1221
▁타이어	-11.1222
홈쇼핑	-11.1223
▁발병	-11.1223
▁경비원	-11.1224
럭	-11.1224
6.7%	-11.1226
씨에	-11.123
GDP	-11.123
▁해상에서	-11.1232
▁마포구	-11.1232
▁불확실성	-11.1234
▁보존	-11.1234
▁왼쪽	-11.1235
▁걱정이	-11.1235
▁가능성에	-11.1236
▁영장실질심사	-11.1239
4.2%	-11.1239
▁사망했다	-11.124
▁불편을	-11.124
▁과열	-11.1241
최근	-11.1244
씨도	-11.1244
▁당첨금	-11.1244
▁북한군	-11.1245
웠	-11.1246
▁가속	-11.1249
▁원산지	-11.1249
▁견해	-11.1249
▁해수욕장	-11.1249
▁나흘	-11.1254
자기	-11.1255
▁넘긴	-11.1256
▁반납	-11.1257
▁발달	-11.1257
▁이틀간	-11.126
▁있었지만	-11.1262
백여	-11.1264
▁몸이	-11.1265
▁양상	-11.1266
CEO	-11.1269
▁용산구	-11.1269
▁시가	-11.127
▁삼성전자의	-11.1274
비로	-11.1279
율을	-11.128
▁상의	-11.1282
▁장병	-11.1282
▁입건했다	-11.1284
유산	-11.1284
▁대세	-11.1285
▁얻는	-11.1286
었고	-11.1286
새누리	-11.1287
▁사례를	-11.1288
▁홍성	-11.1288
ic	-11.1289
지하철	-11.1289
성은	-11.129
▁합의했다	-11.1291
▁2.0	-11.1292
▁궁	-11.1292
AT	-11.1293
연령	-11.1293
▁입니다	-11.1298
▁블로그	-11.1299
▁무선	-11.1302
가격은	-11.1302
▁두산	-11.1302
▁사정이	-11.1305
덴	-11.1306
진료	-11.1307
▁놀라	-11.1309
▁합의를	-11.1313
▁170	-11.1314
인식	-11.1315
▁추후	-11.1317
▁가해	-11.1318
▁처벌을	-11.1318
▁풍부한	-11.1321
▁기탁	-11.1322
▁확인됐습니다	-11.1322
▁정도는	-11.1322
▁재현	-11.1325
▁대우조선	-11.1329
▁비과세	-11.1329
▁빚어	-11.133
하실	-11.1331
▁신공항	-11.1332
▁던지	-11.1333
▁3·1	-11.1335
▁패널	-11.1336
▁계신	-11.1339
▁창조	-11.1341
고교	-11.1342
▁불고	-11.1342
▁가격도	-11.1343
그린	-11.1343
회관	-11.1343
▁대부분은	-11.1345
▁GM	-11.1347
9.1%	-11.1348
▁정부도	-11.1349
▁주장하는	-11.1349
아리	-11.1351
▁도깨비뉴스	-11.1352
측은	-11.1352
▁분야에	-11.1353
3.4%	-11.1354
▁환불	-11.1354
▁쥐	-11.1355
▁김명수	-11.1355
▁챙기	-11.1356
▁업주	-11.1358
▁않다고	-11.1361
6.4%	-11.1363
특징주	-11.1364
▁개성	-11.1365
▁차로	-11.1368
kW	-11.1368
▁우상호	-11.137
옷	-11.137
▁읽어	-11.137
제일제당	-11.1371
▁장례식장	-11.1371
▁화재로	-11.1374
▁국회를	-11.1374
▁기소된	-11.1375
▁각국	-11.1377
▁코스피지수	-11.1377
▁달러화	-11.1378
▁돌아섰다	-11.1379
▁골목	-11.138
▁부산의	-11.138
▁자신감	-11.1383
▁치르	-11.1384
.10	-11.1385
▁이것을	-11.1385
▁않기로	-11.1386
동향	-11.1387
▁미흡	-11.1387
▁복무	-11.1391
수로	-11.1393
▁기업을	-11.1393
▁아니에요	-11.1394
▁예정돼	-11.1394
▁파도	-11.1395
▁것만	-11.1397
▁길게	-11.1398
5.7%	-11.1398
일보	-11.1399
▁약속했다	-11.1399
운용	-11.14
▁쏠리고	-11.1401
▁해결할	-11.1402
▁여야의	-11.1402
▁차량에	-11.1404
▁않았던	-11.1404
▁연체	-11.1405
시키기	-11.1406
▁탓이다	-11.1407
▁치유	-11.1407
▁주목을	-11.1407
구속	-11.1408
▁생각에	-11.1412
▁제공한	-11.1413
▁방침을	-11.1414
▁결합	-11.1415
▁기적	-11.1415
▁불공정	-11.1416
▁해명했다	-11.1419
▁모르고	-11.142
▁어쩔	-11.1421
▁회장을	-11.1422
▁소득공제	-11.1423
▁바꾸	-11.1424
억여원	-11.1424
▁찾는다	-11.1427
▁경쟁력을	-11.1428
▁이내에	-11.1429
너무	-11.143
▁다를	-11.143
▁위험이	-11.1432
▁고비	-11.1434
없	-11.1435
▁과실	-11.1435
긴급	-11.1435
파업	-11.1435
닷컴	-11.1436
▁처분을	-11.1436
▁질타	-11.1437
▁한마디로	-11.1438
▁사후	-11.1438
▁곡	-11.144
부는	-11.1441
▁많을	-11.1442
▁출제	-11.1443
▁인지	-11.1443
▁특성	-11.1443
컴	-11.1444
▁선보이고	-11.1444
▁아픈	-11.1445
▁늘린다	-11.1446
▁신고리	-11.1447
▁중재	-11.145
▁간편	-11.1453
▁태블릿	-11.1454
▁몽골	-11.1454
▁매장을	-11.1455
▁손으로	-11.1455
▁공사장	-11.1456
들로	-11.1456
신당	-11.1457
▁해외에서	-11.1459
▁되찾	-11.1459
檢	-11.1459
▁따져	-11.146
▁2500	-11.1461
▁모니터링	-11.1461
▁극심한	-11.1461
▁알바	-11.1462
▁이정	-11.1463
▁육아휴직	-11.1463
▁신청했다	-11.1465
콤	-11.1466
무기	-11.1466
▁모텔	-11.1468
치를	-11.1469
받지	-11.1469
▁기관이	-11.1469
쌍	-11.1471
6.5%	-11.1472
▁놀이	-11.1472
▁맞습니다	-11.1473
▁어디서	-11.1474
▁선거를	-11.148
▁겪었다	-11.1481
떼	-11.1482
▁인구가	-11.1483
졌고	-11.1483
▁350	-11.1486
▁어젯밤	-11.1487
▁살펴보는	-11.1487
▁위원회	-11.1488
▁마비	-11.1489
▁담뱃값	-11.149
▁돼요	-11.1491
위원회는	-11.1491
▁김씨가	-11.1492
역대	-11.1493
▁누리꾼	-11.1494
▁화합	-11.1495
▁군수	-11.1495
▁병사	-11.1495
▁도서	-11.1496
▁한다면	-11.1497
▁이러	-11.1498
▁위주로	-11.1499
집단	-11.1499
변화	-11.1501
▁경제에	-11.1502
▁말씀이	-11.1502
▁분석도	-11.1502
▁광복절	-11.1502
▁않았습니까	-11.1503
▁등장한	-11.1504
▁굳이	-11.1506
▁오후부터	-11.1508
소를	-11.1511
▁공백	-11.1511
▁높	-11.1513
깃	-11.1514
▁이익을	-11.1515
톱	-11.1516
▁확인한	-11.1517
지급	-11.1518
▁적게	-11.1519
흑	-11.1521
▁히	-11.1522
▁비주류	-11.1524
▁참석자들	-11.1525
▁움직임	-11.1526
▁스타벅스	-11.1528
▁집으로	-11.1528
기아차	-11.1529
ro	-11.153
▁출석하는	-11.1532
▁공론화	-11.1538
▁부회장은	-11.1539
∼3	-11.1539
▁확실히	-11.1539
▁노린	-11.1539
▁머물	-11.1543
▁보류	-11.1545
▁도피	-11.1546
김무성	-11.1546
▁소리를	-11.1546
▁배후	-11.1547
▁최악	-11.1548
▁기구	-11.1551
▁특보	-11.1551
지부	-11.1554
▁수사관	-11.1554
▁시민의	-11.1556
▁부스	-11.1557
▁목격	-11.1557
▁세무	-11.1558
▁다스	-11.1558
~9	-11.156
돼지	-11.1561
(16	-11.1561
(),	-11.1561
▁가기	-11.1562
으론	-11.1562
▁오른쪽	-11.1567
▁추진된다	-11.1569
듯이	-11.1572
▁영등포	-11.1572
▁했을	-11.1572
▁구제	-11.1574
▁바뀐다	-11.1574
▁진정성	-11.1574
▁매장에서	-11.1574
▁이화여대	-11.1576
▁행정관	-11.1576
▁저지른	-11.1577
▁심사를	-11.1578
에스	-11.1579
스쿨	-11.1579
▁적발됐다	-11.1581
라이프	-11.1582
▁출신으로	-11.1583
▁법사위	-11.1584
▁여성을	-11.1586
▁양적완화	-11.1587
▁붙어	-11.1589
▁빼고	-11.159
▁움직임이	-11.159
▁내역	-11.1591
▁영업정지	-11.1591
▁기본적으로	-11.1591
▁조용	-11.1591
디스플레이	-11.1593
▁로스쿨	-11.1593
간담회	-11.1594
▁대졸	-11.1594
▁운동을	-11.1594
가게	-11.1595
▁지금의	-11.1599
▁맘	-11.16
▁농심	-11.16
▁강세를	-11.16
▁학력	-11.1603
▁당첨자는	-11.1603
▁문희상	-11.1603
▁낮아졌다	-11.1605
▁홍보대사	-11.1605
▁주한미군	-11.1606
▁착수했다	-11.1606
▁선수들	-11.1607
▁되는데	-11.1613
▁없던	-11.1614
자회담	-11.1616
▁운송	-11.1616
드리	-11.1618
멘	-11.1619
▁달러를	-11.162
▁중고차	-11.1621
▁부결	-11.1621
▁체납	-11.1622
▁중국산	-11.1622
▁다운	-11.1624
▁올리	-11.1628
▁써야	-11.1631
의사	-11.1632
니까요	-11.1633
▁2021	-11.1634
▁충	-11.1635
5.5%	-11.1636
▁효과는	-11.1636
▁기상청	-11.1638
▁죽어	-11.1638
켜	-11.1638
▁자료는	-11.1639
회원	-11.1639
▁12%	-11.1639
▁가깝다	-11.1642
▁전락	-11.1644
▁돈으로	-11.1647
▁s	-11.1647
부지	-11.1649
▁전략적	-11.1654
▁이름으로	-11.1656
▁악수	-11.1657
▁가르	-11.1659
▁앞장	-11.1661
▁송금	-11.1662
▁상고	-11.1662
▁개인의	-11.1665
냈	-11.1665
▁코스닥지수는	-11.1665
▁개발에	-11.1666
▁업소	-11.1666
온라인	-11.1668
▁낭비	-11.1668
규정	-11.1671
▁곳을	-11.1672
▁1970	-11.1673
자연	-11.1674
▁기재	-11.1674
▁띄는	-11.1674
▁국어	-11.1675
현지시간	-11.1677
▁소녀	-11.1678
상승	-11.1678
▁출간	-11.1679
▁채취	-11.1679
▁혐의가	-11.168
가구로	-11.168
코드	-11.1681
▁테이블	-11.1681
발전소	-11.1682
▁종업원	-11.1682
▁초래	-11.1683
▁매몰	-11.1685
겠어요	-11.1685
▁검사장	-11.1686
▁제품이다	-11.1686
▁재확인	-11.1687
▁불만을	-11.1689
▁IS	-11.169
▁신부	-11.1691
보험료	-11.1691
▁신선	-11.1691
▁영등포구	-11.1691
▁염두에	-11.1692
▁만화	-11.1693
▁차지한다	-11.1694
발언	-11.1695
▁드리	-11.1697
▁재물	-11.1698
▁응급실	-11.1698
▁정치권의	-11.1698
...5	-11.1699
변경	-11.1702
▁분야의	-11.1704
▁유전자	-11.1705
▁창구	-11.1706
▁다음에	-11.1707
▁뭐라고	-11.1709
▁적도	-11.171
▁사망한	-11.171
▁신청하면	-11.171
0.2%	-11.1714
▁반려동물	-11.1714
▁계속될	-11.1715
▁목적으로	-11.1716
안이	-11.1716
▁취약계층	-11.172
▁DNA	-11.172
됐을	-11.172
당시	-11.172
공유	-11.1721
▁거래량	-11.1722
▁확인하고	-11.1722
어린이집	-11.1724
▁한계가	-11.1725
스럽게	-11.1726
▁휴가철	-11.1726
et	-11.1726
▁정무	-11.1727
▁뜻한다	-11.1727
▁우대	-11.1729
▁끝나면	-11.173
실로	-11.1731
(22	-11.1733
▁결함	-11.1735
▁올릴	-11.1737
4.6%	-11.1737
7.5%	-11.174
▁세상에	-11.174
4.8%	-11.1743
▁활성화를	-11.1744
▁신생아	-11.1745
▁확률	-11.1745
▁피우	-11.1745
리스트	-11.1749
▁일반적으로	-11.1749
▁불어	-11.175
▁신뢰를	-11.1751
▁응답자	-11.1752
▁만료	-11.1754
▁지분을	-11.1756
▁지키	-11.1757
▁이하로	-11.1761
▁들어보겠습니다	-11.1762
▁정기국회	-11.1762
▁발생했습니다	-11.1763
▁고용부	-11.1764
▁‘1	-11.1765
▁넣	-11.1773
▁능력을	-11.1774
▁천정배	-11.1774
▁0.8%	-11.1775
↑...	-11.1776
▁해양수산부	-11.1779
▁순매도	-11.178
▁연쇄	-11.1782
▁법원의	-11.1783
대우	-11.1784
▁투표소	-11.1785
▁초미세먼지	-11.1785
▁당신	-11.1785
▁어제보다	-11.1785
등은	-11.1787
▁대주주	-11.1787
영장	-11.1787
▁가속화	-11.1788
▁불출석	-11.1791
▁요구를	-11.1792
▁안전사고	-11.1792
▁0.6%	-11.1793
▁인사들	-11.1794
대북	-11.1794
▁결론을	-11.1795
▁겨	-11.1795
▁정무수석	-11.1795
▁방법으로	-11.1797
▁열립니다	-11.1797
시켜야	-11.1798
리그	-11.1798
스티	-11.1799
∼20	-11.1802
단을	-11.1802
▁성명	-11.1803
▁여고생	-11.1805
▁신청은	-11.1806
▁국세	-11.1808
▁관람객	-11.181
人	-11.1812
▁손잡고	-11.1814
▁8.	-11.1814
해지	-11.1815
▁로켓	-11.1816
▁단풍	-11.1816
▁기대하고	-11.182
▁적다	-11.182
▁대우조선해양	-11.1821
▁통진당	-11.1821
▁해역	-11.1821
▁파티	-11.1822
▁출생	-11.1822
▁테스트	-11.1823
아침	-11.1824
▁순수	-11.1825
을까요	-11.1827
▁연평도	-11.1827
▁비만	-11.1828
모바일	-11.1828
▁하나금융	-11.1828
▁만들어진	-11.183
▁국민에게	-11.183
▁유혹	-11.1831
킨	-11.1831
▁다녀	-11.1831
▁욕심	-11.1834
▁한국전력	-11.1835
▁문화재	-11.1838
대란	-11.184
▁판교	-11.1841
여름	-11.1842
▁요구하고	-11.1843
▁상태가	-11.1843
▁느낌이	-11.1844
▁배임	-11.1846
▁단위로	-11.1847
지나	-11.1847
▁상금	-11.1847
▁늘릴	-11.1848
전자는	-11.1851
▁약화	-11.1852
▁여진	-11.1852
▁응급	-11.1853
▁정진석	-11.1853
▁평가다	-11.1854
▁1995	-11.1855
▁밝	-11.1856
▁채우	-11.1856
▁내놓았다	-11.1857
▁1.6	-11.1859
명중	-11.1859
사망	-11.186
▁폐사	-11.1863
▁띄	-11.1864
▁행렬	-11.1864
▁번째다	-11.1866
▁0.7%	-11.1866
봐	-11.1867
▁필요할	-11.1868
▁증가하는	-11.1869
▁규제를	-11.1871
장기	-11.1872
▁일부를	-11.1876
▁SM	-11.1877
(25	-11.1877
▁싶지	-11.1877
▁터져	-11.1881
▁시행된다	-11.1881
▁구역	-11.1882
▁가벼운	-11.1882
▁초등생	-11.1883
▁몰린	-11.1883
▁그들의	-11.1885
▁감동	-11.1886
▁사람들에게	-11.1887
▁앞선	-11.1887
프리	-11.1889
▁확대됐다	-11.1889
특구	-11.189
▁좌석	-11.1891
고기	-11.1891
잇	-11.1893
▁구속됐다	-11.1895
▁차이는	-11.1896
▁동북아	-11.1896
▁거점	-11.1898
▁발전을	-11.1899
▁동일한	-11.1901
▁올랐습니다	-11.1901
▁알아야	-11.1901
십니까	-11.1901
▁느	-11.1903
어가	-11.1903
담배	-11.1904
▁충주	-11.1904
보유	-11.1906
▁전과없음	-11.1906
▁증여	-11.1907
▁주장하고	-11.1907
(17	-11.1907
▁남부지방	-11.1907
샷	-11.1909
▁기업들은	-11.1912
▁부친상	-11.1913
친구	-11.1914
▁핫	-11.1919
▁교수의	-11.1921
▁사표	-11.1921
정호	-11.1923
관을	-11.1924
▁미치지	-11.1926
YTN	-11.193
▁달라고	-11.1931
시의회	-11.1934
▁사인	-11.1935
▁진상조사	-11.1935
▁폐기물	-11.1936
▁우리나라에서	-11.1941
5.8%	-11.1945
▁밀어	-11.1945
▁살처분	-11.1946
도교육청	-11.1946
▁에스	-11.1947
▁졸업생	-11.1948
▁2.8%	-11.1949
▁보전	-11.195
▁미술	-11.195
▁아시아나항공	-11.195
▁국민의당은	-11.1951
▁하고요	-11.1951
▁정두언	-11.1952
▁협치	-11.1952
▁산지	-11.1953
硏	-11.1957
▁강좌	-11.1958
뭉	-11.1958
▁회사채	-11.1959
▁NLL	-11.1959
4.1%	-11.1964
▁꾸려	-11.1964
▁건강을	-11.1966
▁제도가	-11.1966
▁증	-11.1966
bp	-11.1968
▁한국거래소	-11.1968
▁미국에	-11.1969
사격	-11.1969
주말	-11.197
▁동원해	-11.1972
서민	-11.1973
교회	-11.1973
▁미미	-11.1973
▁헌혈	-11.1975
▁계기가	-11.1975
▁행장	-11.1976
▁어서	-11.1977
▁News	-11.1978
▁굳은	-11.1978
▁반입	-11.1981
st	-11.1984
▁대변	-11.1984
▁숙제	-11.1985
▁어디서나	-11.1987
▁남았다	-11.1987
3.9%	-11.1988
▁시신을	-11.1988
종목	-11.199
▁어디까지	-11.199
▁화두	-11.199
▁탈퇴	-11.1991
▁클릭	-11.1992
체육	-11.1993
나쁨	-11.1993
▁탄핵심판	-11.1994
▁생각하지	-11.1996
▁하도급	-11.1999
과정에서	-11.2001
4.7%	-11.2001
▁카드를	-11.2002
▁인센티브	-11.2003
▁한겨레	-11.2004
▁보수단체	-11.2004
▁작업에	-11.2005
됐기	-11.2006
라이트	-11.2006
▁막는	-11.2007
톡	-11.201
안에	-11.2012
▁농도	-11.2012
▁처음부터	-11.2013
▁논의할	-11.2013
마음	-11.2014
▁장성택	-11.2014
▁피할	-11.2016
▁구두	-11.2016
▁아르바이트	-11.2017
새로운	-11.2018
5.4%	-11.2019
▁사례도	-11.2021
▁슈	-11.2026
▁썼	-11.2028
▁박종	-11.2032
구청	-11.2034
성공	-11.2034
▁절약	-11.2035
▁장관의	-11.2035
▁지혜	-11.2035
▁행동을	-11.2037
▁지지율은	-11.2039
학자	-11.2039
▁3.1	-11.204
▁기업은행	-11.204
▁일하고	-11.2042
▁살펴보면	-11.2043
▁양식	-11.2045
▁게재	-11.2048
▁빼앗	-11.2048
(23	-11.2049
▁그거	-11.2053
▁살펴보겠습니다	-11.2054
▁웃는	-11.2054
벤처	-11.2056
▁물리	-11.2058
우수	-11.206
▁오면	-11.2061
▁소문	-11.2061
낸다	-11.2062
▁시간대	-11.2063
신한	-11.2063
▁결정될	-11.2064
▁배당금	-11.2064
뢰	-11.2067
▁무너지	-11.2067
민정	-11.2067
▁뜨	-11.2067
▁월드	-11.2069
▁고교생	-11.207
▁부족하다	-11.2072
▁부산항	-11.2072
▁안전관리	-11.2073
▁뻔	-11.2074
▁오랫동안	-11.2074
겠는데요	-11.2075
▁농도는	-11.2078
▁방문했다	-11.2078
▁이민	-11.2079
수산	-11.2081
▁될지	-11.2081
부진	-11.2083
▁심야	-11.2083
▁결정이	-11.2084
▁얘기도	-11.2084
▁수영	-11.2085
노트	-11.2086
▁주범	-11.2088
▁35%	-11.2091
▁미루	-11.2093
▁설명을	-11.2094
▁무혐의	-11.2095
▁영향은	-11.2096
-7	-11.2096
(24	-11.2097
▁우세	-11.2098
▁기득권	-11.2098
(26	-11.2098
▁연구소	-11.2099
▁전남도	-11.21
▁냉동	-11.2101
▁청년층	-11.2101
▁탐방	-11.2101
▁초점을	-11.2103
▁법을	-11.2105
▁평화의	-11.2106
모씨	-11.2106
▁모습입니다	-11.2108
5.6%	-11.2108
▁협의를	-11.2109
▁파워	-11.211
재벌	-11.2113
▁문의하면	-11.2114
▁농민들	-11.2115
▁학생은	-11.2115
6.8%	-11.2116
▁들어오	-11.2117
▁출신인	-11.2119
▁혈액	-11.212
▁다니	-11.2122
▁결집	-11.2123
▁거세	-11.2123
상환	-11.2123
▁불꽃	-11.2124
▁한겨레신문사	-11.2124
시간은	-11.2124
▁연비	-11.2126
▁능력이	-11.2127
▁한꺼번에	-11.2131
▁경사	-11.2131
▁역전	-11.2132
▁찾	-11.2132
▁초대형	-11.2133
▁스님	-11.2133
▁회의에서	-11.2134
시장에	-11.2135
▁일본군	-11.2137
▁캠퍼스	-11.214
5.3%	-11.2141
▁올리고	-11.2141
▁한국당은	-11.2144
▁밖	-11.2144
▁정씨	-11.2145
소재	-11.2148
입법	-11.215
▁커플	-11.2151
▁돌며	-11.2152
부처	-11.2152
찍	-11.2155
▁by	-11.2155
인들	-11.2156
▁김진표	-11.2158
▁제기되고	-11.2158
▁받아들이	-11.2159
0.3%	-11.216
국민은행	-11.2161
▁유권자들	-11.2162
▁열렸습니다	-11.2162
∼5	-11.2164
▁기숙사	-11.2167
물이	-11.2168
▁강조했습니다	-11.2168
▁시연	-11.2168
추천	-11.217
배가	-11.217
엑스	-11.2173
▁지방세	-11.2173
▁의장은	-11.2174
▁선택할	-11.2176
▁번도	-11.2176
▁충분	-11.2176
▁소리가	-11.2177
▁타협	-11.2181
▁중에서도	-11.2182
▁건설업	-11.2183
배우	-11.2184
▁스토리	-11.2185
8.5%	-11.2185
스러워	-11.2185
4.9%	-11.2188
수리	-11.219
관이	-11.219
▁있었다고	-11.2191
▁감기	-11.2194
그러	-11.2195
▁다음과	-11.2195
▁쳐	-11.2195
▁늘렸다	-11.2196
▁진술을	-11.2198
▁조윤선	-11.2198
년과	-11.2199
▁사회가	-11.22
▁다르게	-11.2202
▁사라졌다	-11.2202
▁세계적으로	-11.2203
촛불	-11.2205
▁한국어	-11.2205
▁천막	-11.2206
▁정해	-11.2207
▁입수	-11.2207
개교	-11.2208
▁않겠다는	-11.2208
▁세탁	-11.2209
▁번째는	-11.2209
의무	-11.221
▁폭우	-11.2211
▁이벤트도	-11.2212
▁고립	-11.2213
▁중계	-11.2215
▁어떨까	-11.2215
위원회가	-11.2215
▁l	-11.2217
이사	-11.2217
기상	-11.222
▁적용해	-11.222
▁전해졌습니다	-11.222
▁것이냐	-11.2221
든지	-11.2223
텐	-11.2224
▁수입은	-11.2225
워크	-11.2228
▁주목할	-11.2229
▁드러내	-11.2229
휴가	-11.2229
▁돼서	-11.2232
고발	-11.2236
FA	-11.2237
▁숨지게	-11.2237
▁사회에	-11.2238
구리	-11.2241
관은	-11.2242
▁확인되지	-11.2243
▁태양	-11.2244
▁욕설	-11.2245
▁정도를	-11.2246
되어야	-11.2246
▁사각지대	-11.2247
▁답변을	-11.2249
기만	-11.225
▁실세	-11.2251
▁평가는	-11.2253
▁개정안은	-11.2254
▁마련된	-11.2257
성적	-11.2258
▁조종사	-11.2261
이야기	-11.2262
▁시작됐습니다	-11.2262
0.9%	-11.2262
▁키우	-11.2268
▁나오면	-11.227
의식	-11.2271
하더라도	-11.2271
인원	-11.2271
▁하니까	-11.2272
▁보며	-11.2272
▁조사는	-11.2272
▁0.4	-11.2273
없어	-11.2273
▁보궐선거	-11.2274
▁남해안	-11.2274
▁비서	-11.2274
▁기울	-11.2277
특수	-11.2278
▁말레이시아	-11.2278
▁도지사	-11.2279
로서는	-11.2279
▁확보했다	-11.228
▁집중적으로	-11.2281
▁끊어	-11.2282
▁2.7%	-11.2285
▁원룸	-11.2287
▁부친	-11.2287
벨트	-11.2287
자치	-11.2288
ch	-11.2289
▁모친상	-11.2289
▁성완종	-11.2289
현안	-11.2291
▁종일	-11.2291
▁긴급체포	-11.2292
▁기술력	-11.2292
▁우리에게	-11.2293
▁98	-11.2294
▁이후에	-11.2296
선거구	-11.2298
▁개선을	-11.2299
▁있겠습니다	-11.2302
▁낚시	-11.2302
▁숙소	-11.2302
▁혐오	-11.2303
▁KDI	-11.2309
▁간에	-11.2309
내고	-11.2309
▁가이드라인	-11.2309
▁증가세를	-11.2311
▁가능할	-11.2311
▁DJ	-11.2315
▁하라	-11.2316
▁보내고	-11.2317
꺼	-11.2318
▁재편	-11.2318
▁격차가	-11.2318
▁앞으로는	-11.2321
▁혼잡	-11.2322
▁신차	-11.2323
BC	-11.2323
▁항만	-11.2326
▁법정관리	-11.2326
▁태안	-11.2327
▁고개	-11.2331
▁국외	-11.2332
▁분위기는	-11.2334
▁들어왔다	-11.2334
▁신속	-11.2334
1.5%	-11.2335
▁산책	-11.2336
▁날이다	-11.2337
시를	-11.2339
선이	-11.234
깨	-11.234
▁자정	-11.2341
▁소동	-11.2341
시간을	-11.2342
할인	-11.2344
▁반발했다	-11.2345
▁여행을	-11.2345
▁시대가	-11.2345
▁해주	-11.2345
▁시작합니다	-11.2346
▁묘역	-11.2349
▁높이고	-11.2349
▁지향	-11.235
▁외환위기	-11.235
▁결렬	-11.2351
▁맞춘	-11.2353
3.5%	-11.2355
▁분석해	-11.2355
01	-11.2356
▁즐겨	-11.2357
▁사흘째	-11.2358
부터는	-11.2358
▁오세요	-11.2358
▁감소세	-11.2359
▁성주	-11.236
주도	-11.236
▁최태원	-11.236
자마자	-11.2364
국방	-11.2365
▁조화	-11.2365
▁미달	-11.2365
▁콘	-11.2366
▁족	-11.2368
▁상반기에	-11.2369
▁사과를	-11.2369
▁과다	-11.2372
▁물고기	-11.2375
취소	-11.2376
▁뺀	-11.2379
▁김형	-11.238
▁건축물	-11.238
▁우산	-11.2381
▁출퇴근	-11.2382
~7	-11.2383
디지털	-11.2383
▁안전을	-11.2384
▁마련된다	-11.2384
▁어른	-11.2386
▁안팎의	-11.2386
▁징수	-11.2386
회에	-11.2387
▁사로잡	-11.2388
으려	-11.2389
▁아모레퍼시픽	-11.239
▁색깔	-11.239
자인	-11.2392
▁브로커	-11.2393
다시	-11.2396
▁티켓	-11.2398
▁ICT	-11.2401
▁뚫	-11.2401
의료원	-11.2401
▁실업자	-11.2403
▁상영	-11.2403
▁전산	-11.2403
겠	-11.2406
▁9%	-11.2406
▁약속을	-11.2407
▁구경	-11.2408
내기	-11.2409
▁관료	-11.2409
과학기술	-11.2409
▁97	-11.241
널	-11.241
▁잇달아	-11.2412
▁카카오톡	-11.2414
▁앓고	-11.2418
차가	-11.2418
▁공약을	-11.2419
▁계획은	-11.2419
▁장수	-11.242
감시	-11.2421
통계	-11.2422
제재	-11.2422
▁지켜보	-11.2424
▁절반이	-11.2425
▁적자를	-11.2426
경쟁력	-11.2426
▁게시물	-11.2427
▁아이들은	-11.2428
▁내려놓	-11.2429
▁수위	-11.243
▁의지가	-11.243
▁블랙박스	-11.2432
쟁	-11.2432
▁묶	-11.2433
▁선대위	-11.2435
▁일본인	-11.2435
▁예상보다	-11.2438
랭	-11.2438
▁워	-11.2439
▁난항	-11.2439
▁쌓인	-11.244
▁시기는	-11.244
▁인정했다	-11.2442
르기	-11.2443
표준	-11.2444
▁손가락	-11.2445
사퇴	-11.2445
es	-11.2446
▁연령대	-11.2446
▁답을	-11.2447
▁바뀌	-11.2448
▁증정한다	-11.2449
▁발표했습니다	-11.2452
▁청렴	-11.2452
비전	-11.2452
▁치솟	-11.2453
▁제한적	-11.2458
▁나라를	-11.2458
▁시기가	-11.2459
▁상자	-11.246
▁죽은	-11.246
▁발언이	-11.2461
팜	-11.2463
펜	-11.2464
안은	-11.2464
▁외국인이	-11.2464
PA	-11.2465
국세청	-11.2466
▁해결책	-11.247
▁합리적	-11.2471
▁국방장관	-11.2471
∼10	-11.2471
▁화요일	-11.2473
▁대장	-11.2473
▁기준은	-11.2474
▁확대된다	-11.2474
▁발생한다	-11.2475
▁정년	-11.2476
▁페이지	-11.2476
▁하반기에	-11.2478
▁이종걸	-11.2479
▁시대에	-11.248
▁발길	-11.2482
▁적어도	-11.2483
▁요구에	-11.2485
겁	-11.2486
(27	-11.2486
차를	-11.2487
▁연구위원	-11.2487
▁파악하고	-11.2488
▁종종	-11.2488
대리	-11.2492
▁우려를	-11.2492
▁생산량	-11.2493
▁케이	-11.2493
▁주사	-11.2493
보육	-11.2494
▁정체성	-11.2494
▁디스플레이	-11.2495
▁디젤	-11.2496
픽	-11.2496
▁안타까운	-11.2496
첨	-11.25
▁공지	-11.2501
통장	-11.2503
▁살아남	-11.2503
▁6·25	-11.2504
수영	-11.2506
▁올해로	-11.2506
▁0%	-11.2508
▁축산	-11.2508
▁중점	-11.2511
▁되풀이	-11.2511
▁그저	-11.2512
▁보도했다	-11.2512
이진선	-11.2515
▁청정	-11.2516
운행	-11.2516
▁국내총생산	-11.2519
▁올라왔다	-11.2519
▁갖는다	-11.2521
▁직원은	-11.2522
▁다르	-11.2523
▁침입	-11.2523
▁회사에	-11.2524
▁주변에서	-11.2525
공모	-11.2525
▁판매하는	-11.2526
먹는	-11.2527
리에	-11.2528
▁짓는	-11.2528
▁목표는	-11.2529
▁과시	-11.253
▁자국	-11.2532
▁안개	-11.2538
▁장관과	-11.254
▁고백	-11.2541
▁원천	-11.2543
6.3%	-11.2543
▁것들	-11.2543
▁지갑	-11.2544
▁김황식	-11.2546
케어	-11.2547
▁사랑하는	-11.2547
화물	-11.2548
▁노력이	-11.2548
▁생겨	-11.2549
▁제명	-11.2552
▁신병	-11.2552
북핵	-11.2552
▁벌여	-11.2552
▁고사	-11.2553
▁맞춤	-11.2555
▁구속된	-11.2557
▁구리	-11.2557
(02-	-11.2557
▁짐	-11.2558
▁정답	-11.2562
▁붙여	-11.2563
당신	-11.2564
▁대출금리	-11.2564
▁멤버	-11.2565
▁한두	-11.2566
▁억대	-11.2567
▁의혹도	-11.2568
▁시작했습니다	-11.257
▁정상회의	-11.2573
5.2%	-11.2574
▁언론사	-11.2575
~12	-11.2575
▁흉기로	-11.2575
▁사건으로	-11.2576
▁예정인	-11.2577
아빠	-11.2578
롤	-11.2578
▁해외여행	-11.2579
관세	-11.2579
▁돌아왔다	-11.2579
▁선택을	-11.2581
▁돼지고기	-11.2583
▁연주	-11.2583
효율	-11.2583
▁더해	-11.2585
▁양당	-11.2587
▁정문	-11.2587
▁위해선	-11.2587
시청	-11.2588
▁기다리	-11.259
▁관리를	-11.259
오르	-11.2591
추경	-11.2591
▁침대	-11.2592
시장의	-11.2592
릭	-11.2592
▁유가증권시장에서	-11.2594
▁심각하다	-11.2595
▁인기뉴스	-11.2597
▁은행의	-11.2598
▁징	-11.2599
▁못하게	-11.2599
▁본관	-11.2599
▁애도	-11.26
진영	-11.26
우리가	-11.2602
▁학교에서	-11.2603
▁모욕	-11.2603
▁재학생	-11.2604
▁평창올림픽	-11.2605
▁나눠보겠습니다	-11.2609
▁순직	-11.2612
▁사랑을	-11.2612
▁뜨겁다	-11.2615
▁남의	-11.2617
▁화제를	-11.2617
▁세월	-11.2618
▁갖추고	-11.2621
▁내용도	-11.2622
▁김정숙	-11.2623
▁엄정	-11.2624
단속	-11.2625
▁특파원	-11.2627
▁협상이	-11.2627
▁동맹	-11.2627
▁카지노	-11.2627
▁돌풍	-11.2629
▁바쁜	-11.2629
▁혜택이	-11.2629
▁물러	-11.263
▁1.7	-11.2631
▁아직은	-11.2633
▁피해자가	-11.2633
▁먹이	-11.2633
▁예상되는	-11.2634
하루	-11.2635
검증	-11.2635
▁전반적으로	-11.2635
▁과반	-11.2636
기와	-11.2636
2.5	-11.2637
5)	-11.2638
융합	-11.2638
롯데월드	-11.264
▁받아들여	-11.2641
▁발생하지	-11.2642
▁가족의	-11.2644
▁일본에서	-11.2644
▁다툼	-11.2645
▁실명	-11.2646
부실	-11.2646
▁지배구조	-11.2647
▁취지다	-11.2648
▁젖	-11.2649
판결	-11.265
▁나이가	-11.265
만건	-11.265
▁담화	-11.2651
▁아이들을	-11.2651
동물	-11.2653
▁신기	-11.2654
▁복잡한	-11.2656
차별	-11.2656
그런	-11.2657
▁이슈에	-11.2657
▁쿠폰	-11.2658
사이버	-11.266
▁수준이었다	-11.2661
6.6%	-11.2661
▁아웃도어	-11.2661
△	-11.2663
▁오프라인	-11.2665
▁복당	-11.2666
▁기대를	-11.267
반도체	-11.267
▁잇따르고	-11.2671
영어	-11.2671
▁9000	-11.2672
상으로	-11.2672
▁비판을	-11.2673
▁미쳤다	-11.2674
▁다녀왔습니다	-11.2675
▁증시는	-11.2676
▁서청원	-11.2676
▁형량	-11.2676
▁유인	-11.2678
▁쌍	-11.2679
▁트위터에	-11.2683
▁하나은행	-11.2685
(21	-11.2686
▁확보한	-11.2686
▁개봉	-11.2687
▁등재	-11.2687
▁사태를	-11.269
▁시기를	-11.2691
▁지속될	-11.2694
▁적응	-11.2694
▁살포	-11.2695
▁기념해	-11.2696
중부	-11.2697
▁물결	-11.2698
승환	-11.2699
▁드러낸	-11.2699
▁삼성증권	-11.27
▁우회	-11.2701
▁일병	-11.2702
친다	-11.2703
겼	-11.2703
▁설문	-11.2705
권이	-11.2705
▁발견돼	-11.2707
▁조카	-11.271
▁소방서	-11.271
▁기업과	-11.2711
▁조폭	-11.2711
▁선행	-11.2711
공화국	-11.2712
센터는	-11.2712
▁수당	-11.2716
시가	-11.2717
▁되도록	-11.2717
공제	-11.2718
▁특집	-11.272
▁용서	-11.2723
▁마련해	-11.2725
▁안양	-11.2725
▁특가	-11.2725
▁꼼꼼히	-11.2726
포항	-11.2727
▁대우건설	-11.2727
번가	-11.2729
▁계속되는	-11.2729
하듯	-11.2729
▁조류	-11.2729
시키	-11.2731
▁변론	-11.2732
▁맑	-11.2732
▁지급한다	-11.2733
▁보였습니다	-11.2733
▁방통위	-11.2733
▁뛰	-11.2734
▁문체부	-11.2735
렸던	-11.2736
흔	-11.2737
▁소액	-11.2737
▁유효	-11.2738
콜라	-11.2738
▁금전운	-11.274
부를	-11.2741
▁판매를	-11.2741
만여명	-11.2741
▁사회복지	-11.2741
▁중앙은행	-11.2742
▁유학생	-11.2743
KT	-11.2744
▁말입니다	-11.2745
▁중입니다	-11.2749
▁여신	-11.275
▁건지	-11.2751
▁일관	-11.2752
▁바꾼	-11.2753
▁생각하면	-11.2753
▁내기	-11.2754
▁부분도	-11.2754
▁주문했다	-11.2755
▁감안하면	-11.2757
▁에이	-11.2758
▁한눈에	-11.2759
▁곱	-11.276
▁낡은	-11.276
▁자원봉사	-11.276
-6	-11.276
▁박재완	-11.2763
▁기한	-11.2763
▁양쪽	-11.2763
▁후보에	-11.2766
▁벌어	-11.2766
▁현오석	-11.2768
라운드	-11.2769
▁달해	-11.2769
▁교섭	-11.277
공학	-11.277
▁◆...	-11.2773
▁자라	-11.2774
▁박차	-11.2775
▁김일성	-11.2775
(28	-11.2777
▁매뉴얼	-11.278
▁담고	-11.278
▁형태의	-11.2781
6.2	-11.2782
▁만하다	-11.2782
▁김동철	-11.2784
故	-11.2785
▁학술	-11.2786
▁넘을	-11.2789
5.1%	-11.279
▁갖추	-11.2791
▁법조계	-11.2791
▁노원구	-11.2792
▁오너	-11.2792
▁소프트웨어	-11.2794
부채	-11.2796
▁좋고	-11.2797
상가	-11.2799
▁찾아온	-11.2799
론을	-11.2802
▁선택한	-11.2804
▁한참	-11.2805
헌법	-11.2805
▁이상인	-11.2805
▁일입니다	-11.2807
▁피로	-11.2807
▁성별	-11.2809
자재	-11.2809
▁쇠고기	-11.2811
6.2%	-11.2812
▁면세	-11.2812
▁꼼수	-11.2812
0.7%	-11.2814
▁이듬해	-11.2814
증을	-11.2815
▁커지는	-11.2816
블록	-11.2816
▁빨	-11.2817
OS	-11.2818
▁후에는	-11.282
7.2%	-11.2822
▁뽑아	-11.2826
입장	-11.2827
▁두려워	-11.2828
꺾	-11.2828
▁회피	-11.2829
▁집회를	-11.2829
▁최강	-11.2832
동부	-11.2832
▁끝으로	-11.2834
석을	-11.2835
▁매진	-11.2836
5.9%	-11.2836
▁수석은	-11.2837
▁아니지만	-11.2838
▁쌓아	-11.2839
▁부도	-11.284
▁증상이	-11.284
▁기류	-11.2841
▁↑	-11.2842
▁방사능	-11.2851
車	-11.2853
▁언급한	-11.2857
▁이름은	-11.2858
▁최우수	-11.2858
군사	-11.2859
▁입맛	-11.286
▁말씀드리	-11.286
▁경기지사	-11.2861
▁짧	-11.2861
▁꽉	-11.2862
6.1%	-11.2862
▁휴업	-11.2863
▁어린이날	-11.2863
졌던	-11.2864
▁유지할	-11.2866
▁북적	-11.2867
콘서트	-11.2868
면서도	-11.2868
▁그랬다	-11.2868
옹	-11.2868
▁밝히지	-11.2871
▁장미	-11.2875
▁선고받았다	-11.2878
▁후보자가	-11.2878
▁군의	-11.2879
▁청소년들	-11.288
▁있어도	-11.2881
▁몽	-11.2881
높	-11.2883
▁다가온	-11.2883
▁바뀔	-11.2884
▁현대상선	-11.2887
경기도	-11.2887
▁디자이너	-11.2888
▁청계천	-11.2888
▁보낼	-11.2889
▁당론	-11.289
▁득표율	-11.2893
면접	-11.2893
▁0.9%	-11.2894
지방법원	-11.2895
▁아니겠습니까	-11.2897
▁지속적인	-11.2898
폴	-11.2898
▁당연한	-11.2899
▁일로	-11.2899
▁함정	-11.2903
▁2.6%	-11.2908
▁직원들은	-11.2908
▁한자리에	-11.2908
▁행정부	-11.2914
(29	-11.2915
▁당해	-11.2916
▁탐	-11.2917
▁산업통상자원부	-11.2917
▁강원랜드	-11.2919
▁알았다	-11.292
▁MSI	-11.292
했으면	-11.2921
▁고등학생	-11.2922
▁산재	-11.2923
▁직원들의	-11.2924
▁벤츠	-11.2924
상에	-11.2925
▁가구의	-11.2927
▁실업률은	-11.2927
0.4%	-11.2929
▁비판도	-11.2931
▁열사	-11.2933
▁늘리는	-11.2934
ian	-11.2934
9.5%	-11.2935
생활을	-11.2936
▁맑고	-11.2938
▁생산성	-11.2939
▁싸우	-11.2942
▁냄새	-11.2942
북부	-11.2943
▁대리점	-11.2945
▁다들	-11.2945
7.6%	-11.2946
▁신청자	-11.2946
▁사저	-11.2946
▁끝이	-11.2946
▁교육부는	-11.2948
물류	-11.295
▁잠수함	-11.2951
▁이어서	-11.2951
▁당기순이익	-11.2951
▁쉴	-11.2951
▁96	-11.2952
항쟁	-11.2953
▁공휴일	-11.2953
▁있었고	-11.2954
▁넣고	-11.2955
▁추이	-11.2956
원칙	-11.2958
▁현대건설	-11.2958
▁정홍원	-11.2958
▁무엇인지	-11.296
▁소신	-11.296
▁상륙	-11.2961
자살	-11.2962
심의	-11.2962
▁존경하는	-11.2962
▁소명	-11.2962
·3	-11.2963
▁아파트값	-11.2964
▁분석된다	-11.2964
▁하겠다는	-11.2965
▁기록하고	-11.2965
▁활발	-11.2966
▁명에	-11.2966
▁표정으로	-11.2968
▁아쉬움	-11.297
▁외신	-11.297
▁미얀마	-11.2972
▁터지	-11.2972
▁지원했다	-11.2972
님이	-11.2974
▁한양대	-11.2975
▁민주평화당	-11.2975
▁차지하고	-11.2975
▁프레임	-11.2976
행진	-11.2978
▁살기	-11.2978
▁대화하는	-11.2979
▁사용했다	-11.2981
▁흙	-11.2983
▁공공부문	-11.2983
▁유의	-11.2984
공동체	-11.2985
▁블록체인	-11.2985
▁다양하다	-11.2985
▁개혁안	-11.2986
▁김상곤	-11.2986
▁놓은	-11.2987
▁기념행사	-11.2988
판을	-11.2988
개편	-11.2989
▁중지	-11.2989
▁업그레이드	-11.299
▁박주선	-11.2992
▁이곳은	-11.2992
▁준비했다	-11.2993
7.8%	-11.2995
▁장군	-11.2995
▁절실	-11.2996
▁원희룡	-11.2996
▁삼성동	-11.2997
거부	-11.2998
드루킹	-11.2998
▁괜찮	-11.2998
▁유상증자	-11.2998
DKBnews	-11.2999
▁유사한	-11.3
▁겉	-11.3001
▁여겨	-11.3001
▁빠	-11.3005
▁점거	-11.3005
▁높일	-11.3007
▁불평등	-11.3009
▁깔	-11.301
▁일가족	-11.3011
▁무릎	-11.3013
▁초콜릿	-11.3013
▁넓은	-11.3014
▁인연	-11.3015
▁스웨덴	-11.3016
▁부부가	-11.3016
▁먼지	-11.3018
떨	-11.3018
▁소설	-11.3019
▁모델로	-11.3023
▁치안	-11.3023
▁떨어졌	-11.3023
스코	-11.3024
진실	-11.3027
▁벌이	-11.3027
▁체제로	-11.303
▁활동에	-11.3031
▁서울시내	-11.3032
▁3.5	-11.3035
▁정치인들	-11.3035
▁대금	-11.3039
▁고객을	-11.3039
▁장거리	-11.304
▁룰	-11.304
▁모습은	-11.3041
▁교복	-11.3041
협의	-11.3042
예금	-11.3042
▁유리한	-11.3046
▁끊임없이	-11.3048
비행	-11.3048
BS	-11.3049
▁뚜렷	-11.3049
▁물량이	-11.3052
▁알았	-11.3052
▁동계올림픽	-11.3052
지방경찰청	-11.3053
회동	-11.3053
▁아파트는	-11.3055
▁박물관	-11.3056
▁겁	-11.306
▁갈라	-11.3061
▁상관없이	-11.3062
▁정씨는	-11.3062
▁특종	-11.3063
▁이정희	-11.3063
▁믿을	-11.3063
▁울릉도	-11.3064
▁태어나	-11.3065
▁국민은	-11.3065
▁과학기술	-11.3065
복합	-11.3067
▁한동안	-11.3068
론이	-11.307
▁분야는	-11.3071
지방기사	-11.3071
▁경제와이드	-11.3072
▁부른다	-11.3073
▁불만이	-11.3074
▁상태를	-11.3075
부족	-11.3075
▁체크카드	-11.3076
▁봤	-11.3076
▁무관	-11.3076
▁등락	-11.3077
▁선호하는	-11.3078
∼4	-11.3078
프라	-11.3078
▁기승을	-11.3079
▁요구한	-11.3079
▁기간을	-11.308
▁식량	-11.308
민주주의	-11.3081
▁이석	-11.3083
대형	-11.3083
▁복잡	-11.3084
산단	-11.3085
▁박영	-11.3086
▁11%	-11.3086
▁외화	-11.3087
▁걸린다	-11.3088
▁재산을	-11.3088
▁자유롭게	-11.3088
▁김선	-11.3089
뿐이다	-11.309
▁바닥에	-11.3091
▁여주	-11.3091
▁줄어들었다	-11.3091
헬기	-11.3092
▁지위	-11.3096
▁자세	-11.3096
해주세요	-11.3097
구도	-11.3097
▁청주시	-11.3099
유로	-11.3099
...10	-11.3101
▁논란은	-11.3101
▁공간을	-11.3102
▁조치가	-11.3103
▁역사적	-11.3105
업소	-11.3108
▁멧돼지	-11.311
▁보통주	-11.3111
전북	-11.3112
▁싶어요	-11.3112
▁문화예술	-11.3112
▁부상을	-11.3112
이었지만	-11.3112
▁줘야	-11.3112
▁DMZ	-11.3113
살이	-11.3114
▁한식	-11.3115
ib	-11.3116
▁동국대	-11.3118
▁물어보	-11.312
▁취한	-11.3121
▁기습	-11.3122
▁교도소	-11.3122
▁대란	-11.3122
▁게시	-11.3122
횡	-11.3123
▁적폐	-11.3123
▁유가족들	-11.3123
▁책임론	-11.3124
▁뜻이	-11.3127
▁영구	-11.3128
▁없는데	-11.3129
6.9%	-11.3129
▁청와대와	-11.3131
▁체결했다	-11.3131
▁선발한다	-11.3133
▁아이들의	-11.3134
▁남짓	-11.3136
▁1.3%	-11.3137
▁법이	-11.3137
▁남편이	-11.3138
▁출처	-11.3138
▁그에게	-11.3138
▁연초	-11.3139
▁응답은	-11.314
▁관찰	-11.3142
우는	-11.3143
골프	-11.3145
위크	-11.3145
▁공사가	-11.3146
▁수소	-11.3148
당은	-11.3149
▁마시고	-11.315
▁건강에	-11.3151
▁하위	-11.3152
▁시원한	-11.3153
▁국민과	-11.3153
납니다	-11.3153
▁외모	-11.3154
▁불복	-11.3156
▁여론이	-11.3158
▁지역사회	-11.316
▁금호타이어	-11.316
▁몰고	-11.3161
▁많았고	-11.3163
▁블루	-11.3163
▁되었	-11.3165
▁제기한	-11.3166
▁어려움이	-11.3166
▁불에	-11.3166
▁연극	-11.3167
▁밝히	-11.3168
▁마켓	-11.317
▁들면	-11.3171
▁헌법재판관	-11.3172
실에	-11.3172
▁방문객	-11.3173
우스	-11.3175
▁Y	-11.3178
▁밖의	-11.3178
▁흰	-11.3179
▁뭐냐	-11.3179
▁환자들	-11.3179
▁저작권을	-11.318
▁둘러	-11.3182
▁바람에	-11.3183
▁아침에	-11.3184
▁주장은	-11.3184
▁과자	-11.3185
▁역할이	-11.3187
▁원자재	-11.3189
어로	-11.3191
▁추징	-11.3192
▁사무장	-11.3193
회로	-11.3193
▁지문	-11.3196
급식	-11.32
▁차종	-11.32
▁등산	-11.3202
중학교	-11.3203
▁새끼	-11.3203
▁확실한	-11.3203
▁노인들	-11.3204
▁봤을	-11.3205
▁바꿨다	-11.3205
▁불린다	-11.3205
▁분석됐다	-11.3205
▁독재	-11.3206
▁아무것도	-11.3206
▁동상	-11.3208
▁관심사	-11.321
▁합성	-11.3211
획	-11.3213
2.7%	-11.3215
▁제목의	-11.3215
▁빠지	-11.3215
7.3%	-11.3217
▁않아요	-11.322
7.1%	-11.3221
▁옛날	-11.3221
▁조각	-11.3223
▁들이받	-11.3225
un	-11.3226
▁이후에는	-11.3227
간의	-11.3227
▁들어오는	-11.3228
르는	-11.3228
셨다	-11.3229
▁소비자들의	-11.3229
▁감성	-11.3229
▁전방위	-11.323
▁직면	-11.3232
▁방송을	-11.3232
▁무리한	-11.3232
▁유일	-11.3234
부정	-11.3237
▁한국노총	-11.3238
▁만인	-11.3239
시장은	-11.3239
이게	-11.3241
▁대책은	-11.3241
▁간식	-11.3244
▁겪	-11.3245
▁해결해야	-11.3245
음료	-11.3245
▁정확하게	-11.3246
▁경쟁률	-11.3246
잎	-11.3247
▁사퇴를	-11.3249
▁차등	-11.3249
▁발표된	-11.3249
▁김광	-11.325
▁맡겨	-11.3251
▁발목	-11.3251
▁태도를	-11.3252
▁진실을	-11.3253
▁활약	-11.3256
▁대법원은	-11.3257
봤	-11.3258
▁상사	-11.326
▁연락이	-11.3261
▁일자리가	-11.3263
IS	-11.3265
즐	-11.3267
해라	-11.3267
처음	-11.3267
▁있잖아요	-11.3268
▁협회	-11.3268
▁기능이	-11.3269
▁칼럼	-11.3269
▁의료비	-11.3269
7.7%	-11.3271
당이	-11.3271
▁UN	-11.3271
▁살펴보	-11.3274
▁납	-11.3275
▁남기	-11.3275
▁외국계	-11.3277
▁진심으로	-11.3278
▁사측	-11.328
▁원이다	-11.328
▁지원자	-11.3281
▁기쁨	-11.3281
▁당이	-11.3287
이드	-11.3287
손해보험	-11.3287
스피	-11.3287
▁가정의	-11.329
▁헌	-11.3291
월에도	-11.3291
▁LA	-11.3293
▁양측	-11.3294
▁뉴스브리핑	-11.3295
지자체	-11.3295
▁차에	-11.3295
▁절차가	-11.3295
▁Rights	-11.3296
▁수장	-11.3299
▁충청권	-11.3301
▁선진	-11.3302
▁생존자	-11.3302
▁러	-11.3304
승진	-11.3304
추위	-11.3307
▁남지	-11.3308
달라고	-11.3308
▁남용	-11.3308
▁송파	-11.3308
▁방식이	-11.331
▁성적표	-11.331
▁사료	-11.3312
▁할머니는	-11.3313
▁한복	-11.3314
▁간첩	-11.3314
8.2%	-11.3315
트로	-11.3315
▁먹으면	-11.3316
ow	-11.3316
그룹이	-11.3316
▁모래	-11.3318
▁1.2	-11.3319
▁블	-11.332
주차	-11.3321
▁윈	-11.3321
▁나눈	-11.3322
▁국회의	-11.3322
상인	-11.3323
▁무렵	-11.3324
▁신종	-11.3325
▁공무원들	-11.3325
▁인출	-11.3327
▁3.5%	-11.3328
▁없나	-11.3328
▁평범한	-11.333
이즈	-11.3333
▁이혜훈	-11.3333
▁주재하는	-11.3333
▁Reserved	-11.3334
▁그다음에	-11.3334
▁분향소	-11.3336
▁채용비리	-11.3339
▁단독주택	-11.334
▁산업단지	-11.3341
▁던진	-11.3341
▁공간이	-11.3342
▁크레인	-11.3343
▁김관영	-11.3343
▁증대	-11.3348
▁명소	-11.335
▁내용이다	-11.335
▁쏟아져	-11.3352
▁애정	-11.3353
▁높고	-11.3354
▁도달	-11.3355
▁거센	-11.3355
▁상임고문	-11.3355
▁경기도지사	-11.3356
문학	-11.3356
가짜	-11.3357
▁알선	-11.3357
▁유로	-11.3358
7.4%	-11.3359
▁출소	-11.336
▁묻자	-11.336
▁획정	-11.336
▁본인의	-11.3364
▁톱	-11.3366
▁지붕	-11.3367
▁많다는	-11.3368
건축	-11.3369
▁깎	-11.3369
▁올바른	-11.337
▁고인	-11.3371
▁줄을	-11.3371
하긴	-11.3372
지연	-11.3372
▁이로	-11.3372
팝	-11.3373
▁효율성	-11.3376
▁가상	-11.3377
▁담당자	-11.3377
펠	-11.3377
▁화폐	-11.3378
▁닿	-11.3383
▁중이던	-11.3384
찜	-11.3385
▁돌연	-11.3386
▁수질	-11.3386
▁강추위	-11.3387
▁신상	-11.3387
▁넘겼다	-11.3387
▁선거가	-11.3387
▁에코	-11.3388
▁기사를	-11.3391
▁서산	-11.3394
▁걸까	-11.3394
▁엇갈린	-11.3394
▁짧게	-11.3394
하고자	-11.3396
▁나타날	-11.3398
1.4%	-11.3398
▁정한	-11.34
▁일명	-11.3401
▁내놓고	-11.3402
8.1%	-11.3402
▁붉은	-11.3403
▁상공	-11.3406
▁재임	-11.3406
▁삼성서울병원	-11.3407
▁협의체	-11.3407
▁어떻습니까	-11.3408
2.3%	-11.3408
▁비박계	-11.3409
▁오고	-11.3409
사업에	-11.3411
1.2%	-11.3411
▁플라스틱	-11.3413
▁확산되고	-11.3415
우주	-11.3415
▁멋	-11.3416
▁콘셉트	-11.3416
▁기해	-11.3417
젤	-11.3417
숍	-11.3417
▁딴	-11.3418
어떻게	-11.3418
▁가구가	-11.3419
▁젊은이들	-11.3422
▁북한과	-11.3422
어서	-11.3423
공공기관	-11.3424
여만원	-11.3424
▁주목받고	-11.3425
▁찾아야	-11.3427
▁시대의	-11.3427
▁알지	-11.3428
▁돌진	-11.3429
▁술에	-11.343
▁병장	-11.343
▁결의안	-11.343
▁걸리	-11.3431
▁공안	-11.3431
▁행사에는	-11.3433
▁결정됐다	-11.3433
▁인터뷰를	-11.3434
▁앙	-11.3435
▁고르	-11.3435
▁줄이	-11.3435
▁붐	-11.3436
▁꼬집었다	-11.3436
▁언니	-11.3437
▁레드	-11.3437
▁디지털뉴스	-11.3438
▁공을	-11.344
▁부인하고	-11.3442
▁105	-11.3443
▁투어	-11.3444
▁부부는	-11.3444
▁조희연	-11.3445
▁숨어	-11.3447
윤리	-11.3447
▁속여	-11.3449
▁반값	-11.3449
▁이해가	-11.345
▁초등	-11.3452
회는	-11.3455
▁투표를	-11.3456
▁신중	-11.3456
▁유시민	-11.3458
▁사회를	-11.346
▁최대주주	-11.3462
▁추진하는	-11.3463
▁몰랐	-11.3464
▁무장	-11.3465
▁안성	-11.3466
▁추운	-11.3466
CSI	-11.3466
▁확진자	-11.3468
▁최저치	-11.3469
▁정보가	-11.3469
▁이어갈	-11.347
▁살펴	-11.3472
▁주총	-11.3472
▁네덜란드	-11.3473
▁전병헌	-11.3473
▁강조한	-11.3473
▁정의화	-11.3474
百	-11.3474
담당관	-11.3474
▁근데	-11.3475
▁졸	-11.3475
▁알코올	-11.3478
μ	-11.3478
▁효력	-11.3478
▁행안부	-11.3479
년형	-11.348
▁저성장	-11.348
▁미수습자	-11.348
▁건네	-11.348
▁국립공원	-11.348
▁사라지	-11.3481
배를	-11.3481
▁단순한	-11.3482
▁밀수	-11.3482
▁경쟁을	-11.3482
웨어	-11.3483
잉	-11.3484
식물	-11.3485
▁교사들	-11.3485
느라	-11.3485
▁지켜야	-11.3485
▁사례다	-11.3488
▁경우에	-11.3488
▁홍삼	-11.349
정상회담	-11.349
▁판세	-11.3491
▁호흡	-11.3492
▁거리에	-11.3492
▁공정위는	-11.3494
▁비극	-11.3494
▁VS	-11.3495
▁전수	-11.3496
▁어렵지	-11.3496
▁지불	-11.3496
▁꼬리	-11.3496
▁헛	-11.3503
▁출구	-11.3503
▁않지만	-11.3504
도발	-11.3505
▁고객의	-11.3505
▁깊어	-11.3507
▁듣기	-11.3508
▁주장에	-11.3509
▁확대를	-11.3509
▁안으로	-11.3511
▁유연	-11.3511
▁불구	-11.3512
▁행사합니다	-11.3512
▁옮기	-11.3513
▁75%	-11.3514
▁주택가	-11.3515
▁삼척	-11.3516
▁위에서	-11.3517
짱	-11.3517
▁학생부	-11.3518
▁파기	-11.3518
질서	-11.3518
5·18	-11.3519
▁안정성	-11.352
▁나간	-11.352
▁정시	-11.3521
▁제품에	-11.3522
▁밭	-11.3523
▁구독신청	-11.3524
▁교섭단체	-11.3527
▁0.7	-11.3528
▁창업자	-11.3529
▁신경을	-11.3529
▁그런데도	-11.353
▁보령	-11.3531
▁사의	-11.3532
화된	-11.3533
▁위성	-11.3535
리지	-11.3537
매각	-11.3537
▁현대차그룹	-11.3537
▁과거에	-11.3538
▁측면	-11.354
▁풀어야	-11.3544
▁고무	-11.3547
▁뉴스제보	-11.3547
청은	-11.3548
▁하셨	-11.355
2.2%	-11.3551
지며	-11.3554
기한	-11.3555
▁일당이	-11.3556
▁정직	-11.3557
한국온라인신문협회	-11.3557
▁현재의	-11.3559
블루	-11.356
내역	-11.356
공시	-11.3561
작은	-11.3562
이용규칙	-11.3563
▁끝나는	-11.3565
수용	-11.3568
베트남	-11.3569
▁금통위	-11.3569
▁잦은	-11.357
▁서거	-11.357
ol	-11.3572
▁손길	-11.3572
작업을	-11.3572
▁푸른	-11.3575
▁가처분	-11.3575
▁지역별로는	-11.3577
▁거품	-11.3577
동네	-11.3579
▁가까워	-11.3581
▁주의해야	-11.3581
팀은	-11.3583
▁싶었다	-11.3585
▁개정안을	-11.3585
▁본선	-11.3586
형은	-11.3586
▁대선에서	-11.3586
▁적힌	-11.3587
▁복직	-11.3587
▁공식적으로	-11.3589
▁거대한	-11.359
▁알리	-11.3593
▁멍	-11.3595
▁짚어보겠습니다	-11.3597
▁최고위원은	-11.3597
조원에	-11.3598
▁풀리	-11.3599
▁난방	-11.36
▁담았다	-11.3601
▁연애	-11.3601
▁개편안	-11.3602
▁돌아오	-11.3602
▁즐기	-11.3603
셋	-11.3603
호가	-11.3604
▁없음	-11.3607
▁이사장은	-11.3608
▁가로	-11.3609
▁해결을	-11.3609
▁02-	-11.361
예비	-11.3611
센터를	-11.3612
▁6·13	-11.3616
▁김학	-11.3616
잡기	-11.3618
▁따지	-11.3619
▁농사	-11.362
▁미안	-11.362
이명박	-11.362
▁환호	-11.3623
성향	-11.3623
▁자녀를	-11.3623
▁거고요	-11.3624
▁거리가	-11.3625
▁발을	-11.3625
▁지원이	-11.3628
▁준수	-11.3628
▁준비한	-11.3629
▁유통업계	-11.3629
▁분들은	-11.363
▁일어났다	-11.3631
해운	-11.3632
되던	-11.3632
▁부문에서	-11.3633
▁목표다	-11.3634
▁편의	-11.3636
▁도시재생	-11.364
콘텐츠	-11.3641
해볼	-11.3641
▁1.8	-11.3642
▁부리	-11.3644
▁인제	-11.3644
▁이윤	-11.3645
▁마련한	-11.3648
▁방학	-11.3648
▁주먹	-11.365
▁누출	-11.365
▁윤곽	-11.3651
▁풀려	-11.3652
▁지역이	-11.3653
ri	-11.3654
▁법무	-11.3655
민심	-11.3655
▁한진	-11.3656
이고요	-11.3656
▁기반으로	-11.3657
▁공정거래위원회	-11.3658
▁팽목항	-11.3658
▁문턱	-11.366
▁폭행한	-11.366
▁부산서	-11.366
▁14%	-11.3661
었는데요	-11.3663
▁구멍	-11.3664
▁여직원	-11.3664
▁바른	-11.3665
▁모기	-11.3667
▁솔루션	-11.3667
▁설립된	-11.3668
미투	-11.3669
맞이	-11.367
▁권위	-11.367
비정규직	-11.3673
▁흥행	-11.3673
▁소비자가	-11.3673
▁지나면	-11.3674
▁기대한다	-11.3675
▁지리산	-11.3676
▁맞벌이	-11.3677
▁간단한	-11.3677
만명으로	-11.3677
▁대선주자	-11.3679
▁싫어	-11.368
▁불안감	-11.3682
CJ	-11.3682
▁만점	-11.3686
▁전수조사	-11.3686
법정	-11.3686
축구	-11.3688
▁아닐까	-11.3689
Z	-11.3691
▁오래된	-11.3692
▁버린	-11.3693
▁어르신들	-11.3696
▁사무	-11.3696
▁그랜드	-11.3697
▁고집	-11.3697
▁마세요	-11.3698
들었다	-11.3698
▁근본적인	-11.3699
▁기운	-11.37
▁봤습니다	-11.3702
▁잡지	-11.3702
껏	-11.3702
▁동작구	-11.3703
▁상담을	-11.3706
여자	-11.3706
승인	-11.3706
▁애정운	-11.3707
OECD	-11.3707
▁추징금	-11.3707
▁쪽에	-11.3707
▁결산	-11.3707
▁달라졌다	-11.3708
▁모양새다	-11.3714
품목	-11.3715
렵	-11.3716
로봇	-11.3719
▁누리	-11.3719
▁들어갔습니다	-11.3719
▁생각보다	-11.372
▁근접	-11.3721
▁PB	-11.3723
▁"4	-11.3723
복을	-11.3724
▁들었	-11.3724
▁말부터	-11.3725
▁멀	-11.3727
보다도	-11.3727
▁홈페이지에	-11.3728
▁힐링	-11.3728
빠	-11.3731
▁줄어드는	-11.3731
정도	-11.3731
▁한은은	-11.3731
▁정책은	-11.3733
▁나머지는	-11.3733
간부	-11.3734
▁1994	-11.3735
삼성전자	-11.374
▁설전	-11.3741
▁후보자에	-11.3743
▁말자	-11.3743
수익률	-11.3745
▁지급된다	-11.3745
전이	-11.3745
▁민감한	-11.3746
▁행보를	-11.3746
▁1,000	-11.3746
▁고래	-11.3747
건은	-11.3747
법률	-11.3747
▁때문으로	-11.375
중기	-11.375
▁머물렀다	-11.3751
▁크루즈	-11.3751
▁걸었다	-11.3752
>(	-11.3755
):	-11.3755
세일	-11.3756
▁펼쳐진다	-11.3756
▁부총리는	-11.3757
▁필요성을	-11.3758
▁쇠	-11.376
▁빌라	-11.376
▁3.0	-11.3761
▁귀환	-11.3762
▁서버	-11.3762
▁마음의	-11.3762
▁출신이	-11.3763
▁칭찬	-11.3767
▁교육과정	-11.3768
콩	-11.3768
최저	-11.3769
▁공연을	-11.377
▁비박	-11.3771
▁밀리	-11.3771
▁참여연대	-11.3772
망을	-11.3772
▁모은	-11.3773
▁걷는	-11.3773
▁공감대	-11.3774
▁처리를	-11.3774
카드뉴스	-11.3775
매우	-11.3777
▁회장에	-11.3777
▁버티	-11.3777
▁경복궁	-11.3778
▁수험생들	-11.3779
▁노하우	-11.378
▁일들이	-11.378
▁같고요	-11.3782
▁the	-11.3786
▁퇴직연금	-11.3787
▁배수	-11.3788
▁그려	-11.3788
▁인천국제공항	-11.3789
▁관객	-11.3793
▁훈련을	-11.3793
▁서대문구	-11.3795
▁탑	-11.3796
▁코오롱	-11.3796
▁구매할	-11.3797
▁야생	-11.3798
▁끝나고	-11.3799
▁포함된다	-11.3801
▁독특한	-11.3802
▁슬로건	-11.3805
▁열대야	-11.3806
▁케이블	-11.3808
▁우체국	-11.3813
▁봉투	-11.3813
파워	-11.3813
▁경남지사	-11.3815
▁사태에	-11.3816
▁언제까지	-11.3816
▁잠적	-11.3819
se	-11.382
밸리	-11.382
▁보상금	-11.382
▁늘리	-11.382
▁서울대병원	-11.3821
▁기록해	-11.3822
▁인사가	-11.3823
▁아니었	-11.3824
▁시작할	-11.3824
all	-11.3824
위의	-11.3828
▁없죠	-11.3829
▁판단이	-11.383
▁전체적으로	-11.383
처벌	-11.3832
포장	-11.3834
▁액	-11.3834
▁딸이	-11.3835
7.2	-11.3835
▁실장은	-11.3837
▁타격을	-11.3838
▁청와대의	-11.384
▁관광지	-11.3842
산업단지	-11.3842
▁중고	-11.3846
행보	-11.3846
평창	-11.3847
▁내세우	-11.3848
▁합의가	-11.3848
신탁	-11.3848
▁동대문	-11.3849
▁실태조사	-11.3851
▁양파	-11.3852
▁죄송하다	-11.3855
▁고작	-11.3857
대사관	-11.3857
▁질주	-11.3858
▁떨어지고	-11.3858
▁무죄를	-11.386
타임	-11.3861
▁1.2%	-11.3862
주로	-11.3864
▁갖게	-11.3864
▁호소하는	-11.3865
▁밝혀야	-11.3866
아트	-11.3866
▁저렴	-11.3867
파일	-11.3867
▁가득한	-11.3869
크림	-11.3869
▁개헌안	-11.387
▁장난	-11.3872
▁속도로	-11.3872
▁뒤에는	-11.3873
▁대표하는	-11.3873
▁무기징역	-11.3874
명품	-11.3874
▁중심에	-11.3875
▁특조위	-11.3875
▁중견기업	-11.3875
▁높지	-11.3876
▁여객기	-11.3878
證	-11.3879
▁아들을	-11.3879
▁폭언	-11.3879
▁거두	-11.388
졌지만	-11.388
▁승계	-11.388
▁근거로	-11.3881
▁인형	-11.3883
▁말하면	-11.3887
▁4~5	-11.3888
▁1987	-11.3888
▁지난해부터	-11.3889
▁펼치고	-11.3891
▁춘천시	-11.3891
▁혼인	-11.3892
▁저소득	-11.3893
▁뉴질랜드	-11.3894
▁보도에	-11.3896
EC	-11.3897
▁잠긴	-11.3897
2.9%	-11.3898
▁서울은	-11.3899
▁것이고	-11.3899
▁딸기	-11.39
▁도보	-11.3901
▁실업	-11.3902
▁트리	-11.3902
▁전일	-11.3904
▁보여준다	-11.3904
▁농도가	-11.3905
롬	-11.3905
▁지역경제	-11.3906
분만에	-11.3906
PS	-11.3908
▁수익금	-11.3911
협동조합	-11.3911
▁강북	-11.3911
벅	-11.3912
▁조양호	-11.3912
과목	-11.3913
성완종	-11.3915
▁주변의	-11.3916
▁항공권	-11.3917
]‘	-11.3917
▁엄중	-11.3918
▁시너지	-11.392
▁느끼	-11.3921
ST	-11.3921
▁체력	-11.3921
▁뚜렷한	-11.3921
▁상업	-11.3924
@	-11.3924
▁보이콧	-11.3925
▁원가	-11.3925
ᆞ제보	-11.3925
▁車	-11.3925
▁실질적인	-11.3925
▁배럴당	-11.3927
▁공장에서	-11.393
▁동지	-11.3932
금융권	-11.3933
사령관	-11.3933
▁끓	-11.3933
수정	-11.3934
과거	-11.3934
▁선정했다	-11.3936
▁미분양	-11.3937
사이	-11.3938
▁출전	-11.3939
▁나뉜다	-11.394
▁인체	-11.3941
▁둘러싸고	-11.3942
▁두바이유	-11.3943
▁연행	-11.3944
줬	-11.3944
가입	-11.3944
▁밤새	-11.3947
▁20~30	-11.3949
▁작년에	-11.3952
▁솔	-11.3952
▁금호	-11.3952
▁나지	-11.3954
▁비율을	-11.3958
▁임종석	-11.3959
▁뇌물수수	-11.3959
▁사업의	-11.396
▁현실을	-11.396
▁닷새	-11.3961
▁표류	-11.3962
쪽으로	-11.3963
▁지원사업	-11.3964
'..."	-11.3964
公	-11.3965
▁낙폭	-11.3966
▁않았지만	-11.3967
▁규칙	-11.3968
공업	-11.3968
▁불허	-11.397
▁강화를	-11.397
품질	-11.397
▁대통령도	-11.3971
위안	-11.3971
딱	-11.3971
▁병원을	-11.3972
▁가자	-11.3973
▁말씀하신	-11.3973
▁춘	-11.3974
▁처음입니다	-11.3975
▁지키기	-11.3976
▁유통업체	-11.3976
▁나타난다	-11.3978
▁수사팀	-11.3979
▁지장이	-11.3979
청문회	-11.3979
▁지원에	-11.398
▁재가동	-11.398
▁넓어	-11.398
▁목숨	-11.3982
증거	-11.3983
서류	-11.3983
▁표창원	-11.3984
▁필로폰	-11.3984
▁108	-11.3984
▁달렸다	-11.3985
▁미혼	-11.3986
명당	-11.3986
▁접목	-11.3987
▁아이의	-11.3987
재원	-11.3988
▁득	-11.3988
▁공동으로	-11.3989
봅니다	-11.3989
▁광양	-11.399
▁잡을	-11.399
▁소금	-11.3992
략	-11.3992
▁이씨	-11.3993
▁주주총회	-11.3995
▁불가피하다	-11.3995
위인	-11.3996
▁정규	-11.3996
▁SKT	-11.3997
▁회견	-11.3997
▁북쪽	-11.3999
▁불거진	-11.3999
1.5	-11.4002
▁늘리고	-11.4002
▁걷어	-11.4003
ra	-11.4004
▁인류	-11.4005
▁화해	-11.4005
▁강화된다	-11.4006
▁이득	-11.4006
품을	-11.4006
▁적발됐습니다	-11.4007
캔	-11.4008
▁웨딩	-11.4009
▁중징계	-11.4009
▁고민을	-11.401
▁도입을	-11.4012
국회의원	-11.4012
▁실시했다	-11.4015
▁제로	-11.4016
▁옮겨져	-11.4016
▁특별히	-11.4017
▁믿음	-11.4019
▁강수량은	-11.4019
▁의원에	-11.4021
▁뷰티	-11.4022
CO	-11.4022
▁어떠한	-11.4023
요청	-11.4023
▁2.2	-11.4026
▁씻	-11.4026
▁"1	-11.4027
▁인문	-11.4028
▁성장했다	-11.4028
▁45%	-11.4028
▁있음을	-11.4029
▁일본이	-11.403
태풍	-11.4032
1.2	-11.4033
▁로드맵	-11.4033
▁안고	-11.4034
▁여자친구	-11.4036
▁박탈	-11.4039
▁약자	-11.4039
▁교육비	-11.404
4.4%	-11.404
▁동서	-11.4041
▁하려고	-11.4043
▁발언은	-11.4043
창호	-11.4043
▁제철	-11.4044
▁190	-11.4049
대기	-11.4049
종의	-11.405
블랙	-11.405
▁다쳤습니다	-11.405
복구	-11.4051
스토리	-11.4053
▁고통을	-11.4053
▁우리나라가	-11.4053
▁기자와	-11.4056
▁김준	-11.4056
▁세액공제	-11.4057
충북	-11.4057
▁하이브리드	-11.4058
▁엠	-11.4059
▁권역	-11.4059
▁후유증	-11.4059
▁대사관	-11.4061
▁22%	-11.4061
▁공문	-11.4063
▁시설물	-11.4064
▁들을	-11.4065
김영	-11.4067
▁금값	-11.4067
주거	-11.4069
인수	-11.4069
▁밤에	-11.407
▁“(	-11.407
▁기존에	-11.4072
▁서울에	-11.4072
▁북한을	-11.4073
델	-11.4074
회가	-11.4074
2.4%	-11.4074
▁천장	-11.4076
▁노란	-11.4076
▁슬픔	-11.4077
▁본회의를	-11.4079
▁방류	-11.408
용지	-11.408
▁뜬다	-11.4084
▁이뤄지고	-11.4085
인간	-11.4086
▁요인으로	-11.4087
▁불길	-11.4087
볼까	-11.4087
여론	-11.4088
▁하는지	-11.4088
▁이론	-11.4089
▁학교는	-11.4089
빚	-11.409
엑스포	-11.409
▁일정은	-11.4092
교육을	-11.4093
센트	-11.4093
5.0%	-11.4096
▁의자	-11.4096
집중	-11.4096
▁시의원	-11.4099
▁상용화	-11.4099
▁안정적	-11.4099
설이	-11.4099
▁전문성	-11.41
강사	-11.4101
▁연동	-11.4101
▁농약	-11.4101
▁높다는	-11.4102
GB	-11.4102
▁잠을	-11.4102
▁국토부는	-11.4102
개성공단	-11.4103
감정	-11.4105
주지	-11.4105
2.2	-11.4106
▁가입할	-11.4106
▁인식이	-11.4106
자에	-11.4108
∼9	-11.4111
▁데다	-11.4112
혜택	-11.4112
▁회복세	-11.4112
야권	-11.4112
▁충남도	-11.4112
자도	-11.4112
▁표현을	-11.4114
연설	-11.4115
보도록	-11.4115
춤	-11.4116
▁서초	-11.4117
▁고용률	-11.4117
▁13%	-11.4118
▁광화문광장	-11.4119
▁내게	-11.412
▁국제사회	-11.4121
▁세탁기	-11.4121
▁총리의	-11.4121
▁흑자를	-11.4122
▁그칠	-11.4123
▁싸게	-11.4124
▁1.3	-11.4127
▁변화에	-11.4128
워치	-11.4128
▁당국이	-11.4131
하냐	-11.4132
▁일으킨	-11.4134
▁신촌	-11.4135
▁마크	-11.4135
이야	-11.4136
▁근육	-11.4137
브라	-11.4137
▁데이트	-11.4138
▁점수를	-11.4139
▁PK	-11.414
▁득표	-11.414
▁재연	-11.4141
▁개인적으로	-11.4141
▁무한	-11.4142
▁지역으로	-11.4143
▁최상	-11.4143
▁1.1%	-11.4144
▁빼돌린	-11.4144
▁기자들	-11.4145
노총	-11.4147
▁많았습니다	-11.4148
▁벤처기업	-11.4149
▁영업을	-11.4149
▁물가상승률	-11.415
▁지사의	-11.415
▁못했던	-11.415
▁타는	-11.4151
▁거뒀다	-11.4151
3.7%	-11.4151
▁1.4%	-11.4151
트라	-11.4154
▁선물을	-11.4154
▁”(	-11.4155
▁측면이	-11.4156
▁내일은	-11.4156
▁자기자본	-11.4156
▁세계를	-11.4159
▁대북제재	-11.4161
▁취항	-11.4161
▁호전	-11.4161
▁최고위원회의	-11.4161
▁지지자	-11.4161
▁경감	-11.4162
▁줘	-11.4162
▁전동차	-11.4162
시한	-11.4163
발을	-11.4164
▁101	-11.4164
▁사장의	-11.4165
▁시선을	-11.4165
▁정계	-11.4166
▁강동구	-11.4167
▁경제성장	-11.4167
▁원세훈	-11.4169
인들이	-11.417
▁춥	-11.4171
기온	-11.4171
▁사칭	-11.4171
mg	-11.4172
▁시상	-11.4173
▁부모가	-11.4174
▁듯하다	-11.4174
▁사망자는	-11.4174
▁역량을	-11.4176
▁최고가	-11.4177
▁종결	-11.4177
▁딸을	-11.4178
▁참가한	-11.4178
▁해외로	-11.4181
청소	-11.4181
네트워크	-11.4181
▁꼽혔다	-11.4181
▁만났	-11.4183
▁인력을	-11.4183
▁요소들	-11.4185
▁1300	-11.4186
▁좀처럼	-11.4187
▁내놓을	-11.4187
▁재취업	-11.4188
잡이	-11.4188
▁증폭	-11.419
▁연방	-11.4192
▁잡아라	-11.4192
▁영웅	-11.4192
▁금품을	-11.4193
단신	-11.4194
▁마련할	-11.4194
사정	-11.4197
▁이재민	-11.4197
표시	-11.4198
▁경우에도	-11.42
▁값이	-11.4202
▁반영된	-11.4202
▁뮤지컬	-11.4202
수업	-11.4203
▁뜯어	-11.4204
▁임상	-11.4205
게요	-11.4207
셔야	-11.4209
▁당신이	-11.421
▁대학교	-11.421
징역	-11.4211
▁LNG	-11.4211
내야	-11.4213
▁경희대	-11.4214
▁언제나	-11.4214
겹	-11.4215
▁납세자	-11.4215
유기	-11.4216
▁높아진	-11.4218
▁종목은	-11.4218
▁일겠다	-11.4218
▁압류	-11.4218
데스크	-11.4219
▁제기된	-11.422
누리	-11.4221
3.0	-11.4224
영역	-11.4224
▁단연	-11.4225
▁분포	-11.4225
▁무거운	-11.4226
▁답한	-11.4226
▁당연	-11.4227
탐	-11.423
뚜	-11.423
▁영장심사	-11.4231
산업의	-11.4231
됐는데요	-11.4234
평양	-11.4235
준희	-11.4235
▁원활	-11.4235
▁끌려	-11.4236
▁담배를	-11.4236
음악	-11.4236
▁신청한	-11.4238
~11	-11.4238
▁불안한	-11.424
▁발언하고	-11.424
PRESS	-11.424
어진	-11.4241
▁정해진	-11.4241
▁후보에게	-11.4241
서울대	-11.4242
▁확인하는	-11.4242
▁광명	-11.4242
▁구성돼	-11.4243
주자	-11.4245
접수	-11.4245
▁세계경제	-11.4247
▁움직이는	-11.4248
딘	-11.4248
▁논설위원	-11.4248
▁열람	-11.4249
▁0.6	-11.4249
▁건강운	-11.425
▁오름세	-11.425
3.2%	-11.4251
▁제외하고	-11.4252
▁하나도	-11.4252
▁출신이다	-11.4252
▁교정	-11.4252
▁공짜	-11.4253
▁않았다는	-11.4253
▁비방	-11.4254
▁안상수	-11.4255
벼	-11.4255
▁감상	-11.4256
▁엇갈렸다	-11.4256
▁끝날	-11.4256
?	-11.4257
▁나오기	-11.4257
여고	-11.4258
▁털어	-11.4259
금속	-11.4259
덤	-11.426
▁정책의	-11.4262
▁했죠	-11.4263
▁합작	-11.4263
▁일행	-11.4263
▁수출액	-11.4263
▁운세지수	-11.4265
▁실전	-11.4265
▁싱글	-11.4267
▁자산관리	-11.4267
▁서울시교육청	-11.4269
▁갈아	-11.4269
률을	-11.427
시설을	-11.427
▁소홀	-11.4271
▁종합대책	-11.4271
▁낳	-11.4271
▁서쪽	-11.4273
학부	-11.4276
▁양천구	-11.4276
▁360	-11.4277
▁신년사	-11.4277
▁있었는데	-11.4277
▁450	-11.4279
▁와이	-11.428
▁국고	-11.428
계획을	-11.4284
▁아버지가	-11.4286
정부가	-11.4286
패스	-11.4289
▁이날부터	-11.4289
갱	-11.429
▁1.4	-11.429
▁여러분께	-11.4291
▁보름	-11.4291
▁한숨	-11.4292
▁스마트폰을	-11.4293
▁자매	-11.4293
▁전신	-11.4294
▁바이	-11.4294
조원으로	-11.4294
▁접근성	-11.4295
났	-11.4295
▁가입한	-11.4296
▁1.7%	-11.4297
▁꼽히는	-11.4298
출입	-11.4299
▁법정에	-11.43
형으로	-11.4301
▁들리	-11.4301
▁자리가	-11.4304
▁변호사가	-11.4306
협회장	-11.4306
▁깎아	-11.4308
▁유력한	-11.4309
▁LS	-11.4309
▁농어촌	-11.4309
▁나라는	-11.431
▁압축	-11.4311
곳이다	-11.4311
▁이루어지	-11.4311
▁디저트	-11.4312
달러로	-11.4312
제작	-11.4312
▁밤부터	-11.4315
KB	-11.4315
원들	-11.4316
▁정했다	-11.4316
▁올해보다	-11.4317
▁1,0	-11.4317
▁불행	-11.4318
▁안개가	-11.4319
▁수순	-11.4319
위가	-11.4319
▁전망치를	-11.4321
▁몇몇	-11.4322
지역에서	-11.4323
헌재	-11.4325
▁릴레이	-11.4325
IB	-11.4325
▁정리해	-11.4325
▁낮부터	-11.4325
▁환자의	-11.4326
▁이뤄지는	-11.4327
▁비례	-11.4327
바닥	-11.433
▁현대모비스	-11.4331
냅니다	-11.4331
▁내부에서	-11.4332
▁협력을	-11.4332
▁정치가	-11.4333
▁도출	-11.4334
▁책상	-11.4335
기초	-11.4335
▁10>	-11.4338
▁달리는	-11.4338
마지막	-11.4343
▁지키고	-11.4344
▁국경	-11.4344
▁강화하고	-11.4345
▁각오	-11.4346
▁생선	-11.4346
▁승객들	-11.4347
정국	-11.4347
▁진료비	-11.4347
모두	-11.4347
▁아세안	-11.4347
김영란법	-11.4349
▁맛집	-11.435
▁괴	-11.435
▁잃었다	-11.4351
스케	-11.4354
▁기획전	-11.4355
▁약한	-11.4355
▁빈곤	-11.4355
▁결국은	-11.4355
국가보훈처	-11.4355
▁최후	-11.4357
▁미래부	-11.4357
▁하느냐	-11.4358
▁변화는	-11.4358
~2	-11.436
하십니까	-11.4361
▁안정을	-11.4362
▁2.9%	-11.4363
▁붙잡	-11.4363
거래소	-11.4364
▁방식은	-11.4364
▁부분이다	-11.4364
▁레이더	-11.4365
▁발표를	-11.4366
▁감안해	-11.4367
▁막고	-11.4367
▁개인은	-11.4367
▁위치해	-11.4371
▁세계적	-11.4372
정치적	-11.4372
청주	-11.4373
▁이미지를	-11.4373
▁바르	-11.4373
▁심하게	-11.4374
었을	-11.4375
인방	-11.4375
▁아버지는	-11.4376
▁잃고	-11.4376
▁않는다고	-11.4377
역량	-11.4378
▁금액이	-11.4378
▁행적	-11.4381
▁동문	-11.4382
▁1.6%	-11.4382
▁순식간에	-11.4382
년보다	-11.4382
▁추워	-11.4382
▁희귀	-11.4383
증세	-11.4384
▁노숙인	-11.4386
▁설명하는	-11.4386
▁원유철	-11.4386
~19	-11.4386
▁시작하는	-11.4387
▁저를	-11.4387
▁호황	-11.4387
▁짙은	-11.439
▁기능성	-11.4391
▁서둘러	-11.4392
▁'2	-11.4393
▁비상이	-11.4393
▁국민들은	-11.4395
▁가열	-11.4395
▁듣겠습니다	-11.4395
▁보시면	-11.4396
▁한목소리	-11.4397
▁이야기다	-11.4397
▁데뷔	-11.4398
선관위	-11.4399
▁독감	-11.4399
▁실용	-11.44
▁배를	-11.4402
▁그러니	-11.4404
하락	-11.4404
▁개혁을	-11.4404
▁중앙대	-11.4405
▁나주	-11.4405
▁갱신	-11.4406
▁청년들	-11.4407
▁조영	-11.4407
▁개최했다	-11.4407
▁금강	-11.4408
▁가사	-11.4409
▁주민투표	-11.441
이었	-11.441
▁마신	-11.4411
▁'2018	-11.4411
▁확대해	-11.4412
▁전하는	-11.4412
사전	-11.4412
▁방미	-11.4412
▁설악산	-11.4413
식으로	-11.4413
▁막걸리	-11.4415
부인	-11.4415
위성	-11.4416
▁저의	-11.4416
▁수입이	-11.4416
▁무너져	-11.4418
▁학교를	-11.4419
그룹의	-11.4419
부부	-11.4419
▁기다려	-11.442
▁양심	-11.442
▁1.9%	-11.4422
▁휴가를	-11.4422
신뢰	-11.4423
▁소방차	-11.4423
▁끄는	-11.4424
민족	-11.4425
▁줄였다	-11.4426
▁학생들에게	-11.4426
▁대상을	-11.4426
시즌	-11.4427
▁가족들은	-11.4427
▁물갈이	-11.4428
듀	-11.4428
무사	-11.4429
▁잔액	-11.4429
▁통행료	-11.443
▁또다른	-11.4431
▁사고는	-11.4431
▁제안을	-11.4434
협의체	-11.4435
▁찾아가는	-11.4436
충청	-11.4436
▁커진다	-11.4438
▁부적절	-11.444
▁참관	-11.444
▁팔려	-11.4443
▁소원	-11.4445
▁예정대로	-11.4448
▁()	-11.4449
▁아시아나	-11.4449
▁원칙을	-11.4449
▁읽는	-11.4449
소프트	-11.4451
▁지수가	-11.4451
소매	-11.4451
▁치러	-11.4451
▁표면	-11.4452
▁거리를	-11.4452
▁것이라	-11.4454
▁철원	-11.4455
▁커진	-11.4455
▁도입했다	-11.4459
▁처음에는	-11.4459
▁삽	-11.4459
6.0%	-11.4461
▁얘기는	-11.4461
기념관	-11.4461
▁그들이	-11.4464
상황실	-11.4465
▁전망을	-11.4466
▁누리과정	-11.4467
▁경제는	-11.4469
▁철폐	-11.4469
▁핀테크	-11.4472
▁일감	-11.4473
▁옥시	-11.4474
개방	-11.4474
▁원고	-11.4476
이후	-11.4477
▁멘토	-11.4477
▁문제와	-11.4478
▁수산	-11.4478
영화제	-11.4479
▁조성된다	-11.4479
여기	-11.4479
▁황당	-11.448
▁벌이는	-11.4482
▁달성했다	-11.4486
▁이외에도	-11.4487
▁중립	-11.4487
▁호응	-11.4487
▁대학에	-11.4489
지수가	-11.4489
▁총리와	-11.449
▁낀	-11.4491
▁1988	-11.4492
▁감수	-11.4493
입찰	-11.4495
∼7	-11.4496
▁충당	-11.4497
▁일일이	-11.4497
▁구는	-11.4497
▁저자	-11.4498
▁무척	-11.4501
▁땅을	-11.4502
(30	-11.4502
▁중진	-11.4505
▁연안	-11.4505
▁‘3	-11.4505
▁현대차는	-11.4506
중지	-11.4507
선박	-11.4507
▁승리를	-11.4507
7.5	-11.4509
▁국정운영	-11.451
▁덴마크	-11.4511
굳	-11.4512
▁날개	-11.4513
▁수출입	-11.4514
▁효능	-11.4514
▁용인시	-11.4515
▁우리도	-11.4516
정치권	-11.4516
▁보행	-11.4516
▁가라앉	-11.4518
▁명으로	-11.4519
장터	-11.4519
▁증가율이	-11.452
▁부의장	-11.452
▁실어	-11.4524
▁여성들	-11.4526
NI	-11.4526
▁패러다임	-11.4526
▁요금제	-11.4526
▁지방은	-11.4528
낭	-11.4529
아라	-11.4535
▁사건과	-11.4536
구를	-11.4537
▁매매가	-11.4538
▁준비가	-11.4538
▁캔	-11.4538
▁중단하라	-11.4539
ay	-11.4539
▁일할	-11.4539
▁여중생	-11.454
▁청춘	-11.454
▁말리	-11.454
부자	-11.4542
▁구조를	-11.4542
▁높아질	-11.4543
댓글	-11.4544
▁넘지	-11.4545
▁연기가	-11.4545
▁토종	-11.4546
▁하니	-11.4547
▁주장이다	-11.4549
▁대응을	-11.4549
▁지고	-11.455
▁중앙정부	-11.4551
▁대대적인	-11.4551
▁그래요	-11.4553
▁사라져	-11.4553
▁근거가	-11.4554
▁고려한	-11.4556
▁성장률은	-11.4556
▁세입자	-11.4557
▁실적은	-11.4557
▁긍정적으로	-11.4558
▁근로자들	-11.4558
▁2.7	-11.4559
책을	-11.4559
잖아	-11.4559
강릉	-11.456
혔	-11.4561
▁캡처	-11.4562
▁올라온	-11.4562
▁정통	-11.4562
▁국고채	-11.4565
▁업체에	-11.4565
▁아이스	-11.4567
나갈	-11.4567
▁전분기	-11.4567
▁TK	-11.4567
▁위력	-11.4567
150	-11.4568
▁사람들도	-11.457
▁벌어지고	-11.457
▁의사가	-11.457
▁잃어	-11.4571
▁붙이	-11.4572
MBC	-11.4574
▁되겠	-11.4574
▁그녀	-11.4574
정리	-11.4574
▁역사교과서	-11.4574
▁과거사	-11.4575
▁걸리는	-11.4575
▁정도였다	-11.4576
▁미친	-11.4576
▁돌봄	-11.4577
▁가치는	-11.4578
겠고	-11.4579
▁제공하고	-11.458
▁상품이	-11.458
▁가세	-11.4581
인들의	-11.4581
스런	-11.4582
▁상태입니다	-11.4583
▁드림	-11.4584
▁누구도	-11.4584
통상	-11.4584
▁금전	-11.4586
포스트	-11.4587
▁느낌을	-11.4587
▁내년에는	-11.4588
▁정신을	-11.4588
기본	-11.4588
▁감안	-11.4589
정수	-11.459
▁17%	-11.4591
▁깨끗	-11.4591
▁분담	-11.4591
▁외교장관	-11.4593
범위	-11.4593
▁명예회장	-11.4593
동원	-11.4593
▁강동	-11.4594
▁급증하고	-11.4594
뉴스파일	-11.4595
▁왕복	-11.4596
▁폭스바겐	-11.4596
▁성과가	-11.4599
▁거주하는	-11.46
▁나타내고	-11.46
▁마산	-11.46
명이나	-11.4603
▁실정이다	-11.4604
▁미투	-11.4606
▁재생	-11.4607
▁열쇠	-11.4609
옵니다	-11.461
중앙회	-11.4611
받기	-11.4612
▁의원에게	-11.4616
▁스튜디오	-11.4618
▁아파	-11.4618
▁선보인	-11.4618
▁요원	-11.4623
퓨	-11.4626
▁연락을	-11.4626
▁측에서	-11.4627
▁녹조	-11.4628
▁구로구	-11.463
규모는	-11.463
되거나	-11.4631
▁해달라	-11.4632
▁당을	-11.4632
캠	-11.4632
박한	-11.4634
▁공부를	-11.4634
▁상승률은	-11.4635
끔	-11.4635
구성	-11.4636
▁드디어	-11.4636
▁여대생	-11.4636
리어	-11.4637
▁유용	-11.4638
▁직접적인	-11.4638
마크	-11.4638
▁총력전	-11.464
▁균열	-11.4641
▁웃도는	-11.4643
▁불쾌	-11.4643
▁증가할	-11.4644
▁정점	-11.4644
▁제의	-11.4645
▁장병들	-11.4647
▁행위를	-11.4647
김치	-11.4648
▁교감	-11.4648
미니	-11.4649
▁들은	-11.465
▁정치권에서	-11.465
▁밖에서	-11.465
▁놓인	-11.4651
▁함량	-11.4652
▁주민센터	-11.4652
▁국회법	-11.4653
▁하다가	-11.4653
년엔	-11.4653
상대	-11.4655
▁차림	-11.4656
▁손실을	-11.4656
▁가족을	-11.4658
▁2.2%	-11.4658
▁운전기사	-11.4658
티브	-11.4658
었죠	-11.4659
▁수중	-11.4661
안심	-11.4661
▁여성가족부	-11.4663
▁정세	-11.4663
▁사회적기업	-11.4666
직업	-11.4667
▁복용	-11.4669
-8	-11.4672
▁입력	-11.4673
▁화이트	-11.4674
▁진행하는	-11.4674
▁정권의	-11.4675
▁2.4%	-11.4675
▁중에서는	-11.4675
▁생물	-11.4676
▁결정된다	-11.4677
▁느낀다	-11.4678
▁택	-11.4678
▁가만히	-11.4678
▁아이디	-11.4678
▁포항시	-11.4679
○○	-11.4679
서야	-11.4679
심서	-11.468
▁공직선거법	-11.4681
~30	-11.4681
▁현상은	-11.4682
▁인정한	-11.4683
▁산간	-11.4684
▁111	-11.4684
▁삼겹살	-11.4686
AR	-11.4686
▁내다	-11.4689
뼈	-11.4689
엔터테인먼트	-11.4689
▁때와	-11.469
▁18%	-11.4691
아니	-11.4691
▁간소화	-11.4692
▁마이	-11.4692
▁결핵	-11.4693
▁총선을	-11.4693
▁날을	-11.4694
▁단지는	-11.4694
▁참석한다	-11.4694
▁생각할	-11.4695
▁생각도	-11.4695
건수	-11.4696
▁바깥	-11.4696
▁막대한	-11.4698
▁유족들	-11.4699
▁전대	-11.4699
▁대학원	-11.4699
▁성과급	-11.4699
▁달아난	-11.4699
▁손잡	-11.4699
TF	-11.47
▁개인이	-11.47
현대차	-11.47
▁가이드	-11.4701
▁가능해	-11.4701
▁접수된	-11.4702
지역은	-11.4702
▁뒤인	-11.4702
▁유명하다	-11.4703
▁순환	-11.4703
▁240	-11.4703
▁공소시효	-11.4704
▁ETF	-11.4705
펀	-11.4707
▁불안정	-11.4707
▁패턴	-11.4708
▁신화	-11.471
버렸다	-11.4712
▁이대로	-11.4713
▁보험료를	-11.4717
▁중장기	-11.4719
▁2.4	-11.4719
▁마디	-11.472
▁결정적	-11.4722
▁되어야	-11.4723
▁무서운	-11.4725
▁국공립	-11.4725
▁전년도	-11.4727
▁비하면	-11.4728
▁떠오른	-11.4729
▁정서	-11.4731
거리는	-11.4732
▁방안은	-11.4732
▁쇼크	-11.4734
▁겪은	-11.4734
▁출근하는	-11.4736
호는	-11.4737
▁돌입했다	-11.4737
▁동거	-11.4737
▁수강생	-11.4738
▁저수지	-11.4738
▁주인공은	-11.4739
▁주어진다	-11.4739
만으로도	-11.474
사무	-11.4741
▁중상	-11.4742
▁직장인들	-11.4743
뽀	-11.4744
월과	-11.4745
李	-11.4745
시장이	-11.475
▁케	-11.475
▁20>	-11.4751
▁본부	-11.4751
▁한국형	-11.4752
▁반발이	-11.4753
▁마포	-11.4754
▁참가자들	-11.4755
▁어렵습니다	-11.4757
▁시점에	-11.4758
▁투명	-11.4758
▁3.7%	-11.4758
황교안	-11.4759
▁결의대회	-11.476
▁대조	-11.476
▁않느냐	-11.4761
▁자유무역협정	-11.4762
늘	-11.4762
▁펜션	-11.4763
▁때려	-11.4764
▁전화로	-11.4764
▁항로	-11.4766
▁수협	-11.4766
▁포격	-11.4767
지자	-11.4769
▁방중	-11.477
▁폭등	-11.477
▁이뤄지	-11.4771
갤럭시	-11.4771
이노베이션	-11.4772
정말	-11.4772
▁오가는	-11.4773
컨설팅	-11.4774
▁보험사기	-11.4774
▁금감원은	-11.4774
▁재판이	-11.4775
▁환경을	-11.4776
▁차려	-11.4776
▁응답자의	-11.4777
▁신혼부부	-11.4783
▁파고	-11.4784
▁국가정보원	-11.4785
▁해가	-11.4785
할까요	-11.4785
▁강화할	-11.4786
▁기름값	-11.4787
▁참여정부	-11.4788
▁결과적으로	-11.4788
세제	-11.479
▁재능	-11.479
시간에	-11.4791
▁산사태	-11.4792
▁나갔다	-11.4793
▁모녀	-11.4793
▁기분이	-11.4794
▁매수세	-11.4795
▁기관장	-11.4795
▁자가	-11.4795
▁권익위	-11.4797
▁일본과	-11.4797
▁고의	-11.4798
넥	-11.4799
듬	-11.4799
▁현실적으로	-11.4801
▁낮췄다	-11.4801
▁혜택도	-11.4802
▁그만두	-11.4802
▁쓰기	-11.4802
▁인구는	-11.4803
▁박영수	-11.4804
▁부산대	-11.4804
기간이	-11.4805
▁해보	-11.4805
▁후에도	-11.4805
▁확실	-11.4805
▁영업이익이	-11.4806
▁나라의	-11.4807
▁이씨의	-11.4808
만달러로	-11.4808
▁2.3	-11.4809
▁이해할	-11.4812
▁평년보다	-11.4814
잔치	-11.4815
심이	-11.4816
▁퇴직금	-11.4818
공감	-11.4818
섰습니다	-11.4819
▁설치해	-11.482
▁애국	-11.4821
시스	-11.4823
▁돌리	-11.4823
▁선봬	-11.4823
▁3.1%	-11.4824
▁친구가	-11.4825
4)	-11.4825
▁불가능한	-11.4825
6)	-11.4827
~4	-11.4831
▁관리에	-11.4832
▁규제개혁	-11.4832
지하	-11.4832
▁저희는	-11.4834
스가	-11.4834
▁주의가	-11.4835
사인	-11.4835
업체들	-11.4835
▁증원	-11.4838
▁설치돼	-11.4838
▁남양주	-11.484
2019	-11.484
겸	-11.4842
반기문	-11.4842
▁실린	-11.4842
▁폴	-11.4844
댄	-11.4845
▁1.8%	-11.4847
▁엘리베이터	-11.4847
▁혜	-11.4848
▁구입할	-11.4849
▁타이	-11.4849
▁설비투자	-11.485
▁않았고	-11.4851
성폭력	-11.4852
▁제기된다	-11.4853
▁단말기	-11.4854
▁시켜	-11.4855
픈	-11.4855
▁마라톤	-11.4855
리얼	-11.4856
▁입어	-11.4858
▁지나가	-11.4859
▁손해를	-11.4859
▁사이로	-11.4861
▁송영무	-11.4861
센터장	-11.4862
▁일대에서	-11.4862
▁안전점검	-11.4863
▁서서히	-11.4863
▁요인이	-11.4863
▁체포영장	-11.4864
▁전체가	-11.4864
▁특유의	-11.4864
▁반영해	-11.4865
▁놀이터	-11.4865
▁낮아지	-11.4866
▁신분증	-11.4867
▁지도부는	-11.4867
▁씨에	-11.487
자전거	-11.4871
▁2.6	-11.4872
▁르노삼성	-11.4872
▁불과한	-11.4872
▁변수가	-11.4873
▁흐름이	-11.4874
▁비결	-11.4876
▁추측	-11.4877
▁담겼다	-11.4877
▁나타나는	-11.4877
본부는	-11.4878
▁올랐	-11.4879
내부	-11.488
특허	-11.488
▁확정했다	-11.488
▁동포	-11.488
두고	-11.4881
▁단서	-11.4881
▁공정성	-11.4881
아카데미	-11.4881
비중	-11.4881
아웃	-11.4882
▁3.8%	-11.4883
▁그래	-11.4883
▁2.3%	-11.4884
▁모은다	-11.4885
▁반영한	-11.4886
▁종북	-11.4886
▁관련해서는	-11.4887
하길	-11.4888
▁타깃	-11.4888
▁구직	-11.4889
▁진동	-11.489
▁뉴스가	-11.4891
▁일베	-11.4894
보라	-11.4894
▁폭주	-11.4894
▁거기서	-11.4895
▁건가	-11.4898
▁육상	-11.4898
▁노동시장	-11.4899
▁월간	-11.4901
▁해석된다	-11.4901
▁지켜봐야	-11.4904
▁핫뉴스	-11.4906
▁헌신	-11.4907
▁달할	-11.4907
▁시간도	-11.4909
▁무너진	-11.4909
▁도구	-11.491
▁사표를	-11.4912
유가	-11.4912
벤	-11.4913
▁받아들일	-11.4915
▁미지수다	-11.4916
▁경찰에서	-11.4917
▁포상금	-11.4918
▁지원하고	-11.4919
박지원	-11.4919
보전	-11.4921
▁관내	-11.4921
출마	-11.4923
▁길은	-11.4923
▁변동성	-11.4924
제도를	-11.4925
▁익산	-11.4926
▁시의회	-11.493
시계	-11.4932
▁동전	-11.4933
▁혐의는	-11.4933
▁16%	-11.4934
▁입금	-11.4934
▁홍대	-11.4935
▁부모들	-11.4935
▁자립	-11.4937
화장품	-11.4937
▁도둑	-11.4937
▁증인으로	-11.4938
▁잡힌	-11.494
팀이	-11.494
지영	-11.494
▁의미로	-11.4941
-9	-11.4941
▁대표도	-11.4942
남성	-11.4943
▁강화했다	-11.4944
▁부장검사	-11.4945
▁녹음	-11.4945
▁가로챈	-11.4946
▁대기업의	-11.4946
▁금고	-11.4946
▁무게를	-11.4946
에서만	-11.4948
▁쪽에서	-11.4951
석유	-11.4951
▁불씨	-11.4951
▁하얀	-11.4951
▁충실	-11.4952
▁+	-11.4953
▁절차에	-11.4953
▁믿어	-11.4954
▁충북도	-11.4955
▁성동구	-11.4956
▁먹어	-11.4957
▁리조트	-11.4957
▁입성	-11.4957
▁세우	-11.4958
법관	-11.4959
▁배신	-11.4959
하진	-11.4959
▁김천	-11.496
▁양자	-11.4963
▁사의를	-11.4963
보복	-11.4964
▁장난감	-11.4964
▁떠올랐다	-11.4964
조기	-11.4965
틱	-11.4965
▁출생아	-11.4965
th	-11.4966
▁시범사업	-11.4966
▁자리잡	-11.4967
▁달라진다	-11.4968
▁취득세	-11.4968
▁개막식	-11.4968
해상	-11.4969
▁당진	-11.4969
▁도착했다	-11.497
▁온실가스	-11.4971
센터에서	-11.4971
▁뒤덮	-11.4974
▁미성년자	-11.4974
▁<20,	-11.4975
▁전문가들의	-11.4975
위반	-11.4975
▁예결위	-11.4977
▁관악	-11.4978
▁버리고	-11.4978
▁중요합니다	-11.4978
무죄	-11.4979
▁3.0%	-11.498
▁격화	-11.498
▁수박	-11.4981
캐피탈	-11.4982
▁탄도미사일	-11.4983
궤	-11.4983
페어	-11.4985
▁사거리	-11.4986
▁용도	-11.4988
▁선언한	-11.4992
▁약물	-11.4994
▁문무일	-11.4995
▁조선업	-11.4996
▁살충제	-11.4997
▁병력	-11.4999
▁예년	-11.5
▁행정안전부	-11.5
▁김창	-11.5002
번째로	-11.5003
▁선별	-11.5003
▁강남역	-11.5003
▁총장이	-11.5004
▁단골	-11.5004
층은	-11.5006
▁이보다	-11.5007
▁예상하고	-11.5008
가방	-11.501
▁결성	-11.501
▁실시된다	-11.501
▁밀집	-11.501
▁홍수	-11.5011
▁막힌	-11.5012
진화	-11.5013
▁내렸습니다	-11.5014
▁증시가	-11.5016
▁특권	-11.5016
▁출시된	-11.5016
시리즈	-11.5016
과세	-11.5017
▁쓴소리	-11.5019
▁인근에서	-11.502
▁현충원	-11.5021
▁착한	-11.5022
▁무난	-11.5023
▁오리온	-11.5023
▁잡혀	-11.5024
구요	-11.5025
▁똑같이	-11.5025
▁노동조합	-11.5026
▁여지	-11.5028
▁긍정	-11.5029
▁줄곧	-11.503
▁두드러졌다	-11.503
▁대선을	-11.5032
▁220	-11.5033
▁철도노조	-11.5033
▁의료기관	-11.5033
▁안보리	-11.5034
▁기차	-11.5035
도지사	-11.5035
▁정보는	-11.5036
▁올라간다	-11.5037
▁동화	-11.5038
▁주된	-11.5039
▁근로자의	-11.5039
▁자녀들	-11.504
엇	-11.504
▁양측은	-11.5042
▁청와대에	-11.5042
▁신세	-11.5042
▁증가로	-11.5043
구조대	-11.5043
비율은	-11.5045
▁과정은	-11.5046
MW	-11.5046
DI	-11.5047
▁최소한	-11.5048
▁벌써부터	-11.5048
▁학기	-11.5048
▁한낮	-11.5051
▁박찬	-11.5052
▁아이는	-11.5052
▁본회의에서	-11.5052
광역시	-11.5052
▁운영할	-11.5053
요리	-11.5053
▁날인	-11.5054
▁신주	-11.5055
단의	-11.5055
▁일정으로	-11.5057
태세	-11.5057
경력	-11.5057
▁관해	-11.5058
기업의	-11.5059
위에서	-11.506
렛	-11.506
ES	-11.5061
▁한복판	-11.5063
▁판결에	-11.5064
▁조치다	-11.5065
▁무엇	-11.5066
▁김씨를	-11.5066
▁보나	-11.5067
▁규정을	-11.5068
▁졸업식	-11.5069
우병우	-11.507
▁기록하며	-11.507
▁코엑스	-11.507
원자력	-11.5071
시행	-11.5071
▁강아지	-11.5071
완전	-11.5071
▁도입한	-11.5072
▁좌절	-11.5072
▁도청	-11.5073
▁의원실	-11.5074
▁던져	-11.5074
▁가능할까	-11.5074
▁제주항공	-11.5075
▁표를	-11.5076
▁동쪽	-11.5076
▁0.8	-11.5079
▁연예	-11.508
▁쏟아졌다	-11.5081
▁책임은	-11.5082
▁양육	-11.5084
▁눈높이	-11.5084
▁3.2%	-11.5085
▁비중도	-11.5085
▁포상	-11.5085
내려	-11.5085
독립	-11.5085
레스	-11.5087
대학생	-11.509
▁대상에서	-11.5091
▁받으며	-11.5091
그리	-11.5091
▁박재홍	-11.5093
▁소망	-11.5093
▁되면서	-11.5093
국으로	-11.5095
▁문자메시지	-11.5095
▁스펙	-11.5096
▁저하	-11.5099
▁대표에게	-11.5099
단에	-11.5099
▁외환보유액	-11.51
▁짝	-11.51
▁아끼	-11.5101
▁대단히	-11.5101
쇠	-11.5102
▁조사됐습니다	-11.5103
▁쿠	-11.5103
▁버리	-11.5103
▁이용하면	-11.5104
金	-11.5105
하되	-11.5107
▁권한을	-11.5107
우려	-11.5108
▁최영일	-11.5109
▁국내산	-11.5111
▁주제는	-11.5111
▁임금피크제	-11.5112
학력	-11.5112
▁섰다	-11.5113
▁달라질	-11.5115
▁놓여	-11.5116
▁의석	-11.5117
▁이뤘다	-11.5117
▁열었습니다	-11.5118
▁노조가	-11.5119
▁행방	-11.5119
진짜	-11.512
▁뽑는	-11.512
▁대검찰청	-11.5122
0.2	-11.5122
▁뒀다	-11.5123
유정	-11.5124
▁홍천	-11.5124
여분	-11.5126
▁국민적	-11.5126
▁받으	-11.5128
강도	-11.5128
에듀	-11.5131
▁돌파구	-11.5132
▁운영을	-11.5132
▁보시는	-11.5132
마는	-11.5132
▁맑음	-11.5133
생각	-11.5133
▁과천	-11.5133
제안	-11.5135
▁정상회담을	-11.5137
▁판다	-11.5138
▁계곡	-11.514
▁붙은	-11.5142
참사	-11.5142
OO	-11.5142
▁학생들을	-11.5146
▁관광객이	-11.5146
▁현지에서	-11.5146
▁전북도	-11.5146
▁작성한	-11.5146
(☎	-11.5147
▁금액을	-11.5149
활성화	-11.5149
▁어떨까요	-11.5149
몰이	-11.515
▁생각이다	-11.5154
▁문화를	-11.5155
▁하이트진로	-11.5156
▁범위를	-11.5158
▁선두	-11.516
2.1%	-11.5161
▁이경	-11.5163
▁따뜻	-11.5164
▁시설을	-11.5165
하니까	-11.5165
▁파동	-11.5167
비서	-11.5167
▁소외	-11.5167
계의	-11.5168
▁움직이	-11.5169
▁대표로	-11.517
▁반격	-11.5171
원과	-11.5173
투기	-11.5173
▁매경	-11.5175
PM	-11.5175
▁접종	-11.5176
한강	-11.5176
▁자외선	-11.5177
벌레	-11.5178
▁업황	-11.5178
▁생각하십니까	-11.5179
대행	-11.518
▁백지화	-11.518
▁우편	-11.518
▁입법예고	-11.5181
▁컵	-11.5183
▁의원총회	-11.5184
▁중소기업의	-11.5185
▁자영업	-11.519
▁가담	-11.5191
판사	-11.5191
▁학계	-11.5191
▁전에는	-11.5191
7)	-11.5195
여의도	-11.5196
▁장맛비	-11.5196
▁수법	-11.5197
관심	-11.5197
▁삼아	-11.5198
▁법무법인	-11.5199
상생	-11.5199
▁피켓	-11.5199
▁시골	-11.5199
▁접대	-11.5201
▁비유	-11.5202
▁김우성	-11.5202
여성이	-11.5202
▁허브	-11.5202
▁생겼	-11.5202
▁다쳤다	-11.5203
(31	-11.5203
▁수익률은	-11.5204
▁집무실	-11.5207
▁조직개편	-11.5209
▁대한민국을	-11.521
▁덜어	-11.521
▁이한구	-11.5212
▁한방	-11.5214
▁투자하는	-11.5214
▁갓	-11.5216
▁서울경제	-11.5217
▁로펌	-11.5218
전주	-11.5218
▁기승	-11.5218
▁확대하고	-11.5219
▁충남지사	-11.522
▁일반적인	-11.522
▁제공할	-11.5221
▁배경은	-11.5222
▁박모	-11.5223
주주	-11.5223
▁수업을	-11.5224
▁직원을	-11.5224
▁늘었고	-11.5225
▁구체화	-11.5226
~15	-11.5227
▁추돌사고	-11.5228
점에	-11.5229
경주	-11.5231
▁크다는	-11.5231
▁일본에	-11.5233
▁출신의	-11.5234
주셔서	-11.5234
양성	-11.5235
▁재소환	-11.5236
▁누릴	-11.5237
뇨	-11.5239
▁둘러보는	-11.524
▁번에	-11.5242
▁대략	-11.5242
▁되죠	-11.5242
▁돌려받	-11.5243
▁법안을	-11.5244
▁보행자	-11.5244
▁조현	-11.5244
▁와중에	-11.5245
▁여지가	-11.5246
▁강력히	-11.5248
▁경기침체	-11.5248
정의당	-11.5249
▁같지	-11.525
▁센	-11.5251
軍	-11.5253
▁시험을	-11.5254
▁계속된다	-11.5257
천여명	-11.5259
스테	-11.526
▁대부업체	-11.526
스키	-11.526
강제	-11.526
▁조건을	-11.5261
▁유료	-11.5262
▁관계없이	-11.5262
▁중요성	-11.5262
▁아이스크림	-11.5263
▁지나친	-11.5265
▁존재한다	-11.5267
▁처형	-11.5267
해지면서	-11.5269
▁전달보다	-11.5269
▁견디	-11.527
▁선정해	-11.5271
▁협의회	-11.5271
▁이대	-11.5272
▁공작	-11.5272
개월여	-11.5273
▁널리	-11.5274
모집	-11.5274
▁김현미	-11.5275
당했다	-11.5275
▁아닌데	-11.5276
▁덕에	-11.5277
▁업데이트	-11.5279
▁한국은행이	-11.5281
▁문학	-11.5281
▁포천	-11.5281
▁일부가	-11.5281
▁정부를	-11.5282
▁아니고요	-11.5283
▁대가로	-11.5284
▁호평	-11.5284
TS	-11.5285
▁자존심	-11.5287
▁소멸	-11.5288
▁민자	-11.5289
4.2	-11.529
증가	-11.529
▁동탄	-11.5292
▁의견은	-11.5292
▁내용에	-11.5293
지청	-11.5294
▁직원의	-11.5295
▁계류	-11.5298
▁이외	-11.5299
▁부회장이	-11.5299
▁마늘	-11.5299
시간여	-11.5299
▁선점	-11.5302
▁지주회사	-11.5302
▁시총	-11.5303
▁마련에	-11.5303
▁전자담배	-11.5304
▁쏠	-11.5304
▁되겠습니다	-11.5304
▁바라본	-11.5304
▁머니	-11.5306
▁주중	-11.5306
▁스페셜	-11.5307
▁신중한	-11.5308
▁좁	-11.5309
▁더구나	-11.5309
▁송구	-11.531
방에서	-11.5312
▁편견	-11.5312
▁인쇄	-11.5312
으로서는	-11.5312
▁가시화	-11.5313
▁관광객들	-11.5313
쩍	-11.5313
▁엑스포	-11.5314
▁뺏	-11.5316
▁리퍼트	-11.5318
▁위안	-11.5318
▁102	-11.532
▁그늘	-11.5322
▁법적으로	-11.5323
4.9	-11.5323
돔	-11.5324
▁이끄는	-11.5327
▁대개	-11.5329
▁공정한	-11.5329
▁일어날	-11.533
▁톤	-11.5332
▁된다면	-11.5333
서부	-11.5333
라니	-11.5334
▁행사도	-11.5334
▁프라	-11.5335
▁5.18	-11.5337
▁김해시	-11.5338
셨나요	-11.5339
▁여부도	-11.534
▁구직자	-11.5341
▁상승률이	-11.5342
▁케이크	-11.5342
모터쇼	-11.5343
▁소독	-11.5344
▁업체의	-11.5344
▁위험성	-11.5345
답게	-11.5345
▁교수와	-11.5345
덩이	-11.5345
▁들어선	-11.5345
▁경제학	-11.5347
▁성남시장	-11.5348
▁김정은의	-11.5348
버드	-11.5349
니스트	-11.5349
▁학업	-11.535
▁기관의	-11.535
배치	-11.5351
▁단계적으로	-11.5353
▁사교육	-11.5354
민원	-11.5355
차례에	-11.5355
▁배분	-11.5355
▁소진	-11.5357
9.2	-11.5361
애플	-11.5361
▁주민이	-11.5361
▁2,000	-11.5363
▁세율	-11.5364
▁약세를	-11.5365
▁하수	-11.5367
TC	-11.5367
▁장식	-11.5368
▁男	-11.5369
고속	-11.537
▁리뉴얼	-11.5374
만명에	-11.5374
▁소비가	-11.5375
▁있겠	-11.5375
▁경기를	-11.5375
교섭	-11.5377
▁소나무	-11.5378
하나은행	-11.5378
닷	-11.5378
▁해설	-11.5379
끄럽	-11.538
▁연결합니다	-11.538
▁통상임금	-11.5381
▁올들어	-11.5382
▁할머니들	-11.5382
▁없었다고	-11.5383
▁보게	-11.5384
바지	-11.5385
더위	-11.5387
▁헌정	-11.5389
만주	-11.539
8.2	-11.539
▁버려	-11.539
쳤습니다	-11.539
년에도	-11.539
▁지원해	-11.5391
국이	-11.5392
▁강화해야	-11.5392
닌	-11.5392
료를	-11.5393
군에	-11.5393
▁제일모직	-11.5395
▁만일	-11.5395
▁투명성	-11.5396
▁정체가	-11.5397
시장을	-11.5397
▁LPG	-11.5398
▁좋았	-11.5398
▁포도	-11.5398
진행	-11.54
▁지닌	-11.54
▁황당한	-11.5401
▁수사는	-11.5404
톡톡	-11.5404
▁모델을	-11.5406
▁추격	-11.5406
▁식중독	-11.5408
▁기후변화	-11.5409
▁최근에	-11.541
▁일정이	-11.5411
▁관심은	-11.5412
▁한국사	-11.5413
▁115	-11.5415
릅니다	-11.5417
▁할부	-11.5418
길을	-11.5418
▁성관계	-11.5418
주당	-11.5419
▁자사	-11.542
▁구름많음	-11.5421
▁확정된	-11.5421
▁중개	-11.5421
▁기장	-11.5423
▁감식	-11.5423
▁자신에게	-11.5423
▁123	-11.5424
▁보직	-11.5424
그림	-11.5425
▁서비스는	-11.5425
DB	-11.5426
▁높습니다	-11.5427
▁확대될	-11.5427
했을까	-11.5427
▁제주시	-11.5428
▁손님들	-11.5429
▁법령	-11.5429
▁사과문	-11.5429
정화	-11.5429
구의	-11.543
▁회생	-11.543
팀을	-11.5432
보호법	-11.5432
▁거래됐다	-11.5433
▁시시각각	-11.5434
▁흉기를	-11.5435
▁코드	-11.5436
▁관악구	-11.5436
▁생기	-11.5436
▁박병	-11.5437
▁공동주택	-11.5438
▁증가폭	-11.5438
▁혁신을	-11.5438
▁동의를	-11.5439
포털	-11.5439
▁참석할	-11.5441
▁마찰	-11.5442
설에	-11.5444
▁근무하는	-11.5444
▁두루	-11.5445
밋	-11.5446
▁펄	-11.5447
▁콜센터	-11.5447
▁4.5%	-11.5448
가루	-11.5449
▁존경	-11.545
▁이후로	-11.545
▁관리하는	-11.5451
▁동아	-11.5452
▁분량	-11.5452
▁요약	-11.5454
▁게시판에	-11.5455
▁영유아	-11.5459
▁남학생	-11.5459
▁포스터	-11.5459
▁식사를	-11.5459
▁없었지만	-11.546
▁대한상의	-11.5462
동기	-11.5463
▁앞당겨	-11.5463
▁결정한다	-11.5463
▁여성들이	-11.5464
약품	-11.5465
▁엄마가	-11.5465
억원이었다	-11.5467
▁국가대표	-11.5467
▁금천구	-11.5469
▁24%	-11.547
▁3.4%	-11.5471
▁먹기	-11.5473
▁가져가	-11.5473
갈비	-11.5474
▁최고기온	-11.5477
▁구성해	-11.5477
니스	-11.5478
▁당선인은	-11.5479
▁UAE	-11.5483
▁노동개혁	-11.5483
▁당국의	-11.5483
▁내세운	-11.5484
▁현금배당	-11.5485
▁수위를	-11.5486
무슨	-11.5486
지인	-11.5486
il	-11.5487
▁교재	-11.5487
▁정신적	-11.5491
▁잘라	-11.5492
▁끝나지	-11.5493
교육원	-11.5493
▁소극적	-11.5494
▁넘치는	-11.5494
▁향년	-11.5497
▁시스템이	-11.5497
▁낫다	-11.5501
▁문화체육관광부	-11.5502
▁효율	-11.5502
7.0%	-11.5503
▁제소	-11.5503
▁꿀	-11.5503
▁죽을	-11.5504
농성	-11.5504
접촉	-11.5505
▁누락	-11.5505
▁느껴지	-11.5506
▁생계	-11.5507
▁상승폭	-11.5507
▁레스토랑	-11.5509
▁가르치	-11.5509
▁그치	-11.551
차는	-11.551
▁입주자	-11.5512
횡령	-11.5514
▁기억이	-11.5514
▁회식	-11.5515
▁창설	-11.5516
교도소	-11.5516
유병언	-11.5517
▁주호영	-11.5517
▁결정은	-11.5518
공작	-11.5518
▁공장을	-11.5519
▁이상한	-11.5519
현실	-11.5519
▁억울	-11.552
▁야권의	-11.5521
▁도민	-11.5521
▁플	-11.5521
▁플랜	-11.5523
비와	-11.5525
해줄	-11.5526
▁데리고	-11.5527
▁높아져	-11.5527
▁총장의	-11.5529
▁과제로	-11.553
▁업무에	-11.5531
▁효과도	-11.5531
▁3.3%	-11.5532
▁명확히	-11.5534
닐	-11.5534
대책본부	-11.5535
▁신라	-11.5536
▁질서	-11.5537
▁집중되고	-11.5538
▁날씨를	-11.5539
특별위원회	-11.5541
▁감옥	-11.5542
▁가슴이	-11.5543
마이	-11.5544
▁옮겼다	-11.5546
편의	-11.5546
▁마음은	-11.5547
▁명목	-11.5547
▁용납	-11.5548
이재용	-11.5548
▁하려면	-11.5549
걸음	-11.5549
▁여섯	-11.5549
▁건강관리	-11.555
▁낙마	-11.5551
▁알렸다	-11.5551
귀촌	-11.5552
▁자사고	-11.5552
극장	-11.5554
▁도마	-11.5554
▁마련해야	-11.5555
2.0%	-11.5555
▁불렀다	-11.5555
▁사이의	-11.5555
▁양도	-11.5555
▁고쳐	-11.5556
펫	-11.5557
▁반짝	-11.5557
▁분들도	-11.5558
▁반려견	-11.5558
▁추도식	-11.5559
▁미용	-11.5562
이재명	-11.5562
▁해적	-11.5565
▁맺었다	-11.5565
▁하야	-11.5566
인정	-11.5566
HD	-11.5566
▁눈으로	-11.5567
▁평등	-11.5567
▁성균관대	-11.5567
_	-11.5568
▁들여다	-11.5568
▁치즈	-11.557
▁국제선	-11.557
▁증설	-11.557
3.1	-11.557
▁원격	-11.5571
▁표절	-11.5572
▁아닌가요	-11.5573
▁급증한	-11.5573
군인	-11.5573
▁푼	-11.5573
▁제안한	-11.5574
▁지정된	-11.5578
▁출마선언	-11.5578
▁원내대표의	-11.5579
자고	-11.5579
▁노트북	-11.558
▁봄철	-11.558
줍니다	-11.558
▁이어졌습니다	-11.5581
▁모를	-11.5581
▁오징어	-11.5581
하반기	-11.5581
▁웃음을	-11.5582
▁얼굴에	-11.5583
▁텐트	-11.5584
길래	-11.5587
▁유착	-11.5587
흡	-11.5587
되었	-11.5589
발생	-11.5589
▁0.9	-11.559
▁서비스가	-11.559
...20	-11.5591
▁보건소	-11.5591
▁태권도	-11.5593
3.2	-11.5593
금융그룹	-11.5594
▁참전	-11.5595
▁민관	-11.5596
▁고공행진	-11.5597
▁그렇고	-11.5602
▁검토할	-11.5603
0.4	-11.5603
▁올라오	-11.5604
만족	-11.5604
▁감염자	-11.5606
▁밝히고	-11.5606
▁관측도	-11.5607
▁엄청	-11.5608
▁장기간	-11.5608
▁개발을	-11.5608
십시오	-11.5608
▁검색어	-11.561
▁순회	-11.561
종이	-11.561
▁ELS	-11.5611
개발원	-11.5613
▁낙하산	-11.5613
▁브렉시트	-11.5614
▁합의한	-11.5615
가락	-11.5616
억원어치를	-11.5618
▁아파트를	-11.562
▁실패했다	-11.562
▁수료	-11.5621
∼8	-11.5622
▁달린	-11.5622
▁임의	-11.5624
▁해운대구	-11.5625
▁대출이	-11.5626
섰	-11.5627
▁녹취록	-11.5628
으세요	-11.5634
▁당사	-11.5634
전시	-11.5634
▁넘으면	-11.5636
페스티벌	-11.5638
필요	-11.5639
▁쓰면	-11.5642
▁추모식	-11.5642
▁金	-11.5644
석이	-11.5644
로드	-11.5645
°	-11.5646
▁위원장과	-11.5646
▁우리나라에	-11.5647
▁치아	-11.5647
▁자치단체	-11.5647
▁논술	-11.565
평론가	-11.565
시면	-11.5652
무대	-11.5652
▁수돗물	-11.5652
▁해방	-11.5652
▁유기농	-11.5654
▁1.0%	-11.5654
비핵화	-11.5654
▁근로소득	-11.5655
重	-11.5655
▁지도부가	-11.5655
前	-11.5656
▁숨은	-11.5657
▁국과수	-11.5658
▁그해	-11.5658
▁소비자들이	-11.5659
▁실습	-11.5659
▁아카데미	-11.5659
▁돋	-11.5659
▁조속히	-11.566
인프라	-11.566
▁이슈가	-11.5661
▁바다에	-11.5661
▁펼쳤다	-11.5666
▁뚫고	-11.5667
▁혐의에	-11.5668
엔진	-11.5668
창조	-11.5671
▁발견되지	-11.5671
▁차례로	-11.5671
▁시신이	-11.5671
▁폭발물	-11.5671
▁고병원성	-11.5672
정기	-11.5675
▁이겨	-11.5675
▁1.0	-11.5676
▁행진을	-11.5676
▁두달	-11.5678
▁정동	-11.5678
▁관점에서	-11.5679
▁사옥	-11.5679
국의	-11.5679
조사를	-11.5679
▁불응	-11.5679
▁판매량이	-11.568
▁궁금할	-11.5681
▁읍	-11.5681
▁오산	-11.5681
▁구로	-11.5681
▁강화하는	-11.5682
겠나	-11.5682
▁굽	-11.5682
▁약국	-11.5684
어제	-11.5685
▁양양	-11.5686
ac	-11.5692
▁큽니다	-11.5692
▁캠코	-11.5692
▁저조	-11.5693
▁기무사	-11.5694
▁전환했다	-11.5694
▁세균	-11.5695
▁공석	-11.5695
촉진	-11.5697
▁세번째	-11.5698
▁목표치	-11.5699
▁대정부질문	-11.5699
▁과제는	-11.57
계단	-11.57
▁점에	-11.57
▁실패한	-11.5701
▁덥	-11.5701
영수	-11.5701
▁노려	-11.5701
▁주역	-11.5702
▁출판	-11.5702
▁모델이	-11.5702
냈습니다	-11.5703
▁높인다	-11.5703
▁사립유치원	-11.5704
▁좌파	-11.5706
▁적법	-11.5706
▁손질	-11.5707
▁뒤집어	-11.5708
▁1~3	-11.5709
"...'	-11.5709
▁인지도	-11.5709
3.5	-11.5712
▁인터뷰에서	-11.5713
▁기사는	-11.5714
▁좁혀	-11.5714
훈장	-11.5715
▁고령자	-11.5715
▁2.1%	-11.5718
창고	-11.5718
▁전문점	-11.5718
▁있으나	-11.572
▁이룰	-11.5722
▁삼성은	-11.5724
▁유은혜	-11.5725
▁미국산	-11.5726
▁부모의	-11.5726
▁국방부는	-11.5727
▁반론	-11.5727
▁KEB	-11.5728
▁출석한	-11.5728
▁관계자들이	-11.5728
눌	-11.5729
베리	-11.5729
▁적절	-11.573
구름많음	-11.5731
▁조금만	-11.5731
0.0%	-11.5733
▁치료제	-11.5733
▁개점	-11.5735
▁징계를	-11.5735
▁성장세	-11.5736
▁106	-11.5736
▁추대	-11.5738
▁교직원	-11.5738
마약	-11.5738
▁업자	-11.5739
8.0%	-11.574
▁김관진	-11.5743
캡	-11.5743
4.1	-11.5744
2.1	-11.5744
▁편리	-11.5747
▁스포츠조선	-11.5748
asiae	-11.5748
▁IBK	-11.5749
ul	-11.5749
경희	-11.5751
▁꾸며	-11.5751
▁적극적	-11.5751
▁추월	-11.5752
요인	-11.5752
▁만난다	-11.5752
신호	-11.5756
직접	-11.576
▁다뤄	-11.576
구는	-11.576
▁자사주	-11.5761
조리	-11.5761
클래스	-11.5762
되도록	-11.5763
▁썩	-11.5763
▁객	-11.5765
버섯	-11.5765
▁이창	-11.5765
▁새만금	-11.5766
▁구인	-11.5768
▁업무상	-11.5768
▁고전	-11.5768
▁닦	-11.5769
의약품	-11.5769
▁고강도	-11.5769
▁탔다	-11.577
▁정수	-11.577
1.0%	-11.5771
▁법안이	-11.5771
하기가	-11.5773
바른정당	-11.5773
탈당	-11.5774
지침	-11.5775
점포	-11.5777
기대	-11.5777
▁번역	-11.5778
▁강등	-11.5778
▁전단	-11.578
▁사라진다	-11.5781
▁캄보디아	-11.5782
▁팽팽	-11.5783
▁피살	-11.5783
▁증여세	-11.5784
(☎)	-11.5785
▁금속	-11.5785
▁사정은	-11.5785
▁멀어	-11.5786
문자	-11.5786
조원대	-11.5786
▁총액	-11.5787
▁소셜	-11.5787
▁양은	-11.5789
쟁이	-11.579
▁<10,	-11.579
▁체질	-11.579
▁in	-11.5791
▁박스	-11.5792
▁해왔다	-11.5794
am	-11.5795
▁토마토	-11.5796
▁초점	-11.5798
▁검찰과	-11.5799
▁가져야	-11.58
▁자랑한다	-11.58
▁일각에선	-11.58
▁던졌다	-11.5802
▁참여하고	-11.5802
세까지	-11.5802
▁날씨에	-11.5805
▁재협상	-11.5805
▁사용한다	-11.5806
▁시원	-11.5806
▁롤	-11.5809
...6	-11.5812
▁선보이는	-11.5812
▁퍼지	-11.5813
▁지원도	-11.5813
▁자동으로	-11.5813
▁안에는	-11.5814
▁규제가	-11.5819
▁외국인과	-11.5822
무늬	-11.5823
빨간불	-11.5823
▁빠져나가	-11.5824
비스	-11.5826
▁성장률을	-11.5826
전세	-11.5826
▁피하기	-11.5826
▁가닥	-11.5827
▁물려	-11.5828
보세요	-11.5828
▁청취	-11.583
룰	-11.5831
▁박진	-11.5833
▁총격	-11.5833
▁달래	-11.5834
▁자녀가	-11.5834
▁임명됐다	-11.5836
▁인간의	-11.5837
▁걷기	-11.5838
▁장학	-11.5838
▁금융위원회	-11.5838
▁민선	-11.5838
▁이것도	-11.5839
층의	-11.584
▁급등했다	-11.584
값이	-11.584
8.5	-11.5843
남편	-11.5843
▁북한에서	-11.5844
▁격차는	-11.5845
▁모두발언하	-11.5847
▁상업적	-11.5848
▁김태호	-11.5848
▁피해자는	-11.5849
▁샤	-11.5849
▁하기도	-11.585
▁이길	-11.5851
나온	-11.5851
▁특활비	-11.5851
▁서비스도	-11.5852
▁근본	-11.5852
중공업	-11.5853
▁실속	-11.5854
▁비하	-11.5854
▁결정하는	-11.5855
▁수강	-11.5855
▁산악	-11.5856
군을	-11.5856
실은	-11.5856
가구를	-11.5857
▁즐거움	-11.5858
▁설명해	-11.5859
▁'5	-11.5859
▁평창동계올림픽	-11.586
▁토끼	-11.586
▁피어	-11.586
국수	-11.5861
▁짓고	-11.5861
조달	-11.5863
▁1800	-11.5863
부서	-11.5867
▁업계의	-11.5867
▁높아진다	-11.5869
이거든요	-11.5869
▁없다면	-11.587
▁세법	-11.587
▁질문에는	-11.587
▁번씩	-11.5872
▁to	-11.5873
가격이	-11.5876
▁적용했다	-11.5878
전체	-11.5878
에서부터	-11.5879
연한	-11.5881
킷	-11.5881
▁스키	-11.5882
6.1	-11.5883
▁전반에	-11.5884
▁CNBC	-11.5885
▁합리적인	-11.5885
▁광고를	-11.5886
하자고	-11.5887
▁답이	-11.5888
▁원조	-11.5888
성호	-11.5888
▁조사했다	-11.589
▁리비아	-11.589
▁아닌지	-11.5891
▁투입된다	-11.5892
▁징후	-11.5892
ad	-11.5895
▁인사는	-11.5895
▁통신사	-11.5896
▁쟁점은	-11.5897
▁수익률이	-11.5897
▁때다	-11.5897
▁집주인	-11.5898
▁외교관	-11.5898
弗	-11.5899
▁관리가	-11.5899
공방	-11.5899
공식	-11.5899
▁역사의	-11.5901
▁영화관	-11.5901
연기	-11.5901
▁맞을	-11.5901
상무	-11.5902
레이더	-11.5903
▁미친다	-11.5903
▁서식	-11.5903
긴장	-11.5905
▁공급이	-11.5906
▁그렇군요	-11.5909
DC	-11.5909
▁재판은	-11.591
▁조경	-11.591
▁반기	-11.5912
▁현실은	-11.5912
▁쏜	-11.5913
▁정권이	-11.5914
▁짚	-11.5915
▁이동하는	-11.5915
▁소개한다	-11.5915
▁지난해까지	-11.5916
▁장터	-11.5916
▁거래되고	-11.5917
회의를	-11.5917
▁차별화된	-11.5919
▁공무원이	-11.5919
▁차명	-11.5921
▁의식을	-11.5921
▁거거든요	-11.5922
요즘	-11.5924
▁적용할	-11.5925
됐는데	-11.5925
▁실시한	-11.5926
▁풍성	-11.5927
문서	-11.5928
▁남는	-11.5929
입학	-11.5931
▁발걸음	-11.5932
▁깨끗한	-11.5933
더군요	-11.5933
스킨	-11.5935
▁바짝	-11.5936
▁베스트	-11.5936
▁파란	-11.5937
▁경기장	-11.5937
▁기대가	-11.5938
위다	-11.5938
뿐이었다	-11.5939
▁되돌아	-11.594
▁백악관	-11.594
▁울리	-11.5941
▁부과된다	-11.5941
▁거대	-11.5942
▁인상에	-11.5943
아내	-11.5943
▁파격	-11.5946
▁거부했다	-11.5946
▁시행한다	-11.5947
▁샀다	-11.5947
▁분석을	-11.5947
적금	-11.5948
촬영	-11.5949
▁찍고	-11.5949
▁신뢰도	-11.5949
▁배우는	-11.595
▁치우	-11.5952
▁3.6%	-11.5952
▁공천을	-11.5952
▁신고한	-11.5953
였는데	-11.5953
▁비난했다	-11.5953
▁최고경영자	-11.5954
유세	-11.5954
▁이동통신	-11.5956
▁권장	-11.5957
▁어머니는	-11.5958
▁비치	-11.5959
▁따지면	-11.596
▁처장	-11.5961
0.1	-11.5961
▁장기적으로	-11.5961
▁무능	-11.5963
출신	-11.5963
▁동아리	-11.5966
▁두려움	-11.5967
소장	-11.5967
盧	-11.5969
있어	-11.5971
▁여유가	-11.5971
연봉	-11.5971
▁밝혔	-11.5973
계약서	-11.5974
▁쉼터	-11.5977
▁원정	-11.5977
▁참가했다	-11.5977
박사	-11.5977
▁신인	-11.5977
▁코트라	-11.5978
▁기피	-11.5979
▁기자들과	-11.5979
▁맞는다	-11.598
▁사회에서	-11.5981
▁문제입니다	-11.5981
총액	-11.5982
적으로는	-11.5982
▁꾀	-11.5982
▁지역별로	-11.5983
재현	-11.5983
▁건넨	-11.5985
실태	-11.5985
▁태우고	-11.5987
▁운전자가	-11.5987
▁4.5	-11.5987
들로부터	-11.5987
▁107	-11.5988
▁신한카드	-11.5988
작가	-11.5988
▁모니터	-11.5989
▁공표	-11.599
▁김윤	-11.5993
▁열기로	-11.5994
▁데이	-11.5994
▁방제	-11.5994
▁진출을	-11.5996
▁합당	-11.5996
▁1960	-11.5998
▁230	-11.5998
▁좁은	-11.6
짝	-11.6001
▁거액	-11.6001
z	-11.6001
우리나라	-11.6002
충전	-11.6002
▁김포공항	-11.6002
영철	-11.6003
▁치밀	-11.6003
▁백두산	-11.6005
▁중국을	-11.6006
임원	-11.6006
▁안전하게	-11.6007
▁자기가	-11.6008
▁당혹	-11.6008
0.5	-11.6008
▁결혼을	-11.6009
▁금융상품	-11.6009
생들	-11.6011
▁이룬	-11.6012
▁자발적	-11.6012
▁시작되는	-11.6012
▁시각도	-11.6013
▁바퀴	-11.6014
▁환승	-11.6015
▁키우고	-11.6015
▁인증을	-11.6016
▁VIP	-11.6016
▁명의로	-11.6017
▁사람들과	-11.6018
세관	-11.6021
정당인	-11.6021
▁제조사	-11.6021
시사	-11.6023
250	-11.6024
봉사단	-11.6025
▁보라	-11.6026
▁6·4	-11.6027
▁석사	-11.6027
분까지	-11.6028
▁임직원들	-11.6028
▁멀티	-11.603
▁비위	-11.603
팡	-11.6031
연습	-11.6031
만원이었다	-11.6033
누구	-11.6033
따라	-11.6033
▁달라지는	-11.6033
▁시위를	-11.6034
▁1993	-11.6035
▁법정에서	-11.6038
▁전체를	-11.6039
▁안팎으로	-11.6039
▁개선에	-11.6042
▁얼굴이	-11.6043
▁완주	-11.6043
치사	-11.6044
▁약정	-11.6045
▁시장점유율	-11.6045
보좌관	-11.6045
사자	-11.6046
▁2.8	-11.6046
▁고대	-11.6047
함양군	-11.6047
▁이주영	-11.6047
▁추위가	-11.6047
▁하기로	-11.6049
▁출범한	-11.6049
▁1992	-11.6049
▁'2017	-11.6049
노믹스	-11.605
▁학사	-11.605
▁밥을	-11.6052
▁이어지면서	-11.6052
▁여당이	-11.6053
▁필요해	-11.6055
▁지킬	-11.6055
▁좋겠	-11.6057
▁로고	-11.6057
▁아파트가	-11.606
동정	-11.6061
논의	-11.6062
▁가족들이	-11.6062
▁수익률을	-11.6064
▁민노총	-11.6065
월보다	-11.6066
한화	-11.6066
▁초부터	-11.6068
▁가출	-11.6068
▁장면이	-11.6068
▁대의원	-11.607
함과	-11.6071
▁의원직	-11.6073
▁모델들이	-11.6074
×	-11.6075
▁우려된다	-11.6075
지휘	-11.6076
▁오후에	-11.6078
징계	-11.6079
금이	-11.6079
정우	-11.608
▁폭은	-11.6081
▁교사가	-11.6084
▁키즈	-11.6086
▁아들은	-11.6087
▁지경부	-11.6087
▁일일	-11.6088
▁민심을	-11.6089
▁IP	-11.6091
▁상설	-11.6092
성추행	-11.6093
▁염려	-11.6094
작품	-11.6094
▁객관적	-11.6095
경험	-11.6096
객들	-11.6096
▁뿌려	-11.6096
스테이	-11.6098
▁바지	-11.6099
▁그러한	-11.61
확보	-11.61
▁사설	-11.6102
▁어렵다고	-11.6102
액의	-11.6103
▁정확	-11.6103
▁타임	-11.6104
▁은평구	-11.6104
께서는	-11.6105
▁of	-11.6106
▁무이자	-11.6106
▁선거는	-11.6107
▁그치지	-11.6108
▁제자	-11.6109
▁광장에서	-11.6111
▁구성원	-11.6113
▁김홍	-11.6114
▁느낀	-11.6114
▁중증	-11.6114
기호	-11.6115
▁단점	-11.6116
이므로	-11.6116
▁때문이었다	-11.6117
년제	-11.6117
▁전제	-11.6118
▁전략은	-11.6119
▁고인의	-11.6119
▁경제지표	-11.612
히는	-11.612
▁영문	-11.612
▁쪽은	-11.6121
▁판매한	-11.6121
▁주택시장	-11.6122
▁도매	-11.6122
위원회의	-11.6122
굿	-11.6123
▁신재생에너지	-11.6124
▁국세청은	-11.6124
면허	-11.6124
▁세상이	-11.6126
나물	-11.6126
▁설날	-11.6127
▁박차를	-11.6127
▁모의	-11.6128
▁시일	-11.613
▁집유	-11.6132
▁전략공천	-11.6133
▁114	-11.6134
▁묻어	-11.6134
뇌물	-11.6134
CS	-11.6135
▁장교	-11.6136
▁소외계층	-11.6136
▁공인	-11.6136
5.3	-11.6137
▁궁금해	-11.6138
▁감각	-11.6138
▁리베이트	-11.6139
주택자	-11.6139
▁빠질	-11.6139
▁보람	-11.614
▁남기고	-11.6142
누가	-11.6142
▁달리던	-11.6142
▁"3	-11.6143
▁위원장을	-11.6143
▁시급한	-11.6144
인하	-11.6145
▁민감	-11.6147
▁고객은	-11.6148
▁(02)	-11.6148
▁설치했다	-11.615
▁믿	-11.615
▁봇물	-11.6151
▁드리겠습니다	-11.6151
▁나누고	-11.6152
승희	-11.6154
▁동작	-11.6154
▁송전탑	-11.6155
▁아쉬운	-11.6155
려다	-11.6156
▁보건당국	-11.6156
▁가로막	-11.6156
▁구급차	-11.6158
▁곤란	-11.6158
부에	-11.6158
▁졸업했다	-11.616
▁증가해	-11.616
▁사람이다	-11.6161
진우	-11.6165
▁신속한	-11.6166
▁강간	-11.6166
▁연차	-11.6166
▁성공을	-11.6167
▁그릇	-11.6169
김정일	-11.6169
▁뭘까	-11.6169
▁악취	-11.6169
추적	-11.617
영국	-11.617
▁지금부터	-11.617
▁텅	-11.6171
▁영업손실	-11.6172
▁영상이	-11.6173
대박	-11.6173
▁도시가스	-11.6173
▁한인	-11.6174
코스닥	-11.6174
억달러로	-11.6174
ER	-11.6175
▁바뀌는	-11.6176
▁하신	-11.6176
▁영업이익률	-11.6177
목적	-11.6177
▁벌인다	-11.6179
▁낮게	-11.6179
▁남자가	-11.6179
겠습니까	-11.618
▁확립	-11.618
9.1	-11.618
유리	-11.618
원까지	-11.6182
▁역세권	-11.6182
▁만나고	-11.6184
7.1	-11.6184
▁늦춰	-11.6185
▁아픔	-11.6185
해보니	-11.6186
변동	-11.6186
▁필요는	-11.6188
▁가격으로	-11.6191
▁소방당국	-11.6191
▁여당은	-11.6192
▁학자금	-11.6195
TO	-11.6195
합시다	-11.6195
▁입대	-11.6196
도박	-11.6198
▁강조하는	-11.6199
▁스트레스를	-11.6199
▁셀트리온	-11.6201
지역의	-11.6201
▁가늠	-11.6201
정희	-11.6202
기소	-11.6203
▁배제할	-11.6203
들고	-11.6203
국민연금	-11.6203
꼭	-11.6204
롭다	-11.6205
▁지경	-11.6205
▁할머니가	-11.6206
세포	-11.6208
▁외벽	-11.6209
된다는	-11.621
▁올린다	-11.621
▁총재는	-11.621
▁공적	-11.6211
▁명은	-11.6212
▁신기술	-11.6212
보조금	-11.6212
▁지뢰	-11.6212
서비스를	-11.6213
둬	-11.6214
ur	-11.6216
▁제품으로	-11.6216
됐는지	-11.6216
▁1100	-11.6218
▁자유한국당은	-11.622
▁해남	-11.622
▁인삼	-11.622
▁몸싸움	-11.6221
▁이광	-11.6221
해결	-11.6223
▁번복	-11.6223
▁지사가	-11.6224
▁숨을	-11.6225
▁정기예금	-11.6226
▁인물이다	-11.6227
▁분신	-11.6229
▁방송사	-11.6231
국립	-11.6231
▁컨설턴트	-11.6231
주면	-11.6232
▁당직	-11.6233
▁3.9%	-11.6238
▁모습도	-11.6238
▁수사결과	-11.6239
▁부족해	-11.6239
나가는	-11.624
▁싸이	-11.6241
부의	-11.6242
▁조계사	-11.6243
현장연결	-11.6243
화장실	-11.6244
▁하시는	-11.6244
▁적합	-11.6245
▁관장	-11.6246
▁국가는	-11.6246
▁신영	-11.6246
▁내세워	-11.6247
파티	-11.6248
음성변조	-11.6249
▁어업	-11.625
▁우울	-11.6251
▁이재현	-11.6252
폭염	-11.6252
▁솔직히	-11.6252
▁외국인의	-11.6253
▁융자	-11.6253
▁사과했다	-11.6253
인기	-11.6253
▁보고서는	-11.6254
▁건물을	-11.6257
▁좋게	-11.6257
▁대면	-11.6259
▁백남기	-11.6259
▁영상으로	-11.626
라면서	-11.6262
▁마침	-11.6263
▁학교가	-11.6263
▁입항	-11.6265
▁인가	-11.6266
꼴	-11.6266
▁맛과	-11.6266
김해	-11.6267
▁진행한	-11.6267
▁펜	-11.6268
▁어렵	-11.627
검토	-11.627
▁노량진	-11.6271
개다	-11.6271
에게서	-11.6272
건설은	-11.6277
태평양	-11.6277
▁주인이	-11.6278
고생	-11.6279
▁새우	-11.6281
▁실물	-11.6281
▁신격호	-11.6282
웠습니다	-11.6282
▁업계는	-11.6283
▁순익	-11.6284
9.9	-11.6285
▁2∼3	-11.6285
핫	-11.6287
당원	-11.6287
▁주말에	-11.6287
▁교차	-11.6287
▁생수	-11.6287
▁찾아볼	-11.6288
국은	-11.6288
자유한국당	-11.6288
▁김중수	-11.6289
▁시위대	-11.629
as	-11.629
▁보시	-11.6291
▁사용하지	-11.6292
▁이데일리	-11.6293
▁금방	-11.6293
▁분은	-11.6295
▁되는데요	-11.6295
▁이익이	-11.6297
▁특검은	-11.6298
▁부탁드립니다	-11.6299
▁자백	-11.6299
▁시찰	-11.63
▁방법이다	-11.63
▁재정위기	-11.6301
해보겠습니다	-11.6301
▁비율도	-11.6301
주요	-11.6302
▁대학가	-11.6302
업체에	-11.6304
▁연기를	-11.6305
▁맡게	-11.6305
▁걷고	-11.6306
▁애들	-11.6308
-10	-11.6308
▁익명	-11.6308
소위	-11.6309
▁일대에	-11.6309
▁창작	-11.631
▁놀란	-11.631
▁실사	-11.6311
구가	-11.6312
여년	-11.6313
▁업종별	-11.6313
▁주변을	-11.6316
층이	-11.6316
▁타인	-11.6316
II	-11.6317
▁취업률	-11.6317
▁쫓아	-11.6318
▁중국어선	-11.6318
▁원리	-11.632
▁활동이	-11.632
▁승합차	-11.6321
▁거꾸로	-11.6323
▁이유도	-11.6324
요건	-11.6324
▁실려	-11.6325
트는	-11.6325
▁나눴다	-11.6325
어머니	-11.6326
▁자치	-11.6327
▁잇따랐습니다	-11.6327
▁오르면서	-11.6327
▁시장과	-11.6327
▁가다	-11.6328
▁피서	-11.6329
▁분수령	-11.6329
소상공인	-11.6329
▁않았나	-11.6329
한데	-11.633
▁들어올	-11.6331
대책위	-11.6331
▁보육교사	-11.6333
문화재단	-11.6334
▁대화록	-11.6335
▁감금	-11.6335
~29	-11.6337
▁성격이	-11.6337
▁소감	-11.6338
사람들	-11.634
왔던	-11.634
▁분주한	-11.6342
▁임무	-11.6342
켓	-11.6342
▁하나를	-11.6343
파리	-11.6345
▁지키지	-11.6346
▁등록을	-11.6347
▁정치권이	-11.6347
만으로는	-11.6347
5.7	-11.6348
▁조합장	-11.6349
▁이유에서다	-11.6349
▁착각	-11.635
▁네티즌들의	-11.635
▁활용하는	-11.635
▁원장이	-11.6351
▁사원	-11.6354
▁삐	-11.6356
▁거론된다	-11.6357
▁발견했다	-11.6357
▁유럽연합	-11.6358
▁출연자	-11.6359
▁박씨	-11.6359
▁중요하다고	-11.6359
▁알아서	-11.6361
▁국민청원	-11.6361
▁제압	-11.6361
▁의미는	-11.6362
▁꽂	-11.6362
▁이해관계	-11.6362
▁건물이	-11.6362
▁장관을	-11.6362
▁태백	-11.6363
▁희망으로	-11.6364
학생들	-11.6367
▁우정	-11.6367
포트	-11.6371
▁민주당과	-11.6371
▁느꼈다	-11.6373
▁북한산	-11.6374
▁위기의	-11.6374
▁이르렀다	-11.6375
▁공방이	-11.6376
중견기업	-11.6376
지식	-11.6376
▁퇴사	-11.6376
▁직위	-11.6377
수습	-11.6379
원이었다	-11.638
닛	-11.6384
집을	-11.6385
▁불거지	-11.6385
▁무궁화	-11.6386
▁공사는	-11.6387
▁조직을	-11.6388
정훈	-11.6388
층짜리	-11.6388
7.3	-11.6389
가장	-11.639
▁신세계백화점	-11.6393
둑	-11.6395
▁쓰러져	-11.6395
▁부산시장	-11.6396
시민단체	-11.6396
▁해석이	-11.6397
할수록	-11.6397
만원권	-11.6398
관광객	-11.6398
▁미국인	-11.6402
▁줄인다	-11.6402
수의	-11.6402
▁서울로	-11.6402
▁수수료를	-11.6404
▁살리	-11.6404
▁정치권에	-11.6404
하고요	-11.6404
▁최측근	-11.6405
▁유골	-11.6406
관리공단	-11.6406
재해	-11.6406
▁국민안전처	-11.6407
▁비닐	-11.6407
곡동	-11.6408
▁등록된	-11.6408
▁장외	-11.641
력은	-11.641
▁쏟	-11.6413
▁가구당	-11.6413
공고	-11.6417
▁엔저	-11.6417
▁특례	-11.6419
▁길에	-11.6419
ec	-11.642
▁인증샷	-11.6423
▁강구	-11.6426
▁절단	-11.6426
▁사업도	-11.6426
스타일	-11.6426
▁얼어붙	-11.6427
여만	-11.6427
▁프로그램은	-11.6428
역을	-11.6429
▁검사가	-11.6429
하시면	-11.6429
개월이	-11.643
▁승용차가	-11.6431
▁변화의	-11.6432
재호	-11.6433
▁단속을	-11.6434
한겨레	-11.6434
▁야산	-11.6435
에프	-11.6435
그래	-11.6436
▁갖	-11.6438
채무	-11.6438
오프	-11.6439
▁개교	-11.644
청탁	-11.6442
실험	-11.6443
▁스크린	-11.6443
▁통계를	-11.6445
▁청장은	-11.6447
▁맞힌	-11.6448
교환	-11.6449
리테일	-11.6449
파전	-11.645
▁방산	-11.645
▁걸친	-11.6451
단일화	-11.6452
차원	-11.6453
▁회의에	-11.6453
▁무사	-11.6454
▁하겠다고	-11.6454
구호	-11.6454
▁어려웠다	-11.6454
세는	-11.6456
업체가	-11.6458
▁체중	-11.646
▁서강대	-11.646
▁대지진	-11.646
▁교과	-11.6461
▁거는	-11.6461
▁유씨	-11.6461
▁못하다	-11.6462
▁훌륭한	-11.6463
▁알기	-11.6463
▁관련자	-11.6463
▁사업체	-11.6464
▁편법	-11.6464
운송	-11.6465
▁앱을	-11.6465
▁YS	-11.6466
▁반찬	-11.6466
▁만들자	-11.6467
▁가지가	-11.6468
▁정쟁	-11.6469
▁소나기	-11.6469
자들에게	-11.6469
▁꽁꽁	-11.6469
▁기호	-11.647
▁돕는다	-11.647
▁33%	-11.6471
▁보험료가	-11.6472
▁4·3	-11.6472
▁홍문종	-11.6472
▁성북구	-11.6473
▁수락	-11.6473
친환경	-11.6474
▁책임감	-11.6475
상한	-11.6475
▁아들의	-11.6476
▁재수사	-11.6476
▁빨간	-11.6476
▁역임했다	-11.6478
길에	-11.6478
▁개최된다	-11.6481
▁횡포	-11.6482
▁담당하는	-11.6482
▁기장군	-11.6482
▁거리로	-11.6483
▁돌아갔다	-11.6483
▁주식형	-11.6484
▁고려해야	-11.6484
▁돌아가는	-11.6485
상사	-11.6486
▁농작물	-11.6486
▁서남	-11.6487
▁국조	-11.6487
착한	-11.6488
▁시급하다	-11.6488
▁살던	-11.649
▁레이스	-11.6492
▁프로야구	-11.6493
▁집회에	-11.6494
▁관련이	-11.6494
값은	-11.6496
▁│1	-11.6497
▁브랜드를	-11.6498
▁확보해	-11.6498
▁전화가	-11.6499
▁것들을	-11.65
▁번호는	-11.65
▁유지하는	-11.6501
RO	-11.6503
▁제보를	-11.6503
보조	-11.6503
아무	-11.6504
뷰티	-11.6505
비밀	-11.6505
▁토로했다	-11.6505
저녁	-11.6506
▁심포지엄	-11.6506
▁시리아	-11.6508
시경	-11.6508
▁국도	-11.6509
▁잠재	-11.651
하셔야	-11.651
▁개가	-11.651
▁도로를	-11.6511
▁경부고속도로	-11.6512
▁위주	-11.6512
▁삶이	-11.6515
▁빛으로	-11.6516
[...]
