<unk>	0
<s>	0
</s>	0
▁.	-0
▁이	-1
▁대	-2
▁있	-3
으로	-4
▁1	-5
에서	-6
▁지	-7
했다	-8
▁전	-9
▁수	-10
▁2	-11
▁사	-12
▁기	-13
▁한	-14
▁것	-15
▁정	-16
▁등	-17
▁가	-18
▁"	-19
▁있다	-20
▁경	-21
하는	-22
▁국	-23
▁시	-24
니다	-25
▁보	-26
하고	-27
▁중	-28
▁부	-29
▁'	-30
▁주	-31
▁공	-32
▁제	-33
▁그	-34
▁인	-35
▁위	-36
▁오	-37
▁3	-38
▁서	-39
▁자	-40
▁의	-41
▁아	-42
▁상	-43
▁관	-44
이다	-45
▁일	-46
▁조	-47
▁나	-48
▁내	-49
▁“	-50
00	-51
습니다	-52
▁비	-53
▁다	-54
▁유	-55
▁하	-56
▁최	-57
▁김	-58
▁해	-59
▁소	-60
▁고	-61
▁개	-62
▁여	-63
▁선	-64
▁신	-65
▁‘	-66
▁발	-67
▁모	-68
이라	-69
▁연	-70
▁강	-71
▁말	-72
▁4	-73
▁구	-74
▁5	-75
▁통	-76
▁않	-77
▁안	-78
▁문	-79
▁방	-80
▁지난	-81
▁서울	-82
▁원	-83
▁있는	-84
▁20	-85
▁현	-86
▁재	-87
▁없	-88
▁미	-89
▁예	-90
▁어	-91
까지	-92
▁만	-93
▁마	-94
들이	-95
▁우	-96
▁당	-97
▁것으로	-98
▁진	-99
▁동	-100
한다	-101
▁세	-102
▁교	-103
▁후	-104
▁밝	-105
▁도	-106
▁추	-107
▁불	-108
▁무	-109
면서	-110
▁실	-111
지만	-112
▁박	-113
▁장	-114
▁받	-115
▁성	-116
부터	-117
▁때	-118
▁결	-119
▁확	-120
▁대한	-121
▁6	-122
▁회	-123
▁금	-124
▁따	-125
▁특	-126
▁분	-127
▁거	-128
▁계	-129
▁반	-130
▁열	-131
▁생	-132
에게	-133
다는	-134
▁영	-135
통령	-136
▁차	-137
▁바	-138
▁밝혔	-139
▁노	-140
▁출	-141
▁한국	-142
▁대통령	-143
▁입	-144
▁참	-145
적으로	-146
▁올	-147
▁청	-148
▁설	-149
위원	-150
▁7	-151
▁또	-152
▁검	-153
됐다	-154
▁위해	-155
에는	-156
▁10	-157
었다	-158
▁적	-159
된다	-160
▁201	-161
▁밝혔다	-162
..	-163
▁의원	-164
▁정부	-165
적인	-166
▁새	-167
▁남	-168
...	-169
▁더	-170
이라고	-171
▁대해	-172
▁매	-173
하기	-174
▁건	-175
▁말했다	-176
▁대표	-177
▁총	-178
▁민	-179
▁직	-180
▁과	-181
▁및	-182
▁8	-183
▁행	-184
▁앞	-185
▁단	-186
▁증	-187
▁감	-188
▁평	-189
장은	-190
▁달	-191
▁판	-192
▁법	-193
▁9	-194
▁많	-195
다고	-196
▁운	-197
▁외	-198
▁피	-199
▁관련	-200
▁통해	-201
▁학	-202
▁후보	-203
하게	-204
자는	-205
▁알	-206
▁투	-207
들은	-208
▁포	-209
▁같	-210
▁배	-211
▁임	-212
▁요	-213
▁했다	-214
▁스	-215
들의	-216
▁북	-217
▁집	-218
▁들	-219
▁국민	-220
▁저	-221
사를	-222
장을	-223
▁함	-224
▁물	-225
▁할	-226
▁관계	-227
회의	-228
▁명	-229
억원	-230
▁높	-231
▁문제	-232
▁경찰	-233
▁되	-234
▁양	-235
만원	-236
▁이어	-237
▁역	-238
▁이날	-239
▁한다	-240
▁점	-241
▁우리	-242
▁산	-243
장이	-244
▁때문	-245
▁등을	-246
000	-247
▁협	-248
보다	-249
▁처	-250
▁취	-251
▁지역	-252
▁합	-253
▁이번	-254
▁파	-255
▁업	-256
▁못	-257
▁오후	-258
기업	-259
▁지원	-260
▁위한	-261
▁경우	-262
▁활	-263
했습니다	-264
▁경제	-265
▁오전	-266
▁함께	-267
도록	-268
▁?	-269
▁지난해	-270
라고	-271
▁규	-272
▁초	-273
뉴스	-274
▁두	-275
▁본	-276
▁필	-277
하지	-278
▁심	-279
▁간	-280
았다	-281
▁가능	-282
▁변	-283
▁이상	-284
은행	-285
▁논	-286
▁각	-287
하다	-288
▁사업	-289
▁광	-290
▁(	-291
▁11	-292
▁화	-293
▁진행	-294
▁뒤	-295
▁환	-296
졌다	-297
▁작	-298
에도	-299
▁하는	-300
혐의	-301
%)	-302
▁기업	-303
▁체	-304
▁맞	-305
▁12	-306
▁국회	-307
입니다	-308
대로	-309
▁19	-310
에서는	-311
해야	-312
▁종	-313
▁혐의	-314
▁조사	-315
▁A	-316
▁아니	-317
▁채	-318
▁것이	-319
▁삼	-320
▁미국	-321
되는	-322
▁농	-323
▁사람	-324
위원회	-325
씨는	-326
▁중국	-327
▁프	-328
▁기자	-329
기를	-330
▁따라	-331
겠다	-332
▁검찰	-333
▁올해	-334
▁목	-335
▁열린	-336
였다	-337
20	-338
리는	-339
▁게	-340
▁늘	-341
▁같은	-342
▁이후	-343
▁하고	-344
▁30	-345
▁국내	-346
▁필요	-347
▁예정	-348
르면	-349
▁북한	-350
▁충	-351
▁근	-352
▁살	-353
▁200	-354
는데	-355
▁들어	-356
▁경기	-357
▁창	-358
서는	-359
▁부산	-360
▁것은	-361
▁상황	-362
▁손	-363
▁금융	-364
▁결과	-365
▁줄	-366
▁계획	-367
▁약	-368
▁S	-369
▁▲	-370
▁교육	-371
으며	-372
하면	-373
▁담	-374
라는	-375
▁그러	-376
▁따르면	-377
리를	-378
▁설명	-379
부는	-380
이나	-381
들을	-382
▁민주	-383
대표	-384
▁치	-385
▁최근	-386
▁호	-387
──	-388
▁대상	-389
▁피해	-390
▁정치	-391
시장	-392
▁가장	-393
자가	-394
▁사실	-395
▁넘	-396
▁생각	-397
▁현재	-398
▁홍	-399
▁복	-400
누리	-401
▁측	-402
▁운영	-403
▁15	-404
▁찾	-405
▁데	-406
하며	-407
성이	-408
▁[	-409
▁있습니다	-410
▁국가	-411
▁시작	-412
▁관계자는	-413
지를	-414
비스	-415
▁권	-416
▁모두	-417
사가	-418
시간	-419
사는	-420
▁돌	-421
성을	-422
▁표	-423
사업	-424
센터	-425
▁폭	-426
▁때문에	-427
▁사회	-428
운데	-429
▁크	-430
▁추진	-431
지는	-432
연합	-433
▁것이다	-434
▁발표	-435
▁증가	-436
▁드	-437
▁-	-438
▁<	-439
▁발생	-440
▁없다	-441
0.	-442
▁가운데	-443
▁정책	-444
(1	-445
▁전국	-446
▁C	-447
▁투자	-448
▁확인	-449
▁사용	-450
리고	-451
▁전문	-452
정을	-453
▁세계	-454
▁좋	-455
이고	-456
▁사건	-457
▁절	-458
경제	-459
▁씨	-460
▁승	-461
이라는	-462
력을	-463
▁속	-464
민주	-465
),	-466
▁특히	-467
▁내용	-468
▁큰	-469
되고	-470
하면서	-471
▁벌	-472
▁준	-473
▁그는	-474
했다고	-475
▁순	-476
▁장관	-477
▁삼성	-478
▁최고	-479
▁이용	-480
▁보고	-481
▁있어	-482
▁야	-483
▁만들	-484
▁K	-485
지고	-486
▁코	-487
화를	-488
▁참여	-489
▁일본	-490
▁시장	-491
▁걸	-492
▁기준	-493
▁항	-494
▁군	-495
▁이런	-496
▁형	-497
와대	-498
▁다른	-499
학교	-500
▁접	-501
명이	-502
▁리	-503
▁식	-504
▁알려	-505
▁수사	-506
▁편	-507
▁확대	-508
▁카	-509
▁제공	-510
▁언	-511
▁마련	-512
▁잘	-513
병원	-514
▁독	-515
▁참석	-516
▁나타	-517
들에게	-518
▁등의	-519
▁판매	-520
▁지적	-521
이라며	-522
▁13	-523
교육	-524
▁타	-525
도로	-526
▁책	-527
누리당	-528
▁완	-529
▁태	-530
▁브	-531
기관	-532
안을	-533
▁하지만	-534
▁것을	-535
▁자신	-536
정부	-537
▁이에	-538
▁선거	-539
▁온	-540
▁될	-541
▁주장	-542
0%	-543
▁안전	-544
▁토	-545
거나	-546
▁전망	-547
▁청와대	-548
▁강조	-549
근혜	-550
▁철	-551
▁된다	-552
기에	-553
▁갖	-554
▁요구	-555
▁당시	-556
▁지금	-557
▁오늘	-558
▁범	-559
▁허	-560
▁친	-561
▁없는	-562
▁사고	-563
▁14	-564
▁질	-565
▁결정	-566
▁급	-567
명을	-568
▁교수	-569
▁시민	-570
▁다양	-571
▁최대	-572
▁향	-573
▁아이	-574
▁새누리당	-575
▁여성	-576
금을	-577
▁18	-578
지역	-579
▁낮	-580
자의	-581
▁그런	-582
상을	-583
났다	-584
기가	-585
▁메	-586
▁평가	-587
▁16	-588
연구	-589
▁용	-590
리가	-591
원은	-592
▁25	-593
▁글	-594
▁제품	-595
▁원내	-596
마트	-597
▁연구	-598
▁번	-599
▁날	-600
▁강화	-601
▁산업	-602
▁금지	-603
▁많은	-604
▁국정	-605
▁프로	-606
▁인사	-607
▁학생	-608
랜드	-609
▁방문	-610
▁규모	-611
▁등이	-612
▁국제	-613
▁위원	-614
▁소비	-615
▁17	-616
▁포함	-617
장의	-618
▁첫	-619
서울	-620
▁개발	-621
▁이유	-622
▁100	-623
회를	-624
▁분석	-625
▁눈	-626
▁의원은	-627
▁받고	-628
시아	-629
▁에	-630
들과	-631
산업	-632
▁핵	-633
원이	-634
관리	-635
▁추가	-636
.1	-637
▁일부	-638
▁효	-639
▁시간	-640
한국	-641
▁했	-642
▁의혹	-643
▁면	-644
▁않는	-645
▁공개	-646
기로	-647
▁커	-648
▁수준	-649
니까	-650
▁곳	-651
▁한편	-652
재인	-653
▁서비스	-654
왔다	-655
▁=	-656
조사	-657
▁현대	-658
라인	-659
▁가격	-660
▁있도록	-661
.5	-662
▁누	-663
자를	-664
▁기록	-665
▁오는	-666
개월	-667
의를	-668
▁송	-669
▁다양한	-670
201	-671
▁│	-672
▁무단	-673
▁전체	-674
▁음	-675
▁서울시	-676
▁예상	-677
▁있다는	-678
▁이를	-679
장에서	-680
위를	-681
도를	-682
▁예정이다	-683
▁다시	-684
지원	-685
▁아니라	-686
▁L	-687
▁설명했다	-688
단체	-689
나라	-690
▁직접	-691
치를	-692
업체	-693
▁박근혜	-694
▁대학	-695
▁주민	-696
▁축	-697
(2	-698
▁막	-699
▁힘	-700
▁개선	-701
▁폐	-702
▁사이	-703
합니다	-704
사의	-705
▁정보	-706
▁과정	-707
▁지방	-708
▁공동	-709
처럼	-710
인다	-711
▁..	-712
▁디	-713
▁상승	-714
▁고객	-715
▁기대	-716
▁24	-717
▁백	-718
에서도	-719
▁재판	-720
▁대선	-721
▁어려	-722
▁해외	-723
경찰	-724
식을	-725
로운	-726
▁인천	-727
동을	-728
▁다음	-729
롯데	-730
▁인터	-731
▁하나	-732
▁수출	-733
▁책임	-734
▁구속	-735
▁특별	-736
▁기술	-737
이는	-738
▁그러나	-739
일까지	-740
그룹	-741
▁있을	-742
▁내년	-743
.2	-744
으면	-745
일부터	-746
▁21	-747
▁자유	-748
▁해당	-749
스트	-750
인이	-751
하기로	-752
▁황	-753
제로	-754
▁받아	-755
▁대비	-756
▁앞서	-757
▁주요	-758
배포	-759
▁등에	-760
▁윤	-761
기도	-762
금융	-763
▁우려	-764
▁업무	-765
렇게	-766
▁않고	-767
▁민주당	-768
▁22	-769
레이	-770
▁트	-771
▁원내대표	-772
사회	-773
선거	-774
▁기간	-775
장과	-776
▁영향	-777
▁않은	-778
▁구성	-779
▁보도	-780
원을	-781
▁문재인	-782
▁▶	-783
▁정상	-784
페이	-785
▁행사	-786
가는	-787
▁23	-788
정보	-789
장에	-790
▁많이	-791
주의	-792
▁끝	-793
정책	-794
▁B	-795
했고	-796
▁논란	-797
료를	-798
▁있다고	-799
▁계속	-800
.3	-801
▁논의	-802
▁개최	-803
▁판단	-804
▁갈	-805
파트	-806
혁신	-807
▁혐의로	-808
인은	-809
▁의견	-810
▁중요	-811
▁정도	-812
▁네	-813
▁처음	-814
기는	-815
▁돈	-816
▁떨	-817
▁압	-818
▁징	-819
▁적용	-820
▁27	-821
▁노동	-822
▁휴	-823
▁늘어	-824
▁실시	-825
세를	-826
▁경쟁	-827
했던	-828
▁학교	-829
▁동안	-830
▁상태	-831
▁예산	-832
원의	-833
문화	-834
▁중소	-835
▁천	-836
▁버	-837
▁지난달	-838
동차	-839
(3	-840
▁탄	-841
▁이뤄	-842
본부	-843
▁문화	-844
▁애	-845
▁중심	-846
시설	-847
▁준비	-848
▁생산	-849
▁모든	-850
▁수도	-851
▁응	-852
겠다는	-853
해서	-854
▁26	-855
▁환경	-856
▁강조했다	-857
▁대표는	-858
▁관심	-859
▁롯데	-860
(5	-861
렸다	-862
▁28	-863
▁관리	-864
▁대통령은	-865
▁지속	-866
▁M	-867
스템	-868
으나	-869
▁촉	-870
▁광주	-871
▁:	-872
▁설치	-873
▁빠	-874
▁높은	-875
▁부분	-876
▁시행	-877
제를	-878
▁구조	-879
▁잡	-880
권을	-881
▁패	-882
월호	-883
.4	-884
▁c	-885
▁상품	-886
개발	-887
TV	-888
▁대통령이	-889
▁답	-890
기술	-891
▁탈	-892
▁있었	-893
▁거래	-894
▁월	-895
▁신청	-896
▁떨어	-897
정치	-898
▁활용	-899
▁차량	-900
▁로	-901
씨가	-902
▁받은	-903
.7	-904
▁I	-905
▁각각	-906
▁계획이다	-907
▁50	-908
▁분야	-909
자들이	-910
▁제주	-911
▁보인다	-912
▁울	-913
▁국민의	-914
▁제기	-915
.6	-916
▁등으로	-917
▁육	-918
안전	-919
▁신고	-920
한다고	-921
▁적극	-922
▁된	-923
.8	-924
▁따른	-925
▁가족	-926
리아	-927
▁모습	-928
▁기존	-929
▁성장	-930
그램	-931
▁외국	-932
▁별	-933
▁침	-934
▁비롯	-935
▁이미	-936
▁희	-937
▁선정	-938
(4	-939
하겠다	-940
▁0.	-941
인트	-942
▁잠	-943
▁도입	-944
로벌	-945
▁대상으로	-946
▁여러	-947
도가	-948
▁업체	-949
▁몰	-950
인을	-951
자리	-952
▁비판	-953
▁경영	-954
▁중앙	-955
이었다	-956
▁평균	-957
년간	-958
▁나오	-959
▁헌	-960
▁됐다	-961
▁△	-962
거래	-963
▁직원	-964
▁만큼	-965
▁드러	-966
▁합의	-967
중앙	-968
▁29	-969
명의	-970
력이	-971
▁길	-972
.9	-973
▁찾아	-974
▁관련해	-975
▁쓰	-976
▁확보	-977
▁개인	-978
%,	-979
%),	-980
▁경찰은	-981
▁정부가	-982
무원	-983
▁재배포	-984
불어	-985
▁일반	-986
▁개정	-987
▁건설	-988
▁지지	-989
▁새로운	-990
▁만에	-991
▁전했다	-992
▁감소	-993
서를	-994
민주당	-995
전자	-996
▁경기도	-997
▁대응	-998
린이	-999
▁어떻	-1000
▁없이	-1001
▁얼	-1002
공사	-1003
▁대구	-1004
30	-1005
▁인정	-1006
▁알려졌다	-1007
▁숨	-1008
▁있고	-1009
관계	-1010
▁긴	-1011
────	-1012
▁아파트	-1013
▁해결	-1014
연합뉴스	-1015
이트	-1016
▁건강	-1017
▁부담	-1018
▁매출	-1019
▁상당	-1020
지방	-1021
부가	-1022
보험	-1023
라며	-1024
▁고용	-1025
▁불법	-1026
▁어떤	-1027
▁집중	-1028
▁베	-1029
▁아닌	-1030
▁볼	-1031
▁미래	-1032
되지	-1033
▁앞으로	-1034
▁방침	-1035
▁악	-1036
▁고려	-1037
▁검토	-1038
▁사무	-1039
▁더불어	-1040
대를	-1041
▁대책	-1042
달러	-1043
▁발전	-1044
BS	-1045
▁유지	-1046
자로	-1047
▁어떻게	-1048
라도	-1049
▁공공	-1050
▁영업	-1051
국민	-1052
▁난	-1053
환경	-1054
▁대통령의	-1055
▁보험	-1056
▁놓	-1057
▁40	-1058
분기	-1059
▁있었다	-1060
▁효과	-1061
▁변호	-1062
▁하락	-1063
원에서	-1064
밖에	-1065
부를	-1066
▁관광	-1067
▁맡	-1068
▁발언	-1069
▁남북	-1070
동안	-1071
점을	-1072
▁사진	-1073
복지	-1074
▁...	-1075
▁또한	-1076
▁기념	-1077
원에	-1078
▁만들어	-1079
▁지급	-1080
▁선고	-1081
인의	-1082
▁브랜드	-1083
투자	-1084
▁경남	-1085
하려	-1086
co	-1087
▁위반	-1088
▁전문가	-1089
▁국회의	-1090
지가	-1091
▁퇴	-1092
▁주택	-1093
▁글로벌	-1094
겠다고	-1095
대책	-1096
▁정부는	-1097
▁세월호	-1098
▁강원	-1099
▁만나	-1100
▁크게	-1101
▁않았	-1102
▁출시	-1103
위는	-1104
▁보면	-1105
▁돼	-1106
선을	-1107
▁참가	-1108
▁행정	-1109
▁엄	-1110
▁공식	-1111
▁않았다	-1112
▁홈	-1113
▁때문이다	-1114
주는	-1115
▁역할	-1116
▁공정	-1117
▁반대	-1118
▁얘	-1119
인데	-1120
▁밀	-1121
▁여야	-1122
▁활동	-1123
▁생활	-1124
▁자리	-1125
▁G	-1126
시키	-1127
수를	-1128
▁발견	-1129
▁먹	-1130
회담	-1131
▁가능성이	-1132
▁협력	-1133
▁뉴스	-1134
학생	-1135
▁조성	-1136
시에	-1137
▁은행	-1138
회견	-1139
▁대부	-1140
▁기획	-1141
▁과정에서	-1142
▁인상	-1143
▁촉구	-1144
▁귀	-1145
사에	-1146
▁통합	-1147
▁극	-1148
▁덧	-1149
▁떠	-1150
▁◆	-1151
▁전달	-1152
했지만	-1153
▁느	-1154
겠습니다	-1155
▁역시	-1156
▁프로그램	-1157
▁자신의	-1158
▁근로	-1159
▁외교	-1160
▁제출	-1161
한다는	-1162
▁의미	-1163
▁방송	-1164
업을	-1165
▁물론	-1166
▁중소기업	-1167
사고	-1168
회에서	-1169
동산	-1170
▁나타났다	-1171
소득	-1172
▁어린이	-1173
▁싶	-1174
▁대출	-1175
▁회의	-1176
▁회장	-1177
▁정부의	-1178
▁덧붙	-1179
▁이는	-1180
▁하루	-1181
▁사망	-1182
▁공급	-1183
▁나온	-1184
▁골	-1185
▁병	-1186
▁대법	-1187
카드	-1188
▁병원	-1189
보고	-1190
▁성공	-1191
▁31	-1192
는다	-1193
민국	-1194
▁기자회견	-1195
자인	-1196
▁테	-1197
너지	-1198
▁스마트	-1199
사에서	-1200
▁기소	-1201
▁핵심	-1202
수가	-1203
▁."	-1204
▁이야	-1205
사와	-1206
▁기관	-1207
▁뜻	-1208
▁문제가	-1209
▁◇	-1210
정은	-1211
▁전해	-1212
지에	-1213
▁석	-1214
로부터	-1215
▁요청	-1216
시는	-1217
10	-1218
▁되는	-1219
▁라	-1220
50	-1221
▁대형	-1222
▁전략	-1223
▁풀	-1224
▁처리	-1225
물을	-1226
머니	-1227
포인트	-1228
가지	-1229
느냐	-1230
협회	-1231
청은	-1232
치는	-1233
됐습니다	-1234
▁더욱	-1235
▁중인	-1236
▁청년	-1237
▁대해서는	-1238
▁현장	-1239
▁먼	-1240
▁마음	-1241
▁도시	-1242
▁좋은	-1243
의회	-1244
▁자체	-1245
▁있지만	-1246
이며	-1247
별로	-1248
수는	-1249
▁돌아	-1250
▁소득	-1251
▁방식	-1252
▁더불어민주당	-1253
이었	-1254
▁품	-1255
▁격	-1256
했다는	-1257
전재	-1258
냈다	-1259
▁인근	-1260
하여	-1261
▁이같	-1262
주택	-1263
당이	-1264
▁넘어	-1265
▁반면	-1266
월부터	-1267
▁수입	-1268
▁민간	-1269
▁한다는	-1270
노동	-1271
▁국무	-1272
▁혁신	-1273
▁이렇게	-1274
▁무단전재	-1275
운동	-1276
▁캠	-1277
하도록	-1278
과의	-1279
▁키	-1280
▁우리나라	-1281
의도	-1282
▁밝혔습니다	-1283
▁투표	-1284
반기	-1285
약을	-1286
er	-1287
▁대부분	-1288
▁착	-1289
▁교통	-1290
▁검찰은	-1291
▁의원이	-1292
▁노력	-1293
▁지적했다	-1294
행을	-1295
증권	-1296
▁F	-1297
▁납	-1298
(6	-1299
품을	-1300
▁주장했다	-1301
▁소비자	-1302
르는	-1303
두고	-1304
문을	-1305
▁혐의를	-1306
이어	-1307
▁갖고	-1308
▁씨는	-1309
들도	-1310
▁우선	-1311
도시	-1312
▁덧붙였다	-1313
km	-1314
▁감사	-1315
▁소속	-1316
▁조직	-1317
연금	-1318
▁그리고	-1319
▁하지	-1320
▁않을	-1321
▁달러	-1322
▁어렵	-1323
▁본격	-1324
▁그래	-1325
▁보여	-1326
진다	-1327
철수	-1328
▁혼	-1329
▁가입	-1330
▁아직	-1331
▁국방	-1332
▁입장	-1333
씨의	-1334
▁바로	-1335
▁방안	-1336
▁주변	-1337
▁언론	-1338
▁자동차	-1339
▁`	-1340
발전	-1341
년부터	-1342
▁2012	-1343
▁이동	-1344
▁나서	-1345
계를	-1346
공단	-1347
▁대변	-1348
당은	-1349
위원장	-1350
성화	-1351
통신	-1352
▁의료	-1353
NS	-1354
▁제시	-1355
▁목표	-1356
훈련	-1357
가족	-1358
▁있는데	-1359
▁중단	-1360
▁인터넷	-1361
율이	-1362
▁출신	-1363
▁강남	-1364
▁결국	-1365
▁쉽	-1366
▁해야	-1367
▁끌	-1368
▁둘	-1369
▁2014	-1370
▁또는	-1371
움을	-1372
기간	-1373
▁방법	-1374
ww	-1375
▁반영	-1376
▁봉	-1377
www	-1378
▁얻	-1379
▁수익	-1380
▁내려	-1381
쇼핑	-1382
▁대해서	-1383
▁2013	-1384
▁부동산	-1385
만원을	-1386
되면	-1387
▁이사	-1388
공항	-1389
▁확정	-1390
▁측은	-1391
▁존	-1392
식품	-1393
명으로	-1394
▁즐	-1395
▁선보	-1396
▁없어	-1397
차를	-1398
상이	-1399
▁아니다	-1400
▁코스	-1401
비를	-1402
▁너	-1403
대학	-1404
▁필요한	-1405
▁선택	-1406
▁지도	-1407
▁뿐	-1408
과학	-1409
▁보호	-1410
▁이해	-1411
▁2015	-1412
감을	-1413
▁P	-1414
▁소방	-1415
▁것도	-1416
▁구축	-1417
▁취업	-1418
▁성과	-1419
▁가능성	-1420
▁입장을	-1421
소를	-1422
▁대한민국	-1423
▁재정	-1424
▁블	-1425
▁차지	-1426
·1	-1427
▁내부	-1428
▁이전	-1429
▁구매	-1430
대회	-1431
서비스	-1432
대가	-1433
▁최종	-1434
드는	-1435
▁여의도	-1436
전히	-1437
▁전환	-1438
원으로	-1439
▁왜	-1440
소년	-1441
지도	-1442
▁시스템	-1443
규모	-1444
▁울산	-1445
▁않아	-1446
▁최저	-1447
▁당선	-1448
일보	-1449
▁높아	-1450
▁이들은	-1451
억원을	-1452
▁사전	-1453
▁다만	-1454
.0	-1455
▁뉴	-1456
▁일자리	-1457
▁플	-1458
▁!	-1459
on	-1460
하거나	-1461
▁2011	-1462
▁위험	-1463
건설	-1464
▁채용	-1465
▁지하	-1466
▁그런데	-1467
총리	-1468
씨를	-1469
▁열고	-1470
가를	-1471
후보	-1472
권자	-1473
▁후보는	-1474
제가	-1475
▁종합	-1476
▁사례	-1477
▁문제를	-1478
▁먼저	-1479
▁붙	-1480
나는	-1481
▁이와	-1482
▁앞두고	-1483
▁대표가	-1484
도는	-1485
▁제대로	-1486
▁D	-1487
▁LG	-1488
▁좀	-1489
위에	-1490
▁각종	-1491
장으로	-1492
이익	-1493
▁수요	-1494
실을	-1495
▁공무원	-1496
▁징역	-1497
치고	-1498
조정	-1499
▁온라인	-1500
▁안정	-1501
▁국토	-1502
▁이제	-1503
▁시설	-1504
▁풍	-1505
▁제외	-1506
▁중심으로	-1507
▁머	-1508
▁여론	-1509
재단	-1510
위가	-1511
▁복지	-1512
▁즉	-1513
수사	-1514
▁있으며	-1515
대에	-1516
▁판결	-1517
러스	-1518
▁받을	-1519
한국당	-1520
하다는	-1521
됩니다	-1522
전을	-1523
▁유통	-1524
다가	-1525
케이	-1526
▁받았다	-1527
▁개혁	-1528
▁작년	-1529
▁팔	-1530
▁잇	-1531
▁SK	-1532
▁터	-1533
▁장애	-1534
▁지정	-1535
▁60	-1536
계획	-1537
▁올라	-1538
신문	-1539
거리	-1540
▁펼	-1541
▁전년	-1542
율은	-1543
▁홍보	-1544
▁두고	-1545
가가	-1546
부장	-1547
▁회사	-1548
생활	-1549
in	-1550
▁과거	-1551
▁비용	-1552
▁점검	-1553
▁설립	-1554
▁낙	-1555
반도	-1556
실에서	-1557
화가	-1558
수수	-1559
▁비해	-1560
▁관한	-1561
회사	-1562
▁등록	-1563
▁실제	-1564
▁겨	-1565
▁199	-1566
▁수석	-1567
▁기본	-1568
▁파악	-1569
마다	-1570
▁기능	-1571
성장	-1572
ht	-1573
세계	-1574
▁국회에서	-1575
교통	-1576
▁전날	-1577
▁사태	-1578
▁통과	-1579
부에	-1580
스로	-1581
▁근무	-1582
지법	-1583
지로	-1584
',	-1585
개혁	-1586
▁대전	-1587
포토	-1588
▁부족	-1589
TA	-1590
하자	-1591
▁전남	-1592
▁방안을	-1593
자와	-1594
▁방향	-1595
▁컨	-1596
성과	-1597
▁말씀	-1598
▁구체	-1599
▁그동안	-1600
▁희망	-1601
▁거쳐	-1602
스크	-1603
ri	-1604
통합	-1605
▁영향을	-1606
▁최초	-1607
▁제한	-1608
▁콘	-1609
▁제조	-1610
▁받는	-1611
▁출마	-1612
이터	-1613
항공	-1614
▁범죄	-1615
▁비교	-1616
하던	-1617
▁견	-1618
▁제도	-1619
▁보유	-1620
되면서	-1621
대의	-1622
관에서	-1623
▁그렇	-1624
▁E	-1625
▁조치	-1626
▁창업	-1627
▁화재	-1628
▁겪	-1629
▁이하	-1630
스를	-1631
관이	-1632
▁조선	-1633
▁주목	-1634
▁홈페이	-1635
쳤다	-1636
▁안철수	-1637
▁체결	-1638
종합	-1639
▁불구	-1640
▁목소	-1641
섰다	-1642
▁할인	-1643
▁이름	-1644
관은	-1645
국의	-1646
▁청구	-1647
▁향후	-1648
▁제안	-1649
▁불가	-1650
▁반응	-1651
▁역할을	-1652
정이	-1653
자금	-1654
▁이른	-1655
▁도로	-1656
▁소송	-1657
년을	-1658
대한	-1659
혜택	-1660
▁신규	-1661
없이	-1662
▁총선	-1663
▁은	-1664
▁점을	-1665
▁전기	-1666
구조	-1667
벤트	-1668
▁상대로	-1669
▁유럽	-1670
▁꾸	-1671
▁2010	-1672
세가	-1673
▁합니다	-1674
▁비상	-1675
▁경북	-1676
▁정당	-1677
▁대기업	-1678
명은	-1679
▁내용을	-1680
활동	-1681
더라도	-1682
▁부정	-1683
▁주식	-1684
협력	-1685
▁앞에서	-1686
회가	-1687
▁한다고	-1688
▁통일	-1689
이번	-1690
▁우수	-1691
5%	-1692
▁새정치	-1693
등학교	-1694
▁회복	-1695
▁줄어	-1696
가구	-1697
전문	-1698
or	-1699
▁회원	-1700
▁헌법	-1701
▁2016	-1702
▁카드	-1703
위기	-1704
▁언급	-1705
▁규제	-1706
▁있게	-1707
▁비중	-1708
▁너무	-1709
에선	-1710
부의	-1711
임을	-1712
▁분양	-1713
kr	-1714
▁나라	-1715
▁확산	-1716
했으며	-1717
▁모델	-1718
▁단체	-1719
▁경찰에	-1720
▁신용	-1721
차례	-1722
▁보이	-1723
▁전재	-1724
▁질문	-1725
▁처벌	-1726
디어	-1727
▁이들	-1728
BC	-1729
▁사회적	-1730
평가	-1731
▁뛰	-1732
건을	-1733
▁체험	-1734
리스	-1735
▁이같이	-1736
화점	-1737
▁/	-1738
▁외국인	-1739
량을	-1740
▁계약	-1741
)'	-1742
▁몸	-1743
▁예방	-1744
▁경험	-1745
사진	-1746
▁밤	-1747
▁와	-1748
어나	-1749
학과	-1750
▁중구	-1751
림픽	-1752
▁대신	-1753
사로	-1754
▁북한의	-1755
▁택	-1756
▁자유한국당	-1757
▁보수	-1758
▁의견을	-1759
관광	-1760
▁세종	-1761
▁평화	-1762
▁가까	-1763
펀드	-1764
업계	-1765
▁사과	-1766
지막	-1767
▁않다	-1768
▁이벤트	-1769
지지	-1770
임금	-1771
▁맞아	-1772
▁열어	-1773
▁녹	-1774
대는	-1775
사일	-1776
회의에서	-1777
19	-1778
40	-1779
▁종로	-1780
▁실적	-1781
주시	-1782
▁이달	-1783
▁소개	-1784
▁내놓	-1785
스코	-1786
자들의	-1787
▁후보가	-1788
▁토론	-1789
▁지나	-1790
▁항공	-1791
▁통한	-1792
▁조정	-1793
com	-1794
지검	-1795
▁않는다	-1796
▁사람이	-1797
▁총리	-1798
▁최고위원	-1799
▁놓고	-1800
▁정확	-1801
▁장기	-1802
바일	-1803
▁담당	-1804
우리	-1805
▁야당	-1806
▁중이다	-1807
▁노조	-1808
▁그래서	-1809
▁인터뷰	-1810
하다고	-1811
이기	-1812
▁등은	-1813
▁아시아	-1814
▁교수는	-1815
▁방침이다	-1816
▁하면	-1817
▁불과	-1818
▁인수	-1819
▁법률	-1820
무리	-1821
▁사실상	-1822
▁보였다	-1823
==	-1824
▁이재	-1825
▁남성	-1826
부와	-1827
an	-1828
대출	-1829
이를	-1830
▁대화	-1831
▁유치	-1832
▁건물	-1833
수석	-1834
▁연합	-1835
▁협의	-1836
▁선언	-1837
▁최소	-1838
▁특검	-1839
▁클	-1840
▁일이	-1841
▁바른	-1842
규직	-1843
분을	-1844
▁연결	-1845
▁못한	-1846
▁SNS	-1847
▁보내	-1848
▁긴급	-1849
국은	-1850
▁이유로	-1851
▁돈을	-1852
▁차례	-1853
.5%	-1854
움이	-1855
졌습니다	-1856
▁투입	-1857
▁숙	-1858
▁진술	-1859
액은	-1860
▁일정	-1861
▁김영	-1862
대학교	-1863
량이	-1864
▁출석	-1865
▁T	-1866
▁있던	-1867
▁캐	-1868
▁위치	-1869
▁보건	-1870
▁업계	-1871
촬영	-1872
▁자금	-1873
▁가지	-1874
이가	-1875
▁마지막	-1876
안이	-1877
인지	-1878
▁전시	-1879
▁사실을	-1880
▁오른	-1881
▁빈	-1882
▁국민의당	-1883
▁제작	-1884
경영	-1885
국제	-1886
▁연속	-1887
▁약속	-1888
▁재산	-1889
▁공천	-1890
▁졸	-1891
▁서울중앙	-1892
르고	-1893
▁어느	-1894
▁부인	-1895
단을	-1896
▁중요한	-1897
▁갈등	-1898
율을	-1899
워크	-1900
▁활성화	-1901
▁강력	-1902
▁레	-1903
▁바람	-1904
▁어려운	-1905
▁혜택	-1906
자에	-1907
마을	-1908
▁같이	-1909
년까지	-1910
▁장관은	-1911
80	-1912
▁2009	-1913
회장	-1914
인으로	-1915
▁정권	-1916
자원	-1917
▁달라	-1918
▁얘기	-1919
▁가구	-1920
▁비롯해	-1921
▁예비	-1922
▁전통	-1923
▁것이라고	-1924
25	-1925
하겠다는	-1926
▁자료	-1927
▁집행	-1928
▁받았	-1929
▁있기	-1930
▁회장은	-1931
제도	-1932
▁꼽	-1933
▁진출	-1934
▁것이라는	-1935
▁의무	-1936
▁맛	-1937
▁조사를	-1938
라이	-1939
▁밝혀	-1940
▁작업	-1941
대전	-1942
▁사퇴	-1943
관을	-1944
▁해양	-1945
▁무엇	-1946
▁적발	-1947
▁옮	-1948
포츠	-1949
범죄	-1950
▁찬	-1951
산물	-1952
▁얼마	-1953
▁했습니다	-1954
▁쪽	-1955
▁역사	-1956
는데요	-1957
들에	-1958
심을	-1959
회에	-1960
▁상대	-1961
▁국립	-1962
▁만든	-1963
▁반발	-1964
11	-1965
▁기초	-1966
자들은	-1967
▁형사	-1968
와의	-1969
식이	-1970
▁보는	-1971
▁잘못	-1972
▁현지	-1973
조합	-1974
▁규정	-1975
받은	-1976
▁매우	-1977
▁신뢰	-1978
▁변화	-1979
▁시험	-1980
▁발생한	-1981
▁같다	-1982
갔다	-1983
자에게	-1984
▁KT	-1985
분께	-1986
▁뇌	-1987
▁전자	-1988
▁비롯한	-1989
▁인도	-1990
직원	-1991
▁2017	-1992
랐다	-1993
▁거부	-1994
▁통화	-1995
기구	-1996
▁법무	-1997
안에	-1998
▁되고	-1999
버스	-2000
▁인해	-2001
ght	-2002
▁듯	-2003
▁검사	-2004
대통령	-2005
(7	-2006
▁원을	-2007
리핑	-2008
명박	-2009
세대	-2010
▁정의	-2011
op	-2012
의원	-2013
▁그러면서	-2014
500	-2015
▁출범	-2016
▁번째	-2017
▁스마트폰	-2018
▁500	-2019
회는	-2020
기준	-2021
시스템	-2022
지면서	-2023
▁70	-2024
폭력	-2025
▁충분	-2026
▁”	-2027
▁N	-2028
월까지	-2029
▁자연	-2030
세요	-2031
▁죽	-2032
하기도	-2033
▁없었다	-2034
▁충남	-2035
▁나가	-2036
▁암	-2037
▁논란이	-2038
▁필요하다	-2039
리지	-2040
▁기자가	-2041
▁에너지	-2042
하지만	-2043
▁갑	-2044
▁전해졌다	-2045
리에	-2046
▁상황에서	-2047
▁기반	-2048
▁흐	-2049
▁스타	-2050
▁수도권	-2051
▁둔	-2052
스타	-2053
되어	-2054
조선	-2055
있는	-2056
▁움	-2057
12	-2058
제품	-2059
▁지켜	-2060
▁현실	-2061
▁러	-2062
▁능	-2063
▁빼	-2064
연구원	-2065
▁지시	-2066
▁누구	-2067
▁광고	-2068
▁전북	-2069
▁빌	-2070
▁나선	-2071
▁겸	-2072
▁조금	-2073
▁2008	-2074
▁결과를	-2075
▁한미	-2076
▁TV	-2077
▁전망이다	-2078
▁추정	-2079
▁모바일	-2080
▁씨가	-2081
▁비서	-2082
린다	-2083
위의	-2084
▁■	-2085
는지	-2086
재판	-2087
시민	-2088
었습니다	-2089
▁나온다	-2090
▁주도	-2091
작권자	-2092
▁창출	-2093
▁인권	-2094
▁사업을	-2095
60	-2096
자치	-2097
하겠다고	-2098
▁듣	-2099
▁단계	-2100
▁달리	-2101
▁사랑	-2102
▁정신	-2103
▁고위	-2104
▁치료	-2105
▁기자회견을	-2106
어요	-2107
음을	-2108
국이	-2109
격을	-2110
행정	-2111
▁가정	-2112
세먼	-2113
▁흔	-2114
▁1,	-2115
투표	-2116
▁아울	-2117
▁나왔다	-2118
▁자녀	-2119
▁알고	-2120
▁보장	-2121
▁빚	-2122
▁기획재	-2123
▁수밖에	-2124
▁한반도	-2125
히려	-2126
▁300	-2127
▁청소년	-2128
▁계열	-2129
▁엔	-2130
점이	-2131
▁낸	-2132
▁심각	-2133
▁KBS	-2134
▁자산	-2135
단계	-2136
검사	-2137
▁여전히	-2138
▁국회의원	-2139
▁어제	-2140
보호	-2141
▁임명	-2142
▁종로구	-2143
▁증거	-2144
보는	-2145
률이	-2146
차가	-2147
지사	-2148
▁공간	-2149
▁헤	-2150
점에서	-2151
으로는	-2152
▁탄핵	-2153
▁묻	-2154
▁움직	-2155
▁페이	-2156
상에	-2157
▁표현	-2158
▁됐	-2159
속도로	-2160
자체	-2161
일을	-2162
▁빨	-2163
리기	-2164
정당	-2165
▁둘러	-2166
▁그룹	-2167
케팅	-2168
명에	-2169
피해	-2170
▁수상	-2171
▁선물	-2172
▁▷	-2173
금리	-2174
▁취임	-2175
▁스스로	-2176
▁금리	-2177
▁호텔	-2178
▁당부	-2179
해양	-2180
▁이상의	-2181
▁삶	-2182
하라	-2183
▁부문	-2184
보다는	-2185
▁잔	-2186
right	-2187
▁참석한	-2188
▁배치	-2189
▁정도로	-2190
▁부모	-2191
▁몇	-2192
▁2000	-2193
르게	-2194
스는	-2195
▁가계	-2196
정상	-2197
년에	-2198
▁퍼	-2199
▁매년	-2200
)’	-2201
▁모습을	-2202
세청	-2203
▁운전	-2204
▁아동	-2205
과정	-2206
▁김정은	-2207
▁특수	-2208
롭게	-2209
▁챙	-2210
▁아니냐	-2211
.3%	-2212
▁딸	-2213
▁1000	-2214
상품	-2215
▁고민	-2216
▁아울러	-2217
▁공사	-2218
으로부터	-2219
▁변경	-2220
▁삼성전자	-2221
.7%	-2222
이사	-2223
▁못하고	-2224
▁서비스를	-2225
지털	-2226
연구소	-2227
▁동시에	-2228
▁대북	-2229
감독	-2230
▁인한	-2231
▁그렇게	-2232
순실	-2233
▁'201	-2234
▁벌어	-2235
▁무역	-2236
▁가능한	-2237
단은	-2238
부모	-2239
부산	-2240
르스	-2241
시켜	-2242
▁무료	-2243
▁대체	-2244
▁기록했다	-2245
▁상담	-2246
▁전면	-2247
.4%	-2248
.2%	-2249
▁오히려	-2250
▁사장	-2251
▁특정	-2252
결과	-2253
공원	-2254
.8%	-2255
▁임금	-2256
▁원칙	-2257
▁영화	-2258
▁없다는	-2259
▁규모의	-2260
▁정치권	-2261
.1%	-2262
▁사상	-2263
▁상임	-2264
증을	-2265
.6%	-2266
억원으로	-2267
▁이야기	-2268
▁해서	-2269
었던	-2270
▁보다	-2271
이자	-2272
위로	-2273
▁원내대표는	-2274
▁살펴	-2275
▁늦	-2276
했을	-2277
▁접수	-2278
럼프	-2279
▁한나라	-2280
방송	-2281
▁밝히	-2282
200	-2283
축은행	-2284
▁깊	-2285
al	-2286
▁마무리	-2287
법을	-2288
스럽	-2289
▁여행	-2290
코리아	-2291
▁예상된다	-2292
국가	-2293
▁2018	-2294
▁이러	-2295
▁처음으로	-2296
▁부과	-2297
북한	-2298
▁인하	-2299
15	-2300
▁출발	-2301
▁모집	-2302
▁홈페이지	-2303
▁이명박	-2304
▁좌	-2305
미래	-2306
▁끊	-2307
▁북한이	-2308
▁발표한	-2309
▁전용	-2310
▁수행	-2311
▁전화	-2312
▁공연	-2313
▁자기	-2314
▁&	-2315
▁응답	-2316
▁소환	-2317
▁R	-2318
▁공모	-2319
.9%	-2320
▁불안	-2321
상의	-2322
도의	-2323
70	-2324
▁싸	-2325
▁고발	-2326
▁재판부는	-2327
▁소통	-2328
▁책임을	-2329
2)	-2330
▁가진	-2331
▁겁	-2332
법인	-2333
▁가지고	-2334
▁해소	-2335
▁임대	-2336
▁기준으로	-2337
▁실제로	-2338
▁부장	-2339
▁서초	-2340
▁낮은	-2341
다면	-2342
▁가능하다	-2343
▁집계	-2344
성에	-2345
▁놀	-2346
▁충북	-2347
▁시도	-2348
opy	-2349
하는데	-2350
en	-2351
┼────	-2352
▁입주	-2353
▁벗	-2354
▁공직	-2355
▁관심이	-2356
▁걸쳐	-2357
opyright	-2358
▁연간	-2359
자동차	-2360
바이	-2361
▁자세	-2362
▁비슷	-2363
구를	-2364
▁정기	-2365
대상	-2366
▁수수	-2367
장애	-2368
▁배우	-2369
▁피해자	-2370
▁간담	-2371
▁서울대	-2372
란다	-2373
어야	-2374
번째	-2375
▁임시	-2376
학년	-2377
▁의혹을	-2378
▁셈	-2379
▁보이고	-2380
▁법정	-2381
▁상황을	-2382
▁술	-2383
▁추천	-2384
▁것에	-2385
▁식품	-2386
▁Copyright	-2387
▁그것	-2388
회의를	-2389
▁필요가	-2390
▁완화	-2391
젝트	-2392
▁0	-2393
체육	-2394
▁그대로	-2395
▁미국의	-2396
▁열리는	-2397
드시	-2398
▁찍	-2399
▁아무	-2400
동의	-2401
▁경선	-2402
▁절반	-2403
수록	-2404
▁많다	-2405
사무	-2406
▁꿈	-2407
아야	-2408
▁안보	-2409
▁국정원	-2410
▁문제는	-2411
왼쪽	-2412
텐츠	-2413
▁되면	-2414
▁대변인은	-2415
▁형태	-2416
금은	-2417
▁독일	-2418
▁주는	-2419
▁관심을	-2420
▁하는데	-2421
23	-2422
▁공유	-2423
▁잇따	-2424
▁지원을	-2425
▁>	-2426
기획	-2427
시험	-2428
전략	-2429
항을	-2430
무역	-2431
▁깨	-2432
▁수사를	-2433
특별	-2434
▁대법원	-2435
▁염	-2436
등급	-2437
▁사법	-2438
노조	-2439
▁관광객	-2440
▁옥	-2441
만에	-2442
▁정보를	-2443
▁수원	-2444
▁권한	-2445
▁J	-2446
▁훈련	-2447
감이	-2448
▁졸업	-2449
만큼	-2450
▁사실이	-2451
자산	-2452
▁여부를	-2453
인가	-2454
단지	-2455
▁작성	-2456
▁취재	-2457
..."	-2458
▁억	-2459
▁봐	-2460
▁지금까지	-2461
사건	-2462
까요	-2463
▁말을	-2464
▁폭행	-2465
▁기부	-2466
▁단속	-2467
▁일을	-2468
▁정상회담	-2469
인과	-2470
▁대해서도	-2471
▁피해를	-2472
▁연합뉴스	-2473
조원	-2474
습니까	-2475
▁우리가	-2476
▁넘는	-2477
수산	-2478
▁서로	-2479
▁변호사	-2480
▁생각한다	-2481
▁야권	-2482
위원회는	-2483
요일	-2484
▁개편	-2485
지난	-2486
지구	-2487
▁밝힌	-2488
▁유출	-2489
▁명예	-2490
▁손해	-2491
▁전혀	-2492
(-	-2493
▁위원장은	-2494
1)	-2495
▁못했다	-2496
봤다	-2497
▁결혼	-2498
▁직후	-2499
트남	-2500
▁유엔	-2501
▁영상	-2502
치가	-2503
호텔	-2504
▁35	-2505
▁전력	-2506
제는	-2507
적이	-2508
▁FTA	-2509
▁행복	-2510
▁화장	-2511
면서도	-2512
앵커	-2513
운영	-2514
▁O	-2515
▁구입	-2516
▁소재	-2517
검찰	-2518
개를	-2519
▁명의	-2520
▁제가	-2521
▁냉	-2522
▁이번에	-2523
▁마을	-2524
▁페	-2525
▁이루	-2526
▁나누	-2527
레스	-2528
▁지자체	-2529
▁횡	-2530
▁이른바	-2531
▁전에	-2532
▁유명	-2533
었고	-2534
역을	-2535
▁여름	-2536
▁이끌	-2537
진흥	-2538
▁나오고	-2539
률은	-2540
▁수는	-2541
▁운동	-2542
개의	-2543
▁근거	-2544
▁◀	-2545
수의	-2546
▁아침	-2547
▁연장	-2548
▁공공기관	-2549
▁추석	-2550
▁것과	-2551
기의	-2552
▁안에	-2553
▁연계	-2554
▁편의	-2555
씨와	-2556
▁위협	-2557
려고	-2558
▁활동을	-2559
구청	-2560
▁반드시	-2561
▁직장	-2562
시가	-2563
▁기여	-2564
▁프리	-2565
금이	-2566
▁실질	-2567
공업	-2568
▁러시아	-2569
▁대규모	-2570
▁음식	-2571
수수색	-2572
▁관계자	-2573
공동	-2574
▁신설	-2575
▁의원의	-2576
▁출연	-2577
▁철저	-2578
▁협상	-2579
명과	-2580
▁동아	-2581
▁시각	-2582
▁인구	-2583
▁망	-2584
24	-2585
▁뛰어	-2586
서에	-2587
고를	-2588
민주연합	-2589
▁위해서	-2590
18	-2591
▁젊	-2592
▁팀	-2593
▁의심	-2594
▁쏟	-2595
▁공약	-2596
로는	-2597
▁포함한	-2598
▁시절	-2599
▁거의	-2600
▁차별	-2601
▁디지털	-2602
▁나섰다	-2603
▁트럼프	-2604
▁곧	-2605
액이	-2606
▁검찰에	-2607
▁바란다	-2608
▁취소	-2609
주년	-2610
현지	-2611
▁미세먼	-2612
▁바탕	-2613
경기	-2614
▁상반기	-2615
훼손	-2616
▁게임	-2617
▁걱	-2618
▁브리핑	-2619
액을	-2620
▁매각	-2621
13	-2622
▁통신	-2623
▁바이	-2624
▁기업의	-2625
▁답변	-2626
식에	-2627
▁믿	-2628
비용	-2629
진을	-2630
되며	-2631
▁왔다	-2632
▁압수수색	-2633
가고	-2634
▁대통령과	-2635
당의	-2636
22	-2637
키로	-2638
▁해도	-2639
▁제재	-2640
▁단일	-2641
▁탑	-2642
’,	-2643
으로써	-2644
했으나	-2645
단이	-2646
분이	-2647
▁사건을	-2648
소비	-2649
났습니다	-2650
▁접근	-2651
▁늘었다	-2652
화에	-2653
스러	-2654
▁많아	-2655
▁장관이	-2656
상공	-2657
▁김정	-2658
▁워	-2659
▁프로젝트	-2660
▁위해서는	-2661
▁강제	-2662
▁합동	-2663
▁원전	-2664
▁증가했다	-2665
▁33	-2666
소에서	-2667
이드	-2668
화문	-2669
▁구속영	-2670
▁폐지	-2671
▁위안	-2672
상황	-2673
인터	-2674
▁지방선거	-2675
▁경찰이	-2676
원순	-2677
▁나와	-2678
형을	-2679
▁내일	-2680
▁공감	-2681
▁전반	-2682
▁과학	-2683
장관	-2684
▁구간	-2685
▁때는	-2686
▁상황이	-2687
▁맥	-2688
▁외부	-2689
지의	-2690
▁통계	-2691
▁검찰이	-2692
월에	-2693
(0.	-2694
▁비난	-2695
▁법인	-2696
▁버스	-2697
됐다고	-2698
▁앞둔	-2699
▁해석	-2700
▁이러한	-2701
프로	-2702
▁독립	-2703
▁누리	-2704
▁불편	-2705
▁회장이	-2706
박근혜	-2707
▁초청	-2708
▁쉽게	-2709
기와	-2710
률을	-2711
▁발표했다	-2712
▁한국의	-2713
▁도움이	-2714
▁호소	-2715
▁어디	-2716
▁H	-2717
▁기획재정부	-2718
겼다	-2719
주고	-2720
가격	-2721
영업	-2722
당을	-2723
▁마케팅	-2724
여성	-2725
▁주거	-2726
▁등에서	-2727
▁의사	-2728
안보	-2729
▁나머	-2730
▁일단	-2731
▁지키	-2732
▁잃	-2733
▁대학생	-2734
▁Δ	-2735
16	-2736
▁조합	-2737
▁10%	-2738
▁명이	-2739
▁주제로	-2740
▁36	-2741
안은	-2742
▁웃	-2743
대에서	-2744
▁이익	-2745
화된	-2746
▁사람들이	-2747
▁연말	-2748
▁관측	-2749
의료	-2750
▁제품을	-2751
▁김현	-2752
▁축소	-2753
▁저는	-2754
▁주최	-2755
▁친구	-2756
긍정	-2757
▁정치적	-2758
도에	-2759
▁법원	-2760
▁분명	-2761
at	-2762
▁추가로	-2763
▁농협	-2764
▁현대차	-2765
▁50%	-2766
▁겨울	-2767
▁늘어난	-2768
▁넣	-2769
▁수용	-2770
▁허용	-2771
▁새정치민주연합	-2772
체를	-2773
▁지속적으로	-2774
▁이용해	-2775
오는	-2776
▁방식으로	-2777
▁힘들	-2778
주기	-2779
▁주말	-2780
▁2007	-2781
실장	-2782
▁캠페	-2783
▁회담	-2784
대문	-2785
▁군사	-2786
▁비판했다	-2787
▁우려가	-2788
통상	-2789
▁정확한	-2790
였던	-2791
▁찾은	-2792
▁자격	-2793
▁주차	-2794
경찰청	-2795
14	-2796
▁선박	-2797
노총	-2798
▁방문해	-2799
▁적극적으로	-2800
▁없다고	-2801
신을	-2802
려는	-2803
▁살아	-2804
▁힘을	-2805
▁내린	-2806
▁새벽	-2807
백화점	-2808
서관	-2809
무현	-2810
협의회	-2811
▁인식	-2812
받고	-2813
▁증권	-2814
▁뒷	-2815
▁앵커	-2816
▁김종	-2817
리한	-2818
번호	-2819
가스	-2820
니스	-2821
보를	-2822
정한	-2823
▁가져	-2824
트를	-2825
▁반응을	-2826
프라	-2827
경찰서는	-2828
▁김성	-2829
▁끼	-2830
▁관련한	-2831
▁베트남	-2832
▁주고	-2833
▁압박	-2834
▁겁니다	-2835
▁장애인	-2836
하우	-2837
▁참석해	-2838
수도	-2839
▁드러났다	-2840
▁쇼핑	-2841
▁채권	-2842
▁동반	-2843
▁80	-2844
▁강원도	-2845
▁개입	-2846
▁코스피	-2847
▁주문	-2848
억원의	-2849
▁기상	-2850
▁말했습니다	-2851
▁쌓	-2852
,000	-2853
▁감안	-2854
론을	-2855
리로	-2856
▁디자인	-2857
▁바탕으로	-2858
씨에게	-2859
▁이틀	-2860
소에	-2861
올림픽	-2862
랑스	-2863
▁피의	-2864
비가	-2865
였습니다	-2866
디오	-2867
▁휘	-2868
▁체포	-2869
▁지진	-2870
벤처	-2871
re	-2872
▁부당	-2873
▁현행	-2874
ou	-2875
기고	-2876
▁청문	-2877
일에	-2878
물이	-2879
▁긍정	-2880
분의	-2881
▁맞춰	-2882
무성	-2883
(8	-2884
▁측면	-2885
▁덕	-2886
▁영국	-2887
▁정말	-2888
▁노인	-2889
▁커피	-2890
▁부실	-2891
▁자본	-2892
했는데	-2893
이란	-2894
mm	-2895
무를	-2896
▁선발	-2897
▁부처	-2898
건으로	-2899
▁시간이	-2900
스북	-2901
EC	-2902
▁메르스	-2903
▁기다	-2904
▁불러	-2905
▁젊은	-2906
▁거듭	-2907
▁촬영	-2908
부문	-2909
▁"(	-2910
▁행사를	-2911
주민	-2912
오늘	-2913
▁설계	-2914
▁외환	-2915
▁내용의	-2916
21	-2917
▁CJ	-2918
준표	-2919
정규직	-2920
▁차원에서	-2921
▁봄	-2922
하이	-2923
▁분위	-2924
▁U	-2925
▁급증	-2926
소가	-2927
플러스	-2928
▁위원장	-2929
▁타고	-2930
▁MB	-2931
▁푸	-2932
▁이것	-2933
▁경우가	-2934
▁춘	-2935
포구	-2936
▁동의	-2937
▁쿠	-2938
▁현금	-2939
▁34	-2940
▁미만	-2941
▁한나라당	-2942
▁선임	-2943
▁수가	-2944
▁씨의	-2945
▁시간을	-2946
▁건축	-2947
구역	-2948
▁없고	-2949
▁시청	-2950
▁실패	-2951
내는	-2952
하려는	-2953
▁비대	-2954
▁불구속	-2955
▁뜻을	-2956
▁희생	-2957
일이	-2958
▁도착	-2959
.0%	-2960
으로서	-2961
▁범행	-2962
적을	-2963
▁후보자	-2964
거든	-2965
▁자신이	-2966
달라	-2967
아이	-2968
▁감염	-2969
▁마감	-2970
▁오픈	-2971
가량	-2972
천만	-2973
▁하반기	-2974
해도	-2975
▁광화문	-2976
평화	-2977
촛불	-2978
17	-2979
▁사드	-2980
▁보이는	-2981
나고	-2982
▁삼성전	-2983
로를	-2984
시부터	-2985
▁운행	-2986
▁되지	-2987
▁개헌	-2988
▁주로	-2989
▁선진	-2990
▁왕	-2991
▁유일	-2992
세로	-2993
▁특허	-2994
미엄	-2995
▁진입	-2996
▁메시	-2997
개국	-2998
▁거론	-2999
년생	-3000
▁나눠	-3001
조사를	-3002
▁보니	-3003
이너	-3004
▁아버	-3005
▁돌파	-3006
▁돕	-3007
29	-3008
▁뽑	-3009
만명	-3010
▁20%	-3011
▁질문에	-3012
가의	-3013
시키는	-3014
▁달성	-3015
▁허위	-3016
▁인력	-3017
▁업종	-3018
▁왔	-3019
지와	-3020
길을	-3021
이지만	-3022
▁꾸준	-3023
▁거주	-3024
5000	-3025
▁입건	-3026
▁들어가	-3027
▁것처럼	-3028
▁실무	-3029
▁어렵다	-3030
트워크	-3031
▁만족	-3032
정의	-3033
▁인기	-3034
▁협조	-3035
거든요	-3036
▁진보	-3037
▁관련된	-3038
▁끌어	-3039
▁소유	-3040
▁최순실	-3041
기자	-3042
▁이행	-3043
▁영업이익	-3044
▁페이스북	-3045
▁서민	-3046
27	-3047
▁창원	-3048
▁택시	-3049
돼야	-3050
량은	-3051
▁집단	-3052
▁점에서	-3053
▁최초로	-3054
▁안내	-3055
▁자료를	-3056
▁정책을	-3057
▁최저임금	-3058
▁뭐	-3059
▁30%	-3060
판매	-3061
▁절차	-3062
▁사람은	-3063
▁상장	-3064
▁이내	-3065
받아	-3066
프리	-3067
일간	-3068
▁실종	-3069
▁만드는	-3070
'(	-3071
공개	-3072
▁쏟아	-3073
다른	-3074
▁담은	-3075
▁김모	-3076
▁채택	-3077
건이	-3078
로서	-3079
▁부회	-3080
▁평창	-3081
스터	-3082
▁연휴	-3083
▁들고	-3084
▁언제	-3085
처리	-3086
용차	-3087
▁정리	-3088
계약	-3089
▁나왔	-3090
▁부사	-3091
▁박원순	-3092
만을	-3093
심사	-3094
▁셈이다	-3095
▁아래	-3096
▁없을	-3097
▁조사됐다	-3098
영상	-3099
▁신임	-3100
▁조치를	-3101
▁맺	-3102
하나	-3103
▁후원	-3104
▁위기	-3105
▁호남	-3106
생산	-3107
▁등과	-3108
저작권자	-3109
▁꼭	-3110
▁후보의	-3111
▁환자	-3112
▁좋아	-3113
앞으로	-3114
▁신속	-3115
▁다음달	-3116
▁단순	-3117
▁티	-3118
▁싱	-3119
▁땅	-3120
교육청	-3121
▁지하철	-3122
금지	-3123
▁김동	-3124
▁동원	-3125
건강	-3126
▁38	-3127
▁등장	-3128
▁것입니다	-3129
▁미사일	-3130
▁대표의	-3131
받는	-3132
2%	-3133
▁않으면	-3134
소는	-3135
▁45	-3136
계가	-3137
인권	-3138
▁Q	-3139
제한	-3140
26	-3141
▁법안	-3142
▁의결	-3143
▁일으	-3144
원과	-3145
▁대우	-3146
으니	-3147
▁있지	-3148
점에	-3149
▁인증	-3150
▁존재	-3151
▁완료	-3152
연대	-3153
▁등도	-3154
▁얼굴	-3155
▁첨	-3156
▁남아	-3157
▁기재	-3158
직을	-3159
▁발행	-3160
센터에서	-3161
▁않도록	-3162
이지	-3163
▁하기	-3164
▁민주통합	-3165
파크	-3166
▁밖	-3167
▁이슈	-3168
▁시장은	-3169
▁받지	-3170
▁발굴	-3171
등록	-3172
▁육성	-3173
▁봉사	-3174
▁넓	-3175
▁교체	-3176
표를	-3177
▁구체적인	-3178
▁액	-3179
▁착수	-3180
▁실현	-3181
▁나머지	-3182
중국	-3183
▁인재	-3184
▁심사	-3185
▁익	-3186
▁가동	-3187
▁철도	-3188
"...	-3189
▁친박	-3190
▁당부했다	-3191
▁당초	-3192
주가	-3193
▁작은	-3194
함을	-3195
여명이	-3196
▁감독	-3197
▁특징	-3198
▁말이	-3199
▁조작	-3200
지수	-3201
▁강한	-3202
▁내용이	-3203
예산	-3204
▁스포츠	-3205
▁일자	-3206
▁선수	-3207
활동을	-3208
▁내고	-3209
▁선출	-3210
▁교과	-3211
▁흡	-3212
▁자리에서	-3213
▁가맹	-3214
군은	-3215
▁주재	-3216
분야	-3217
▁농업	-3218
▁벌금	-3219
▁바꾸	-3220
▁신한	-3221
▁운영하는	-3222
▁일어	-3223
수원	-3224
~3	-3225
년이	-3226
▁검증	-3227
사인	-3228
려면	-3229
▁사고가	-3230
▁친환경	-3231
▁회장의	-3232
▁혜택을	-3233
겠지만	-3234
▁발사	-3235
▁포함해	-3236
전에	-3237
▁자동	-3238
▁꽃	-3239
폭행	-3240
▁용산	-3241
대행	-3242
▁공격	-3243
현재	-3244
▁학부모	-3245
▁저희	-3246
▁얼마나	-3247
▁사라	-3248
댓글	-3249
▁입법	-3250
▁강남구	-3251
▁맞는	-3252
▁이정	-3253
▁탐	-3254
에만	-3255
▁새로	-3256
프트	-3257
호선	-3258
▁할머니	-3259
적이고	-3260
▁초과	-3261
▁여기에	-3262
▁수술	-3263
▁여기	-3264
▁홍준표	-3265
▁37	-3266
28	-3267
▁중국의	-3268
총장	-3269
▁프랑스	-3270
시장에서	-3271
▁남편	-3272
is	-3273
▁대폭	-3274
▁한국은행	-3275
▁역대	-3276
우고	-3277
▁통상	-3278
▁민생	-3279
▁가는	-3280
▁꺼	-3281
▁올랐다	-3282
▁탓	-3283
됐고	-3284
▁높다	-3285
▁흑	-3286
▁기소된	-3287
▁쌀	-3288
▁실천	-3289
▁살해	-3290
▁휴대전	-3291
아요	-3292
▁교사	-3293
경을	-3294
▁못하는	-3295
예술	-3296
웠다	-3297
▁붙잡	-3298
▁자율	-3299
과장	-3300
므로	-3301
자력	-3302
▁물가	-3303
▁증가한	-3304
▁앱	-3305
류를	-3306
▁다소	-3307
90	-3308
▁재개	-3309
스가	-3310
▁조기	-3311
▁죄	-3312
년대	-3313
▁전쟁	-3314
▁색	-3315
▁혹	-3316
에게는	-3317
우는	-3318
ar	-3319
▁검거	-3320
점은	-3321
플레이	-3322
▁구제	-3323
▁프리미엄	-3324
▁해운	-3325
▁기사	-3326
▁의해	-3327
자기	-3328
식에서	-3329
곳에	-3330
으면서	-3331
▁징계	-3332
▁크다	-3333
▁주의	-3334
▁행동	-3335
▁기온	-3336
▁바뀌	-3337
▁품목	-3338
▁하며	-3339
▁충분히	-3340
▁지역의	-3341
시킨	-3342
▁사는	-3343
기금	-3344
▁흉	-3345
어서	-3346
▁무상	-3347
▁동해	-3348
▁금감	-3349
▁추모	-3350
1%	-3351
▁김씨는	-3352
일에는	-3353
▁가치	-3354
▁한번	-3355
▁경찰청	-3356
소송	-3357
▁떨어진	-3358
국회	-3359
▁기억	-3360
▁개성	-3361
▁마친	-3362
청문	-3363
▁뿌	-3364
▁SBS	-3365
▁대책을	-3366
▁출입	-3367
▁나갈	-3368
만원으로	-3369
▁항소	-3370
▁198	-3371
▁들여	-3372
▁적이	-3373
없는	-3374
▁확인할	-3375
철도	-3376
▁있었던	-3377
현지시간	-3378
▁보도합니다	-3379
에너지	-3380
보가	-3381
▁불이	-3382
▁도발	-3383
▁삭	-3384
▁경고	-3385
▁수립	-3386
▁가격이	-3387
▁단독	-3388
▁펀드	-3389
신고	-3390
▁맞춤	-3391
▁효과가	-3392
▁진상	-3393
▁고소	-3394
질문	-3395
▁직무	-3396
선이	-3397
체계	-3398
▁기업이	-3399
100	-3400
▁균	-3401
▁후보를	-3402
▁포기	-3403
▁했다고	-3404
▁옮겨	-3405
▁배출	-3406
▁촉구했다	-3407
▁국민연금	-3408
자료	-3409
엑스	-3410
면을	-3411
▁빠져	-3412
▁영등	-3413
▁걱정	-3414
승민	-3415
▁바다	-3416
건축	-3417
▁노력을	-3418
▁효율	-3419
부채	-3420
▁품질	-3421
봉사	-3422
물질	-3423
▁취약	-3424
▁슬	-3425
3)	-3426
▁혈	-3427
당에서	-3428
▁숨진	-3429
▁쓴	-3430
▁자리를	-3431
▁조사하고	-3432
▁그의	-3433
▁관람	-3434
해진	-3435
평균	-3436
▁애플	-3437
닷컴	-3438
약품	-3439
▁주력	-3440
▁했지만	-3441
▁무죄	-3442
판사	-3443
인들이	-3444
삼성	-3445
▁사기	-3446
▁내가	-3447
기지	-3448
▁KB	-3449
해를	-3450
▁미리	-3451
▁통보	-3452
제에	-3453
▁수능	-3454
kg	-3455
데요	-3456
주를	-3457
구가	-3458
고요	-3459
시켰	-3460
▁이야기를	-3461
▁부여	-3462
군의	-3463
기사	-3464
시를	-3465
▁해상	-3466
▁대중	-3467
실에	-3468
내고	-3469
▁솔	-3470
▁44	-3471
▁악화	-3472
▁헬	-3473
▁t	-3474
▁파견	-3475
▁진단	-3476
▁기회를	-3477
위원회가	-3478
▁흘	-3479
▁시작했다	-3480
▁계기로	-3481
점으로	-3482
▁상태다	-3483
▁나아	-3484
▁낮아	-3485
▁승객	-3486
▁총재	-3487
▁여부	-3488
▁촛불	-3489
▁콘텐츠	-3490
조차	-3491
▁획	-3492
▁굉	-3493
le	-3494
호를	-3495
it	-3496
진보	-3497
▁매일	-3498
▁차단	-3499
▁보상	-3500
선언	-3501
▁보건복지	-3502
▁유족	-3503
▁하면서	-3504
▁원하는	-3505
▁많았다	-3506
이라도	-3507
▁내용은	-3508
라면	-3509
어를	-3510
▁블랙	-3511
▁폭발	-3512
5)	-3513
▁가능성을	-3514
▁베이	-3515
▁재무	-3516
▁효과를	-3517
과는	-3518
▁케이	-3519
어도	-3520
▁김무성	-3521
▁성과를	-3522
98	-3523
테크	-3524
감사	-3525
▁이유는	-3526
법상	-3527
▁퇴직	-3528
▁리더	-3529
▁쉬	-3530
포럼	-3531
중공업	-3532
▁따라서	-3533
3%	-3534
▁많았	-3535
법에	-3536
▁비리	-3537
▁어린이집	-3538
▁정비	-3539
▁시민들이	-3540
▁구성된	-3541
▁제공하는	-3542
▁찾는	-3543
기록	-3544
▁가로	-3545
▁성남	-3546
▁자원	-3547
구의	-3548
EO	-3549
▁고려해	-3550
▁흐름	-3551
년에는	-3552
만원의	-3553
▁당첨	-3554
▁욕	-3555
▁충돌	-3556
단의	-3557
▁임직원	-3558
정에	-3559
점검	-3560
▁지분	-3561
방을	-3562
지면	-3563
▁포스코	-3564
매매	-3565
▁골프	-3566
이즈	-3567
위원장이	-3568
▁불구하고	-3569
▁답했다	-3570
▁뜨	-3571
▁댓글	-3572
고용	-3573
▁정부와	-3574
조직	-3575
▁돌려	-3576
티즌	-3577
피스	-3578
▁부채	-3579
▁받아들	-3580
▁미세먼지	-3581
기념	-3582
▁노무현	-3583
▁하겠다	-3584
▁당내	-3585
주로	-3586
▁있어서	-3587
▁조세	-3588
▁서울시장	-3589
▁사장은	-3590
한다면	-3591
▁도전	-3592
▁시는	-3593
됐던	-3594
간의	-3595
체가	-3596
▁태풍	-3597
이크	-3598
====	-3599
화와	-3600
▁취득	-3601
추행	-3602
▁만난	-3603
▁짓	-3604
▁예측	-3605
▁굉장	-3606
▁비정규직	-3607
천여	-3608
▁지적이	-3609
▁평소	-3610
▁알아	-3611
▁본다	-3612
곳에서	-3613
▁한국당	-3614
▁여론조사	-3615
받을	-3616
되기	-3617
▁넘겨	-3618
추진	-3619
▁39	-3620
▁형성	-3621
▁대표와	-3622
분쯤	-3623
카오	-3624
▁여당	-3625
지에서	-3626
▁헌법재판	-3627
뿐만	-3628
▁현장에서	-3629
었지만	-3630
▁모아	-3631
▁글을	-3632
문이	-3633
베이	-3634
▁아니냐는	-3635
▁쉽지	-3636
티브	-3637
▁비슷한	-3638
▁수준으로	-3639
▁다르	-3640
▁서울시는	-3641
건의	-3642
행위	-3643
▁양국	-3644
▁시작으로	-3645
▁궁	-3646
▁문을	-3647
시스	-3648
▁신분	-3649
(9	-3650
든지	-3651
▁하다	-3652
일로	-3653
가로	-3654
▁줄어들	-3655
▁작용	-3656
▁연금	-3657
▁꼬	-3658
▁서초구	-3659
▁상대적으로	-3660
▁국토교통	-3661
▁경향	-3662
▁시기	-3663
'...	-3664
4)	-3665
▁평가를	-3666
▁운용	-3667
화학	-3668
▁쟁	-3669
▁인물	-3670
▁섬	-3671
▁상황이다	-3672
▁폐쇄	-3673
▁게시	-3674
제의	-3675
데이	-3676
▁류	-3677
▁씨를	-3678
▁훼손	-3679
이던	-3680
▁어려움을	-3681
▁강릉	-3682
▁네티즌	-3683
▁지식	-3684
▁카페	-3685
원장	-3686
사법	-3687
▁포항	-3688
심에서	-3689
▁도움을	-3690
▁32	-3691
대사	-3692
▁정무	-3693
▁진행한다	-3694
거운	-3695
▁유도	-3696
▁못해	-3697
▁칼	-3698
▁계획을	-3699
보면	-3700
▁기울	-3701
▁제공한다	-3702
심의	-3703
대비	-3704
▁AI	-3705
▁극복	-3706
▁결의	-3707
▁적절	-3708
▁시내	-3709
일본	-3710
혔다	-3711
▁문제에	-3712
자유	-3713
▁일각	-3714
들로	-3715
수로	-3716
중에	-3717
▁높이	-3718
▁업무를	-3719
▁음주	-3720
▁대기	-3721
▁저지	-3722
▁걷	-3723
▁합격	-3724
▁굉장히	-3725
▁해명	-3726
▁저녁	-3727
▁IT	-3728
▁시장의	-3729
▁제외한	-3730
▁연락	-3731
중한	-3732
▁영어	-3733
▁덜	-3734
▁확인됐다	-3735
▁5000	-3736
▁내정	-3737
실험	-3738
운전	-3739
IC	-3740
▁대한항공	-3741
기소	-3742
스러운	-3743
▁안팎	-3744
▁마찬	-3745
져야	-3746
▁48	-3747
지금	-3748
▁사항	-3749
▁접촉	-3750
▁틀	-3751
별로는	-3752
▁융	-3753
▁어머니	-3754
▁보조	-3755
▁수색	-3756
▁세무	-3757
▁재난	-3758
▁던	-3759
만의	-3760
▁지역에	-3761
▁든	-3762
▁캠프	-3763
▁광역	-3764
▁절차를	-3765
▁차관	-3766
▁표시	-3767
동에	-3768
▁한은	-3769
▁노후	-3770
▁부진	-3771
▁슈	-3772
▁서해	-3773
8)	-3774
공정	-3775
▁근로자	-3776
▁위치한	-3777
▁손을	-3778
▁뉴욕	-3779
▁옆	-3780
▁사이트	-3781
▁국무총리	-3782
▁노사	-3783
▁불가능	-3784
▁비핵	-3785
7)	-3786
▁중에	-3787
▁컴	-3788
▁공시	-3789
▁서울중앙지검	-3790
▁가까이	-3791
▁영장	-3792
▁협약	-3793
▁꾸준히	-3794
▁세금	-3795
▁반복	-3796
▁빨리	-3797
위원장은	-3798
처분	-3799
있다	-3800
▁150	-3801
▁펼쳐	-3802
▁살인	-3803
▁과정을	-3804
▁등이다	-3805
▁객	-3806
경쟁	-3807
▁프로그램을	-3808
▁내세	-3809
▁건립	-3810
▁자주	-3811
▁자살	-3812
소속	-3813
▁국세청	-3814
▁금융감독	-3815
▁시대	-3816
▁상당히	-3817
시티	-3818
▁출근	-3819
분간	-3820
▁목소리를	-3821
▁참사	-3822
국장	-3823
▁대통령을	-3824
▁마찬가지	-3825
▁법적	-3826
최근	-3827
대구	-3828
▁국민이	-3829
▁훨	-3830
사업을	-3831
까지는	-3832
▁발언을	-3833
▁상호	-3834
위원회를	-3835
스토	-3836
▁이상이	-3837
정상회담	-3838
▁비가	-3839
▁내다	-3840
▁심각한	-3841
▁석유	-3842
▁최선을	-3843
▁춘천	-3844
▁고령	-3845
▁결과가	-3846
▁생각을	-3847
▁한화	-3848
▁체계	-3849
▁스트	-3850
공간	-3851
▁작업을	-3852
일은	-3853
▁듣고	-3854
▁나올	-3855
▁이탈	-3856
9)	-3857
근로	-3858
행사	-3859
력과	-3860
▁해경	-3861
이버	-3862
준비	-3863
7%	-3864
시킬	-3865
▁정황	-3866
서가	-3867
▁V	-3868
▁진행된다	-3869
▁공정거래	-3870
▁다가	-3871
액의	-3872
▁훨씬	-3873
▁열린다	-3874
선의	-3875
세종	-3876
위에서	-3877
사랑	-3878
치지	-3879
▁고양	-3880
실이	-3881
상은	-3882
▁65	-3883
▁W	-3884
▁학생들이	-3885
어진	-3886
▁불가피	-3887
▁100%	-3888
▁개방	-3889
▁의혹이	-3890
▁총괄	-3891
▁시범	-3892
▁현황	-3893
▁잇따라	-3894
▁주관	-3895
▁의한	-3896
관용	-3897
▁모르	-3898
▁흔들	-3899
▁사이에	-3900
▁국방부	-3901
▁민주통합당	-3902
▁저렴	-3903
▁지연	-3904
▁임원	-3905
▁느끼	-3906
▁부담을	-3907
은행은	-3908
만이	-3909
▁주한	-3910
인당	-3911
▁개별	-3912
처를	-3913
산을	-3914
운용	-3915
상담	-3916
6)	-3917
비는	-3918
협정	-3919
리의	-3920
▁보완	-3921
▁곳이	-3922
언론	-3923
▁나는	-3924
▁시작한	-3925
▁집회	-3926
▁김용	-3927
▁동일	-3928
▁동물	-3929
간담	-3930
해온	-3931
▁방지	-3932
▁쌍	-3933
지게	-3934
▁인사청문	-3935
이에	-3936
뮤니	-3937
▁유가족	-3938
▁본격적인	-3939
4%	-3940
▁당연	-3941
▁상품을	-3942
▁공무	-3943
▁했던	-3944
▁엘	-3945
▁에어	-3946
▁분위기	-3947
대와	-3948
개선	-3949
당한	-3950
인사	-3951
▁가능성도	-3952
▁고통	-3953
▁피해가	-3954
▁기조	-3955
보건	-3956
소방	-3957
받았다	-3958
▁나오는	-3959
▁요구했다	-3960
·18	-3961
▁배제	-3962
다운	-3963
▁예술	-3964
▁향해	-3965
▁전세	-3966
▁습	-3967
▁중요하다	-3968
▁전주	-3969
책임	-3970
▁연기	-3971
▁이들이	-3972
▁북미	-3973
▁의지를	-3974
▁의뢰	-3975
▁중간	-3976
▁횡령	-3977
목을	-3978
▁사유	-3979
▁개설	-3980
▁공장	-3981
▁단지	-3982
▁보입니다	-3983
재배포	-3984
▁이같은	-3985
▁화물	-3986
▁데이터	-3987
6%	-3988
▁평양	-3989
▁아주	-3990
▁공항	-3991
이용	-3992
▁백화점	-3993
▁바라	-3994
준다	-3995
▁뇌물	-3996
▁위안부	-3997
▁회계	-3998
▁MBC	-3999
더니	-4000
▁즐길	-4001
▁43	-4002
권이	-4003
▁포인트	-4004
▁부산시	-4005
▁코스닥	-4006
▁결정을	-4007
▁하이	-4008
▁찬성	-4009
▁오래	-4010
▁자치	-4011
▁즉각	-4012
나무	-4013
▁토대로	-4014
▁지원하는	-4015
에서의	-4016
공무원	-4017
▁부상	-4018
▁면세	-4019
▁Y	-4020
▁자체가	-4021
▁선호	-4022
▁패션	-4023
▁흥	-4024
▁자세한	-4025
위터	-4026
가능	-4027
▁결제	-4028
▁콜	-4029
▁참고	-4030
인에	-4031
▁읽	-4032
트로	-4033
▁본회의	-4034
조치	-4035
유예	-4036
▁권고	-4037
▁시장이	-4038
합의	-4039
▁예고	-4040
▁유승민	-4041
▁매매	-4042
▁권력	-4043
▁강력한	-4044
▁복합	-4045
▁반박	-4046
보증	-4047
▁밑	-4048
도와	-4049
함으로써	-4050
▁당국	-4051
▁초기	-4052
▁창조	-4053
▁빅	-4054
▁계좌	-4055
▁속에	-4056
▁나눔	-4057
제보	-4058
재정	-4059
ing	-4060
▁훔	-4061
cm	-4062
▁심리	-4063
오른	-4064
▁됩니다	-4065
ic	-4066
▁당장	-4067
▁되어	-4068
▁반도	-4069
▁매장	-4070
▁매입	-4071
▁김기	-4072
령을	-4073
▁앞에	-4074
▁새롭게	-4075
▁갤	-4076
▁지출	-4077
▁채널	-4078
▁바른정당	-4079
",	-4080
▁분류	-4081
▁합리	-4082
▁연구원은	-4083
소로	-4084
▁밖에	-4085
▁전문가들은	-4086
립니다	-4087
월드	-4088
▁부총	-4089
▁외교부	-4090
문의	-4091
▁신세계	-4092
▁이처럼	-4093
▁입학	-4094
▁인사를	-4095
▁천안	-4096
▁받는다	-4097
적이다	-4098
▁가까운	-4099
▁달하는	-4100
▁2006	-4101
▁개성공단	-4102
▁폐기	-4103
▁산림	-4104
목으로	-4105
▁400	-4106
’(	-4107
▁우리는	-4108
▁담배	-4109
▁늘고	-4110
하고자	-4111
기기	-4112
▁한강	-4113
▁CC	-4114
자치단체	-4115
자들	-4116
▁농림	-4117
역에서	-4118
▁내에	-4119
▁가격은	-4120
이라면서	-4121
es	-4122
▁90	-4123
해왔다	-4124
향을	-4125
▁침해	-4126
권에	-4127
생을	-4128
DP	-4129
이어서	-4130
식으로	-4131
▁바른미래	-4132
▁넘게	-4133
▁확실	-4134
▁이웃	-4135
메라	-4136
▁생각이	-4137
▁옛	-4138
▁이모	-4139
▁기각	-4140
▁멀	-4141
▁유사	-4142
▁보안	-4143
세에	-4144
▁분석했다	-4145
──────	-4146
IS	-4147
▁대리	-4148
수요	-4149
▁배경	-4150
▁알려진	-4151
▁김경	-4152
▁개막	-4153
44	-4154
▁시장에	-4155
스의	-4156
신청	-4157
▁풀이	-4158
협의	-4159
▁정의당	-4160
올해	-4161
▁직업	-4162
군이	-4163
▁국내외	-4164
▁구조조정	-4165
▁줄었다	-4166
체험	-4167
▁사건이	-4168
부처	-4169
▁박영	-4170
여야	-4171
계층	-4172
9%	-4173
담당	-4174
미사일	-4175
전이	-4176
▁시작된	-4177
아시아	-4178
판을	-4179
▁마음을	-4180
문제	-4181
권의	-4182
▁생태	-4183
모델	-4184
▁제조업	-4185
▁그러니까	-4186
▁김해	-4187
▁해수	-4188
만여	-4189
구는	-4190
▁55	-4191
억달러	-4192
명한	-4193
▁심의	-4194
▁당사	-4195
▁Copyrights	-4196
▁갖춘	-4197
▁대해선	-4198
▁기술을	-4199
▁트위터	-4200
▁끝에	-4201
관에	-4202
▁코리아	-4203
▁피의자	-4204
문재인	-4205
▁저축은행	-4206
사항	-4207
시까지	-4208
▁회의를	-4209
화로	-4210
▁원내대표가	-4211
▁냈다	-4212
▁총리는	-4213
▁발의	-4214
▁비례	-4215
8%	-4216
▁3000	-4217
▁앉	-4218
▁음악	-4219
▁새누리당은	-4220
▁강하게	-4221
▁집계됐다	-4222
▁납품	-4223
▁좋다	-4224
▁테러	-4225
▁최대한	-4226
만달러	-4227
세월호	-4228
▁부품	-4229
▁제일	-4230
▁산하	-4231
용품	-4232
능력	-4233
▁지배	-4234
▁굳	-4235
▁있는지	-4236
▁한진	-4237
생명	-4238
▁싶다	-4239
▁안타	-4240
조건	-4241
▁GS	-4242
▁진행된	-4243
발언	-4244
▁경쟁력	-4245
가에	-4246
리스트	-4247
▁벽	-4248
구에	-4249
▁보도했다	-4250
▁아들	-4251
만으로	-4252
▁상무	-4253
설팅	-4254
단에	-4255
본부는	-4256
▁46	-4257
▁정규직	-4258
▁활용해	-4259
▁가을	-4260
보니	-4261
▁인프라	-4262
▁수정	-4263
텔레	-4264
고속도로	-4265
하라고	-4266
협약	-4267
리와	-4268
본부장	-4269
국정	-4270
▁수치	-4271
▁고급	-4272
▁아내	-4273
▁모양	-4274
▁의원과	-4275
▁갖추	-4276
▁연령	-4277
▁벌이고	-4278
▁원의	-4279
▁성폭행	-4280
▁수주	-4281
▁속에서	-4282
▁치료를	-4283
▁40%	-4284
▁이어질	-4285
▁바꿔	-4286
분에	-4287
▁대표적인	-4288
▁맞춤형	-4289
드를	-4290
▁노출	-4291
▁대선후보	-4292
▁면담	-4293
인데요	-4294
▁피부	-4295
▁김상	-4296
▁올해는	-4297
년도	-4298
▁써	-4299
▁수십	-4300
축제	-4301
▁기능을	-4302
▁열었다	-4303
▁이용할	-4304
대교	-4305
▁경우에는	-4306
▁둘러싼	-4307
▁상황에	-4308
ws	-4309
▁개통	-4310
▁태양	-4311
효과	-4312
▁마치고	-4313
▁행위	-4314
▁차이가	-4315
▁이주	-4316
인도	-4317
CC	-4318
▁고속도로	-4319
관의	-4320
▁이게	-4321
▁올림픽	-4322
▁기대한다	-4323
▁봤	-4324
▁인기를	-4325
▁통제	-4326
▁괴	-4327
▁나섰	-4328
▁입찰	-4329
▁메뉴	-4330
▁싶은	-4331
유통	-4332
종의	-4333
▁비중이	-4334
말을	-4335
▁문제로	-4336
▁치열	-4337
▁시민단체	-4338
▁적은	-4339
▁도심	-4340
▁질병	-4341
연을	-4342
▁유력	-4343
시의	-4344
▁요구하는	-4345
면적	-4346
▁내리	-4347
▁47	-4348
▁담긴	-4349
35	-4350
이었던	-4351
▁가량	-4352
▁적극적인	-4353
션을	-4354
스럽게	-4355
▁파업	-4356
▁70%	-4357
놓고	-4358
▁옷	-4359
퓨터	-4360
▁상당의	-4361
▁양성	-4362
▁소송을	-4363
ed	-4364
▁헌재	-4365
▁참여하는	-4366
▁변동	-4367
▁재판에	-4368
▁대외	-4369
▁완성	-4370
당국은	-4371
팀은	-4372
통일	-4373
스티	-4374
천만원	-4375
▁생존	-4376
▁당일	-4377
법원	-4378
▁내렸다	-4379
▁유해	-4380
줬다	-4381
▁벗어나	-4382
람회	-4383
▁확장	-4384
▁의사를	-4385
재산	-4386
저축은행	-4387
▁‘201	-4388
전거	-4389
▁이름을	-4390
▁들어간	-4391
▁어려워	-4392
토론	-4393
교안	-4394
2000	-4395
차는	-4396
이라면	-4397
사실	-4398
업무	-4399
▁시장에서	-4400
▁센터	-4401
▁말고	-4402
기능	-4403
▁여객	-4404
▁비행	-4405
▁말까지	-4406
▁무소속	-4407
▁재벌	-4408
▁측이	-4409
▁지역에서	-4410
▁상위	-4411
▁송파	-4412
▁시장을	-4413
▁절대	-4414
▁사진을	-4415
▁무기	-4416
개로	-4417
▁요즘	-4418
▁참여한	-4419
▁가해	-4420
참여	-4421
▁김진	-4422
시키고	-4423
▁신경	-4424
통상자원	-4425
▁동기	-4426
▁수급	-4427
즈니스	-4428
짜리	-4429
▁저소득	-4430
▁받게	-4431
선에	-4432
▁눈에	-4433
성은	-4434
▁서울중앙지법	-4435
▁물러	-4436
▁보육	-4437
▁근본	-4438
관련	-4439
▁빠르게	-4440
원들이	-4441
▁대로	-4442
해운	-4443
▁수수료	-4444
▁방사	-4445
▁만들기	-4446
▁엄마	-4447
▁장학	-4448
진이	-4449
▁계열사	-4450
바로	-4451
▁최우	-4452
▁발급	-4453
▁추락	-4454
청사	-4455
▁목표로	-4456
명에게	-4457
미국	-4458
▁사용할	-4459
▁수사에	-4460
중소	-4461
▁시사	-4462
▁제정	-4463
▁다니	-4464
▁중부	-4465
했기	-4466
▁미디어	-4467
▁반도체	-4468
▁오르	-4469
청이	-4470
▁보인	-4471
았던	-4472
지자	-4473
▁명확	-4474
▁출동	-4475
십니까	-4476
▁실태	-4477
▁나설	-4478
억원에	-4479
랫폼	-4480
▁폭력	-4481
작업	-4482
곳을	-4483
▁묘	-4484
▁했는데	-4485
▁의원을	-4486
▁한정	-4487
차로	-4488
▁부분이	-4489
미나	-4490
법이	-4491
혁명	-4492
▁성폭력	-4493
인천	-4494
▁머물	-4495
▁순간	-4496
▁발생했다	-4497
▁모색	-4498
▁환율	-4499
투자증권	-4500
▁시급	-4501
됐지만	-4502
▁교육감	-4503
▁비상대책	-4504
신이	-4505
외교	-4506
해주	-4507
▁들어서	-4508
▁피고	-4509
▁불거	-4510
▁교육을	-4511
▁학습	-4512
▁때까지	-4513
창업	-4514
▁대처	-4515
수익	-4516
▁제거	-4517
▁최소화	-4518
▁MBN	-4519
▁완전히	-4520
▁실업	-4521
▁빠른	-4522
측은	-4523
▁침몰	-4524
▁끌고	-4525
▁진행하고	-4526
▁아이디어	-4527
▁선생	-4528
마켓	-4529
▁이마트	-4530
▁김태	-4531
▁수준의	-4532
▁무슨	-4533
▁원유	-4534
▁차기	-4535
자들을	-4536
▁2005	-4537
▁간부	-4538
▁개정안	-4539
▁거리	-4540
▁도와	-4541
▁전원	-4542
당국	-4543
▁대회	-4544
▁아닌가	-4545
▁일제	-4546
▁쏠	-4547
▁올려	-4548
다시	-4549
월에는	-4550
▁환영	-4551
▁2020	-4552
▁브라	-4553
▁폭염	-4554
▁점포	-4555
▁확충	-4556
▁사고로	-4557
▁상생	-4558
▁경비	-4559
씨에	-4560
▁지상	-4561
▁사이버	-4562
이하	-4563
▁2,	-4564
▁CCTV	-4565
게임	-4566
▁갑자기	-4567
▁이들의	-4568
▁예산을	-4569
▁조사한	-4570
▁모여	-4571
▁감소했다	-4572
질이	-4573
▁의견이	-4574
▁모임	-4575
▁이외	-4576
▁상징	-4577
▁화장품	-4578
지기	-4579
▁사람을	-4580
창조	-4581
▁들었다	-4582
니터	-4583
대변	-4584
▁총장	-4585
기온	-4586
▁전망했다	-4587
▁신입	-4588
경찰서	-4589
▁참석했다	-4590
▁목적	-4591
FTA	-4592
▁거짓	-4593
▁부탁	-4594
위원회의	-4595
▁법무부	-4596
기업의	-4597
됐다는	-4598
▁소식	-4599
▁있어야	-4600
▁내수	-4601
▁진정	-4602
▁향상	-4603
▁복귀	-4604
▁얘기를	-4605
▁초등학교	-4606
▁여자	-4607
▁유기	-4608
▁올린	-4609
0)	-4610
▁발효	-4611
질을	-4612
▁남은	-4613
법은	-4614
▁산업통상자원	-4615
▁항의	-4616
▁가스	-4617
▁문의	-4618
▁요금	-4619
정지	-4620
▁수습	-4621
▁충격	-4622
▁사업에	-4623
▁청주	-4624
▁동참	-4625
▁보통	-4626
▁김대	-4627
▁하게	-4628
▁교류	-4629
▁기회	-4630
▁“(	-4631
유치	-4632
▁새정치연합	-4633
▁편성	-4634
▁종료	-4635
▁처분	-4636
마저	-4637
▁이중	-4638
300	-4639
▁신문	-4640
ECD	-4641
--	-4642
▁일대	-4643
▁종목	-4644
▁내달	-4645
▁핵실험	-4646
▁작품	-4647
상태	-4648
공장	-4649
▁돌입	-4650
▁눈길을	-4651
▁커지고	-4652
▁짧	-4653
▁외에	-4654
청사에서	-4655
▁결과에	-4656
)·	-4657
▁농촌	-4658
▁곤	-4659
년의	-4660
▁보유한	-4661
▁과도	-4662
한테	-4663
▁전월	-4664
▁우리의	-4665
▁최고의	-4666
▁명절	-4667
▁개인정보	-4668
함에	-4669
청에	-4670
적으로는	-4671
되자	-4672
▁구속영장을	-4673
▁회동	-4674
스포츠	-4675
자들에게	-4676
주년을	-4677
이면	-4678
▁시스템을	-4679
전쟁	-4680
인력	-4681
▁대표를	-4682
▁49	-4683
▁교통사고	-4684
히는	-4685
책을	-4686
▁정체	-4687
▁세부	-4688
▁유리	-4689
▁남부	-4690
질환	-4691
세는	-4692
▁의장	-4693
건에	-4694
시께	-4695
관과	-4696
팀장	-4697
▁있는데요	-4698
▁경제적	-4699
사이트	-4700
▁제주도	-4701
지주	-4702
▁보기	-4703
▁추경	-4704
▁세상을	-4705
▁필수	-4706
통화	-4707
▁위로	-4708
▁배당	-4709
▁조언	-4710
▁현재까지	-4711
▁부적	-4712
▁박지원	-4713
▁누가	-4714
▁공판	-4715
▁누리꾼	-4716
▁주주	-4717
인들의	-4718
▁진료	-4719
▁지금은	-4720
았습니다	-4721
일과	-4722
시장의	-4723
됐으며	-4724
▁아름	-4725
▁기준을	-4726
▁승진	-4727
재생	-4728
▁용인	-4729
▁커뮤니	-4730
▁하나로	-4731
▁설문	-4732
▁동부	-4733
▁성추행	-4734
요금	-4735
▁이용한	-4736
학규	-4737
▁그림	-4738
규칙	-4739
경북	-4740
여행	-4741
관계를	-4742
자본	-4743
▁원인	-4744
▁부담이	-4745
2-	-4746
▁레이	-4747
▁전당	-4748
웨어	-4749
공사는	-4750
▁겪고	-4751
▁이종	-4752
▁적지	-4753
▁차지했다	-4754
▁규모가	-4755
▁분리	-4756
▁투자를	-4757
▁수시	-4758
미널	-4759
▁지휘	-4760
▁막기	-4761
▁장례	-4762
▁예정입니다	-4763
▁일본의	-4764
▁계약을	-4765
▁점이	-4766
웨이	-4767
▁통해서	-4768
현장	-4769
45	-4770
▁결론	-4771
영화	-4772
장기	-4773
oo	-4774
리며	-4775
확실	-4776
대화	-4777
경향	-4778
▁관세	-4779
▁대피	-4780
▁누구나	-4781
▁증정	-4782
▁루	-4783
▁고용노동	-4784
▁예금	-4785
▁곳은	-4786
개가	-4787
축산	-4788
니아	-4789
▁민주노총	-4790
▁이르	-4791
▁인명	-4792
대응	-4793
부총리	-4794
분석	-4795
▁떠나	-4796
▁황교안	-4797
▁있다면	-4798
▁굴	-4799
800	-4800
▁길을	-4801
럭시	-4802
계의	-4803
▁라이	-4804
▁홀	-4805
타임	-4806
▁필리	-4807
정부가	-4808
▁국회에	-4809
900	-4810
▁북한은	-4811
▁수요가	-4812
▁제도를	-4813
▁승인	-4814
▁지지를	-4815
▁검찰의	-4816
▁했고	-4817
▁보관	-4818
층의	-4819
▁이로	-4820
▁위원장이	-4821
▁점차	-4822
▁간의	-4823
등학생	-4824
▁내에서	-4825
▁데다	-4826
봐야	-4827
작용	-4828
데이터	-4829
달라고	-4830
처벌	-4831
▁있으면	-4832
이상	-4833
▁오피스	-4834
▁보고서	-4835
▁화학	-4836
렀다	-4837
▁평가했다	-4838
31	-4839
리오	-4840
▁응급	-4841
▁멈	-4842
▁휴대전화	-4843
ED	-4844
▁디자	-4845
▁단기	-4846
▁대화를	-4847
▁면접	-4848
차량	-4849
었다는	-4850
▁철회	-4851
▁가치를	-4852
과학기술	-4853
공을	-4854
중인	-4855
방안	-4856
▁유입	-4857
▁합병	-4858
하려면	-4859
▁줄어든	-4860
▁전담	-4861
▁행사는	-4862
▁이끌어	-4863
수에	-4864
공헌	-4865
▁영향으로	-4866
▁늘어나	-4867
프리카	-4868
▁분명히	-4869
실로	-4870
▁구청	-4871
사령	-4872
▁움직임	-4873
▁120	-4874
▁혼란	-4875
▁정상화	-4876
▁해군	-4877
▁인공	-4878
▁1%	-4879
▁도내	-4880
▁보증	-4881
IT	-4882
▁목포	-4883
차이즈	-4884
▁비밀	-4885
▁주인	-4886
▁카카오	-4887
▁설득	-4888
고도	-4889
▁시정	-4890
설을	-4891
▁가슴	-4892
▁신용카드	-4893
고기	-4894
▁분야에서	-4895
▁거죠	-4896
MW	-4897
▁과제	-4898
배상	-4899
▁특혜	-4900
▁키워	-4901
▁쓸	-4902
▁활용한	-4903
ha	-4904
▁유가	-4905
▁김재	-4906
▁부회장	-4907
▁집행유예	-4908
▁만약	-4909
▁즉시	-4910
▁들이	-4911
▁예비후보	-4912
▁묵	-4913
겠느냐	-4914
▁뿐만	-4915
심이	-4916
▁평택	-4917
▁낼	-4918
▁그때	-4919
▁추진하고	-4920
유가	-4921
▁방문한	-4922
▁민주당은	-4923
▁탑승	-4924
▁붕	-4925
공천	-4926
▁만들고	-4927
▁구제역	-4928
▁규탄	-4929
하려고	-4930
▁자택	-4931
▁특별한	-4932
▁성적	-4933
▁철거	-4934
▁신흥	-4935
▁방향으로	-4936
그룹은	-4937
▁수준을	-4938
ne	-4939
▁수험	-4940
▁규모로	-4941
안정	-4942
▁보험료	-4943
포르	-4944
리트	-4945
▁선도	-4946
▁영등포구	-4947
▁52	-4948
나가	-4949
▁검출	-4950
▁검색	-4951
▁조현	-4952
600	-4953
▁대형마트	-4954
▁축제	-4955
랜차이즈	-4956
he	-4957
▁귀국	-4958
네요	-4959
▁일정을	-4960
연합회	-4961
▁탈당	-4962
비아	-4963
▁d	-4964
ion	-4965
▁등급	-4966
타워	-4967
▁사무총	-4968
께서	-4969
진의	-4970
유의	-4971
▁현안	-4972
▁모니터	-4973
▁컴퓨터	-4974
▁무산	-4975
▁주가	-4976
▁바닥	-4977
소의	-4978
▁조속	-4979
▁청탁	-4980
▁원인을	-4981
청소년	-4982
장애인	-4983
평양	-4984
들어	-4985
▁물류	-4986
▁활발	-4987
시고	-4988
▁자랑	-4989
급여	-4990
▁겨냥	-4991
경환	-4992
▁v	-4993
리어	-4994
▁생명	-4995
▁197	-4996
(10	-4997
▁달아	-4998
▁따뜻	-4999
▁아마	-5000
▁몰아	-5001
▁기자들과	-5002
▁입증	-5003
▁부총리	-5004
▁미치는	-5005
65	-5006
▁적합	-5007
경남	-5008
렸습니다	-5009
억원이	-5010
▁건의	-5011
상으로	-5012
▁보낸	-5013
▁말한다	-5014
▁운영하고	-5015
▁동료	-5016
ent	-5017
광주	-5018
▁소상공	-5019
▁없습니다	-5020
▁상태에서	-5021
▁설정	-5022
▁투쟁	-5023
전력	-5024
▁곽	-5025
▁단축	-5026
재를	-5027
▁충청	-5028
▁제출한	-5029
▁납부	-5030
▁청와대는	-5031
네시아	-5032
라마	-5033
▁교환	-5034
▁이유를	-5035
현대	-5036
신용	-5037
바다	-5038
고객	-5039
▁5·18	-5040
회계	-5041
▁마련된	-5042
▁실험	-5043
▁’	-5044
만간	-5045
성화를	-5046
위와	-5047
▁후속	-5048
▁북측	-5049
▁분석한	-5050
▁판단했다	-5051
▁채무	-5052
▁59	-5053
심판	-5054
▁격려	-5055
▁혼자	-5056
▁실시간	-5057
▁조달	-5058
▁신동	-5059
▁유로	-5060
▁입원	-5061
▁서울의	-5062
▁출산	-5063
▁첨단	-5064
음에도	-5065
계올림픽	-5066
▁노래	-5067
▁금액	-5068
▁지구	-5069
▁때마다	-5070
▁육군	-5071
ub	-5072
▁네트워크	-5073
▁설명이다	-5074
졌고	-5075
▁이자	-5076
▁이상을	-5077
▁후보자는	-5078
▁전개	-5079
▁경상	-5080
▁이사장	-5081
▁승용차	-5082
▁자영업	-5083
▁비례대표	-5084
~4	-5085
▁플랫폼	-5086
▁현장에	-5087
광장에서	-5088
▁강경	-5089
▁유동	-5090
▁변화를	-5091
▁42	-5092
▁철저히	-5093
▁사건의	-5094
▁밥	-5095
▁하늘	-5096
▁사례가	-5097
▁사용하는	-5098
▁여성의	-5099
체육관광	-5100
미터	-5101
▁바른미래당	-5102
▁자문	-5103
▁목소리가	-5104
시장이	-5105
▁컸	-5106
▁기아	-5107
▁저작권자	-5108
정부는	-5109
▁동남	-5110
▁올렸다	-5111
였고	-5112
▁불확실	-5113
▁차지하는	-5114
3000	-5115
▁인천공항	-5116
▁급여	-5117
▁안산	-5118
▁집권	-5119
▁설명했습니다	-5120
▁일자리를	-5121
▁봐야	-5122
▁지역구	-5123
▁손학규	-5124
▁포럼	-5125
▁체육	-5126
▁통합진보	-5127
▁직원들이	-5128
▁교육부	-5129
시켰다	-5130
연맹	-5131
▁규모는	-5132
줘야	-5133
▁정부에	-5134
▁무엇보다	-5135
▁그러면	-5136
청년	-5137
▁영하	-5138
▁띄	-5139
사태	-5140
▁가상	-5141
▁추산	-5142
▁표준	-5143
▁운항	-5144
▁풍부	-5145
도에서	-5146
OU	-5147
▁불리는	-5148
공제	-5149
▁상승했다	-5150
▁?"	-5151
▁직전	-5152
▁사람의	-5153
▁급등	-5154
국내	-5155
케어	-5156
▁매달	-5157
▁전투	-5158
▁형태로	-5159
▁서류	-5160
▁소식을	-5161
▁위축	-5162
▁신고를	-5163
▁투명	-5164
교사	-5165
▁범행을	-5166
망을	-5167
▁경쟁력을	-5168
▁민정	-5169
▁예약	-5170
▁알려져	-5171
▁지방자치단체	-5172
▁감시	-5173
▁당의	-5174
▁나타나	-5175
▁발생할	-5176
권은	-5177
▁저작	-5178
아동	-5179
▁이뤄진	-5180
종을	-5181
▁시중	-5182
▁라인	-5183
▁발생하는	-5184
▁119	-5185
복을	-5186
주일	-5187
▁협박	-5188
▁컬	-5189
▁이래	-5190
▁문자	-5191
공공	-5192
▁실시한	-5193
방향	-5194
▁고교	-5195
▁이산	-5196
▁정착	-5197
민주화	-5198
하면서도	-5199
그러	-5200
▁회의에서	-5201
▁이씨는	-5202
많은	-5203
부담	-5204
아파트	-5205
8000	-5206
41	-5207
▁무시	-5208
9000	-5209
▁배포	-5210
▁리스크	-5211
▁포착	-5212
▁재배	-5213
▁캠페인	-5214
DI	-5215
▁같습니다	-5216
▁자전거	-5217
가포르	-5218
▁목적으로	-5219
▁홍콩	-5220
▁남성이	-5221
▁만한	-5222
인에게	-5223
▁좁	-5224
대학원	-5225
순환	-5226
▁관계를	-5227
▁절감	-5228
결을	-5229
▁여수	-5230
▁초대	-5231
해주는	-5232
▁계산	-5233
▁증언	-5234
▁측근	-5235
위원회에	-5236
바른	-5237
나다	-5238
▁벤처	-5239
▁일방	-5240
▁부분에	-5241
법으로	-5242
보수	-5243
확인	-5244
▁운전자	-5245
▁왼쪽	-5246
▁길이	-5247
▁이어지고	-5248
▁경찰의	-5249
대강	-5250
▁기타	-5251
회관에서	-5252
▁병원으로	-5253
▁본격적으로	-5254
▁점도	-5255
▁수여	-5256
▁무려	-5257
▁그가	-5258
▁2019	-5259
▁지목	-5260
▁팬	-5261
6000	-5262
비서관	-5263
▁맞은	-5264
▁추세	-5265
▁앞장	-5266
▁관여	-5267
스와	-5268
▁의미가	-5269
▁추진할	-5270
이션	-5271
▁기자의	-5272
▁새해	-5273
▁치러	-5274
▁탈북	-5275
형이	-5276
▁해제	-5277
평등	-5278
▁출국	-5279
▁똑	-5280
▁올랐	-5281
37	-5282
▁이건	-5283
▁수준이다	-5284
▁한국경제	-5285
4000	-5286
▁제공하고	-5287
400	-5288
▁외에도	-5289
니어	-5290
▁CEO	-5291
▁일시	-5292
▁정유	-5293
▁것이란	-5294
▁빛	-5295
▁5%	-5296
▁인터뷰에서	-5297
▁2004	-5298
▁동영상	-5299
장비	-5300
치게	-5301
▁더민주	-5302
▁교수가	-5303
▁원장은	-5304
비리	-5305
PC	-5306
▁신청을	-5307
놨다	-5308
▁붕괴	-5309
텔레콤	-5310
▁변호사는	-5311
▁성매매	-5312
▁과태	-5313
▁손님	-5314
...'	-5315
▁풀이된다	-5316
▁중동	-5317
수준	-5318
▁높았다	-5319
▁썼	-5320
▁만남	-5321
위원은	-5322
▁뒤를	-5323
▁배상	-5324
▁센	-5325
▁대거	-5326
▁과연	-5327
▁박정	-5328
교과	-5329
▁뚜	-5330
▁처음이다	-5331
▁이벤트를	-5332
─┼────	-5333
제주	-5334
▁41	-5335
▁낳	-5336
▁뉴시스	-5337
미를	-5338
징금	-5339
글로벌	-5340
▁김포	-5341
치료	-5342
▁방한	-5343
▁논의를	-5344
오른쪽	-5345
▁필리핀	-5346
▁준공	-5347
▁했다는	-5348
시쯤	-5349
▁된다는	-5350
▁비율이	-5351
▁민주주의	-5352
쇄신	-5353
전한	-5354
▁이유가	-5355
타운	-5356
▁바람직	-5357
▁척	-5358
했다가	-5359
▁아니고	-5360
처는	-5361
▁간담회	-5362
▁까	-5363
취업	-5364
변호	-5365
▁원장	-5366
위원회에서	-5367
▁건강보험	-5368
▁그냥	-5369
▁비율	-5370
il	-5371
▁수업	-5372
조작	-5373
센터를	-5374
▁무너	-5375
▁끝난	-5376
▁그린	-5377
▁입은	-5378
▁파트	-5379
▁전직	-5380
가정	-5381
주주	-5382
▁한일	-5383
▁금품을	-5384
▁지사는	-5385
▁비즈니스	-5386
▁무더	-5387
▁사회복지	-5388
st	-5389
▁높게	-5390
▁노선	-5391
단과	-5392
정부의	-5393
▁제시했다	-5394
(201	-5395
심히	-5396
만한	-5397
호텔에서	-5398
▁질의	-5399
여개	-5400
▁공동으로	-5401
사들이	-5402
▁장비	-5403
▁여성이	-5404
▁의원들이	-5405
▁급격	-5406
▁시가	-5407
▁이루어	-5408
▁사회공헌	-5409
▁상당한	-5410
수입	-5411
수지	-5412
계에	-5413
▁중도	-5414
▁원자력	-5415
(19	-5416
▁웹	-5417
세트	-5418
▁김현정	-5419
온라인	-5420
▁코레	-5421
▁대상이	-5422
▁단일화	-5423
▁방해	-5424
▁조사에서	-5425
▁중심의	-5426
값이	-5427
▁내다봤다	-5428
▁80%	-5429
▁꼼	-5430
자료를	-5431
▁미칠	-5432
▁명품	-5433
▁농민	-5434
수출	-5435
▁텐	-5436
▁조건	-5437
▁현장을	-5438
▁PC	-5439
▁53	-5440
▁가격을	-5441
급식	-5442
▁종사	-5443
▁따로	-5444
▁상향	-5445
남북	-5446
▁입장이다	-5447
▁부족한	-5448
▁휴대	-5449
▁아예	-5450
▁마약	-5451
화하고	-5452
▁유죄	-5453
▁600	-5454
se	-5455
▁정해	-5456
▁섭	-5457
▁전망된다	-5458
▁무게	-5459
▁목숨	-5460
▁보급	-5461
하자는	-5462
▁공부	-5463
부터는	-5464
▁사고를	-5465
~2	-5466
면에	-5467
자도	-5468
▁한전	-5469
▁민원	-5470
▁부분은	-5471
석을	-5472
▁힘든	-5473
▁조만간	-5474
▁공익	-5475
▁축하	-5476
구속	-5477
7000	-5478
리즈	-5479
▁안에서	-5480
역에	-5481
▁진행할	-5482
TE	-5483
▁좋겠다	-5484
▁자신을	-5485
▁이르면	-5486
▁사용한	-5487
▁강행	-5488
▁참여해	-5489
▁오랜	-5490
▁결정했다	-5491
▁떨어져	-5492
▁해당하는	-5493
▁남녀	-5494
▁57	-5495
어가	-5496
▁강연	-5497
▁사업은	-5498
▁56	-5499
▁밟	-5500
▁우수한	-5501
▁늘려	-5502
복합	-5503
▁내는	-5504
년째	-5505
특위	-5506
▁호주	-5507
▁산불	-5508
사람	-5509
▁경우도	-5510
▁관계자들이	-5511
▁차량을	-5512
▁부분을	-5513
지방경찰청	-5514
▁챙긴	-5515
▁인턴	-5516
▁본부	-5517
▁법조	-5518
▁신년	-5519
▁육아	-5520
▁올리	-5521
▁일은	-5522
▁지속적인	-5523
▁영양	-5524
농단	-5525
▁개장	-5526
수한	-5527
▁마치	-5528
▁원으로	-5529
▁주장이	-5530
▁떨어졌다	-5531
▁경우는	-5532
▁남자	-5533
▁기대된다	-5534
잖아요	-5535
▁농가	-5536
▁누적	-5537
▁못할	-5538
▁이뤄질	-5539
▁폴	-5540
▁곧바로	-5541
서트	-5542
▁소형	-5543
▁잡고	-5544
▁끝나	-5545
~5	-5546
국인	-5547
▁나누고	-5548
▁선고했다	-5549
▁청약	-5550
스피	-5551
▁개념	-5552
▁기자간담	-5553
자문	-5554
▁바이오	-5555
감한	-5556
▁분쟁	-5557
▁,	-5558
라스	-5559
▁의혹에	-5560
48	-5561
▁재발	-5562
상에서	-5563
▁카메라	-5564
▁사진은	-5565
▁메시지를	-5566
았고	-5567
▁하자	-5568
▁IC	-5569
▁무료로	-5570
▁분노	-5571
화하는	-5572
▁모습이	-5573
▁높였다	-5574
▁수집	-5575
▁모두발언	-5576
임대	-5577
국을	-5578
SI	-5579
시장을	-5580
허가	-5581
▁짜	-5582
바이오	-5583
르신	-5584
농협	-5585
▁인도네시아	-5586
▁비용을	-5587
▁과세	-5588
▁60%	-5589
▁실행	-5590
구나	-5591
여대	-5592
▁장병	-5593
▁검토하고	-5594
▁필요하다는	-5595
고가	-5596
▁털	-5597
▁신선	-5598
같은	-5599
ro	-5600
▁재직	-5601
▁부작용	-5602
TBC	-5603
▁사안	-5604
▁이하의	-5605
▁오피스텔	-5606
▁해양수산	-5607
.201	-5608
▁기존의	-5609
▁월드	-5610
▁사건에	-5611
었는데	-5612
▁전무	-5613
▁인용	-5614
▁쓰는	-5615
시장에	-5616
보장	-5617
▁느낌	-5618
▁추적	-5619
프로그램	-5620
▁재건축	-5621
▁미국과	-5622
동물	-5623
▁논란을	-5624
▁점유	-5625
동이	-5626
▁감축	-5627
▁말한	-5628
▁편의점	-5629
▁활성화를	-5630
▁잘못된	-5631
센터는	-5632
▁지원할	-5633
▁프랜차이즈	-5634
▁비서실	-5635
량의	-5636
▁증시	-5637
▁낭	-5638
▁대표이사	-5639
▁==	-5640
▁기계	-5641
교수	-5642
▁오염	-5643
▁슈퍼	-5644
▁서명	-5645
▁공동대표	-5646
▁대사	-5647
▁분야의	-5648
▁때도	-5649
▁비핵화	-5650
▁인간	-5651
▁발전을	-5652
▁북핵	-5653
▁비중은	-5654
▁경찰과	-5655
▁부부	-5656
1000	-5657
▁철강	-5658
▁가득	-5659
각을	-5660
▁이르는	-5661
물산	-5662
▁가계부채	-5663
▁상환	-5664
▁엇	-5665
지대	-5666
▁아르	-5667
▁수험생	-5668
새누리당	-5669
▁여러분	-5670
▁쪽으로	-5671
청와대	-5672
▁승리	-5673
▁여파	-5674
▁있다며	-5675
▁요청했다	-5676
▁세워	-5677
▁중고	-5678
▁국내에서	-5679
▁손해배상	-5680
말로	-5681
▁잠재	-5682
집행	-5683
장치	-5684
▁가맹점	-5685
AI	-5686
▁간편	-5687
▁주장을	-5688
▁없애	-5689
▁국산	-5690
▁트렌	-5691
▁후보와	-5692
▁그럼	-5693
▁본인	-5694
▁기회가	-5695
▁물을	-5696
ab	-5697
▁맞이	-5698
▁참여할	-5699
공급	-5700
▁싱가포르	-5701
▁동북	-5702
회관	-5703
울산	-5704
▁지표	-5705
▁이석	-5706
성의	-5707
▁시상	-5708
▁능력	-5709
**	-5710
▁허가	-5711
▁돈이	-5712
▁내지	-5713
▁청문회	-5714
▁세대	-5715
▁잊	-5716
늦게	-5717
원전	-5718
▁63	-5719
시설을	-5720
▁테마	-5721
▁성능	-5722
▁후보로	-5723
▁보이지	-5724
▁녹색	-5725
▁현역	-5726
▁벌인	-5727
▁실내	-5728
▁☎	-5729
심은	-5730
인터뷰	-5731
▁권한대행	-5732
47	-5733
비로	-5734
▁수리	-5735
▁냈	-5736
실은	-5737
▁면제	-5738
▁아니면	-5739
지수는	-5740
▁브라질	-5741
▁통화에서	-5742
▁빌려	-5743
▁北	-5744
어린이	-5745
▁연대	-5746
▁컨설팅	-5747
▁경주	-5748
케이션	-5749
▁설치된	-5750
▁금강	-5751
은행의	-5752
▁조례	-5753
기관의	-5754
▁부총리는	-5755
▁히	-5756
▁75	-5757
▁김병	-5758
조를	-5759
▁입고	-5760
이런	-5761
서의	-5762
▁금호	-5763
▁받아들이	-5764
▁스페	-5765
▁사흘	-5766
▁표명	-5767
▁무관	-5768
▁매출이	-5769
▁동작	-5770
▁병역	-5771
ac	-5772
▁맑	-5773
▁개선을	-5774
bo	-5775
▁남해	-5776
▁이제는	-5777
▁발령	-5778
MF	-5779
▁우리나라의	-5780
▁사전에	-5781
▁생긴	-5782
▁정밀	-5783
▁낮추	-5784
▁달했다	-5785
▁커뮤니티	-5786
▁소셜	-5787
▁리더십	-5788
화폐	-5789
▁해임	-5790
▁수백	-5791
함이	-5792
▁동양	-5793
▁방법을	-5794
▁의미를	-5795
▁입을	-5796
▁다문화	-5797
(20	-5798
▁필요하다고	-5799
▁소요	-5800
▁협력을	-5801
▁추구	-5802
▁연루	-5803
▁인천시	-5804
▁모으	-5805
▁성격	-5806
구청장	-5807
▁정도의	-5808
▁이사회	-5809
시대	-5810
신의	-5811
▁크리스	-5812
인터넷	-5813
▁민족	-5814
▁그만큼	-5815
희망	-5816
인증	-5817
학을	-5818
대한민국	-5819
▁니	-5820
▁식으로	-5821
▁시즌	-5822
상승	-5823
물가	-5824
개월간	-5825
▁보좌	-5826
·4	-5827
드러	-5828
▁긴장	-5829
▁깊은	-5830
음이	-5831
▁근절	-5832
천시	-5833
▁美	-5834
▁58	-5835
▁생각하는	-5836
▁담보	-5837
협상	-5838
▁사업이	-5839
소장	-5840
▁금품	-5841
▁마련했다	-5842
▁위에	-5843
▁세미나	-5844
▁★	-5845
▁제약	-5846
(15	-5847
▁임기	-5848
▁농식품	-5849
▁국감	-5850
일자리	-5851
▁쓰레	-5852
스플레이	-5853
▁내놓은	-5854
▁성장을	-5855
▁태양광	-5856
▁구분	-5857
희정	-5858
▁미래를	-5859
▁구체적으로	-5860
▁닭	-5861
▁전화를	-5862
▁초반	-5863
지인	-5864
▁추진하는	-5865
▁존중	-5866
▁창의	-5867
▁좋지	-5868
▁대통령에게	-5869
▁"'	-5870
▁경험을	-5871
▁당분간	-5872
▁변화가	-5873
▁열렸다	-5874
회의에	-5875
▁서부	-5876
사용	-5877
▁별도로	-5878
인상	-5879
학년도	-5880
▁순으로	-5881
▁인적	-5882
▁비율은	-5883
▁그쳤다	-5884
▁그게	-5885
▁차원의	-5886
천억원	-5887
▁대체로	-5888
▁을	-5889
▁경계	-5890
랍니다	-5891
▁설비	-5892
▁현직	-5893
▁마련해	-5894
▁재보	-5895
▁것이고	-5896
▁적립	-5897
▁주유	-5898
▁팽	-5899
▁맡은	-5900
▁기록한	-5901
▁자진	-5902
▁전체의	-5903
▁======	-5904
스마트	-5905
▁양산	-5906
▁정지	-5907
▁강요	-5908
▁한국인	-5909
▁상가	-5910
▁내외	-5911
오고	-5912
▁하락했다	-5913
▁성인	-5914
층에	-5915
▁안심	-5916
회로	-5917
▁강화하고	-5918
보겠습니다	-5919
조트	-5920
▁어린	-5921
▁드러나	-5922
▁시위	-5923
36	-5924
계좌	-5925
▁자금을	-5926
▁나아가	-5927
▁일환	-5928
출산	-5929
▁b	-5930
▁어려울	-5931
▁건조	-5932
▁달한다	-5933
▁사람들	-5934
▁민정수석	-5935
▁국민을	-5936
▁서대문	-5937
▁권리	-5938
중소기업	-5939
▁창립	-5940
▁여야가	-5941
▁숫	-5942
▁정부서울	-5943
정으로	-5944
▁디지털뉴스	-5945
▁이번이	-5946
▁하나의	-5947
▁있으나	-5948
년과	-5949
▁대비해	-5950
┤│	-5951
▁빗	-5952
▁본격화	-5953
▁연봉	-5954
▁전망이	-5955
▁침체	-5956
▁공개했다	-5957
▁지역을	-5958
경원	-5959
▁갚	-5960
▁쇼핑몰	-5961
▁기업에	-5962
▁맡고	-5963
▁신체	-5964
었다고	-5965
자재	-5966
▁묶	-5967
▁공포	-5968
▁이혼	-5969
▁도박	-5970
식은	-5971
tp	-5972
▁워크	-5973
▁패키	-5974
▁제고	-5975
▁포함된	-5976
이로	-5977
▁맹	-5978
▁한마	-5979
예방	-5980
▁사립	-5981
▁집을	-5982
▁늘어날	-5983
▁정세	-5984
여서	-5985
▁말씀드	-5986
▁계기가	-5987
▁잠시	-5988
▁용의	-5989
▁시점	-5990
38	-5991
▁잡아	-5992
세한	-5993
▁선거구	-5994
▁협의를	-5995
▁진행됐다	-5996
▁구현	-5997
▁세력	-5998
라우	-5999
▁서울고	-6000
▁중순	-6001
▁강서	-6002
동조합	-6003
천억	-6004
터미널	-6005
▁기념촬영	-6006
▁함께하는	-6007
▁지지율	-6008
▁확인하고	-6009
스티벌	-6010
▁질환	-6011
▁진행되는	-6012
▁대법관	-6013
제와	-6014
일의	-6015
만원에	-6016
▁지낸	-6017
▁갤럭시	-6018
▁문건	-6019
▁측에	-6020
▁신호	-6021
토록	-6022
▁입장이	-6023
▁기업들이	-6024
▁역량을	-6025
▁곡	-6026
▁고성	-6027
▁세금을	-6028
퍼스	-6029
▁파트너	-6030
▁통일부	-6031
”,	-6032
▁방치	-6033
트리	-6034
행동	-6035
▁경력	-6036
▁몰려	-6037
▁있으	-6038
이스	-6039
▁54	-6040
▁수렴	-6041
//	-6042
▁방안도	-6043
▁JTBC	-6044
▁준다	-6045
▁미국이	-6046
당시	-6047
단독	-6048
▁수사가	-6049
▁소외	-6050
전형	-6051
소와	-6052
http	-6053
럴드	-6054
▁조사에	-6055
상정	-6056
수급	-6057
▁분들이	-6058
▁판결을	-6059
▁경제가	-6060
▁제품은	-6061
▁비교해	-6062
란드	-6063
클럽	-6064
된다고	-6065
농업	-6066
700	-6067
▁없도록	-6068
류가	-6069
▁정책위의	-6070
▁이승	-6071
▁유포	-6072
포트	-6073
▁종교	-6074
권과	-6075
▁사실은	-6076
담보	-6077
▁지사	-6078
▁높이고	-6079
▁청와대가	-6080
역사	-6081
▁국정감	-6082
▁가중	-6083
▁시행령	-6084
마크	-6085
다음	-6086
▁궁금	-6087
▁공략	-6088
이었습니다	-6089
▁강의	-6090
▁측의	-6091
▁강도	-6092
▁앞으로도	-6093
▁진영	-6094
▁농산물	-6095
://	-6096
▁연방	-6097
▁일어나	-6098
▁발견된	-6099
행복	-6100
푸드	-6101
▁직원이	-6102
힌다	-6103
남부	-6104
▁매수	-6105
▁직권	-6106
▁상관	-6107
▁깔	-6108
▁연다	-6109
▁세종시	-6110
당에	-6111
서도	-6112
▁왜곡	-6113
▁주민들이	-6114
▁득	-6115
▁봤다	-6116
▁진화	-6117
▁선관	-6118
▁아닙	-6119
속보	-6120
▁나무	-6121
전국	-6122
▁체감	-6123
▁비공개	-6124
▁연구개발	-6125
▁증인	-6126
▁0.0	-6127
먼트	-6128
▁전후	-6129
분양	-6130
▁특징이다	-6131
▁당원	-6132
박물	-6133
▁탑재	-6134
방해	-6135
▁혹은	-6136
▁자리에	-6137
캠프	-6138
▁경제의	-6139
▁국무총	-6140
▁라디오	-6141
▁다수	-6142
릭터	-6143
▁논의가	-6144
▁열심히	-6145
선은	-6146
억여	-6147
▁강화를	-6148
직자	-6149
▁탓에	-6150
기본	-6151
하다가	-6152
▁더해	-6153
하시	-6154
▁가능성은	-6155
▁전형	-6156
학습	-6157
▁합의를	-6158
▁분석이	-6159
55	-6160
▁안전한	-6161
▁원활	-6162
▁노동자	-6163
▁덮	-6164
▁가공	-6165
▁바랍니다	-6166
TF	-6167
▁결정할	-6168
▁공기	-6169
호기	-6170
▁갖춰	-6171
▁전공	-6172
▁묻는	-6173
국민의	-6174
▁융합	-6175
▁고정	-6176
ch	-6177
▁쓰고	-6178
▁고문	-6179
▁런	-6180
▁거래를	-6181
▁진행했다	-6182
▁국민들이	-6183
▁연설	-6184
일인	-6185
▁소폭	-6186
▁부장판사	-6187
”...	-6188
▁그간	-6189
파이	-6190
▁최경환	-6191
▁직장인	-6192
▁예를	-6193
▁유권자	-6194
▁부각	-6195
동구	-6196
사회의	-6197
▁열차	-6198
▁일상	-6199
유를	-6200
비서	-6201
▁삶의	-6202
된다는	-6203
금으로	-6204
내가	-6205
▁내년부터	-6206
▁나타났습니다	-6207
▁상습	-6208
▁생각해	-6209
▁제공할	-6210
NG	-6211
▁3%	-6212
이기도	-6213
▁방향을	-6214
▁폭로	-6215
▁삶을	-6216
차례에	-6217
▁KTX	-6218
▁명시	-6219
▁칠	-6220
네트워크	-6221
▁탁	-6222
▁천연	-6223
▁김대중	-6224
나요	-6225
▁다녀	-6226
방안을	-6227
▁된다고	-6228
▁알려졌습니다	-6229
▁눈이	-6230
▁명을	-6231
지어	-6232
▁아무런	-6233
▁유형	-6234
▁선진국	-6235
▁예산안	-6236
▁광복	-6237
▁씨와	-6238
▁화성	-6239
▁생각합니다	-6240
▁배달	-6241
▁갈수록	-6242
▁선포	-6243
▁반기	-6244
▁항소심	-6245
나눔	-6246
39	-6247
터리	-6248
▁위조	-6249
선수	-6250
▁경찰관	-6251
낙연	-6252
▁간호	-6253
▁것인지	-6254
▁농림축산	-6255
▁않을까	-6256
▁문화체육관광	-6257
운동을	-6258
▁행위를	-6259
▁성향	-6260
차별	-6261
예요	-6262
▁판매한다	-6263
▁사무실	-6264
▁착용	-6265
▁잠정	-6266
뱅크	-6267
▁해고	-6268
▁보도입니다	-6269
▁가수	-6270
▁곳에	-6271
▁측정	-6272
▁은퇴	-6273
▁전략을	-6274
▁경제부총리	-6275
▁경위를	-6276
▁반대하는	-6277
▁이영	-6278
▁한해	-6279
▁대안	-6280
▁불출	-6281
▁상태로	-6282
▁대우조선	-6283
곳의	-6284
▁기름	-6285
됨에	-6286
▁끈	-6287
▁공방	-6288
아버	-6289
▁목격	-6290
▁다행	-6291
계획을	-6292
TX	-6293
▁속도를	-6294
지난해	-6295
▁과정에	-6296
시장은	-6297
광역	-6298
▁롯데마트	-6299
교육을	-6300
▁아니라고	-6301
▁협상을	-6302
팀이	-6303
▁갔	-6304
▁먹고	-6305
▁위탁	-6306
▁하던	-6307
▁결합	-6308
▁발인	-6309
▁부지	-6310
▁51	-6311
▁집에	-6312
▁인지	-6313
▁복원	-6314
물로	-6315
규제	-6316
가치	-6317
사기	-6318
▁총장은	-6319
▁한국과	-6320
정책을	-6321
▁네이버	-6322
▁시신	-6323
▁심판	-6324
▁의식	-6325
▁북한에	-6326
▁2003	-6327
▁방법으로	-6328
▁방역	-6329
▁유치원	-6330
곳이	-6331
▁국회가	-6332
▁새누리당이	-6333
▁방식을	-6334
▁행정안전	-6335
▁바이러스	-6336
▁방침을	-6337
▁기자회견에서	-6338
▁85	-6339
·13	-6340
▁촉구하는	-6341
▁영남	-6342
탄을	-6343
▁고객이	-6344
▁나선다	-6345
소비자	-6346
은행이	-6347
▁법제	-6348
부로	-6349
도급	-6350
▁유발	-6351
▁비교적	-6352
모임	-6353
▁휴가	-6354
자금을	-6355
▁걸어	-6356
▁높이는	-6357
▁지원한다	-6358
▁2002	-6359
▁김한	-6360
▁가야	-6361
학회	-6362
▁구형	-6363
▁말씀을	-6364
▁핀	-6365
▁면세점	-6366
▁담아	-6367
계는	-6368
▁연예	-6369
▁그만	-6370
궐선거	-6371
▁모니터링	-6372
미애	-6373
▁사건은	-6374
▁한우	-6375
목의	-6376
▁행사에	-6377
심한	-6378
▁분위기를	-6379
▁지역은	-6380
▁전부터	-6381
주식	-6382
단장	-6383
▁복잡	-6384
▁이란	-6385
▁토지	-6386
▁정식	-6387
▁응원	-6388
▁엇갈	-6389
재난	-6390
▁가이드	-6391
방지	-6392
세력	-6393
정신	-6394
▁독도	-6395
리도	-6396
▁감소한	-6397
▁기대하고	-6398
어난	-6399
▁전격	-6400
▁가짜	-6401
▁한때	-6402
▁일관	-6403
▁한중	-6404
보기	-6405
▁본사	-6406
ll	-6407
그룹의	-6408
▁감면	-6409
▁교섭	-6410
▁참여를	-6411
▁태극	-6412
여명의	-6413
▁실효	-6414
▁어르신	-6415
▁발부	-6416
▁벤	-6417
▁목숨을	-6418
▁대국민	-6419
▁롯데백화점	-6420
▁250	-6421
전남	-6422
▁한국에	-6423
배를	-6424
2,	-6425
전기	-6426
▁원고	-6427
▁경제를	-6428
란히	-6429
▁박사	-6430
▁엄청	-6431
▁66	-6432
▁학생들의	-6433
▁고속	-6434
▁지원하고	-6435
습기	-6436
▁하더라도	-6437
▁들어갔다	-6438
내기	-6439
▁선보인다	-6440
들로부터	-6441
▁제보	-6442
▁아베	-6443
로드	-6444
▁실질적인	-6445
▁개정안을	-6446
▁균형	-6447
▁조항	-6448
▁또다시	-6449
▁고등학교	-6450
▁탄생	-6451
집을	-6452
▁진행되고	-6453
▁셀	-6454
광장	-6455
▁비준	-6456
▁2%	-6457
▁편리	-6458
▁경남도	-6459
▁이낙연	-6460
른다	-6461
레이드	-6462
▁국가정보	-6463
▁지도부	-6464
▁별세	-6465
▁공기업	-6466
▁일고	-6467
▁평생	-6468
봅니다	-6469
미디어	-6470
▁체제	-6471
하라는	-6472
브랜드	-6473
▁발휘	-6474
▁하락한	-6475
루킹	-6476
세훈	-6477
하세요	-6478
위험	-6479
청에서	-6480
천원	-6481
▁캐릭터	-6482
▁현상이	-6483
자들과	-6484
기한	-6485
스에	-6486
▁가졌다	-6487
▁적용해	-6488
▁애초	-6489
▁영입	-6490
▁양도	-6491
▁심화	-6492
보안	-6493
▁안정적인	-6494
▁이재명	-6495
국대	-6496
발을	-6497
▁보일	-6498
▁명령	-6499
▁아이템	-6500
과정에서	-6501
단으로	-6502
▁감정	-6503
▁수익을	-6504
▁보유하고	-6505
▁이탈리아	-6506
청구	-6507
받침	-6508
▁이익을	-6509
▁활용할	-6510
▁삼성전자는	-6511
결제	-6512
진은	-6513
고등학교	-6514
▁방위	-6515
▁공개한	-6516
십자	-6517
▁점점	-6518
▁특파	-6519
▁집에서	-6520
▁68	-6521
기반	-6522
▁나서고	-6523
34	-6524
▁것인가	-6525
개정	-6526
▁중국이	-6527
▁받기	-6528
절한	-6529
▁정동	-6530
지며	-6531
▁로봇	-6532
▁수학	-6533
▁매체	-6534
▁캐나다	-6535
▁밀양	-6536
▁분당	-6537
치의	-6538
▁음성	-6539
▁제기한	-6540
▁대출을	-6541
▁철저한	-6542
▁이밖에	-6543
▁해킹	-6544
채권	-6545
▁다짐	-6546
부동산	-6547
▁매주	-6548
▁상봉	-6549
문에	-6550
▁재미	-6551
월말	-6552
▁일부를	-6553
바마	-6554
스쿨	-6555
▁포털	-6556
▁후보자가	-6557
▁환자가	-6558
전시	-6559
.5%)	-6560
▁의원들은	-6561
▁경제성장	-6562
▁해결을	-6563
▁신제품	-6564
▁신뢰를	-6565
화는	-6566
▁중대	-6567
사이	-6568
▁이송	-6569
▁o	-6570
▁노하우	-6571
위안	-6572
mb	-6573
▁저렴한	-6574
▁고향	-6575
지표	-6576
▁추첨	-6577
▁벌였다	-6578
수와	-6579
▁기업은	-6580
▁기간에	-6581
로그	-6582
▁84	-6583
▁국민들의	-6584
소시	-6585
▁돌아가	-6586
겨레	-6587
han	-6588
▁통합진보당	-6589
비와	-6590
▁별도의	-6591
싱턴	-6592
리면	-6593
▁확대해	-6594
▁이용하는	-6595
▁입국	-6596
HA	-6597
68	-6598
면으로	-6599
었을	-6600
▁700	-6601
▁됐습니다	-6602
▁지적도	-6603
▁사람들은	-6604
▁지명	-6605
층이	-6606
▁양측	-6607
▁의원도	-6608
▁진술을	-6609
▁의존	-6610
▁선정된	-6611
▁강조했습니다	-6612
▁게재	-6613
▁관행	-6614
▁감찰	-6615
▁국세	-6616
▁있었지만	-6617
회복	-6618
▁확진	-6619
운드	-6620
금리를	-6621
료가	-6622
▁창조경제	-6623
▁국민에게	-6624
▁인양	-6625
▁성범죄	-6626
뉴얼	-6627
개편	-6628
▁과학기술	-6629
▁값	-6630
절차	-6631
▁첫날	-6632
▁이어졌다	-6633
교육감	-6634
▁모두가	-6635
▁나타냈다	-6636
▁빙	-6637
▁OECD	-6638
▁오찬	-6639
교류	-6640
라면서	-6641
▁군산	-6642
▁퇴진	-6643
▁개발한	-6644
▁판문	-6645
▁기업을	-6646
▁요구를	-6647
우디	-6648
▁이들을	-6649
례를	-6650
▁구속기소	-6651
▁가서	-6652
▁배려	-6653
▁서구	-6654
▁신중	-6655
시간을	-6656
▁홈플러스	-6657
그런	-6658
▁당한	-6659
췄다	-6660
▁청소	-6661
졌다고	-6662
▁가시	-6663
투쟁	-6664
▁NH	-6665
면이	-6666
▁보여주는	-6667
▁높여	-6668
▁일각에서는	-6669
▁소녀	-6670
마리	-6671
안철수	-6672
▁숙박	-6673
유럽	-6674
▁전달했다	-6675
.3%)	-6676
▁드라마	-6677
▁출마를	-6678
▁스위	-6679
▁상승한	-6680
75	-6681
경련	-6682
최순실	-6683
광고	-6684
▁지난주	-6685
▁멘	-6686
▁리얼	-6687
사무소	-6688
행위를	-6689
▁문제와	-6690
▁기반으로	-6691
작업을	-6692
▁뒷받침	-6693
▁자제	-6694
▁연출	-6695
▁신분으로	-6696
▁회장과	-6697
▁확대를	-6698
▁몽	-6699
▁아버지	-6700
(11	-6701
▁--	-6702
여명	-6703
▁엄격	-6704
▁항상	-6705
▁풀어	-6706
▁中	-6707
▁삭제	-6708
MC	-6709
▁쇼	-6710
견을	-6711
▁숲	-6712
▁맞추	-6713
▁64	-6714
해왔	-6715
앞으로도	-6716
간다	-6717
▁상업	-6718
▁영상을	-6719
신한	-6720
전용	-6721
▁환경부	-6722
▁주목된다	-6723
▁축구	-6724
▁예정된	-6725
▁물어	-6726
평을	-6727
▁담겨	-6728
▁그리스	-6729
검토	-6730
▁부대	-6731
(-0.	-6732
나마	-6733
▁훈	-6734
▁베이징	-6735
▁초래	-6736
▁반려	-6737
시와	-6738
▁대표이	-6739
홈쇼핑	-6740
▁이어지는	-6741
▁가전	-6742
▁세계적인	-6743
▁토론회	-6744
▁흘러	-6745
▁이뤄지지	-6746
▁세제	-6747
▁수차례	-6748
점과	-6749
▁완공	-6750
▁받아야	-6751
▁부패	-6752
▁스토	-6753
위원장을	-6754
▁의원총	-6755
▁특파원	-6756
▁남양	-6757
피아	-6758
▁원에	-6759
▁부친	-6760
▁순매	-6761
▁사내	-6762
프라인	-6763
브리핑	-6764
연한	-6765
부대	-6766
전환	-6767
판에	-6768
서로	-6769
▁않는다는	-6770
▁측면에서	-6771
어로	-6772
69	-6773
▁회장을	-6774
▁먹는	-6775
하우스	-6776
▁안전을	-6777
나갈	-6778
▁남북관계	-6779
공연	-6780
비율	-6781
▁제시한	-6782
▁대변인	-6783
▁명목으로	-6784
▁느낄	-6785
▁재판을	-6786
▁다이	-6787
▁충족	-6788
▁지침	-6789
▁촉진	-6790
▁않게	-6791
▁뒤늦게	-6792
▁떼	-6793
▁사장이	-6794
▁맞서	-6795
▁주장하는	-6796
녹취	-6797
▁차량이	-6798
▁착공	-6799
▁휩	-6800
▁코엑스	-6801
▁높아지고	-6802
▁참가한	-6803
박람회	-6804
▁급락	-6805
리면서	-6806
▁이번에는	-6807
▁회원들이	-6808
▁삼성물산	-6809
▁업체가	-6810
▁유병	-6811
··	-6812
▁둔화	-6813
▁독자	-6814
▁항목	-6815
▁800	-6816
▁과도한	-6817
▁가격에	-6818
▁저장	-6819
해질	-6820
▁빠진	-6821
▁전국의	-6822
▁따뜻한	-6823
서와	-6824
▁선보이고	-6825
▁금감원	-6826
하신	-6827
▁불참	-6828
▁닫	-6829
▁전부	-6830
▁않습니다	-6831
·2	-6832
▁한층	-6833
원자력	-6834
▁않다는	-6835
▁용역	-6836
▁정관용	-6837
▁빼돌	-6838
▁현대자동차	-6839
상과	-6840
▁중국인	-6841
▁최근에는	-6842
길이	-6843
▁없지만	-6844
·3	-6845
▁추미애	-6846
▁농림축산식품	-6847
내용	-6848
▁샤	-6849
OC	-6850
▁갈등을	-6851
같이	-6852
▁최악	-6853
주간	-6854
▁소프트	-6855
일반	-6856
▁능력을	-6857
▁국가의	-6858
▁밝히고	-6859
▁시달	-6860
▁마련됐다	-6861
설계	-6862
▁마음이	-6863
▁중학교	-6864
▁도는	-6865
특히	-6866
▁의원들의	-6867
▁당국은	-6868
처가	-6869
▁재활	-6870
▁아름다운	-6871
▁정책에	-6872
물에	-6873
드로	-6874
▁카톡	-6875
▁대치	-6876
놀이	-6877
▁신축	-6878
▁다운	-6879
▁발견됐다	-6880
▁기상청은	-6881
▁상속	-6882
▁반성	-6883
▁오리	-6884
▁송파구	-6885
▁접속	-6886
▁방어	-6887
├────	-6888
▁이산가족	-6889
▁영역	-6890
졌다는	-6891
▁기온이	-6892
▁뭔	-6893
▁며	-6894
면세	-6895
▁공정위	-6896
▁회수	-6897
▁제안했다	-6898
▁나경원	-6899
.4%)	-6900
▁확대하고	-6901
▁취급	-6902
▁윤리	-6903
∼3	-6904
방위	-6905
▁이상으로	-6906
▁장을	-6907
개입	-6908
▁노력하겠다	-6909
▁체납	-6910
중앙회	-6911
▁느껴	-6912
.2%)	-6913
▁브리핑을	-6914
▁재배포금지	-6915
대변인은	-6916
▁의장은	-6917
▁최소한	-6918
▁복구	-6919
▁한국을	-6920
그래	-6921
▁동결	-6922
▁조심	-6923
▁박상	-6924
▁충분한	-6925
▁자료에	-6926
▁대부분의	-6927
▁자유무역	-6928
법과	-6929
전문가	-6930
료로	-6931
▁국토부	-6932
▁이화	-6933
▁병행	-6934
▁접한	-6935
대회를	-6936
제일	-6937
최고	-6938
▁주식을	-6939
▁불공정	-6940
▁위헌	-6941
물의	-6942
▁달려	-6943
▁헤럴드	-6944
▁진실	-6945
▁미군	-6946
▁동생	-6947
▁항공기	-6948
해달라	-6949
▁단행	-6950
디자인	-6951
▁매출액	-6952
어촌	-6953
일리	-6954
IP	-6955
▁북구	-6956
년만에	-6957
▁식당	-6958
▁통행	-6959
▁아웃	-6960
▁조합원	-6961
▁재단	-6962
▁사건과	-6963
▁전수	-6964
▁당연히	-6965
▁소개했다	-6966
▁준비를	-6967
▁판사	-6968
멤버	-6969
▁논의할	-6970
▁유의	-6971
▁vs	-6972
▁방북	-6973
▁마쳤다	-6974
▁계획입니다	-6975
▁있느냐	-6976
▁뚜렷	-6977
▁기소됐다	-6978
▁67	-6979
파업	-6980
두환	-6981
▁관람객	-6982
▁한국은	-6983
▁조명	-6984
▁원래	-6985
채널	-6986
필요	-6987
▁일하는	-6988
체인	-6989
▁장성	-6990
업종	-6991
▁미흡	-6992
.7%)	-6993
과세	-6994
▁최적	-6995
주도	-6996
67	-6997
▁적정	-6998
질의	-6999
(12	-7000
르지	-7001
▁진행한	-7002
▁자회사	-7003
▁처분을	-7004
▁맞게	-7005
▁우려를	-7006
▁사례를	-7007
▁포장	-7008
▁꼽았다	-7009
▁세탁	-7010
▁EU	-7011
▁구름	-7012
▁대통령에	-7013
석이	-7014
▁한달	-7015
▁방안이	-7016
▁긍정적인	-7017
초등학교	-7018
▁쓰러	-7019
▁자원봉사	-7020
▁입장에서	-7021
▁도주	-7022
▁야간	-7023
▁이병	-7024
▁정몽	-7025
▁구글	-7026
▁규명	-7027
▁행진	-7028
층을	-7029
▁월급	-7030
.6%)	-7031
▁공조	-7032
보도	-7033
.8%)	-7034
▁열려	-7035
▁소상공인	-7036
▁부근	-7037
▁이메	-7038
▁훔친	-7039
▁90%	-7040
화의	-7041
▁이성	-7042
▁론	-7043
해외	-7044
▁딱	-7045
▁섭취	-7046
▁국정조사	-7047
▁행사가	-7048
▁이완	-7049
국제공항	-7050
.1%)	-7051
▁검사를	-7052
콘텐츠	-7053
▁사찰	-7054
▁점은	-7055
▁대만	-7056
49	-7057
▁판단을	-7058
▁역량	-7059
▁쾌	-7060
▁긴밀	-7061
▁무효	-7062
▁꼬집	-7063
▁남북정상회담	-7064
화한	-7065
▁공사를	-7066
설명	-7067
사업에	-7068
(18	-7069
▁위법	-7070
▁회사의	-7071
▁정도가	-7072
되도록	-7073
▁아프리카	-7074
교육청은	-7075
커피	-7076
▁내년도	-7077
(0	-7078
노인	-7079
▁네티즌들은	-7080
▁제품의	-7081
졌지만	-7082
▁상한	-7083
▁흡연	-7084
▁동구	-7085
세무	-7086
▁기후	-7087
▁얻고	-7088
▁최고위원은	-7089
▁진짜	-7090
희롱	-7091
▁높이기	-7092
대체	-7093
▁힐	-7094
▁사이에서	-7095
▁요구하고	-7096
▁확인했다	-7097
보조	-7098
▁짚	-7099
▁해체	-7100
청장	-7101
강원	-7102
개인	-7103
군에	-7104
▁예상되는	-7105
▁돼야	-7106
▁최신	-7107
▁조절	-7108
▁후보자의	-7109
▁○	-7110
▁조사할	-7111
▁서울에서	-7112
et	-7113
▁선거운동	-7114
류의	-7115
▁수강	-7116
▁년	-7117
▁중기	-7118
▁살고	-7119
론이	-7120
▁맨	-7121
▁진도	-7122
▁김장	-7123
▁지난해보다	-7124
금속	-7125
▁번호	-7126
회의실에서	-7127
▁연수	-7128
계열	-7129
▁가게	-7130
▁시작해	-7131
▁임종	-7132
▁목표를	-7133
▁규제를	-7134
▁제기됐다	-7135
▁주지	-7136
▁수영	-7137
▁뒤에	-7138
세의	-7139
▁연내	-7140
▁갈등이	-7141
▁간단	-7142
▁소장	-7143
와는	-7144
▁이재용	-7145
▁노동당	-7146
님이	-7147
▁경험이	-7148
▁여권	-7149
▁벌써	-7150
TI	-7151
~6	-7152
하겠습니다	-7153
선으로	-7154
▁4000	-7155
go	-7156
▁쇠	-7157
▁술을	-7158
▁가속	-7159
▁규모를	-7160
▁펴	-7161
▁가고	-7162
▁논란에	-7163
▁맞지	-7164
▁가르	-7165
카페	-7166
▁로비	-7167
▁결론을	-7168
▁오바마	-7169
▁장관과	-7170
▁둘째	-7171
▁정치를	-7172
▁증여	-7173
▁진행될	-7174
▁집회를	-7175
▁증가하고	-7176
~201	-7177
▁행태	-7178
▁야외	-7179
▁실적을	-7180
▁기업들의	-7181
▁나타난	-7182
▁마련한	-7183
통을	-7184
▁부르는	-7185
▁체크	-7186
▁유세	-7187
▁맡아	-7188
▁미래에	-7189
▁제기했다	-7190
▁관할	-7191
▁생각하고	-7192
▁아이를	-7193
▁줄여	-7194
▁확인한	-7195
체제	-7196
▁간담회를	-7197
▁있었습니다	-7198
▁발간	-7199
채용	-7200
▁청와대에서	-7201
▁확대할	-7202
전망	-7203
하기는	-7204
▁박모	-7205
▁달라고	-7206
▁..."	-7207
▁예정인	-7208
▁끌어올	-7209
성도	-7210
군을	-7211
▁사업의	-7212
공사가	-7213
▁반기문	-7214
▁BMW	-7215
▁저지른	-7216
▁요구한	-7217
▁조사결과	-7218
SNS	-7219
▁계파	-7220
상환	-7221
국에	-7222
출을	-7223
친다	-7224
교조	-7225
▁열리고	-7226
▁작동	-7227
벨트	-7228
▁반박했다	-7229
▁문제의	-7230
EU	-7231
명이다	-7232
▁인민	-7233
▁두산	-7234
벤션	-7235
▁이곳	-7236
▁야당의	-7237
▁모르는	-7238
▁전과	-7239
▁성실	-7240
▁르	-7241
산업의	-7242
▁고객에게	-7243
주에	-7244
▁특별법	-7245
▁주행	-7246
제재	-7247
▁2~3	-7248
▁서울시가	-7249
▁테이	-7250
▁겹	-7251
명에서	-7252
▁현상	-7253
의약품	-7254
선진	-7255
▁미술	-7256
▁朴	-7257
▁역임	-7258
▁계란	-7259
▁경매	-7260
▁사후	-7261
서비스를	-7262
▁법원은	-7263
▁말해	-7264
신도시	-7265
개사	-7266
▁보건복지부	-7267
제조	-7268
▁이인	-7269
▁금융위기	-7270
▁대상은	-7271
경향포토	-7272
▁용산구	-7273
▁만기	-7274
스럽다	-7275
▁건강한	-7276
▁남구	-7277
▁결과는	-7278
▁있어요	-7279
관으로	-7280
가입	-7281
였지만	-7282
▁협력업체	-7283
▁진행하는	-7284
▁마포구	-7285
▁==========	-7286
▁하향	-7287
▁발표할	-7288
집니다	-7289
▁총리가	-7290
▁현대중공업	-7291
▁별다른	-7292
▁공인	-7293
▁빅데이터	-7294
▁김성태	-7295
▁대대	-7296
▁국내에	-7297
가락	-7298
.9%)	-7299
▁자발	-7300
▁관계가	-7301
▁반등	-7302
▁분야에	-7303
▁이전에	-7304
▁내릴	-7305
▁文	-7306
▁예상했다	-7307
▁위원장의	-7308
▁매월	-7309
▁응시	-7310
:00	-7311
레인	-7312
▁알게	-7313
지점	-7314
지하	-7315
▁앉아	-7316
실질	-7317
대선	-7318
나라는	-7319
▁사용해	-7320
▁한파	-7321
▁김수	-7322
▁차를	-7323
▁입사	-7324
▁훌	-7325
▁펜	-7326
▁끝까지	-7327
▁수많은	-7328
규칙에	-7329
▁대가로	-7330
증이	-7331
상공회의	-7332
탱크	-7333
▁노원	-7334
▁정례	-7335
▁의류	-7336
▁도쿄	-7337
▁받아들여	-7338
부품	-7339
▁웨	-7340
33	-7341
▁공통	-7342
▁구미	-7343
▁자극	-7344
▁수준에	-7345
▁결코	-7346
▁안타까	-7347
금액	-7348
집회	-7349
▁고객의	-7350
▁※	-7351
▁민주당이	-7352
▁머리	-7353
화재	-7354
해지고	-7355
▁강화하는	-7356
▁적절한	-7357
▁발생해	-7358
▁김동연	-7359
안과	-7360
▁대한민국의	-7361
▁여부에	-7362
▁판매하는	-7363
▁관리를	-7364
▁동대문	-7365
▁많고	-7366
홀에서	-7367
you	-7368
▁거래일	-7369
▁동시	-7370
▁환경을	-7371
담보대출	-7372
▁늘어나는	-7373
금과	-7374
▁부정적	-7375
▁쏘	-7376
▁아직도	-7377
▁다하겠다	-7378
달아	-7379
루션	-7380
정보를	-7381
▁동영	-7382
▁다르다	-7383
전화	-7384
▁구상	-7385
am	-7386
de	-7387
▁일환으로	-7388
▁p	-7389
▁진상규	-7390
▁국고	-7391
▁아이폰	-7392
▁당대표	-7393
▁휘발	-7394
▁파이	-7395
~8	-7396
체의	-7397
▁발표하고	-7398
통신사	-7399
▁영동	-7400
도어	-7401
▁힘입	-7402
▁해운대	-7403
▁세계일보	-7404
▁군은	-7405
사항을	-7406
▁의도	-7407
주차	-7408
▁저작권을	-7409
잡고	-7410
▁막을	-7411
▁조회	-7412
▁찾을	-7413
▁유아	-7414
식과	-7415
▁점이다	-7416
석유	-7417
▁의원에	-7418
▁구성해	-7419
▁집중적으로	-7420
▁관측이	-7421
▁찾아가	-7422
▁이사장은	-7423
▁일산	-7424
▁이준	-7425
▁비전	-7426
▁렌	-7427
차관	-7428
실적	-7429
▁보복	-7430
▁속도	-7431
▁순환	-7432
피고	-7433
▁매도	-7434
▁정책이	-7435
지역에	-7436
하더라도	-7437
▁국회를	-7438
인구	-7439
지요	-7440
양을	-7441
▁해명했다	-7442
▁시민들의	-7443
▁찾기	-7444
▁공군	-7445
▁원이	-7446
▁사람들의	-7447
▁추정되는	-7448
▁민주화	-7449
▁참배	-7450
▁법인세	-7451
소한	-7452
▁스타트	-7453
▁대립	-7454
▁필요성을	-7455
▁그에	-7456
폭이	-7457
SS	-7458
▁거치	-7459
▁●	-7460
범위	-7461
▁주민들의	-7462
고한	-7463
야말로	-7464
연구원은	-7465
▁근처	-7466
산이	-7467
▁열릴	-7468
처장	-7469
▁입점	-7470
▁날씨	-7471
▁성장률	-7472
두에	-7473
홍보	-7474
her	-7475
NA	-7476
▁파리	-7477
▁위기를	-7478
노동조합	-7479
▁전날보다	-7480
▁분기	-7481
▁전기차	-7482
▁정치인	-7483
▁정부세종	-7484
▁깨끗	-7485
진과	-7486
▁사회의	-7487
▁이뤄졌다	-7488
▁취지	-7489
▁확보한	-7490
기관이	-7491
스탄	-7492
일까	-7493
▁전당대회	-7494
▁나이	-7495
지원센터	-7496
▁곳에서	-7497
▁위기에	-7498
▁의혹과	-7499
▁야당이	-7500
하셨	-7501
화해	-7502
▁사태가	-7503
▁씨에게	-7504
▁인사말을	-7505
▁개의	-7506
물은	-7507
그룹이	-7508
▁중점	-7509
▁치열한	-7510
▁무인	-7511
▁전파	-7512
▁적자	-7513
술을	-7514
자연	-7515
▁교과서	-7516
▁태국	-7517
▁별도	-7518
▁공직선거	-7519
수하고	-7520
▁발주	-7521
▁개시	-7522
▁고위급	-7523
···	-7524
▁기원	-7525
▁상인	-7526
▁부정적인	-7527
제약	-7528
▁문화재	-7529
지능	-7530
번에	-7531
▁양적	-7532
▁영향이	-7533
▁책임이	-7534
▁갖추고	-7535
▁프로모	-7536
▁있었고	-7537
▁동네	-7538
iz	-7539
▁떠올	-7540
▁가능해	-7541
쪽으로	-7542
▁선대	-7543
▁종전	-7544
▁동아일보	-7545
▁본인이	-7546
95	-7547
and	-7548
할지	-7549
▁말하는	-7550
▁유지하고	-7551
▁뒤집	-7552
▁치킨	-7553
리게	-7554
▁법원이	-7555
과거	-7556
▁심사를	-7557
견기업	-7558
▁프레	-7559
스테	-7560
▁호흡	-7561
▁불을	-7562
▁분위기가	-7563
아직	-7564
▁그렇다면	-7565
▁뮤	-7566
치로	-7567
사장	-7568
▁의정부	-7569
▁창당	-7570
▁앓	-7571
▁분열	-7572
▁주변에	-7573
▁신용등급	-7574
포먼	-7575
▁장례식	-7576
▁새누리당의	-7577
▁대량	-7578
▁타이	-7579
▁어렵다는	-7580
금의	-7581
완화	-7582
▁있음을	-7583
▁인건	-7584
▁투입해	-7585
▁획득	-7586
▁판사는	-7587
▁사전투표	-7588
▁불과하다	-7589
▁당정	-7590
LL	-7591
▁기념촬영을	-7592
’...	-7593
히고	-7594
▁운송	-7595
▁음료	-7596
▁이었다	-7597
▁77	-7598
기온은	-7599
▁1.5	-7600
▁객관	-7601
방에	-7602
▁당기	-7603
▁완전	-7604
▁되기	-7605
▁편집	-7606
▁타결	-7607
▁잠수	-7608
들과의	-7609
▁비중을	-7610
▁부착	-7611
▁배송	-7612
▁경제협력	-7613
▁안희정	-7614
ews	-7615
▁고시	-7616
지역의	-7617
▁지점	-7618
▁않습니까	-7619
▁개발을	-7620
▁중에서	-7621
▁연세대	-7622
▁전인	-7623
▁약속했다	-7624
▁호응	-7625
▁행사합니다	-7626
▁수출이	-7627
▁않기	-7628
발전소	-7629
▁고의	-7630
안의	-7631
▁깊이	-7632
▁선정됐다	-7633
▁경호	-7634
온라인신문	-7635
▁풍부한	-7636
연수원	-7637
끼리	-7638
▁벌여	-7639
▁서면	-7640
이용규칙에	-7641
▁디지털뉴스이용규칙에	-7642
바이트	-7643
▁참석자들이	-7644
심으로	-7645
▁물품	-7646
▁아이들이	-7647
▁130	-7648
변화	-7649
▁이례	-7650
▁함유	-7651
▁살균	-7652
퍼런	-7653
▁있겠	-7654
치기	-7655
▁처벌을	-7656
뷰티	-7657
▁대목	-7658
기계	-7659
▁공론	-7660
▁드러난	-7661
과제	-7662
테이너	-7663
▁학술	-7664
▁뛰어난	-7665
▁지주	-7666
▁원산	-7667
▁쫓	-7668
▁만들었다	-7669
▁국채	-7670
▁알리는	-7671
▁면적	-7672
▁들어갔	-7673
▁15%	-7674
63	-7675
▁펼치고	-7676
▁국가가	-7677
▁식약	-7678
마스	-7679
근무	-7680
▁순이었다	-7681
▁금리를	-7682
타이어	-7683
수당	-7684
환자	-7685
선에서	-7686
▁처리를	-7687
▁전까지	-7688
▁소방당국은	-7689
▁조율	-7690
▁국회의장	-7691
▁한국이	-7692
▁GDP	-7693
▁아닐	-7694
재해	-7695
▁일주일	-7696
구로	-7697
사드	-7698
연설	-7699
▁장착	-7700
able	-7701
▁행보	-7702
▁예외	-7703
▁거세	-7704
▁분석해	-7705
▁케	-7706
▁임용	-7707
-1	-7708
▁시민사회	-7709
mbn	-7710
▁송치	-7711
▁쇄신	-7712
▁분이	-7713
▁경제정책	-7714
▁파괴	-7715
병우	-7716
이제	-7717
했는지	-7718
▁경유	-7719
BM	-7720
▁전통시장	-7721
▁박재	-7722
학원	-7723
▁힘이	-7724
▁정보통신	-7725
르기	-7726
끄러	-7727
▁w	-7728
▁전액	-7729
▁어떠	-7730
사단	-7731
우리는	-7732
▁미뤄	-7733
64	-7734
주지	-7735
▁힘입어	-7736
▁때문입니다	-7737
▁빠져나	-7738
▁예보	-7739
을까	-7740
스에서	-7741
반기에	-7742
▁전세계	-7743
▁세트	-7744
▁넥	-7745
▁동향	-7746
달라는	-7747
▁멤버	-7748
▁얘기가	-7749
▁떨어지는	-7750
▁오토	-7751
▁아쉬	-7752
▁만날	-7753
▁국정농단	-7754
▁구직	-7755
▁주장하고	-7756
▁시공	-7757
▁명동	-7758
▁기준금리	-7759
ap	-7760
▁나오지	-7761
▁현재의	-7762
▁정작	-7763
려야	-7764
▁학생들은	-7765
▁누군	-7766
▁표창	-7767
▁과장	-7768
주행	-7769
▁제기되고	-7770
인재	-7771
▁판결이	-7772
▁72	-7773
▁명백	-7774
▁얘기다	-7775
기관에	-7776
▁대단	-7777
▁광주시	-7778
▁박정희	-7779
▁마찬가지로	-7780
▁물리	-7781
▁배정	-7782
▁제외하고	-7783
리드	-7784
▁인상을	-7785
▁향한	-7786
▁식사	-7787
▁아빠	-7788
▁육박	-7789
▁단순히	-7790
▁초등학생	-7791
▁□	-7792
▁69	-7793
▁삼성동	-7794
▁순천	-7795
아웃	-7796
가요	-7797
SA	-7798
▁02-	-7799
je	-7800
▁공개된	-7801
▁상하이	-7802
▁감안하면	-7803
명령	-7804
▁앞장서	-7805
▁매출은	-7806
▁상시	-7807
시각	-7808
▁지역사회	-7809
▁퍼포먼	-7810
▁보고서를	-7811
▁제기된	-7812
▁겪는	-7813
▁회사가	-7814
건은	-7815
▁않겠다	-7816
천군	-7817
TN	-7818
▁이기	-7819
▁김종인	-7820
문학	-7821
▁언급했다	-7822
▁나서는	-7823
▁아는	-7824
주의를	-7825
▁생활을	-7826
▁외식	-7827
(14	-7828
플랜	-7829
자격	-7830
▁치매	-7831
보육	-7832
▁블루	-7833
▁기간을	-7834
양의	-7835
시마	-7836
공학	-7837
병을	-7838
포를	-7839
소통	-7840
간에	-7841
▁전경련	-7842
▁그렇지	-7843
듯이	-7844
부대표	-7845
장인	-7846
▁구속영장	-7847
▁주기	-7848
▁비박	-7849
▁연일	-7850
▁혐의가	-7851
▁얻을	-7852
졌던	-7853
▁계획이라고	-7854
▁메모	-7855
생활을	-7856
▁선거에	-7857
▁재해	-7858
▁역사를	-7859
되었다	-7860
경필	-7861
▁모은	-7862
대우	-7863
▁대행	-7864
▁북부	-7865
보고서	-7866
▁이른다	-7867
▁나누는	-7868
▁수산	-7869
시키기	-7870
▁예정이라고	-7871
▁연관	-7872
▁청산	-7873
층에서	-7874
▁주문했다	-7875
군요	-7876
▁62	-7877
▁개최했다	-7878
진구	-7879
▁비판이	-7880
▁주인공	-7881
▁조종	-7882
▁동북아	-7883
▁아시아나	-7884
▁꿈을	-7885
88	-7886
▁기업인	-7887
▁위험이	-7888
▁담고	-7889
▁내비	-7890
▁내내	-7891
▁불편을	-7892
▁소리	-7893
▁외면	-7894
▁내놨다	-7895
▁않았지만	-7896
▁형태의	-7897
▁포함됐다	-7898
▁위촉	-7899
경비	-7900
▁특강	-7901
▁중국은	-7902
▁전산	-7903
▁제휴	-7904
법률	-7905
▁대결	-7906
▁많았고	-7907
▁선제	-7908
저는	-7909
▁늘어났다	-7910
▁성희롱	-7911
▁휴대폰	-7912
▁주류	-7913
▁만찬	-7914
▁대답	-7915
▁이때	-7916
승을	-7917
는데도	-7918
▁가치가	-7919
▁인근에	-7920
▁동행	-7921
▁걸려	-7922
단속	-7923
생이	-7924
▁충전	-7925
▁수확	-7926
▁선을	-7927
▁누리꾼들은	-7928
▁브리핑에서	-7929
학기	-7930
▁개최한다	-7931
▁선원	-7932
▁축산	-7933
▁가능성에	-7934
▁공제	-7935
▁틈	-7936
▁희생자	-7937
▁뚫	-7938
▁그랬	-7939
법의	-7940
▁저소득층	-7941
▁출연해	-7942
▁관악	-7943
▁명칭	-7944
용한	-7945
▁모금	-7946
▁쟁점	-7947
▁아니라는	-7948
▁내야	-7949
▁국가안보	-7950
▁언론에	-7951
▁수거	-7952
▁소규모	-7953
▁혐의도	-7954
▁넣어	-7955
▁통영	-7956
▁않았고	-7957
거래소	-7958
유아	-7959
▁냉장	-7960
▁분석이다	-7961
▁운영을	-7962
어는	-7963
바지	-7964
▁마련할	-7965
▁잦	-7966
하느냐	-7967
▁근거로	-7968
(13	-7969
▁파악하고	-7970
▁환급	-7971
▁다음날	-7972
▁게이트	-7973
▁나왔습니다	-7974
교과서	-7975
당국이	-7976
▁규정을	-7977
ube	-7978
▁지역경제	-7979
홀딩	-7980
어붙	-7981
▁총선에서	-7982
▁유권	-7983
▁적폐	-7984
▁따져	-7985
▁판정을	-7986
▁포함돼	-7987
▁몰래	-7988
▁도움	-7989
▁투기	-7990
중심	-7991
▁소화	-7992
▁그래도	-7993
▁않았습니다	-7994
▁미국은	-7995
▁골목	-7996
▁줄이	-7997
▁경로	-7998
▁담합	-7999
▁취지로	-8000
▁두려	-8001
▁총수	-8002
▁정부에서	-8003
▁줄이고	-8004
▁불어	-8005
▁없었던	-8006
▁사무총장	-8007
▁in	-8008
▁정확히	-8009
▁원천	-8010
▁시리즈	-8011
▁일이다	-8012
▁참여했다	-8013
▁억울	-8014
▁관련해서는	-8015
팀을	-8016
(17	-8017
▁여야는	-8018
▁그걸	-8019
연수	-8020
교섭	-8021
▁맛을	-8022
▁추진해	-8023
▁선보인	-8024
▁실적이	-8025
▁같아요	-8026
우기	-8027
▁유일한	-8028
주와	-8029
▁무죄를	-8030
▁살해한	-8031
선거관리	-8032
즈를	-8033
▁지적이다	-8034
▁해마다	-8035
▁거예요	-8036
▁워싱턴	-8037
▁개발에	-8038
▁공정위는	-8039
▁실시하고	-8040
▁접어	-8041
▁공원	-8042
▁널	-8043
유출	-8044
▁61	-8045
▁최초의	-8046
▁진로	-8047
▁실시한다	-8048
▁팔아	-8049
▁부회장은	-8050
▁반대로	-8051
▁조치가	-8052
▁강화해	-8053
년으로	-8054
▁딜	-8055
▁수면	-8056
▁정한	-8057
▁한다면	-8058
▁안타깝	-8059
▁고용노동부	-8060
▁선거를	-8061
▁임신	-8062
▁경기가	-8063
▁합의했다	-8064
▁전국에	-8065
la	-8066
▁꼼꼼	-8067
▁이후에	-8068
▁차세대	-8069
▁옹	-8070
료는	-8071
▁일본군	-8072
방문	-8073
▁자유무역협정	-8074
▁가습기	-8075
▁전국에서	-8076
널드	-8077
▁25%	-8078
▁어울	-8079
한데	-8080
▁유병언	-8081
시코	-8082
▁부딪	-8083
는가	-8084
▁협약을	-8085
하지는	-8086
그동안	-8087
▁김부	-8088
원식	-8089
오염	-8090
▁서울역	-8091
났다고	-8092
메시	-8093
▁시대를	-8094
▁같아	-8095
보상	-8096
청의	-8097
▁동원해	-8098
▁심지어	-8099
▁구로	-8100
▁회사는	-8101
▁고려대	-8102
GM	-8103
▁털어	-8104
▁죄송	-8105
▁與	-8106
▁규정하고	-8107
▁중장기	-8108
년보다	-8109
▁이해찬	-8110
▁뿌리	-8111
▁저질	-8112
력은	-8113
▁기재부	-8114
▁점에	-8115
활성화	-8116
력으로	-8117
▁여성을	-8118
▁않아도	-8119
회와	-8120
97	-8121
표준	-8122
▁지원이	-8123
결정	-8124
▁단원	-8125
진단	-8126
형사	-8127
▁합의한	-8128
▁속초	-8129
체계를	-8130
돈을	-8131
▁잠실	-8132
▁감안해	-8133
▁엔진	-8134
▁저희가	-8135
▁병원에서	-8136
면허	-8137
▁심상정	-8138
▁높일	-8139
▁공약을	-8140
kW	-8141
▁기금	-8142
(16	-8143
▁몸을	-8144
▁이미지를	-8145
▁간에	-8146
▁주가가	-8147
▁180	-8148
▁공시했다	-8149
▁빼앗	-8150
메르스	-8151
▁흑자	-8152
▁소식이	-8153
받지	-8154
▁흐름을	-8155
국회의	-8156
▁여성가족	-8157
▁페스티벌	-8158
▁선착	-8159
▁광장에서	-8160
▁이것이	-8161
레이시아	-8162
▁TF	-8163
▁전년보다	-8164
▁섞	-8165
ve	-8166
▁전보다	-8167
미세먼	-8168
▁상황은	-8169
▁범위	-8170
▁논쟁	-8171
▁소집	-8172
▁마지막으로	-8173
▁치솟	-8174
▁극대화	-8175
고는	-8176
▁괜	-8177
어져	-8178
▁주간	-8179
▁비용이	-8180
▁미니	-8181
▁유니	-8182
▁건너	-8183
▁수령	-8184
호가	-8185
▁남측	-8186
▁제조업체	-8187
▁지분을	-8188
기까지	-8189
▁부서	-8190
▁가질	-8191
시간이	-8192
돈이	-8193
▁갖는	-8194
▁요리	-8195
gy	-8196
▁도입을	-8197
▁법원에	-8198
▁뜨거운	-8199
▁수산물	-8200
지출	-8201
자고	-8202
동부	-8203
▁고객을	-8204
▁일어난	-8205
타민	-8206
업자	-8207
▁마감했다	-8208
협약을	-8209
동강	-8210
▁전반에	-8211
▁청계	-8212
용으로	-8213
테인	-8214
▁도덕	-8215
▁옳	-8216
▁대상을	-8217
테러	-8218
▁상정	-8219
▁도중	-8220
▁1∼	-8221
▁한창	-8222
▁출신인	-8223
▁?'	-8224
▁대장	-8225
편의	-8226
▁희망을	-8227
▁기념해	-8228
▁꼽힌다	-8229
▁택배	-8230
▁되도록	-8231
행사를	-8232
상호	-8233
▁가뭄	-8234
국세청	-8235
▁이수	-8236
SK	-8237
▁얻어	-8238
AE	-8239
보훈	-8240
▁보강	-8241
체에	-8242
ur	-8243
▁기간이	-8244
▁유관	-8245
만원이	-8246
▁원인이	-8247
▁실정	-8248
▁2001	-8249
▁반영해	-8250
▁꼬집었다	-8251
▁기사제보	-8252
▁있을지	-8253
마케팅	-8254
기부	-8255
▁관해	-8256
▁개척	-8257
끄는	-8258
ong	-8259
유산	-8260
▁기증	-8261
순위	-8262
동향	-8263
▁드러났습니다	-8264
▁편입	-8265
▁위생	-8266
▁대가	-8267
▁컸다	-8268
▁의문	-8269
▁작가	-8270
▁지나치게	-8271
▁노력이	-8272
▁끝내	-8273
▁하도급	-8274
▁관세청	-8275
역이	-8276
▁경향신문	-8277
▁공무원연금	-8278
▁연평균	-8279
과장은	-8280
▁자사	-8281
▁일제히	-8282
▁떡	-8283
▁승용	-8284
▁한경	-8285
▁합류	-8286
▁비싼	-8287
제도를	-8288
om	-8289
보유	-8290
▁체류	-8291
▁보냈다	-8292
▁났다	-8293
▁수준인	-8294
▁없기	-8295
▁권한을	-8296
▁합리적인	-8297
▁선전	-8298
▁무조건	-8299
▁짐	-8300
▁산정	-8301
▁줄일	-8302
▁결정에	-8303
▁시기에	-8304
▁그리	-8305
내년	-8306
▁보행	-8307
▁1990	-8308
택시	-8309
▁경제에	-8310
▁발달	-8311
▁않았다고	-8312
▁땐	-8313
▁중립	-8314
직한	-8315
▁▦	-8316
▁벼	-8317
모든	-8318
국으로	-8319
▁느낀	-8320
검찰청	-8321
▁인근에서	-8322
▁인기가	-8323
▁금융위	-8324
▁화제	-8325
▁발표를	-8326
▁평가가	-8327
▁성사	-8328
▁위장	-8329
▁88	-8330
작전	-8331
▁110	-8332
▁김형	-8333
▁부사장	-8334
▁스트레스	-8335
▁조사가	-8336
엑스포	-8337
놓은	-8338
▁보니까	-8339
길에	-8340
▁생생	-8341
"(	-8342
66	-8343
▁마이너	-8344
기아	-8345
▁부장판	-8346
뒀다	-8347
소재	-8348
기업이	-8349
▁귀가	-8350
▁정진	-8351
게는	-8352
▁득표	-8353
▁수혜	-8354
▁소비자들의	-8355
빌딩	-8356
▁비판을	-8357
▁김관	-8358
▁난민	-8359
▁소식에	-8360
었으며	-8361
마를	-8362
▁그것을	-8363
▁곳으로	-8364
▁멘토	-8365
▁시설을	-8366
▁3,	-8367
▁요구에	-8368
주류	-8369
▁되돌	-8370
드린다	-8371
ation	-8372
서부	-8373
▁☞	-8374
▁사태를	-8375
▁중국과	-8376
▁지원해	-8377
▁조속히	-8378
▁생겨	-8379
▁기여할	-8380
도서관	-8381
▁로드	-8382
▁표결	-8383
익을	-8384
▁돕는	-8385
▁장관의	-8386
▁격리	-8387
객이	-8388
다니	-8389
▁이념	-8390
▁방법이	-8391
발표	-8392
겠습니까	-8393
▁폭으로	-8394
▁최고위원회의에서	-8395
57	-8396
▁곳곳에서	-8397
▁주시	-8398
▁편안	-8399
▁보존	-8400
생아	-8401
▁햇	-8402
▁제공한	-8403
▁쥐	-8404
▁시작됐다	-8405
에게도	-8406
▁김광	-8407
북부	-8408
공원에서	-8409
▁활동에	-8410
멕시코	-8411
▁소매	-8412
▁충실	-8413
▁출판	-8414
▁개인의	-8415
▁엉	-8416
▁1500	-8417
▁압도	-8418
선물	-8419
▁일으키	-8420
▁공적	-8421
▁결심	-8422
한미	-8423
▁부활	-8424
▁문화를	-8425
▁확인해	-8426
이미	-8427
▁비자금	-8428
여름	-8429
▁대다	-8430
▁있을까	-8431
▁줄이는	-8432
▁행복한	-8433
▁쓰레기	-8434
▁초점을	-8435
▁신당	-8436
▁99	-8437
▁투자가	-8438
이었지만	-8439
▁수출입	-8440
카데	-8441
▁마이크	-8442
사들의	-8443
동원	-8444
▁충격을	-8445
▁동반성장	-8446
▁싫	-8447
▁분들	-8448
위원장의	-8449
▁머니	-8450
▁얻은	-8451
되기도	-8452
▁커질	-8453
▁서대문구	-8454
▁특성	-8455
▁이어진	-8456
▁페이스북에	-8457
▁산업통상자원부	-8458
▁유예	-8459
▁설치해	-8460
▁일대에서	-8461
고교	-8462
▁국민적	-8463
▁노조는	-8464
▁눈을	-8465
▁해주	-8466
▁소비자가	-8467
▁고조	-8468
▁그럴	-8469
▁입장에서는	-8470
▁내렸	-8471
▁다섯	-8472
▁78	-8473
LG	-8474
58	-8475
▁새마을	-8476
동계올림픽	-8477
▁음주운전	-8478
오후	-8479
루즈	-8480
▁경쟁이	-8481
영장	-8482
문에서	-8483
▁오를	-8484
▁없게	-8485
▁억제	-8486
▁탈락	-8487
▁모았다	-8488
어버	-8489
▁김문	-8490
▁말로	-8491
ona	-8492
▁업무보고	-8493
▁스크	-8494
▁청원	-8495
▁호소했다	-8496
▁들어가는	-8497
▁가족이	-8498
▁차이	-8499
▁기반을	-8500
▁만나는	-8501
▁의약품	-8502
▁현대백화점	-8503
▁클럽	-8504
▁강화할	-8505
▁있으니	-8506
▁여성은	-8507
▁개소	-8508
▁학원	-8509
▁마리	-8510
▁지수는	-8511
망이	-8512
터를	-8513
▁총재는	-8514
▁와서	-8515
▁민주당의	-8516
▁스타트업	-8517
▁박씨는	-8518
세안	-8519
▁발송	-8520
▁전국적으로	-8521
▁해산	-8522
▁사육	-8523
ce	-8524
▁동일한	-8525
▁기업과	-8526
▁시민이	-8527
▁깜	-8528
▁일선	-8529
▁국정감사	-8530
트랙	-8531
▁과징금	-8532
박스	-8533
▁중이던	-8534
99	-8535
▁밖으로	-8536
▁국토교통부	-8537
▁질문을	-8538
▁매장을	-8539
▁그것이	-8540
됐을	-8541
▁이내에	-8542
▁떠오	-8543
▁e	-8544
▁판문점	-8545
트라	-8546
▁챙겨	-8547
▁강북	-8548
경영자	-8549
▁전두환	-8550
▁중에는	-8551
▁타격	-8552
▁샌	-8553
▁크지	-8554
주군	-8555
▁한글	-8556
▁분산	-8557
▁합의가	-8558
▁숨졌다	-8559
화장	-8560
둘러	-8561
▁과일	-8562
▁시민의	-8563
▁LH	-8564
▁먹을	-8565
▁행사에서	-8566
▁자체를	-8567
▁가능할	-8568
▁모범	-8569
았지만	-8570
후군	-8571
청원	-8572
▁실장은	-8573
관계가	-8574
바람	-8575
▁약속을	-8576
▁금강산	-8577
▁봅니다	-8578
▁구체적	-8579
▁불만을	-8580
분과	-8581
였다고	-8582
태평양	-8583
▁출자	-8584
▁살펴보고	-8585
박한	-8586
▁정상회담을	-8587
▁마스크	-8588
민의	-8589
적한	-8590
살을	-8591
▁당기순	-8592
▁도약	-8593
▁맥주	-8594
▁인테	-8595
----	-8596
설비	-8597
▁+	-8598
▁간접	-8599
▁김명	-8600
▁사건으로	-8601
if	-8602
▁이로써	-8603
실장은	-8604
▁지원에	-8605
MB	-8606
▁와인	-8607
▁시원	-8608
▁늘어나고	-8609
▁주장했습니다	-8610
▁컨테이너	-8611
▁기준이	-8612
심과	-8613
▁중국에서	-8614
하되	-8615
▁문화예술	-8616
대리	-8617
국장은	-8618
▁모의	-8619
32	-8620
▁작업이	-8621
정산	-8622
▁주최로	-8623
▁이상인	-8624
조달	-8625
un	-8626
목적	-8627
▁대표하는	-8628
▁추진한다	-8629
▁진정한	-8630
▁피해자가	-8631
▁·	-8632
대병원	-8633
▁자칫	-8634
▁1~2	-8635
▁체결했다	-8636
NE	-8637
사회적	-8638
▁두번째	-8639
더라	-8640
창조과학	-8641
▁해안	-8642
금융지주	-8643
▁밀려	-8644
▁짧은	-8645
▁구호를	-8646
계약을	-8647
▁불황	-8648
TO	-8649
유치원	-8650
온라인신문협회	-8651
▁74	-8652
▁국토부는	-8653
▁한국온라인신문협회	-8654
▁영등포	-8655
조치를	-8656
자회담	-8657
▁때부터	-8658
▁신청할	-8659
▁아르바이트	-8660
▁대중교통	-8661
다리	-8662
kona	-8663
해수	-8664
▁블록	-8665
(25	-8666
▁바람이	-8667
▁정세균	-8668
▁어려움	-8669
▁막아	-8670
대회에서	-8671
▁분할	-8672
▁증명	-8673
최저	-8674
▁장소	-8675
▁콘서트	-8676
▁판매를	-8677
▁유망	-8678
▁후배	-8679
▁중진	-8680
▁설명을	-8681
▁항만	-8682
▁김씨	-8683
▁거친	-8684
▁이후에도	-8685
리조트	-8686
▁전략적	-8687
분부터	-8688
스키	-8689
공약	-8690
▁급식	-8691
▁선정해	-8692
▁곳곳에	-8693
▁게다가	-8694
도미사일	-8695
▁선보였다	-8696
▁상고	-8697
▁찾지	-8698
▁정수	-8699
▁소홀	-8700
▁www	-8701
▁내리는	-8702
▁남경필	-8703
았다고	-8704
▁결정이	-8705
센터에	-8706
▁불이익	-8707
▁고려하면	-8708
풍이	-8709
▁어려움이	-8710
명도	-8711
▁상실	-8712
튜브	-8713
화할	-8714
▁대상에	-8715
▁수감	-8716
▁바뀐	-8717
▁je	-8718
트는	-8719
▁때보다	-8720
▁워크숍	-8721
고에	-8722
고속	-8723
지사가	-8724
▁해결할	-8725
▁별로	-8726
만원씩	-8727
▁수치다	-8728
예정	-8729
▁가산	-8730
▁前	-8731
절을	-8732
▁김치	-8733
▁jebo	-8734
남용	-8735
▁비교하면	-8736
▁중국에	-8737
▁靑	-8738
▁최악의	-8739
▁예산이	-8740
▁박영선	-8741
아리	-8742
▁빚어	-8743
▁법안을	-8744
▁주택담보대출	-8745
▁취약계층	-8746
▁말라	-8747
▁기록을	-8748
법안	-8749
▁수석은	-8750
통제	-8751
대책을	-8752
▁보지	-8753
▁협조를	-8754
▁들어갈	-8755
▁물량	-8756
▁인접	-8757
▁찌	-8758
▁업무협약	-8759
▁패러	-8760
▁95	-8761
▁미국에서	-8762
년여	-8763
학대	-8764
▁연체	-8765
▁등록금	-8766
▁올바른	-8767
옵니다	-8768
▁사회에	-8769
▁입지	-8770
▁사랑의	-8771
▁차장	-8772
▁각오	-8773
▁운영한다	-8774
▁제출했다	-8775
▁남한	-8776
▁원칙을	-8777
▁올리는	-8778
▁습관	-8779
▁경쟁을	-8780
▁몫	-8781
▁내각	-8782
▁우울	-8783
▁금속	-8784
▁양승	-8785
▁제품이	-8786
▁변호인	-8787
▁민사	-8788
▁준비하고	-8789
▁부산지역	-8790
생태	-8791
▁공감언론	-8792
▁낙찰	-8793
항만	-8794
기상	-8795
▁찾았다	-8796
완종	-8797
▁롯데그룹	-8798
플루	-8799
퇴근	-8800
월과	-8801
▁“‘	-8802
▁손실	-8803
▁주민들은	-8804
▁홈페이지를	-8805
▁한양	-8806
시오	-8807
우여	-8808
▁해병	-8809
...“	-8810
▁배임	-8811
▁탈출	-8812
▁대응을	-8813
▁사항은	-8814
▁않으	-8815
▁여파로	-8816
▁프레스	-8817
▁않았다는	-8818
▁중소기업의	-8819
방이	-8820
▁개관	-8821
▁우리나라는	-8822
융합	-8823
DB	-8824
▁올해부터	-8825
▁깎	-8826
▁매장에서	-8827
수습	-8828
추천	-8829
▁영세	-8830
▁대권	-8831
▁인식을	-8832
▁주제	-8833
정비	-8834
정권	-8835
위원장과	-8836
▁성명을	-8837
재가	-8838
▁파손	-8839
▁원내수석	-8840
저축	-8841
지진	-8842
▁야구	-8843
로의	-8844
▁조리	-8845
▁인력을	-8846
▁현재는	-8847
▁캠페인을	-8848
▁걸린	-8849
나들	-8850
▁서울과	-8851
청과	-8852
▁행사에는	-8853
▁신고가	-8854
▁위주로	-8855
▁야당은	-8856
구매	-8857
▁당이	-8858
▁개혁을	-8859
▁협업	-8860
▁머리를	-8861
부장관	-8862
▁정부를	-8863
▁MOU	-8864
▁제목의	-8865
일째	-8866
▁되는데	-8867
▁이은	-8868
▁최우수	-8869
▁6000	-8870
다만	-8871
▁했을	-8872
▁과태료	-8873
▁차별화된	-8874
▁울산시	-8875
PS	-8876
시스템을	-8877
▁포괄	-8878
감과	-8879
77	-8880
LS	-8881
▁명예훼손	-8882
▁여부는	-8883
▁한국에서	-8884
▁둘러싸	-8885
▁국제사회	-8886
▁학생이	-8887
차에	-8888
서울시	-8889
계와	-8890
▁가축	-8891
▁외치고	-8892
▁모습이다	-8893
▁보내고	-8894
식의	-8895
▁대학교	-8896
▁보전	-8897
▁박성	-8898
▁드러냈다	-8899
▁지속가능	-8900
수막	-8901
▁일괄	-8902
블릿	-8903
해가	-8904
▁업체는	-8905
양이	-8906
▁소중한	-8907
▁주어	-8908
▁주한미	-8909
PG	-8910
원이다	-8911
▁그랜드	-8912
남기	-8913
품질	-8914
▁시간에	-8915
▁리콜	-8916
지노	-8917
▁로또	-8918
▁케이블	-8919
▁엄청난	-8920
구에서	-8921
▁투표를	-8922
▁핫	-8923
▁패널	-8924
경이	-8925
▁언급한	-8926
▁판매가	-8927
▁앞당	-8928
▁않지만	-8929
▁조류	-8930
▁시신을	-8931
리티	-8932
▁장관을	-8933
▁도서	-8934
▁당국이	-8935
▁안양	-8936
▁정부서울청사에서	-8937
▁국민일보	-8938
▁받으	-8939
▁태도를	-8940
▁마라	-8941
▁북한을	-8942
선택	-8943
▁끊임	-8944
▁지식경제	-8945
▁사퇴를	-8946
▁훈련을	-8947
건설은	-8948
▁나가는	-8949
▁범위를	-8950
▁김한길	-8951
▁환율은	-8952
▁작전	-8953
▁대책이	-8954
▁마시	-8955
불법	-8956
장학	-8957
▁선거에서	-8958
▁말레이시아	-8959
▁등산	-8960
지니어	-8961
▁제품에	-8962
▁정책의	-8963
▁완벽	-8964
▁대선주	-8965
▁엘리	-8966
왔습니다	-8967
▁믿고	-8968
▁도출	-8969
현직	-8970
▁후반	-8971
▁Se	-8972
▁안다	-8973
당과	-8974
▁이완구	-8975
▁꺾	-8976
▁112	-8977
▁상승세를	-8978
▁재산을	-8979
정과	-8980
▁때가	-8981
▁여기서	-8982
▁매출을	-8983
군사	-8984
▁모인	-8985
▁석탄	-8986
배에	-8987
성한	-8988
▁민주평화	-8989
▁뉴시스통신사	-8990
▁증인으로	-8991
▁무선	-8992
무기	-8993
▁실종자	-8994
▁학교에	-8995
▁하셨	-8996
▁일치	-8997
▁상담을	-8998
▁붉	-8999
▁출시했다	-9000
▁원주	-9001
▁안전관리	-9002
동맹	-9003
▁의지가	-9004
미술	-9005
▁빈곤	-9006
▁후에	-9007
▁박용	-9008
▁못한다	-9009
진영	-9010
▁어디서	-9011
▁행동을	-9012
IN	-9013
악한	-9014
▁반환	-9015
▁재개발	-9016
되거나	-9017
▁타당	-9018
▁런던	-9019
카데미	-9020
렸던	-9021
▁가이드라인	-9022
동에서	-9023
▁즐기는	-9024
▁있었다고	-9025
▁손해를	-9026
▁김경수	-9027
▁생길	-9028
▁내륙	-9029
▁국적	-9030
▁박종	-9031
인수	-9032
▁바라는	-9033
▁도널드	-9034
▁관련해서	-9035
카이	-9036
▁불과했다	-9037
▁사업자	-9038
▁돼지	-9039
▁세입	-9040
▁수시로	-9041
효율	-9042
▁의원에게	-9043
▁취업자	-9044
아트	-9045
▁면허	-9046
▁테스트	-9047
▁外	-9048
▁김정일	-9049
▁잡은	-9050
센티브	-9051
▁화려	-9052
▁공간을	-9053
부에서	-9054
된다면	-9055
▁투자자	-9056
로로	-9057
▁아무리	-9058
▁저축	-9059
부진	-9060
강남	-9061
▁생기	-9062
전선	-9063
▁바꾸는	-9064
▁늘리는	-9065
▁부산의	-9066
▁독려	-9067
일자	-9068
▁이어가고	-9069
▁양극	-9070
라우드	-9071
협회는	-9072
▁합쳐	-9073
▁확대하는	-9074
▁작성한	-9075
~20	-9076
총회	-9077
▁#	-9078
▁구속된	-9079
▁말에	-9080
▁우대	-9081
▁성공적으로	-9082
사들은	-9083
▁않았던	-9084
▁87	-9085
▁유감	-9086
본부장은	-9087
▁거절	-9088
서치	-9089
▁연료	-9090
▁0.5	-9091
▁한계가	-9092
쳤습니다	-9093
▁소프트웨어	-9094
▁비서실장	-9095
▁달러로	-9096
응답	-9097
▁슬로	-9098
as	-9099
▁번째로	-9100
조에	-9101
▁대여	-9102
친구	-9103
▁감사원	-9104
▁조언했다	-9105
봤습니다	-9106
▁병원에	-9107
▁경제민주화	-9108
▁정우	-9109
디아	-9110
▁진상조사	-9111
▁계속해서	-9112
▁점검하고	-9113
한반도	-9114
▁3.3	-9115
▁법원의	-9116
들에게는	-9117
▁이견	-9118
▁절실	-9119
▁지수	-9120
▁코레일	-9121
통계	-9122
룸에서	-9123
▁마련을	-9124
▁증가하는	-9125
실과	-9126
▁논문	-9127
▁배럴	-9128
▁세상	-9129
선관	-9130
▁제품으로	-9131
호한	-9132
PA	-9133
풀이	-9134
목이	-9135
▁금융기관	-9136
▁회사를	-9137
▁본인의	-9138
▁꼴	-9139
▁컬러	-9140
.0%)	-9141
▁재차	-9142
▁숨지게	-9143
▁차질	-9144
▁운동을	-9145
▁강력히	-9146
▁수소	-9147
▁송영	-9148
▁핸	-9149
▁공청	-9150
▁참모	-9151
하였다	-9152
▁때문으로	-9153
▁대부분이	-9154
▁줬	-9155
력에	-9156
드립니다	-9157
▁퇴임	-9158
▁헤럴드경제	-9159
▁고가	-9160
위해	-9161
였으며	-9162
지급	-9163
생의	-9164
▁개정안은	-9165
조원을	-9166
▁전교조	-9167
▁우리은행	-9168
▁흉기로	-9169
▁71	-9170
▁추정된다	-9171
비전	-9172
▁청와대의	-9173
▁소위	-9174
▁찬반	-9175
▁확립	-9176
▁들어선	-9177
권도	-9178
▁중재	-9179
유공	-9180
프라이	-9181
▁부가가	-9182
▁기념식	-9183
▁나중에	-9184
업체가	-9185
▁구호	-9186
▁다루	-9187
로가	-9188
▁m	-9189
▁기술이	-9190
▁밝혀졌다	-9191
들인	-9192
▁소득이	-9193
▁이름으로	-9194
▁신고했다	-9195
관리를	-9196
특정	-9197
미가	-9198
▁김지	-9199
61	-9200
▁오늘은	-9201
▁물질	-9202
▁요양	-9203
▁지금도	-9204
▁교육부는	-9205
▁나가겠다	-9206
투명	-9207
별한	-9208
소리	-9209
로에	-9210
▁튀	-9211
▁나섰습니다	-9212
▁은폐	-9213
▁급격히	-9214
▁시세	-9215
취를	-9216
▁독점	-9217
▁모친	-9218
▁크고	-9219
▁준비하는	-9220
▁발생하지	-9221
프레	-9222
▁지지율이	-9223
원인	-9224
▁과반	-9225
▁양보	-9226
감시	-9227
▁논의했다	-9228
방에서	-9229
▁가족과	-9230
▁자연스럽게	-9231
▁선체	-9232
▁상처를	-9233
▁초청해	-9234
▁나흘	-9235
▁브로	-9236
▁지내	-9237
▁줄이기	-9238
59	-9239
북도	-9240
심리	-9241
▁오늘의	-9242
▁모으고	-9243
지부	-9244
▁신속하게	-9245
과정을	-9246
이동	-9247
위원회와	-9248
▁관내	-9249
▁트럭	-9250
▁연동	-9251
캠퍼스	-9252
▁참가자들이	-9253
한을	-9254
▁조국	-9255
반대	-9256
강화	-9257
트롤	-9258
▁심한	-9259
▁횟	-9260
업계에	-9261
▁한국전력	-9262
▁터키	-9263
ol	-9264
▁출동한	-9265
▁방송통신	-9266
세기	-9267
▁사외	-9268
▁유효	-9269
함과	-9270
▁토로	-9271
▁송도	-9272
┼──────	-9273
▁배후	-9274
▁알리	-9275
더라고	-9276
▁주석	-9277
▁추궁	-9278
▁염두에	-9279
▁어렵게	-9280
부장판사	-9281
▁상용	-9282
회찬	-9283
▁성명	-9284
▁미래창조과학	-9285
모를	-9286
▁유리한	-9287
▁주부	-9288
▁부의	-9289
▁선생님	-9290
▁대검	-9291
▁'2018	-9292
▁동영상을	-9293
진흥원	-9294
398	-9295
▁문제도	-9296
그러나	-9297
▁듯한	-9298
닉스	-9299
▁한류	-9300
TS	-9301
~30	-9302
▁덕분에	-9303
▁살려	-9304
▁책을	-9305
▁넘어서	-9306
▁침수	-9307
▁중복	-9308
▁양육	-9309
▁없었	-9310
▁바람에	-9311
▁이윤	-9312
장에게	-9313
지방선거	-9314
태원	-9315
▁지경	-9316
▁쉬운	-9317
▁정권의	-9318
▁낚	-9319
▁특화	-9320
▁김일	-9321
▁뼈	-9322
▁1980	-9323
▁주민등록	-9324
▁답변을	-9325
▁한진해운	-9326
▁유류	-9327
▁수준이	-9328
▁가담	-9329
물류	-9330
▁문화체육관광부	-9331
▁파기	-9332
OS	-9333
▁거제	-9334
기관인	-9335
리즘	-9336
▁구조를	-9337
로도	-9338
▁삼성전자가	-9339
겠죠	-9340
▁벌어진	-9341
▁칭	-9342
만원에서	-9343
▁휘발유	-9344
▁실망	-9345
▁분담	-9346
대사관	-9347
▁보궐선거	-9348
국방	-9349
▁하겠다는	-9350
▁고통을	-9351
머스	-9352
▁음식을	-9353
▁긍정적	-9354
균형	-9355
▁보고서는	-9356
▁김씨가	-9357
▁박람회	-9358
▁살펴보면	-9359
▁조문	-9360
▁헬기	-9361
▁선사	-9362
▁앞세	-9363
선과	-9364
▁입시	-9365
▁저도	-9366
▁셋	-9367
▁사죄	-9368
▁모자	-9369
▁교수의	-9370
등을	-9371
실업	-9372
UV	-9373
가며	-9374
▁장마	-9375
~1	-9376
▁물건을	-9377
▁책정	-9378
까지도	-9379
▁층	-9380
음식	-9381
▁다이어	-9382
▁98	-9383
▁안된다	-9384
▁73	-9385
▁하거나	-9386
▁국무총리가	-9387
▁국민과	-9388
PP	-9389
마자	-9390
항에	-9391
▁출신으로	-9392
▁재검토	-9393
소프트	-9394
▁남겨	-9395
▁부양	-9396
▁방안에	-9397
▁나라를	-9398
▁아니지만	-9399
▁자유한국	-9400
▁사회를	-9401
일부	-9402
▁보십니까	-9403
▁우려도	-9404
연히	-9405
▁놀라	-9406
▁아프	-9407
▁새누리	-9408
▁속여	-9409
업체의	-9410
▁차량에	-9411
▁유일하게	-9412
의사	-9413
장도	-9414
▁경우에	-9415
▁공소	-9416
▁시청자	-9417
▁공고	-9418
▁조업	-9419
▁올리고	-9420
▁앞으로는	-9421
▁패키지	-9422
모집	-9423
▁요인	-9424
▁있고요	-9425
▁남용	-9426
▁되었다	-9427
▁유인	-9428
▁후보에	-9429
▁회사에	-9430
김영	-9431
▁부천	-9432
▁X	-9433
▁감지	-9434
▁리포트	-9435
사고가	-9436
▁노트	-9437
▁가결	-9438
▁후임	-9439
▁만족도	-9440
▁금융권	-9441
국에서	-9442
맞이	-9443
▁조짐	-9444
▁금융감독원	-9445
▁확인된	-9446
▁국방부는	-9447
▁유가증권	-9448
▁그럼에도	-9449
▁어린이들이	-9450
▁단위	-9451
▁유지할	-9452
▁지향	-9453
락을	-9454
▁지인	-9455
~7	-9456
▁벨	-9457
▁당사에서	-9458
총생산	-9459
▁확보를	-9460
점의	-9461
▁파주	-9462
▁블로그	-9463
수산물	-9464
▁이철	-9465
▁거기	-9466
▁설문조사	-9467
▁교역	-9468
▁담당하는	-9469
▁LED	-9470
▁자유롭게	-9471
▁76	-9472
▁차명	-9473
▁것이며	-9474
▁강조한	-9475
▁금감원은	-9476
▁불만	-9477
▁성수	-9478
비상	-9479
▁탄력	-9480
수학	-9481
투데이	-9482
▁붙잡혔다	-9483
벤처기업	-9484
▁공연을	-9485
▁내리고	-9486
▁보시	-9487
▁안정을	-9488
귀포	-9489
▁임의	-9490
우리가	-9491
▁사망한	-9492
▁혐의에	-9493
▁산학	-9494
▁고리	-9495
▁공정한	-9496
▁운영에	-9497
기간을	-9498
▁유성	-9499
▁수송	-9500
▁견인	-9501
▁황우여	-9502
▁대법원은	-9503
▁협상이	-9504
▁찾고	-9505
▁것이냐	-9506
▁콩	-9507
▁아산	-9508
▁일종의	-9509
있게	-9510
보자	-9511
▁재능	-9512
▁선착순	-9513
▁지리	-9514
ald	-9515
▁사각	-9516
▁들어오	-9517
▁성형	-9518
▁보조금	-9519
▁세운	-9520
▁인천국제공항	-9521
공유	-9522
▁조용	-9523
▁혹시	-9524
DS	-9525
▁아닙니다	-9526
느라	-9527
▁에어컨	-9528
▁사과를	-9529
▁소비자들이	-9530
마는	-9531
진핑	-9532
▁선배	-9533
▁디스플레이	-9534
스바	-9535
▁느끼는	-9536
▁명의로	-9537
▁당을	-9538
해졌다	-9539
▁유명한	-9540
▁소액	-9541
▁들여다	-9542
윤리	-9543
▁79	-9544
드가	-9545
▁주장에	-9546
DA	-9547
▁인센티브	-9548
했다며	-9549
▁흡수	-9550
▁이야기가	-9551
지원을	-9552
▁신재생	-9553
든가	-9554
면의	-9555
가와	-9556
민간	-9557
북한이	-9558
사업의	-9559
▁면밀	-9560
▁제도가	-9561
차의	-9562
▁권익	-9563
안전처	-9564
사업은	-9565
시안	-9566
▁비율을	-9567
▁IMF	-9568
됐으나	-9569
시트	-9570
▁차관은	-9571
▁의지	-9572
▁과잉	-9573
▁전국이	-9574
▁내걸	-9575
46	-9576
▁발전에	-9577
벌이	-9578
▁했으나	-9579
▁멕시코	-9580
▁변화에	-9581
▁계절	-9582
▁능력이	-9583
▁플랜	-9584
▁불량	-9585
▁이정현	-9586
▁분석된다	-9587
▁금액을	-9588
해경	-9589
▁군의	-9590
▁부당한	-9591
박물관	-9592
호흡	-9593
민족	-9594
▁보내는	-9595
▁140	-9596
▁관리에	-9597
자녀	-9598
▁인공지능	-9599
호남	-9600
▁꺼내	-9601
▁4%	-9602
▁끌었다	-9603
▁얼굴을	-9604
▁한마디	-9605
▁직원들의	-9606
▁썼다	-9607
▁보도에	-9608
월의	-9609
▁정전	-9610
▁양해	-9611
.25	-9612
분으로	-9613
∼201	-9614
▁진출을	-9615
▁간담회에서	-9616
함께	-9617
▁임상	-9618
▁기존에	-9619
▁늘리고	-9620
▁동맹	-9621
▁냄	-9622
▁창원시	-9623
▁대구시	-9624
▁사람도	-9625
들이다	-9626
▁동아닷컴	-9627
▁무리	-9628
▁장기간	-9629
▁괜찮	-9630
▁시위를	-9631
▁비싸	-9632
▁원인으로	-9633
방어	-9634
▁연말까지	-9635
▁못하게	-9636
변호사	-9637
cc	-9638
▁거주하는	-9639
기술을	-9640
▁조희	-9641
▁1997	-9642
▁비닐	-9643
모델링	-9644
▁기장	-9645
▁멋	-9646
▁수원시	-9647
▁청장은	-9648
▁신속한	-9649
▁검은	-9650
▁여론이	-9651
▁여학생	-9652
▁스탠	-9653
▁제안한	-9654
▁하겠습니다	-9655
▁셰	-9656
▁중개	-9657
▁사랑을	-9658
▁연계해	-9659
▁아이가	-9660
세와	-9661
▁모델을	-9662
▁마음으로	-9663
유플러스	-9664
~10	-9665
▁야생	-9666
▁고양시	-9667
·25	-9668
▁주목을	-9669
과도	-9670
▁추돌	-9671
▁어떠한	-9672
▁국정감사에서	-9673
▁박수	-9674
▁고등	-9675
▁세종로	-9676
▁이미지	-9677
▁만들어진	-9678
▁원내수석부대표	-9679
그린	-9680
▁판단해	-9681
▁음란	-9682
▁내년에	-9683
▁에스	-9684
▁무력	-9685
업체에	-9686
▁청렴	-9687
▁막대한	-9688
▁지급하는	-9689
▁항공사	-9690
▁취재했습니다	-9691
▁성공한	-9692
▁정신을	-9693
▁잃은	-9694
▁것인	-9695
▁올해도	-9696
▁우병우	-9697
시설이	-9698
▁손실을	-9699
▁시기를	-9700
▁드루킹	-9701
(24	-9702
▁세수	-9703
▁않다고	-9704
▁멸	-9705
▁주장한	-9706
▁인사말	-9707
▁분석을	-9708
▁STX	-9709
▁않겠다는	-9710
▁여름철	-9711
▁담뱃	-9712
▁지역으로	-9713
▁김승	-9714
▁진술했다	-9715
회사의	-9716
▁저출산	-9717
41(	-9718
면에서	-9719
▁부검	-9720
▁연평	-9721
▁지역별	-9722
▁유사한	-9723
▁신형	-9724
▁인명피해	-9725
▁비타민	-9726
▁정론	-9727
398-	-9728
▁추억	-9729
▁매몰	-9730
▁왼쪽부터	-9731
혔습니다	-9732
▁있나	-9733
▁그를	-9734
▁싶어	-9735
▁02-398-	-9736
▁고려할	-9737
제철	-9738
▁찔	-9739
▁밝힐	-9740
(22	-9741
▁발족	-9742
▁기관이	-9743
기사문의	-9744
혐오	-9745
▁|	-9746
산업단지	-9747
▁연습	-9748
▁갈아	-9749
▁유연	-9750
▁자금이	-9751
러리	-9752
herald	-9753
▁일으킨	-9754
허브	-9755
스피싱	-9756
▁그건	-9757
▁기다리고	-9758
▁우유	-9759
▁과다	-9760
▁전용면적	-9761
▁상태를	-9762
▁하천	-9763
▁승무원	-9764
세포	-9765
청을	-9766
▁인테리어	-9767
▁이뤄지는	-9768
역으로	-9769
▁혁신을	-9770
▁뜯	-9771
천만원을	-9772
▁안녕	-9773
지방법	-9774
▁상관없이	-9775
▁거기에	-9776
▁기관은	-9777
▁생계	-9778
▁사업으로	-9779
시다	-9780
▁재외	-9781
야구	-9782
▁상상	-9783
▁여는	-9784
해지는	-9785
억원에서	-9786
biz	-9787
▁사람들을	-9788
▁모르겠다	-9789
▁해상에서	-9790
▁첫째	-9791
▁황금	-9792
레이션	-9793
▁들어온	-9794
▁삭감	-9795
▁홈페이지에	-9796
▁개표	-9797
▁수술을	-9798
▁악용	-9799
▁전해졌습니다	-9800
%)│	-9801
▁아끼	-9802
▁미국에	-9803
▁정원	-9804
▁안돼	-9805
전은	-9806
▁돕기	-9807
▁들어서는	-9808
▁출구	-9809
▁근본적인	-9810
우스	-9811
▁'2017	-9812
.11	-9813
▁일에	-9814
테인먼트	-9815
▁도모	-9816
▁납세	-9817
▁리스트	-9818
▁달러를	-9819
▁토요일	-9820
▁학생들에게	-9821
▁마련하고	-9822
▁문제점을	-9823
▁(0	-9824
▁일방적으로	-9825
선대	-9826
▁조현아	-9827
검증	-9828
▁성남시	-9829
▁늦게	-9830
▁'1	-9831
▁법을	-9832
ea	-9833
▁친박계	-9834
▁걸고	-9835
▁의회	-9836
▁유로존	-9837
▁시나	-9838
▁워낙	-9839
▁강서구	-9840
▁자가	-9841
▁가깝	-9842
▁김학	-9843
▁말도	-9844
▁캠핑	-9845
▁이유다	-9846
▁임직	-9847
▁청와대와	-9848
▁구성됐다	-9849
김정은	-9850
▁IS	-9851
편이	-9852
▁늘리	-9853
사퇴	-9854
43	-9855
▁대우조선해양	-9856
▁친노	-9857
▁유행	-9858
▁장거리	-9859
▁불거진	-9860
▁사망자	-9861
▁법령	-9862
▁여부가	-9863
▁학생들을	-9864
▁좌우	-9865
▁조금씩	-9866
▁정권교	-9867
▁불필요	-9868
53	-9869
▁절도	-9870
▁곳이다	-9871
▁해결하기	-9872
미세먼지	-9873
▁블랙리스트	-9874
▁재학생	-9875
▁고도	-9876
▁이름이	-9877
하실	-9878
87	-9879
▁반영한	-9880
▁준수	-9881
(21	-9882
▁동서	-9883
폰을	-9884
▁마이	-9885
구간	-9886
▁즐거운	-9887
▁마땅	-9888
코올	-9889
▁1999	-9890
(23	-9891
▁규모다	-9892
▁기대를	-9893
▁현수막	-9894
▁직면	-9895
▁고객들이	-9896
시픽	-9897
▁가벼	-9898
설이	-9899
▁중반	-9900
군수	-9901
▁절차에	-9902
영향	-9903
▁휩싸	-9904
▁의견도	-9905
▁단말	-9906
▁주재로	-9907
참모	-9908
▁카드를	-9909
로서는	-9910
▁웅	-9911
슈퍼	-9912
▁골자로	-9913
수산식품	-9914
▁남긴	-9915
▁가상화폐	-9916
▁공범	-9917
▁편의를	-9918
▁진주	-9919
▁최근까지	-9920
▁마주	-9921
▁이하로	-9922
▁양천	-9923
GDP	-9924
(27	-9925
거리를	-9926
▁모두발언을	-9927
▁화재가	-9928
가운데	-9929
▁삼아	-9930
새로운	-9931
▁정무수석	-9932
▁관리하는	-9933
▁싼	-9934
업체인	-9935
지역에서	-9936
▁출하	-9937
▁사면	-9938
▁중대한	-9939
▁호텔에서	-9940
자로서	-9941
▁계획이	-9942
재로	-9943
▁결정한	-9944
▁발표된	-9945
▁종류	-9946
▁교원	-9947
▁지도부가	-9948
▁주체	-9949
창출	-9950
증후군	-9951
▁수를	-9952
▁이외에도	-9953
▁가면	-9954
▁나타나고	-9955
▁금융투자	-9956
림을	-9957
▁금리가	-9958
▁있었는데	-9959
강도	-9960
▁법사	-9961
▁위원장을	-9962
▁임차	-9963
▁대표적	-9964
리카	-9965
▁사람에게	-9966
진에	-9967
▁소음	-9968
정도	-9969
▁방법은	-9970
▁남성은	-9971
사원	-9972
▁극단	-9973
▁진행해	-9974
측이	-9975
▁국회는	-9976
▁선언한	-9977
채무	-9978
▁막판	-9979
▁경부	-9980
▁7000	-9981
▁곳을	-9982
▁갱	-9983
▁신청한	-9984
▁우원식	-9985
▁공중	-9986
▁켜	-9987
텃밭	-9988
▁검토할	-9989
정관용	-9990
제품을	-9991
▁높고	-9992
모레	-9993
▁많지	-9994
▁미치지	-9995
▁의무화	-9996
연의	-9997
▁짙	-9998
▁공안	-9999
기초	-10000
만대	-10001
▁방침입니다	-10002
▁가처분	-10003
모바일	-10004
▁못하면	-10005
패를	-10006
▁드는	-10007
▁고기	-10008
▁출신의	-10009
▁그나마	-10010
▁"201	-10011
광역시	-10012
노동자	-10013
▁개정을	-10014
▁날을	-10015
▁밀집	-10016
▁부합	-10017
▁부풀	-10018
되지만	-10019
▁널리	-10020
▁응모	-10021
밸리	-10022
주인	-10023
저히	-10024
▁차가	-10025
▁연준	-10026
신문은	-10027
▁후보자에	-10028
랫동안	-10029
BK	-10030
▁동남아	-10031
▁저항	-10032
▁하나금융	-10033
▁기간보다	-10034
담배	-10035
▁복무	-10036
전자는	-10037
▁원화	-10038
수술	-10039
▁野	-10040
▁적발된	-10041
▁전시회	-10042
ood	-10043
▁태블릿	-10044
▁회원국	-10045
부부	-10046
▁드론	-10047
부족	-10048
예금	-10049
재료	-10050
(30	-10051
▁질타	-10052
화될	-10053
형으로	-10054
성공을	-10055
이었고	-10056
▁홀로	-10057
▁장난	-10058
▁산업혁명	-10059
물과	-10060
▁뻔	-10061
여러	-10062
▁선택할	-10063
▁압수	-10064
▁침입	-10065
▁세계적으로	-10066
플라	-10067
▁기득	-10068
▁접견	-10069
▁특별수사	-10070
▁견제	-10071
▁어선	-10072
▁서귀포	-10073
음료	-10074
리다	-10075
스바겐	-10076
▁퇴근	-10077
▁났	-10078
▁변호사가	-10079
▁2030	-10080
▁말할	-10081
▁하나가	-10082
▁빵	-10083
▁다음은	-10084
▁직접적인	-10085
▁절차가	-10086
매출	-10087
여론	-10088
▁날인	-10089
▁주무	-10090
▁가계대출	-10091
▁만만	-10092
▁겨울철	-10093
▁스티	-10094
▁보면서	-10095
유로	-10096
▁최우선	-10097
▁걸릴	-10098
살인	-10099
야당	-10100
▁교도	-10101
▁짚어	-10102
▁정보가	-10103
▁증정한다	-10104
erv	-10105
조세	-10106
▁8000	-10107
▁거래가	-10108
▁중산	-10109
▁진실을	-10110
▁금액은	-10111
▁당기순이익	-10112
▁인식이	-10113
.18	-10114
겨울	-10115
국정원	-10116
▁ICT	-10117
포스	-10118
▁상태가	-10119
▁대한민국을	-10120
합병	-10121
51	-10122
▁평화의	-10123
▁herald	-10124
위반	-10125
▁총리의	-10126
▁heraldbiz	-10127
▁알리고	-10128
셔야	-10129
▁플래	-10130
▁CBS	-10131
▁시가총	-10132
▁경우에도	-10133
▁찍은	-10134
▁부회장이	-10135
하십니까	-10136
▁a	-10137
▁가려	-10138
하시는	-10139
▁접목	-10140
▁정치자금	-10141
▁순이익	-10142
공화	-10143
▁걸로	-10144
▁포상	-10145
줄이	-10146
▁한계	-10147
으로도	-10148
▁산업의	-10149
▁올라가	-10150
MZ	-10151
따라	-10152
(28	-10153
▁소송에서	-10154
도까지	-10155
히지	-10156
▁일찍	-10157
특수	-10158
▁브랜드를	-10159
▁조계	-10160
▁박주	-10161
▁올해로	-10162
▁방통	-10163
노무현	-10164
▁종업	-10165
▁f	-10166
▁애로	-10167
▁지능	-10168
▁김부겸	-10169
향후	-10170
▁미래에셋	-10171
▁들어와	-10172
▁맞고	-10173
더라고요	-10174
단체장	-10175
▁일본은	-10176
▁학교폭력	-10177
시했다	-10178
▁이것은	-10179
▁받았다고	-10180
▁막고	-10181
너스	-10182
▁숨져	-10183
▁뜻이다	-10184
기준을	-10185
▁잇는	-10186
▁정몽준	-10187
▁나쁜	-10188
▁서비스업	-10189
▁동계올림픽	-10190
▁종이	-10191
▁청취	-10192
▁160	-10193
▁개발해	-10194
▁반응이	-10195
▁떠난	-10196
▁민간인	-10197
에스	-10198
▁모양새	-10199
▁측면이	-10200
▁말은	-10201
▁물이	-10202
▁사회가	-10203
▁상해	-10204
▁비춰	-10205
62	-10206
ml	-10207
▁납치	-10208
민주주의	-10209
다이	-10210
▁이상은	-10211
▁늘면서	-10212
▁인터뷰를	-10213
▁크리스마스	-10214
▁피해는	-10215
▁설명하고	-10216
▁LTE	-10217
▁라고	-10218
▁낮춰	-10219
▁해지	-10220
▁조건을	-10221
상황을	-10222
▁발언에	-10223
▁2.5	-10224
▁오프라인	-10225
이냐	-10226
gye	-10227
▁오르는	-10228
▁파악됐다	-10229
비의	-10230
외국	-10231
▁촉구하고	-10232
▁유럽연합	-10233
▁국외	-10234
으니까	-10235
▁반발하고	-10236
▁인사가	-10237
골프	-10238
▁노회찬	-10239
▁농어촌	-10240
▁기능이	-10241
렸고	-10242
미니	-10243
억원대	-10244
▁하위	-10245
▁카카오톡	-10246
색을	-10247
▁정도다	-10248
▁건강을	-10249
▁다니는	-10250
▁이민	-10251
▁화합	-10252
▁데는	-10253
재단은	-10254
▁텐데	-10255
▁요인이	-10256
사업자	-10257
▁채취	-10258
▁질병관리	-10259
청탁	-10260
▁정도를	-10261
▁패배	-10262
건전	-10263
▁신공항	-10264
▁실시했다	-10265
▁IP	-10266
▁위해선	-10267
▁직원을	-10268
▁있었다는	-10269
▁문자메시	-10270
▁꾸려	-10271
▁김씨의	-10272
▁전일	-10273
▁GM	-10274
집단	-10275
꺼번에	-10276
기간이	-10277
ay	-10278
▁안성	-10279
▁숭	-10280
▁영업을	-10281
▁뭘	-10282
▁본회의에서	-10283
▁맞물	-10284
기관과	-10285
▁할지	-10286
▁다수의	-10287
아가	-10288
▁이렇	-10289
일에도	-10290
▁석방	-10291
았다는	-10292
▁사령	-10293
▁비난했다	-10294
▁건전	-10295
▁회피	-10296
▁부모님	-10297
▁소비자의	-10298
▁여객선	-10299
기업에	-10300
▁선언했다	-10301
▁부가	-10302
▁철수	-10303
(26	-10304
▁이어져	-10305
특검	-10306
▁어깨	-10307
▁증가할	-10308
▁근무하는	-10309
▁천안함	-10310
▁요인으로	-10311
▁통화정책	-10312
▁사이의	-10313
▁업체에	-10314
▁플레이	-10315
▁지시를	-10316
연이	-10317
▁학대	-10318
▁!'	-10319
▁운영할	-10320
▁클래	-10321
▁보호를	-10322
▁홍영	-10323
52	-10324
터널	-10325
▁상임고	-10326
▁임대주택	-10327
검사를	-10328
▁역사적	-10329
▁주차장	-10330
▁타이어	-10331
▁송금	-10332
여명을	-10333
▁투약	-10334
▁추후	-10335
곡동	-10336
▁가능하며	-10337
▁보고를	-10338
▁유흥	-10339
▁이어갔다	-10340
▁폭이	-10341
▁총장이	-10342
▁성북	-10343
▁오른쪽	-10344
에어	-10345
▁중국을	-10346
▁나서야	-10347
▁파워	-10348
내일	-10349
▁것보다	-10350
▁정동영	-10351
블록	-10352
테이	-10353
질랜드	-10354
자리에	-10355
▁다행히	-10356
▁고개를	-10357
▁the	-10358
너지를	-10359
▁하나인	-10360
▁됐다고	-10361
▁종합적으로	-10362
▁법관	-10363
▁시일	-10364
▁점수를	-10365
없다	-10366
▁점심	-10367
▁<<	-10368
▁든다	-10369
▁언어	-10370
업소	-10371
▁작업에	-10372
소시엄	-10373
HD	-10374
밴드	-10375
▁만들어야	-10376
분기에	-10377
▁서버	-10378
▁백운	-10379
▁과정이	-10380
-2	-10381
▁확보해	-10382
▁대강	-10383
▁지금의	-10384
▁여전	-10385
▁이뤄지고	-10386
▁재계	-10387
▁노숙	-10388
▁특별검사	-10389
▁약간	-10390
고와	-10391
▁턱	-10392
▁흰	-10393
▁안동	-10394
ER	-10395
▁재확인	-10396
FA	-10397
▁스페인	-10398
소방서	-10399
▁감사를	-10400
▁한꺼번에	-10401
▁도민	-10402
▁월평균	-10403
추가	-10404
▁지배구조	-10405
▁증권사	-10406
▁영업이익은	-10407
▁되면서	-10408
산에	-10409
▁빚을	-10410
▁영광	-10411
▁신흥국	-10412
전의	-10413
▁요소	-10414
▁세계에서	-10415
▁월드컵	-10416
▁떨어질	-10417
▁법원행정	-10418
회원	-10419
투어	-10420
백을	-10421
▁심장	-10422
▁최씨는	-10423
▁노사정	-10424
(200	-10425
▁않기로	-10426
▁리모델링	-10427
▁'3	-10428
▁발언하고	-10429
▁지키는	-10430
▁도서관	-10431
▁권리를	-10432
▁정황이	-10433
▁김기춘	-10434
매장	-10435
▁말이다	-10436
▁국내총생산	-10437
대원	-10438
음악	-10439
▁입력	-10440
▁한국노총	-10441
▁전했습니다	-10442
▁최장	-10443
▁나간	-10444
좋은	-10445
우리나라	-10446
▁뭔가	-10447
▁실질적으로	-10448
▁수법으로	-10449
(-1	-10450
▁시간은	-10451
시장과	-10452
▁옷을	-10453
▁덧붙였습니다	-10454
리케이션	-10455
퍼런스	-10456
▁계정	-10457
▁공직선거법	-10458
▁양재	-10459
심사를	-10460
연휴	-10461
▁재원	-10462
▁맺고	-10463
▁크루즈	-10464
▁무상급식	-10465
▁학과	-10466
▁몽골	-10467
CEO	-10468
드림	-10469
호의	-10470
전철	-10471
센터가	-10472
▁선호하는	-10473
▁김영란	-10474
데다	-10475
공무	-10476
▁대선을	-10477
▁재임	-10478
▁속도가	-10479
▁있죠	-10480
▁전반적으로	-10481
▁며칠	-10482
▁매뉴얼	-10483
조한	-10484
▁시진핑	-10485
▁시인	-10486
▁급감	-10487
▁적응	-10488
▁내용에	-10489
에요	-10490
▁건네	-10491
▁삼성전자의	-10492
▁참석하는	-10493
▁확인하는	-10494
수수료	-10495
▁제안을	-10496
▁정국	-10497
국립	-10498
▁명확히	-10499
▁콘텐츠를	-10500
▁세웠다	-10501
▁공화	-10502
이게	-10503
▁방송을	-10504
서울병원	-10505
▁시내버스	-10506
비행	-10507
▁낙동강	-10508
ut	-10509
▁이한	-10510
▁사항을	-10511
▁현실을	-10512
하니	-10513
▁필요할	-10514
LED	-10515
▁제공해	-10516
▁81	-10517
▁대입	-10518
▁동의를	-10519
▁정성	-10520
시간에	-10521
영진	-10522
EA	-10523
▁권역	-10524
센트	-10525
천명	-10526
▁마포	-10527
풍을	-10528
▁보냈	-10529
유기	-10530
▁일본이	-10531
▁여건	-10532
▁아들이	-10533
▁입건했다	-10534
▁적합한	-10535
▁국정운영	-10536
▁의미다	-10537
▁총선을	-10538
▁그것은	-10539
▁관계없이	-10540
▁1·2	-10541
MS	-10542
▁아시아나항공	-10543
케미	-10544
▁없으면	-10545
▁정리해	-10546
▁마음에	-10547
▁겨냥한	-10548
▁서서	-10549
치에	-10550
▁1996	-10551
▁이틀째	-10552
▁1998	-10553
면세점	-10554
▁선보이는	-10555
▁우회	-10556
만명이	-10557
▁판단이	-10558
▁구매할	-10559
▁물결	-10560
▁물에	-10561
▁느꼈	-10562
▁은행의	-10563
▁빨라	-10564
▁순찰	-10565
들었다	-10566
▁바닷	-10567
▁강구	-10568
지상	-10569
▁것인데	-10570
▁쌍용차	-10571
▁기업으로	-10572
전담	-10573
▁청와대에	-10574
두를	-10575
▁檢	-10576
▁엄중	-10577
▁싸움	-10578
▁내용으로	-10579
▁YTN	-10580
정보통신	-10581
OP	-10582
▁82	-10583
중이다	-10584
캐피	-10585
▁시대에	-10586
▁타격을	-10587
▁승소	-10588
▁장남	-10589
▁일도	-10590
▁배터리	-10591
▁행정자치	-10592
▁봉사활동	-10593
합동	-10594
▁않는다고	-10595
경선	-10596
디션	-10597
위인	-10598
▁누릴	-10599
▁판매한	-10600
위생	-10601
사관	-10602
훈련을	-10603
노트	-10604
퍼시픽	-10605
▁지적에	-10606
oT	-10607
▁건수는	-10608
▁달간	-10609
▁하여	-10610
▁이뤄진다	-10611
▁인사청문회	-10612
했는데요	-10613
▁발탁	-10614
▁요청을	-10615
▁오랫동안	-10616
▁금연	-10617
▁경위	-10618
터테인먼트	-10619
▁한상	-10620
공단은	-10621
▁전반적인	-10622
대형	-10623
▁근거가	-10624
▁명단	-10625
▁수익률	-10626
보통	-10627
▁드라이	-10628
▁대응할	-10629
▁강수	-10630
은행과	-10631
성장을	-10632
▁초등	-10633
▁양형	-10634
협동조합	-10635
~9	-10636
▁신동빈	-10637
▁조사는	-10638
▁지불	-10639
▁질문에는	-10640
▁마트	-10641
▁빌딩	-10642
중학교	-10643
▁눈물을	-10644
쉽게	-10645
▁신상	-10646
수행	-10647
▁나빠	-10648
고시	-10649
▁Segye	-10650
▁양식	-10651
▁나를	-10652
▁요구하며	-10653
▁업그	-10654
▁신도시	-10655
남도	-10656
에서만	-10657
공립	-10658
▁업체의	-10659
▁극심한	-10660
▁스트레	-10661
▁해양수산부	-10662
▁시키	-10663
▁가격으로	-10664
▁계속되고	-10665
이의	-10666
가루	-10667
▁협력해	-10668
층은	-10669
▁지시했다	-10670
▁발언은	-10671
내외	-10672
▁사로	-10673
정기	-10674
▁론칭	-10675
▁것이라	-10676
▁나눴	-10677
▁아나	-10678
▁제천	-10679
▁여신	-10680
여객	-10681
▁정면	-10682
nt	-10683
숙한	-10684
▁정치권의	-10685
퍼니	-10686
▁우편	-10687
▁혜택이	-10688
∼5	-10689
▁이틀간	-10690
▁특성화	-10691
▁정론관에서	-10692
양호	-10693
▁휴게	-10694
기존	-10695
▁즐거	-10696
▁민관	-10697
▁분석도	-10698
▁펀	-10699
▁온실	-10700
씨도	-10701
▁배제할	-10702
▁장학금	-10703
▁단계적으로	-10704
세다	-10705
▁적발됐다	-10706
감은	-10707
▁붐	-10708
▁키우는	-10709
▁테이블	-10710
▁요청한	-10711
(29	-10712
▁꿈꾸	-10713
▁비대위	-10714
성년	-10715
▁소수	-10716
▁꼽히는	-10717
▁양자	-10718
▁높아졌다	-10719
▁사업장	-10720
▁되찾	-10721
▁참여하고	-10722
▁선행	-10723
▁벌이는	-10724
▁of	-10725
고령	-10726
▁사태에	-10727
▁분위기다	-10728
담을	-10729
▁답답	-10730
▁원내대표와	-10731
▁올릴	-10732
▁바꾼	-10733
▁안전성	-10734
▁두드러	-10735
자에게는	-10736
▁뒤로	-10737
학부	-10738
▁만이다	-10739
▁평화와	-10740
여자	-10741
▁개최한다고	-10742
개에	-10743
감에	-10744
▁유상	-10745
▁부장검사	-10746
▁돋	-10747
▁의원회관에서	-10748
특별위원회	-10749
▁모른다	-10750
▁경찰서	-10751
▁폭우	-10752
▁6·13	-10753
백여	-10754
▁해당한다	-10755
라스틱	-10756
▁중부지방	-10757
▁단속을	-10758
팀장은	-10759
▁수출은	-10760
▁배추	-10761
▁특례	-10762
실의	-10763
▁섬유	-10764
▁아까	-10765
▁물론이고	-10766
▁이메일	-10767
▁일명	-10768
FC	-10769
경찰서에	-10770
▁아우	-10771
하기에	-10772
▁협동조합	-10773
사한	-10774
▁글이	-10775
▁중독	-10776
켰다	-10777
▁총력	-10778
▁900	-10779
▁골드	-10780
▁재생	-10781
역과	-10782
첨단	-10783
▁"1	-10784
▁차이를	-10785
▁지시한	-10786
현황	-10787
▁환자의	-10788
▁메시지	-10789
▁기준금리를	-10790
▁대륙	-10791
▁출시한	-10792
기인	-10793
이명박	-10794
▁스피	-10795
▁납입	-10796
▁최고치를	-10797
▁유튜브	-10798
▁하도록	-10799
전으로	-10800
▁악성	-10801
▁외화	-10802
▁4·1	-10803
무장	-10804
▁인선	-10805
▁보이스피싱	-10806
▁마이너스	-10807
▁아니었다	-10808
목표	-10809
▁인증을	-10810
▁자꾸	-10811
▁전망입니다	-10812
▁진학	-10813
▁조속한	-10814
▁신혼	-10815
▁노동조합	-10816
이노	-10817
플루엔	-10818
농가	-10819
▁숨지고	-10820
▁장악	-10821
▁선택을	-10822
▁고스	-10823
▁기관의	-10824
▁제품이다	-10825
▁97	-10826
사도	-10827
음에	-10828
▁하나는	-10829
사자	-10830
▁시점에	-10831
▁늦어	-10832
▁고액	-10833
▁가로챈	-10834
▁체제를	-10835
▁중요성을	-10836
▁스위스	-10837
▁단순한	-10838
덜란드	-10839
▁여유	-10840
▁제주시	-10841
▁중증	-10842
▁일부가	-10843
42	-10844
겠고	-10845
▁손상	-10846
결과를	-10847
▁김문수	-10848
▁대법원장	-10849
문제를	-10850
셔서	-10851
▁반입	-10852
양은	-10853
▁브로커	-10854
▁안전사고	-10855
▁업무상	-10856
▁탈퇴	-10857
▁당첨번호	-10858
▁당직	-10859
▁83	-10860
용지	-10861
▁정상적인	-10862
▁보여주	-10863
▁알선	-10864
▁자녀를	-10865
▁앞바다	-10866
▁낡	-10867
▁성분	-10868
적십자	-10869
▁날씨가	-10870
왔던	-10871
▁모델로	-10872
머리	-10873
웠던	-10874
▁십	-10875
▁광장	-10876
▁지역주민	-10877
균관	-10878
▁보도자료를	-10879
변경	-10880
▁연구위원은	-10881
▁벗어	-10882
인프라	-10883
▁김민	-10884
▁바꿀	-10885
북한의	-10886
▁패스트	-10887
되어야	-10888
▁사우디	-10889
▁미혼	-10890
▁헌법재판소	-10891
퇴직	-10892
▁정황을	-10893
▁동해안	-10894
▁날짜	-10895
인치	-10896
▁나름	-10897
▁징계를	-10898
▁출석해	-10899
성동	-10900
▁환수	-10901
▁선물세트	-10902
▁s	-10903
▁은평	-10904
▁개선에	-10905
▁가볍	-10906
▁확정된	-10907
▁발언이	-10908
▁업계에	-10909
블랙	-10910
얀마	-10911
▁과제를	-10912
▁기준에	-10913
켓을	-10914
▁설명회	-10915
▁정책과	-10916
우지	-10917
▁설치하고	-10918
플레이션	-10919
▁확보하고	-10920
▁상주	-10921
▁최다	-10922
치킨	-10923
▁취지의	-10924
▁일요일	-10925
르트	-10926
사업이	-10927
▁개최한	-10928
공식	-10929
단일	-10930
▁기아차	-10931
▁이경	-10932
▁현황을	-10933
▁국토해양	-10934
▁체계를	-10935
▁베스트	-10936
▁모욕	-10937
▁안팎의	-10938
듬해	-10939
▁국민들	-10940
▁정당한	-10941
학적	-10942
코스	-10943
▁울릉	-10944
병이	-10945
▁지어	-10946
▁나면	-10947
▁신발	-10948
▁후쿠	-10949
▁목소리도	-10950
였다는	-10951
매를	-10952
▁갔다	-10953
▁수의	-10954
▁진단했다	-10955
AD	-10956
▁손에	-10957
▁소지	-10958
권익	-10959
▁민중	-10960
판이	-10961
중독	-10962
▁선고한	-10963
▁토크	-10964
▁원가	-10965
외과	-10966
MOU	-10967
▁일부는	-10968
▁윈	-10969
▁뛰어넘	-10970
사회복지	-10971
ct	-10972
▁본부장은	-10973
범죄가	-10974
▁한도	-10975
근로자	-10976
CI	-10977
▁국책	-10978
▁듣는	-10979
▁메이	-10980
아라	-10981
1,	-10982
▁방문을	-10983
▁출제	-10984
▁양해각	-10985
동포	-10986
카드는	-10987
▁재활용	-10988
지휘	-10989
▁공론화	-10990
▁커졌다	-10991
▁막는	-10992
∼4	-10993
▁월세	-10994
▁여지가	-10995
▁원장이	-10996
▁면역	-10997
▁힘들다	-10998
▁이들에게	-10999
▁지정된	-11000
비에	-11001
해당	-11002
OECD	-11003
▁고려한	-11004
▁끊이지	-11005
▁대기업의	-11006
유지	-11007
▁0.1%	-11008
▁갖게	-11009
▁이원	-11010
평창	-11011
▁속속	-11012
▁의무를	-11013
▁곳도	-11014
곳은	-11015
▁이듬해	-11016
▁정우택	-11017
군과	-11018
▁뇌물수수	-11019
▁정통	-11020
▁발대	-11021
▁89	-11022
▁전임	-11023
▁적어	-11024
▁성장할	-11025
▁증액	-11026
▁발생하고	-11027
▁뮤지	-11028
▁트렌드	-11029
성으로	-11030
▁설립된	-11031
▁거라고	-11032
배우	-11033
▁종편	-11034
▁구성돼	-11035
▁승인을	-11036
▁86	-11037
▁서울지방	-11038
▁잡았다	-11039
▁보낼	-11040
TR	-11041
여건	-11042
▁내놓고	-11043
▁이동통신	-11044
▁근로자의	-11045
제작	-11046
▁디자이너	-11047
▁팀장	-11048
치며	-11049
셔츠	-11050
▁나옵니다	-11051
▁예정이며	-11052
▁2022	-11053
▁조선중앙	-11054
▁승리를	-11055
어업	-11056
▁솔루션	-11057
▁원료	-11058
트코	-11059
▁자동으로	-11060
호는	-11061
▁중소형	-11062
▁쏠리고	-11063
▁전복	-11064
▁매출액은	-11065
lo	-11066
사실을	-11067
▁프로모션	-11068
▁개정안이	-11069
권력	-11070
▁후보에게	-11071
▁신장	-11072
지니어링	-11073
▁문제다	-11074
▁가족의	-11075
독교	-11076
▁사진이	-11077
▁저하	-11078
▁진압	-11079
업계의	-11080
▁업무에	-11081
▁연구를	-11082
▁예전	-11083
▁앞선	-11084
▁여가	-11085
▁다툼	-11086
▁스크린	-11087
▁메르	-11088
▁행위가	-11089
▁치고	-11090
냐하면	-11091
곳으로	-11092
▁당국의	-11093
▁스키	-11094
▁지난해에는	-11095
간접	-11096
▁상당수	-11097
실천	-11098
▁묻자	-11099
▁인사들이	-11100
▁참고인	-11101
십시오	-11102
▁자신들의	-11103
콜릿	-11104
성적	-11105
▁판교	-11106
▁플러스	-11107
▁캡	-11108
▁뭉	-11109
▁공산	-11110
▁원심을	-11111
▁추출	-11112
.7%,	-11113
▁덩	-11114
▁지속될	-11115
걸음	-11116
건설이	-11117
▁도착한	-11118
▁조직을	-11119
▁나라가	-11120
▁받으며	-11121
자동	-11122
구와	-11123
▁마련해야	-11124
▁평창동계올림픽	-11125
▁공사가	-11126
부상	-11127
av	-11128
▁소방관	-11129
▁그다음	-11130
▁상의	-11131
에서부터	-11132
감찰	-11133
포털	-11134
▁머니투데이	-11135
백만	-11136
만원이다	-11137
▁적용할	-11138
▁인출	-11139
▁쌓아	-11140
▁기숙	-11141
▁홍영표	-11142
▁주방	-11143
.12	-11144
차적으로	-11145
실태	-11146
▁멈추	-11147
▁높아진	-11148
▁주도한	-11149
▁나타날	-11150
▁관련이	-11151
버그	-11152
▁농축	-11153
▁어쨌	-11154
베이터	-11155
▁스타일	-11156
▁보도를	-11157
▁행정부	-11158
▁하겠다고	-11159
▁콘셉	-11160
▁개회	-11161
▁가입자	-11162
.13	-11163
▁부인했다	-11164
▁검토해	-11165
아무	-11166
▁대주주	-11167
▁가방	-11168
▁민감한	-11169
▁생각에	-11170
▁오르고	-11171
▁지닌	-11172
▁공공부문	-11173
▁이걸	-11174
▁광고를	-11175
케미칼	-11176
침해	-11177
▁구급	-11178
▁상품은	-11179
디지털	-11180
시한	-11181
자산운용	-11182
.2%,	-11183
▁업계의	-11184
▁최재	-11185
모씨	-11186
에서다	-11187
KB	-11188
▁All	-11189
▁원인은	-11190
▁대선에서	-11191
텍스	-11192
▁후퇴	-11193
im	-11194
▁아이디어를	-11195
▁연말정산	-11196
▁차지하고	-11197
▁실시할	-11198
▁냄새	-11199
토지	-11200
▁술에	-11201
▁행보를	-11202
▁놀이	-11203
▁공천을	-11204
▁근로시간	-11205
▁표현을	-11206
▁거다	-11207
IST	-11208
▁고객들의	-11209
▁먹거리	-11210
배로	-11211
▁이어가	-11212
▁취해	-11213
▁잇달아	-11214
▁설립한	-11215
▁부위원장	-11216
▁부추	-11217
▁광산	-11218
▁증상이	-11219
▁것들이	-11220
▁영향력을	-11221
▁하기로	-11222
파가	-11223
▁안정적으로	-11224
탄핵	-11225
.1%,	-11226
▁관심과	-11227
▁기온은	-11228
▁세계적	-11229
.5%,	-11230
▁무엇을	-11231
▁받으면	-11232
▁재고	-11233
▁산업부	-11234
배가	-11235
래도	-11236
교실	-11237
분쟁	-11238
개혁을	-11239
▁인정하고	-11240
▁사람들에게	-11241
▁코너	-11242
▁선고받았다	-11243
▁사격	-11244
▁이의	-11245
▁재현	-11246
▁노하우를	-11247
.6%,	-11248
▁안전하게	-11249
▁인원	-11250
▁뇌물을	-11251
아산	-11252
튜디오	-11253
▁퇴출	-11254
▁일정으로	-11255
지역을	-11256
───	-11257
포지	-11258
.4%,	-11259
▁받았습니다	-11260
▁예산은	-11261
문화를	-11262
▁시술	-11263
▁깜짝	-11264
▁폭락	-11265
▁기업들은	-11266
했다면	-11267
▁라이프	-11268
▁경영권	-11269
▁군인	-11270
▁고수	-11271
사정	-11272
▁실시간으로	-11273
▁금전	-11274
▁광명	-11275
▁민심	-11276
▁대표에게	-11277
▁우승	-11278
▁실형을	-11279
▁끊임없이	-11280
정동	-11281
▁한명	-11282
▁결정하는	-11283
▁증거를	-11284
▁사용자	-11285
▁획기	-11286
경찰청은	-11287
하기가	-11288
▁다르게	-11289
▁이화여대	-11290
▁저가	-11291
.3%,	-11292
포토뉴스	-11293
상공회의소	-11294
호영	-11295
▁스타벅	-11296
▁어른	-11297
▁집값	-11298
▁분석됐다	-11299
▁씨에	-11300
▁핑	-11301
▁소통을	-11302
▁서울지방경찰청	-11303
현장에서	-11304
조정을	-11305
▁직원의	-11306
▁자세히	-11307
▁홈쇼핑	-11308
신문사	-11309
이재	-11310
▁불복	-11311
▁회담을	-11312
▁동작구	-11313
▁감사합니다	-11314
▁식품의약품	-11315
▁조건으로	-11316
▁당권	-11317
정원	-11318
연료	-11319
▁본회의를	-11320
▁확보했다	-11321
▁돌며	-11322
번호를	-11323
▁지역이	-11324
▁공급하는	-11325
▁기초연금	-11326
패션	-11327
▁상공	-11328
▁이거	-11329
▁미용	-11330
▁기간은	-11331
▁―	-11332
▁채워	-11333
충남	-11334
▁외환은행	-11335
▁몸에	-11336
▁CN	-11337
▁관료	-11338
▁적힌	-11339
▁중학생	-11340
▁행정안전부	-11341
▁생산하는	-11342
▁신도	-11343
▁노란	-11344
▁되길	-11345
.8%,	-11346
▁한시	-11347
▁부산에서	-11348
▁도피	-11349
▁앙	-11350
우수	-11351
▁도입한	-11352
본부가	-11353
▁국가정보원	-11354
▁팩	-11355
구성	-11356
▁공직자	-11357
만명을	-11358
▁사용하고	-11359
▁갑질	-11360
절차를	-11361
▁피해자의	-11362
▁굳이	-11363
▁열람	-11364
▁원칙에	-11365
▁아픔	-11366
▁선보일	-11367
▁터널	-11368
▁회동을	-11369
▁확보할	-11370
예고	-11371
의견	-11372
▁and	-11373
메달	-11374
거리에서	-11375
▁긍정적으로	-11376
▁당선인	-11377
▁닥	-11378
▁세액	-11379
▁중지	-11380
▁싱크	-11381
▁확인됐습니다	-11382
마이	-11383
CD	-11384
▁보훈	-11385
옵션	-11386
밀리	-11387
▁지고	-11388
▁특성을	-11389
▁확대될	-11390
▁엿	-11391
▁화제가	-11392
▁급속	-11393
해서는	-11394
▁마산	-11395
▁움직임이	-11396
입찰	-11397
▁대정부	-11398
▁옆에	-11399
▁다름	-11400
▁정상회의	-11401
▁잊지	-11402
▁앤	-11403
시켜야	-11404
됐기	-11405
전지	-11406
성향	-11407
▁우호	-11408
▁휠	-11409
▁위반한	-11410
▁의미한다	-11411
▁국민들에게	-11412
▁의사가	-11413
▁만들겠다	-11414
▁이뤘	-11415
창원	-11416
▁유동성	-11417
▁뿐이다	-11418
▁많을	-11419
▁"4	-11420
채를	-11421
동력	-11422
▁건넨	-11423
▁높아질	-11424
▁아파트를	-11425
▁이지	-11426
▁말부터	-11427
▁관점에서	-11428
▁인턴기자	-11429
▁신청했다	-11430
▁원내대책	-11431
컨설팅	-11432
▁여겨	-11433
▁성과가	-11434
렉스	-11435
▁김선	-11436
▁관찰	-11437
▁협의해	-11438
종이	-11439
▁팝	-11440
홀딩스	-11441
▁故	-11442
▁달에	-11443
▁인제	-11444
▁지원하기	-11445
모레퍼시픽	-11446
▁크기	-11447
ig	-11448
▁축사	-11449
▁확실히	-11450
바닥	-11451
54	-11452
▁의원들	-11453
▁기록하고	-11454
▁이번엔	-11455
▁유전자	-11456
당국의	-11457
거부	-11458
▁백악	-11459
▁적었다	-11460
▁순방	-11461
▁허가를	-11462
▁건데	-11463
▁접수된	-11464
▁성공했다	-11465
국토	-11466
▁중앙선거관리	-11467
▁무릎	-11468
운송	-11469
팀의	-11470
▁소득세	-11471
▁구는	-11472
▁그러다	-11473
▁보며	-11474
▁지난해부터	-11475
총괄	-11476
화되고	-11477
업에	-11478
식에는	-11479
▁한국수	-11480
▁출발해	-11481
▁생기는	-11482
▁고장	-11483
▁진심으로	-11484
▁역할이	-11485
▁공영	-11486
▁분야를	-11487
▁나란히	-11488
▁확정했다	-11489
▁뷰티	-11490
▁기사를	-11491
▁없어서	-11492
▁선물을	-11493
드리	-11494
▁봤을	-11495
78	-11496
▁특위	-11497
▁인건비	-11498
시행	-11499
▁거점	-11500
▁나라의	-11501
▁등에게	-11502
▁합법	-11503
▁내용도	-11504
▁Co	-11505
▁관계부처	-11506
▁정확하게	-11507
보다도	-11508
▁청주시	-11509
감도	-11510
▁맞춘	-11511
▁음식점	-11512
▁최상	-11513
▁롯데월드	-11514
▁공표	-11515
▁서초동	-11516
▁그려	-11517
매김	-11518
동기	-11519
배당	-11520
생물	-11521
▁정문	-11522
▁아래로	-11523
▁곁	-11524
브리드	-11525
▁고스란히	-11526
대기업	-11527
촉진	-11528
▁도달	-11529
▁업무협약을	-11530
▁대학의	-11531
▁국세청은	-11532
▁전체를	-11533
▁납득	-11534
▁그녀	-11535
▁일축	-11536
▁연결하는	-11537
▁차례에	-11538
▁대포	-11539
▁오해	-11540
탄소	-11541
▁지위를	-11542
▁파문	-11543
시하는	-11544
▁좋을	-11545
세상	-11546
▁윤상	-11547
만은	-11548
▁인구가	-11549
헌법	-11550
▁오름	-11551
▁일자리가	-11552
▁관광객이	-11553
▁350	-11554
▁위원회	-11555
▁위원장과	-11556
▁미루	-11557
▁둘러싸고	-11558
▁자리매김	-11559
▁장점	-11560
▁열흘	-11561
▁이뤄져야	-11562
개발기구	-11563
▁노력하고	-11564
▁행위에	-11565
▁취한	-11566
▁주유소	-11567
ry	-11568
신은	-11569
고래	-11570
▁부드러	-11571
▁도입해	-11572
▁코엑스에서	-11573
▁불리	-11574
▁신선한	-11575
▁한국은행이	-11576
▁경기를	-11577
▁시나리오	-11578
▁미친	-11579
▁94	-11580
▁형식으로	-11581
▁불합	-11582
위권	-11583
컨벤션	-11584
체포	-11585
▁유지하는	-11586
▁국민의당은	-11587
▁경과	-11588
▁서울에	-11589
▁업그레이드	-11590
▁대회의실에서	-11591
회사가	-11592
▁*	-11593
하자고	-11594
▁기록해	-11595
▁주소	-11596
▁참가해	-11597
▁방식이다	-11598
▁않느냐	-11599
신탁	-11600
▁부사장은	-11601
56	-11602
▁3~4	-11603
▁필요성이	-11604
▁적어도	-11605
▁방문하는	-11606
▁살리기	-11607
▁서울고법	-11608
▁산출	-11609
▁감당	-11610
▁날이	-11611
증권은	-11612
▁지진이	-11613
준영	-11614
▁선별	-11615
▁갑작	-11616
▁이색	-11617
▁포트	-11618
▁이해할	-11619
어떤	-11620
▁사무총장은	-11621
▁아이들	-11622
▁스마트폰을	-11623
▁경북도	-11624
공모	-11625
▁준비한	-11626
▁하남	-11627
▁깨고	-11628
객들이	-11629
▁전망을	-11630
▁불편한	-11631
()	-11632
▁대표로	-11633
▁'4	-11634
▁재선	-11635
▁보편	-11636
방식	-11637
▁해수부	-11638
▁지사가	-11639
▁이것을	-11640
▁알바	-11641
▁삼성서울병원	-11642
▁역설	-11643
▁노력할	-11644
▁문체	-11645
▁정도는	-11646
▁th	-11647
▁뛰어나	-11648
디스플레이	-11649
▁공모전	-11650
▁얻었다	-11651
▁수질	-11652
▁표본	-11653
▁넘어섰다	-11654
▁점거	-11655
▁전락	-11656
▁신속히	-11657
▁벌어졌다	-11658
고의	-11659
▁삼성그룹	-11660
▁걸친	-11661
▁교황	-11662
▁원내대표의	-11663
▁당했다	-11664
▁단식	-11665
되던	-11666
▁다할	-11667
▁들은	-11668
▁요구가	-11669
▁파격	-11670
졌으며	-11671
▁당선인은	-11672
▁세무조사	-11673
돌이	-11674
▁봉사활동을	-11675
카드를	-11676
대금	-11677
▁작용할	-11678
법무	-11679
결혼	-11680
▁봐도	-11681
▁태극기	-11682
▁관계자가	-11683
▁병원을	-11684
▁다해	-11685
▁92	-11686
▁전문가들의	-11687
▁잡는	-11688
▁신촌	-11689
▁적용한	-11690
▁줬다	-11691
▁우리나라가	-11692
▁넓은	-11693
▁추세다	-11694
▁기본적으로	-11695
▁연초	-11696
▁상임위	-11697
만족	-11698
제공	-11699
▁향하는	-11700
▁출시된	-11701
▁높다는	-11702
체적	-11703
산에서	-11704
.9%,	-11705
들고	-11706
겁게	-11707
▁판단에	-11708
지하철	-11709
싸움	-11710
▁영장을	-11711
▁합의에	-11712
▁신고리	-11713
▁취재진	-11714
▁자매	-11715
▁이대	-11716
▁회의실에서	-11717
▁회의에	-11718
현실	-11719
▁불필요한	-11720
▁전제	-11721
▁비과세	-11722
▁on	-11723
▁우려했다	-11724
▁취하고	-11725
▁경고했다	-11726
워드	-11727
품이	-11728
▁추구하는	-11729
▁캄	-11730
▁평가다	-11731
시위	-11732
▁조성을	-11733
▁스테	-11734
▁희망하는	-11735
▁치안	-11736
▁패러다	-11737
▁미안	-11738
수리	-11739
▁유지했다	-11740
반을	-11741
▁과천	-11742
▁강동	-11743
▁곤란	-11744
▁독특	-11745
금리가	-11746
▁배럴당	-11747
님의	-11748
연봉	-11749
▁소장은	-11750
▁치유	-11751
▁활용하는	-11752
▁이룬	-11753
▁기자간담회에서	-11754
▁안고	-11755
소유	-11756
▁수수료를	-11757
▁세일	-11758
▁단위로	-11759
▁4,	-11760
영수	-11761
▁인생	-11762
욕장	-11763
▁저금리	-11764
▁줄고	-11765
▁미국을	-11766
조로	-11767
▁이건희	-11768
▁데려	-11769
▁닿	-11770
▁폭탄	-11771
▁교통안전	-11772
▁증대	-11773
▁제재를	-11774
▁조사해	-11775
우주	-11776
▁매력	-11777
오전	-11778
▁파티	-11779
▁대대적인	-11780
동해	-11781
▁물가상승	-11782
▁멈춰	-11783
▁데이	-11784
▁무장	-11785
사례	-11786
환경을	-11787
▁삼척	-11788
▁지적을	-11789
▁네덜란드	-11790
▁민주평화당	-11791
지역으로	-11792
▁상영	-11793
▁파면	-11794
▁태도	-11795
▁참여한다	-11796
▁가입한	-11797
보며	-11798
▁선정했다	-11799
▁중앙일보	-11800
▁방식의	-11801
인민	-11802
▁날아	-11803
▁연구원	-11804
▁창출을	-11805
▁합작	-11806
▁도로에서	-11807
▁식물	-11808
▁중국어	-11809
▁살균제	-11810
▁화이트	-11811
▁보이며	-11812
▁자영업자	-11813
▁누리과정	-11814
베스트	-11815
▁웰	-11816
▁이후에는	-11817
▁진행한다고	-11818
▁한겨레	-11819
▁선거법	-11820
▁내려진	-11821
▁다음에	-11822
했었다	-11823
▁맺은	-11824
▁폐업	-11825
▁아직까지	-11826
▁이어갈	-11827
▁헬스	-11828
▁전달한	-11829
▁부가가치	-11830
▁부문에서	-11831
▁예상보다	-11832
플루엔자	-11833
▁권유	-11834
웨덴	-11835
▁컨트롤	-11836
그라	-11837
▁위험한	-11838
▁군사적	-11839
경쟁력	-11840
▁지사의	-11841
폐기	-11842
▁하다가	-11843
현충	-11844
이슈	-11845
트가	-11846
독립	-11847
갈등	-11848
단에서	-11849
쪽에	-11850
▁시험을	-11851
진출	-11852
▁주장은	-11853
▁산은	-11854
▁전제로	-11855
▁하는데요	-11856
5·	-11857
▁자립	-11858
체로	-11859
부정	-11860
▁덴	-11861
▁교수와	-11862
▁났습니다	-11863
보좌	-11864
▁?)	-11865
▁붉은	-11866
▁라는	-11867
이와	-11868
단체가	-11869
▁헤어	-11870
▁이끄는	-11871
▁행안	-11872
치면	-11873
데일리	-11874
하루	-11875
었기	-11876
제일제	-11877
▁안으로	-11878
▁졸업생	-11879
▁돌아온	-11880
▁시중은행	-11881
us	-11882
onga	-11883
▁남동	-11884
소득세	-11885
▁아웃도어	-11886
▁어긋	-11887
▁위험을	-11888
▁승부	-11889
▁모텔	-11890
▁뉴질랜드	-11891
▁영업이익이	-11892
▁대림	-11893
▁실용	-11894
▁진행자	-11895
▁반납	-11896
▁5·	-11897
▁소리를	-11898
▁한인	-11899
▁밝히는	-11900
▁지혜	-11901
▁팀장은	-11902
▁컨소시엄	-11903
▁있을까요	-11904
▁어쨌든	-11905
콘서트	-11906
블루	-11907
▁거짓말	-11908
▁서울시장이	-11909
▁주민이	-11910
.3%),	-11911
▁현충	-11912
▁제도다	-11913
징계	-11914
▁마크	-11915
▁서식	-11916
▁붙어	-11917
▁걸림	-11918
▁170	-11919
****	-11920
임에도	-11921
▁정하고	-11922
의회는	-11923
▁중이라고	-11924
▁양승태	-11925
▁점검을	-11926
▁예상됩니다	-11927
▁젖	-11928
졌을	-11929
▁UN	-11930
▁거래소	-11931
▁고유	-11932
▁신라	-11933
▁아나운	-11934
▁증가로	-11935
지식	-11936
▁문서	-11937
▁로스쿨	-11938
▁추진을	-11939
▁조경	-11940
▁활동이	-11941
▁논평을	-11942
▁판단하고	-11943
▁사무실에서	-11944
폭탄	-11945
▁김연	-11946
▁공장을	-11947
사업으로	-11948
▁재가	-11949
▁인문	-11950
▁구축을	-11951
▁학교를	-11952
청산	-11953
▁평화를	-11954
구제	-11955
▁정유라	-11956
장려	-11957
▁93	-11958
▁찍어	-11959
▁증거가	-11960
▁금요일	-11961
.5%),	-11962
기업인	-11963
▁된다면	-11964
통은	-11965
▁대학원	-11966
▁경희	-11967
▁대통령도	-11968
▁보여준	-11969
▁신입생	-11970
▁전라	-11971
▁출마한	-11972
인멸	-11973
▁몰고	-11974
▁박차를	-11975
▁청사	-11976
기간은	-11977
▁쳐	-11978
▁소극	-11979
가격이	-11980
하에	-11981
해지	-11982
▁본사에서	-11983
▁추징	-11984
화물	-11985
▁몰랐	-11986
호흡기	-11987
위안부	-11988
▁공식적으로	-11989
▁과감	-11990
새정치	-11991
▁파산	-11992
▁덜어	-11993
▁폭행한	-11994
▁가혹	-11995
▁씻	-11996
▁과열	-11997
상인	-11998
▁바꿨	-11999
▁분주	-12000
모직	-12001
▁재보선	-12002
▁줄줄이	-12003
▁홈페이지에서	-12004
▁에코	-12005
▁북한과	-12006
▁그렇다고	-12007
▁상품권	-12008
병원에서	-12009
▁日	-12010
▁착수했다	-12011
▁소년	-12012
카메라	-12013
▁서류를	-12014
▁제로	-12015
▁김창	-12016
조리	-12017
▁정부도	-12018
▁수사권	-12019
▁침묵	-12020
사망	-12021
▁카지노	-12022
▁낫	-12023
▁시의	-12024
▁7%	-12025
▁증세	-12026
▁만료	-12027
라크	-12028
체는	-12029
▁고객들에게	-12030
▁확산되고	-12031
▁NLL	-12032
중처벌	-12033
처에	-12034
▁연석	-12035
▁반문	-12036
▁눈높	-12037
▁부친상	-12038
▁국제사회의	-12039
▁호응을	-12040
▁기대했다	-12041
▁투자하는	-12042
▁원자재	-12043
센터장	-12044
▁이석기	-12045
▁해외에서	-12046
▁적법	-12047
▁자리가	-12048
뱅킹	-12049
▁2.0	-12050
▁유독	-12051
▁난방	-12052
지사는	-12053
▁밸	-12054
플래	-12055
▁해경은	-12056
▁환율이	-12057
▁엠	-12058
▁체결한	-12059
▁나타나는	-12060
▁대선후보가	-12061
▁보류	-12062
▁과제로	-12063
조가	-12064
▁패소	-12065
▁내세워	-12066
▁베이비	-12067
차장	-12068
▁규칙	-12069
▁조윤	-12070
란스	-12071
▁실세	-12072
▁국장	-12073
▁타임	-12074
소송을	-12075
▁성균관	-12076
▁성공을	-12077
피크	-12078
▁차원	-12079
▁두루	-12080
▁말아야	-12081
▁선거가	-12082
▁범죄를	-12083
▁확실한	-12084
월을	-12085
▁놓은	-12086
▁발병	-12087
▁최소한의	-12088
나이	-12089
▁대상에서	-12090
▁사교육	-12091
셔널	-12092
리얼	-12093
▁방식이	-12094
84	-12095
▁적용된다	-12096
erved	-12097
정배	-12098
▁김영삼	-12099
▁늘릴	-12100
▁총파업	-12101
▁각계	-12102
▁오늘부터	-12103
▁파는	-12104
▁서둘러	-12105
▁1200	-12106
0.0	-12107
▁귀농	-12108
▁코스피는	-12109
▁매니	-12110
▁등록을	-12111
구치	-12112
해줄	-12113
▁SM	-12114
▁녹취	-12115
해요	-12116
▁고소득	-12117
만원까지	-12118
▁했으며	-12119
능력을	-12120
▁레스토	-12121
사진을	-12122
▁정부조직	-12123
도서	-12124
▁물러나	-12125
▁바로잡	-12126
원칙	-12127
오롱	-12128
▁3·1	-12129
▁처방	-12130
▁의총	-12131
최저임금	-12132
면접	-12133
▁이순	-12134
▁이슬	-12135
월한	-12136
▁각국	-12137
내야	-12138
벚꽃	-12139
▁외교통상	-12140
▁많습니다	-12141
▁반영된	-12142
▁넷	-12143
▁대안을	-12144
▁검찰과	-12145
▁임금을	-12146
▁예방을	-12147
▁부르	-12148
▁현안에	-12149
사상	-12150
▁받았고	-12151
개교	-12152
▁레스토랑	-12153
CN	-12154
▁산책	-12155
▁이어지	-12156
공사의	-12157
▁법무법인	-12158
▁실물	-12159
수도권	-12160
▁유학생	-12161
▁못했던	-12162
▁좋아하는	-12163
사이버	-12164
▁태어난	-12165
▁기자간담회를	-12166
▁0.2%	-12167
▁AP	-12168
▁시간당	-12169
▁세우고	-12170
▁집으로	-12171
▁송환	-12172
▁합리적	-12173
▁시민들에게	-12174
▁확대에	-12175
▁명으로	-12176
▁0.5%	-12177
▁교육청	-12178
▁운영해	-12179
단위	-12180
.8%),	-12181
.7%),	-12182
▁다각	-12183
▁방사능	-12184
▁불과한	-12185
▁정권이	-12186
▁어렵고	-12187
▁미달	-12188
▁데이터를	-12189
되게	-12190
은희	-12191
▁같은데	-12192
▁매진	-12193
▁맡았다	-12194
▁너무나	-12195
▁회생	-12196
.2%),	-12197
철을	-12198
이한	-12199
▁나도	-12200
전통	-12201
단계로	-12202
▁가정의	-12203
▁에이	-12204
▁가구의	-12205
▁비서관	-12206
▁즐기	-12207
형은	-12208
▁헌정	-12209
▁가리	-12210
▁파행	-12211
▁1995	-12212
받는다	-12213
관리에	-12214
겠나	-12215
▁검찰총	-12216
▁간사	-12217
력발전	-12218
할인	-12219
공학과	-12220
▁아세안	-12221
해달라고	-12222
▁나눈	-12223
▁전환을	-12224
▁신한금융	-12225
▁대북제재	-12226
▁시흥	-12227
업체를	-12228
▁국비	-12229
▁강좌	-12230
.6%),	-12231
▁주변의	-12232
▁간다	-12233
▁안을	-12234
▁싣	-12235
어린이집	-12236
▁피할	-12237
▁국민은	-12238
주얼	-12239
▁지냈다	-12240
▁현지에서	-12241
▁전신	-12242
공직	-12243
▁사물	-12244
▁일반적으로	-12245
▁강세	-12246
▁국군	-12247
▁서비스가	-12248
상품을	-12249
▁보험료를	-12250
▁아기	-12251
▁실시하는	-12252
▁어렵다고	-12253
▁형평	-12254
▁태스크	-12255
록을	-12256
모금	-12257
▁추첨을	-12258
▁뚝	-12259
▁현장의	-12260
▁시한	-12261
경정	-12262
▁장려	-12263
▁폭넓	-12264
▁금융시장	-12265
▁전남도	-12266
결의	-12267
▁도시재생	-12268
▁탄도미사일	-12269
았는데	-12270
▁업체를	-12271
▁주한미군	-12272
▁내놓았다	-12273
▁추진하기로	-12274
▁감사의	-12275
▁토론을	-12276
res	-12277
▁되풀이	-12278
▁르노	-12279
▁맛과	-12280
▁반값	-12281
▁재편	-12282
▁이태	-12283
▁중이며	-12284
▁원활한	-12285
.4%),	-12286
▁담았다	-12287
▁명단을	-12288
▁세계경제	-12289
남미	-12290
▁부장판사는	-12291
▁체결했다고	-12292
동과	-12293
▁넘겨진	-12294
▁위안화	-12295
▁얼음	-12296
기업을	-12297
쇼핑몰	-12298
보전	-12299
▁판정	-12300
▁만났다	-12301
▁아이들을	-12302
▁넘어선	-12303
▁흉기를	-12304
이니	-12305
▁공무원이	-12306
▁푸드	-12307
▁받아들일	-12308
▁전문가들이	-12309
▁전망도	-12310
▁등재	-12311
▁끝나는	-12312
만개	-12313
▁SUV	-12314
▁많다는	-12315
▁텃밭	-12316
비용을	-12317
소환	-12318
▁주관하는	-12319
▁자율주행	-12320
▁캘	-12321
▁불꽃	-12322
▁박물	-12323
▁ᆞ	-12324
▁예의	-12325
▁땀	-12326
▁한국당은	-12327
▁배경을	-12328
▁환불	-12329
▁한복	-12330
▁사용을	-12331
▁승강	-12332
득을	-12333
▁처리할	-12334
▁셋째	-12335
겠다며	-12336
▁총기	-12337
▁출생	-12338
가격은	-12339
▁실질적	-12340
▁일반적인	-12341
▁나쁘	-12342
▁학생들	-12343
▁6·25	-12344
▁이정미	-12345
▁대강당에서	-12346
부분	-12347
▁존경	-12348
버거	-12349
▁당국자는	-12350
의혹	-12351
IB	-12352
▁익산	-12353
▁않겠느냐	-12354
▁최영	-12355
▁190	-12356
통이	-12357
▁없으며	-12358
한겨레	-12359
▁지키고	-12360
▁리얼타임	-12361
▁절약	-12362
두로	-12363
▁is	-12364
났고	-12365
▁브랜드로	-12366
▁출퇴근	-12367
▁보도자료	-12368
▁신성장	-12369
치다	-12370
▁가족을	-12371
▁학생은	-12372
▁도봉	-12373
▁않자	-12374
▁우주	-12375
▁충남도	-12376
자다	-12377
▁젊은이	-12378
▁빼돌린	-12379
▁프로젝트를	-12380
▁가라	-12381
▁온도	-12382
ir	-12383
▁지갑	-12384
두산	-12385
▁광화문광장에서	-12386
▁농도가	-12387
▁훌륭	-12388
▁일일이	-12389
▁떨어뜨	-12390
우러	-12391
공시	-12392
▁대전시	-12393
정부와	-12394
▁주민의	-12395
담당관	-12396
▁궤	-12397
▁대검찰청	-12398
▁유보	-12399
▁수사의	-12400
▁확신	-12401
▁다리	-12402
▁시민들	-12403
▁의미로	-12404
▁레드	-12405
▁넘긴	-12406
신당	-12407
▁돈은	-12408
▁본질	-12409
▁불평등	-12410
유업	-12411
.1%),	-12412
우며	-12413
▁여당이	-12414
기관을	-12415
▁해석된다	-12416
▁사례는	-12417
▁최고경영자	-12418
▁라면	-12419
▁쌍용	-12420
▁감사원은	-12421
▁차례로	-12422
▁국민건강	-12423
▁거시	-12424
▁화려한	-12425
▁신생아	-12426
▁논의하고	-12427
DC	-12428
▁향상을	-12429
▁타협	-12430
내지	-12431
▁donga	-12432
▁김진태	-12433
▁그렇습니다	-12434
석에	-12435
▁나들이	-12436
값을	-12437
자나	-12438
▁홍삼	-12439
▁사정이	-12440
▁조기에	-12441
▁압수수색을	-12442
▁개선이	-12443
1%)	-12444
소식	-12445
▁마시고	-12446
▁않나	-12447
대장	-12448
▁관리가	-12449
▁거래일보다	-12450
▁참조	-12451
▁화장실	-12452
배치	-12453
▁엑	-12454
▁트위터에	-12455
▁목소리	-12456
▁미얀마	-12457
렸다는	-12458
▁부적절한	-12459
▁양적완화	-12460
▁가능하도록	-12461
경기도	-12462
▁고심	-12463
▁점유율	-12464
▁것이었다	-12465
▁남성의	-12466
▁생물	-12467
▁생겼	-12468
ide	-12469
▁영유아	-12470
▁색깔	-12471
▁피고인	-12472
지침	-12473
▁사용하지	-12474
▁불확실성이	-12475
▁시대의	-12476
-3	-12477
톡톡	-12478
▁표기	-12479
▁직권남용	-12480
▁최대의	-12481
▁가족들이	-12482
▁건물을	-12483
▁부결	-12484
▁양양	-12485
맞춤	-12486
▁전체회의에서	-12487
▁핸드	-12488
▁만인	-12489
▁판단한	-12490
희상	-12491
▁입양	-12492
▁전달하고	-12493
▁동성	-12494
▁시민들은	-12495
범죄가중처벌	-12496
▁아모레퍼시픽	-12497
▁다채	-12498
고리	-12499
커스	-12500
▁연루된	-12501
▁보고서에	-12502
▁도매	-12503
사령부	-12504
▁약속한	-12505
▁짓는	-12506
▁없다며	-12507
세권	-12508
▁형사합의	-12509
▁장비를	-12510
▁전송	-12511
▁크다는	-12512
▁줄을	-12513
▁LA	-12514
▁전달할	-12515
▁여사	-12516
▁확산을	-12517
▁시계	-12518
▁차량은	-12519
이면서	-12520
▁홍성	-12521
고발	-12522
▁불투명	-12523
IG	-12524
▁애국	-12525
▁자국	-12526
ES	-12527
▁가벼운	-12528
▁달라는	-12529
▁로드맵	-12530
센터와	-12531
▁경향이	-12532
외국인	-12533
▁대비한	-12534
▁강제로	-12535
건물	-12536
주영	-12537
▁진전	-12538
▁어쩔	-12539
pt	-12540
▁법무부는	-12541
▁미성년	-12542
▁읍	-12543
▁식의	-12544
경은	-12545
마토	-12546
님은	-12547
▁자정	-12548
▁부산시는	-12549
책이	-12550
▁박탈	-12551
종으로	-12552
접촉	-12553
주거	-12554
▁사업비	-12555
로지	-12556
▁격차가	-12557
개월째	-12558
▁you	-12559
▁결집	-12560
▁외무	-12561
▁내용과	-12562
매수	-12563
▁환자는	-12564
▁산업은행	-12565
▁제공된다	-12566
▁식량	-12567
포터	-12568
▁성공적인	-12569
▁백신	-12570
▁응답자의	-12571
주교	-12572
▁맞다	-12573
▁그룹의	-12574
▁수료	-12575
활동에	-12576
▁발표하는	-12577
▁남산	-12578
▁오고	-12579
민생	-12580
▁강진	-12581
키스탄	-12582
▁전병	-12583
수단	-12584
으려	-12585
▁할아버	-12586
안군	-12587
요구	-12588
죄를	-12589
79	-12590
들여	-12591
▁지키기	-12592
▁5,	-12593
르크	-12594
▁장면	-12595
▁시작할	-12596
레일	-12597
금액은	-12598
▁정규	-12599
▁마련에	-12600
▁강조하고	-12601
▁만든다	-12602
▁만만치	-12603
▁채소	-12604
출자	-12605
▁생각했다	-12606
인하	-12607
▁엄정	-12608
▁탄핵심판	-12609
▁설치한	-12610
▁복잡한	-12611
▁피해자를	-12612
▁개최를	-12613
6%)	-12614
▁수요를	-12615
▁시너지	-12616
역은	-12617
▁수위를	-12618
▁특성상	-12619
▁초대형	-12620
▁객실	-12621
▁2500	-12622
▁91	-12623
로스	-12624
▁발언하는	-12625
의무	-12626
▁작품을	-12627
▁고사	-12628
보디아	-12629
되는데	-12630
▁인재를	-12631
▁계속될	-12632
▁불가능한	-12633
▁연락을	-12634
문은	-12635
▁유일호	-12636
▁아이들의	-12637
▁1970	-12638
▁차량의	-12639
▁확인되지	-12640
하늘	-12641
▁농장	-12642
▁됐고	-12643
▁스케	-12644
개소	-12645
▁일원	-12646
▁허브	-12647
▁징수	-12648
▁서비스는	-12649
릅니다	-12650
▁서울을	-12651
으로서의	-12652
▁여부와	-12653
금지법	-12654
형의	-12655
▁생태계	-12656
경제인	-12657
예비	-12658
▁나오면	-12659
▁현안을	-12660
.9%),	-12661
휴직	-12662
▁전주시	-12663
2%)	-12664
▁금액이	-12665
▁이론	-12666
▁국어	-12667
가게	-12668
▁일반인	-12669
▁관측도	-12670
나들목	-12671
코드	-12672
▁패턴	-12673
▁겉	-12674
▁번도	-12675
▁수업을	-12676
리자	-12677
▁측에서	-12678
▁인사는	-12679
▁편이다	-12680
ge	-12681
▁달아난	-12682
▁특유의	-12683
▁지키지	-12684
AR	-12685
▁배가	-12686
만으로도	-12687
▁거두	-12688
▁탐방	-12689
▁똑같은	-12690
▁위성	-12691
▁공작	-12692
▁이사장이	-12693
▁골라	-12694
▁정해진	-12695
▁공단	-12696
▁합성	-12697
기간에	-12698
▁꼼꼼히	-12699
▁언급하며	-12700
▁오세훈	-12701
▁힘들어	-12702
▁공유하고	-12703
▁비전을	-12704
▁주장도	-12705
▁가끔	-12706
▁마찬가지다	-12707
손해	-12708
▁일할	-12709
▁진술한	-12710
∼6	-12711
▁자격증	-12712
▁본관	-12713
▁백지	-12714
▁상표	-12715
▁디자인을	-12716
▁유산	-12717
(0.0	-12718
▁무한	-12719
▁시속	-12720
▁식사를	-12721
▁당당	-12722
4%)	-12723
▁95%	-12724
▁참가자	-12725
▁시스템이	-12726
▁정씨는	-12727
▁거리를	-12728
▁DNA	-12729
▁하시	-12730
▁탈세	-12731
▁불만이	-12732
▁폭언	-12733
▁남겼다	-12734
▁산재	-12735
▁속도로	-12736
▁측과	-12737
▁고맙	-12738
▁구성을	-12739
상가	-12740
▁입금	-12741
▁추징금	-12742
▁여론을	-12743
▁차질이	-12744
▁현대차는	-12745
▁초콜릿	-12746
능력시험	-12747
▁기본적인	-12748
409	-12749
됐는데	-12750
▁디젤	-12751
▁바이어	-12752
▁면에서	-12753
▁늦은	-12754
▁영구	-12755
▁중에서도	-12756
▁어업	-12757
▁여러분께	-12758
조의	-12759
▁현실적으로	-12760
자세한	-12761
▁예결	-12762
▁시작한다	-12763
▁여행을	-12764
EB	-12765
▁순위	-12766
▁준비가	-12767
▁계류	-12768
▁못하도록	-12769
▁다를	-12770
5%)	-12771
부지	-12772
▁"3	-12773
▁우상호	-12774
서민	-12775
▁소개하고	-12776
관세	-12777
▁원산지	-12778
▁일로	-12779
▁적도	-12780
▁킨	-12781
▁강력하게	-12782
▁국가를	-12783
▁물량이	-12784
▁복지부	-12785
▁교섭단체	-12786
▁법학	-12787
(50	-12788
▁영장실질	-12789
▁분석하고	-12790
▁기록하며	-12791
▁명에	-12792
▁야권의	-12793
3%)	-12794
▁법제사법	-12795
▁보험사	-12796
▁이용자	-12797
▁국토교통부는	-12798
▁차등	-12799
▁검사가	-12800
▁생각은	-12801
영리	-12802
▁강원랜드	-12803
하산	-12804
▁법안이	-12805
▁정신적	-12806
▁펼쳤다	-12807
▁멀티	-12808
▁다이어트	-12809
▁한경닷컴	-12810
▁상태에	-12811
▁민감	-12812
▁장외	-12813
▁내놓을	-12814
대책위원회	-12815
▁단체는	-12816
▁벌일	-12817
▁직원은	-12818
▁제어	-12819
▁사장을	-12820
▁크림	-12821
난을	-12822
▁표를	-12823
버랜드	-12824
▁신한은행	-12825
▁지도부는	-12826
매우	-12827
▁소멸	-12828
오리	-12829
▁모르고	-12830
▁위해서다	-12831
▁부평	-12832
▁골든	-12833
▁원격	-12834
▁소감을	-12835
▁.)	-12836
▁예정돼	-12837
방한	-12838
▁영업정지	-12839
▁김동철	-12840
▁이진	-12841
▁사장의	-12842
▁요건을	-12843
대통령이	-12844
▁웃돌	-12845
▁갇	-12846
▁원대	-12847
GB	-12848
▁출장	-12849
▁흙	-12850
▁테크	-12851
▁공급이	-12852
에이	-12853
▁입장에	-12854
폴리오	-12855
▁유학	-12856
▁총무	-12857
▁대학에	-12858
▁세법	-12859
▁샀	-12860
테일	-12861
▁수사하고	-12862
▁학교에서	-12863
름이	-12864
창조경제	-12865
휴가	-12866
스카	-12867
회의가	-12868
▁붙잡혔습니다	-12869
▁분향	-12870
▁장모	-12871
휴일	-12872
▁화가	-12873
▁온실가스	-12874
▁꾸며	-12875
▁검찰총장	-12876
▁뚜렷한	-12877
▁불출마	-12878
이야	-12879
직업	-12880
▁제의	-12881
▁로켓	-12882
▁요구할	-12883
지않	-12884
▁기무	-12885
▁논평	-12886
▁아닙니까	-12887
▁거취	-12888
ot	-12889
▁아동학대	-12890
총선	-12891
▁최모	-12892
▁보험금을	-12893
▁중견기업	-12894
▁겨우	-12895
▁시켜	-12896
▁띠	-12897
▁주먹	-12898
연습	-12899
▁물었다	-12900
라리	-12901
▁닦	-12902
▁짝	-12903
서에서	-12904
▁비트코	-12905
▁기획재정	-12906
▁흔히	-12907
▁전기요금	-12908
▁프라이	-12909
미한	-12910
▁금융당국	-12911
▁광범위	-12912
▁속에서도	-12913
부패	-12914
▁밝은	-12915
▁경품	-12916
▁→	-12917
발의	-12918
사회를	-12919
▁헌신	-12920
▁사업이다	-12921
▁이혜	-12922
▁주최한	-12923
▁정시	-12924
▁교육과	-12925
▁소설	-12926
▁돕고	-12927
────┼────	-12928
CO	-12929
▁증가세를	-12930
▁재료	-12931
▁처우	-12932
▁실시해	-12933
▁일당	-12934
▁협력사	-12935
▁돌봄	-12936
▁사로잡	-12937
▁손으로	-12938
▁웨딩	-12939
레드	-12940
▁무사	-12941
▁낮았다	-12942
종범	-12943
▁입맛	-12944
▁쉐	-12945
하길	-12946
▁혈액	-12947
▁농성	-12948
▁화상	-12949
▁실시한다고	-12950
공사에	-12951
▁준비했다	-12952
▁1.	-12953
▁물건	-12954
▁앱을	-12955
▁'2016	-12956
공동체	-12957
▁정책은	-12958
▁플라스틱	-12959
▁협정	-12960
▁아닌지	-12961
▁사무실을	-12962
졌기	-12963
▁누락	-12964
▁증가해	-12965
▁이용객	-12966
▁발을	-12967
성폭력	-12968
▁각자	-12969
▁국민은행	-12970
▁신고한	-12971
89	-12972
맥주	-12973
▁통계청	-12974
연금을	-12975
▁박영수	-12976
▁나은	-12977
▁냉동	-12978
▁업체들이	-12979
▁김준	-12980
연도	-12981
▁비용은	-12982
▁여야의	-12983
▁제출받은	-12984
▁돌아오	-12985
캐피탈	-12986
▁소외계층	-12987
▁쓰지	-12988
▁신재생에너지	-12989
news	-12990
발생	-12991
축구	-12992
▁모터	-12993
▁감추	-12994
▁입당	-12995
▁우체	-12996
▁건국대	-12997
red	-12998
▁주택을	-12999
▁직원들은	-13000
▁동거	-13001
행위에	-13002
▁자격을	-13003
▁포토	-13004
▁촛불집	-13005
▁모델들이	-13006
▁그들의	-13007
▁후에는	-13008
▁논의하는	-13009
▁빨간	-13010
▁구성된다	-13011
▁대변인이	-13012
▁최고기온은	-13013
▁강세를	-13014
레저	-13015
▁손쉽게	-13016
▁전체가	-13017
▁운영된다	-13018
통장	-13019
전에서	-13020
▁심해	-13021
학술	-13022
최대	-13023
▁되겠다	-13024
▁하느냐	-13025
▁바라보는	-13026
달러로	-13027
베이트	-13028
▁입었다	-13029
냐는	-13030
▁경제협력개발기구	-13031
점검을	-13032
산업을	-13033
▁대표도	-13034
▁1,000	-13035
▁체제로	-13036
▁과목	-13037
사범	-13038
▁계신	-13039
경험	-13040
▁상처	-13041
▁스웨덴	-13042
▁공백	-13043
▁적자를	-13044
▁금천	-13045
폭을	-13046
▁화제다	-13047
▁광양	-13048
▁지방세	-13049
▁높을	-13050
...‘	-13051
▁분식	-13052
▁관여한	-13053
▁선관위	-13054
▁깊어	-13055
▁낡은	-13056
파일	-13057
▁변형	-13058
▁설치를	-13059
▁가파	-13060
협회가	-13061
▁낮다	-13062
▁간첩	-13063
▁주장이다	-13064
▁그날	-13065
▁││	-13066
▁무리한	-13067
▁터져	-13068
▁공을	-13069
▁구멍	-13070
▁선택한	-13071
3,	-13072
▁생명을	-13073
▁룰	-13074
▁사임	-13075
가장	-13076
조사가	-13077
▁산업단지	-13078
인원	-13079
▁집무	-13080
포지엄	-13081
▁학생을	-13082
▁제기된다	-13083
▁인수위	-13084
▁받았다는	-13085
빨리	-13086
지역은	-13087
▁대면	-13088
▁커진	-13089
▁단호	-13090
평가를	-13091
▁투자해	-13092
집에서	-13093
세무서	-13094
방의	-13095
▁안정적	-13096
▁움직임을	-13097
▁2.	-13098
▁당뇨	-13099
▁왜냐하면	-13100
▁연결해	-13101
▁정운	-13102
▁어우러	-13103
▁인사하고	-13104
▁회사채	-13105
▁오류	-13106
▁연중	-13107
▁청정	-13108
▁수석대표	-13109
▁출범한	-13110
▁선장	-13111
▁튼	-13112
▁후에도	-13113
수용	-13114
론에	-13115
▁이관	-13116
▁소독	-13117
▁인정했다	-13118
▁조치로	-13119
▁인정한	-13120
▁주민투표	-13121
복무	-13122
▁부부가	-13123
속에	-13124
▁구입할	-13125
▁독서	-13126
▁실시된	-13127
▁사정	-13128
▁증진	-13129
▁돼서	-13130
▁명확한	-13131
스톱	-13132
▁안보리	-13133
사랑의	-13134
▁부자	-13135
동반	-13136
▁연평도	-13137
▁실정이다	-13138
AT	-13139
▁철저하게	-13140
▁공동주택	-13141
▁없던	-13142
▁멀리	-13143
체제를	-13144
황식	-13145
▁재판관	-13146
라이프	-13147
년은	-13148
편을	-13149
▁행위는	-13150
▁이창	-13151
▁중국산	-13152
이든	-13153
▁돈으로	-13154
▁무게를	-13155
출입	-13156
측근	-13157
▁복수	-13158
▁조선일보	-13159
▁것이라며	-13160
중단	-13161
관장	-13162
란을	-13163
▁고졸	-13164
▁참석할	-13165
범죄수사	-13166
▁굿	-13167
▁교수를	-13168
▁고민을	-13169
▁참석하고	-13170
방법	-13171
거리가	-13172
▁밖에도	-13173
▁말하고	-13174
▁화해	-13175
▁참석한다	-13176
▁암호	-13177
▁있겠다	-13178
선박	-13179
▁실습	-13180
▁열악한	-13181
▁드리	-13182
▁하이브리드	-13183
▁노조가	-13184
▁판매하고	-13185
추적	-13186
▁중형	-13187
더불어	-13188
▁만성	-13189
▁시작하는	-13190
▁국내산	-13191
▁녹음	-13192
이었으나	-13193
▁집안	-13194
▁임대료	-13195
▁하청	-13196
▁합참	-13197
▁철폐	-13198
▁경기침	-13199
▁자신에게	-13200
▁학생의	-13201
▁눈물	-13202
▁면담을	-13203
▁향하고	-13204
▁우려된다	-13205
▁국빈	-13206
▁겪은	-13207
▁핀테크	-13208
▁증가율	-13209
국과	-13210
임이	-13211
2·	-13212
▁핵심은	-13213
▁체계적인	-13214
▁훔쳐	-13215
▁하니	-13216
소화	-13217
리안	-13218
자로부터	-13219
▁경신	-13220
▁혐오	-13221
▁끈다	-13222
▁화면	-13223
분위	-13224
▁성분이	-13225
▁기초생활	-13226
▁질의에	-13227
났지만	-13228
▁승차	-13229
▁현실화	-13230
유공자	-13231
(55)	-13232
증가	-13233
스토어	-13234
▁시연	-13235
중계	-13236
▁풀려	-13237
렉시트	-13238
▁보도가	-13239
▁거액의	-13240
▁무서	-13241
▁손잡고	-13242
▁중랑	-13243
▁전역	-13244
▁96	-13245
▁국가인권	-13246
만금	-13247
▁├────	-13248
aper	-13249
타협	-13250
▁일정이	-13251
▁규제가	-13252
데이트	-13253
업계는	-13254
개헌	-13255
공사와	-13256
▁구속영장이	-13257
▁넉	-13258
▁부재	-13259
것도	-13260
▁길어	-13261
▁마침	-13262
▁방화	-13263
▁An	-13264
▁애플리케이션	-13265
돼지	-13266
▁초부터	-13267
▁한은은	-13268
▁주춤	-13269
▁이해를	-13270
▁신청하면	-13271
▁탕	-13272
▁넘은	-13273
▁토로했다	-13274
▁명령을	-13275
부장검사	-13276
▁공개적으로	-13277
▁이뤄지	-13278
▁나가야	-13279
링크	-13280
▁취재진의	-13281
▁지적했습니다	-13282
▁참가자들은	-13283
▁취약한	-13284
오프	-13285
▁면밀히	-13286
▁시급한	-13287
▁그렇기	-13288
▁You	-13289
▁하는지	-13290
▁붙여	-13291
차와	-13292
친화	-13293
▁it	-13294
▁검정	-13295
▁형제	-13296
요양	-13297
▁기도	-13298
▁릴	-13299
발전을	-13300
치면서	-13301
▁중단을	-13302
인척	-13303
코노	-13304
▁심야	-13305
국회에서	-13306
▁경쟁력이	-13307
▁프레스센터에서	-13308
▁고립	-13309
▁거리가	-13310
해상	-13311
였는데	-13312
▁적용되는	-13313
▁혜	-13314
▁추가적인	-13315
참사	-13316
▁직속	-13317
트럼프	-13318
▁맞았다	-13319
▁총장의	-13320
▁한국거래	-13321
▁도망	-13322
▁의석	-13323
▁이날부터	-13324
베이션	-13325
▁현상을	-13326
▁느끼고	-13327
▁율	-13328
▁신조	-13329
아침	-13330
▁명백한	-13331
▁혼잡	-13332
▁회장에	-13333
▁걸렸다	-13334
(+	-13335
▁분수	-13336
▁들려	-13337
라이트	-13338
오늘의	-13339
▁한식	-13340
▁영수	-13341
가야	-13342
리더	-13343
▁촬영한	-13344
▁취할	-13345
▁머무	-13346
행한	-13347
▁사옥	-13348
▁소비자물가	-13349
▁소지가	-13350
▁계속되는	-13351
▁탔	-13352
1·	-13353
▁떨어지고	-13354
▁적용하는	-13355
▁주장하며	-13356
▁브랜드의	-13357
▁활성화에	-13358
▁전력을	-13359
▁서울대병원	-13360
▁내보	-13361
▁'5	-13362
▁처리가	-13363
▁교육과정	-13364
▁줄어드는	-13365
▁보다는	-13366
렸다고	-13367
▁보험금	-13368
▁방지를	-13369
▁빠졌다	-13370
▁상품으로	-13371
▁단원고	-13372
▁재판이	-13373
시청	-13374
▁강화하기	-13375
▁유력한	-13376
▁잡기	-13377
점유	-13378
▁충주	-13379
▁전달하는	-13380
▁정상적으로	-13381
▁국민참여	-13382
가공	-13383
▁특별히	-13384
영철	-13385
▁디저	-13386
▁사저	-13387
▁없지	-13388
▁삽	-13389
어제	-13390
▁과실	-13391
▁무엇인지	-13392
▁영도	-13393
▁인상에	-13394
효과가	-13395
메뉴	-13396
▁위주의	-13397
▁임시국회	-13398
▁독거	-13399
미는	-13400
▁이겨	-13401
신청을	-13402
▁않는다면	-13403
크림	-13404
▁아랍	-13405
▁군이	-13406
▁샘	-13407
▁김희	-13408
▁하드	-13409
▁기대할	-13410
▁속출	-13411
▁의혹도	-13412
▁드림	-13413
인식	-13414
▁사람과	-13415
▁봉투	-13416
끄럽	-13417
▁유전	-13418
명씩	-13419
▁보고서에서	-13420
▁민심을	-13421
▁주가는	-13422
▁놓여	-13423
회장은	-13424
본부에	-13425
▁제도적	-13426
▁전년대비	-13427
▁간사인	-13428
▁국가대표	-13429
궐기	-13430
컴퍼니	-13431
▁LNG	-13432
▁전체적으로	-13433
ICT	-13434
▁기기	-13435
▁제네	-13436
▁성완종	-13437
▁여건이	-13438
▁산업혁	-13439
▁대표에	-13440
▁예상하고	-13441
▁떠나는	-13442
▁까다	-13443
대중	-13444
▁밀접	-13445
기관으로	-13446
상업	-13447
mg	-13448
현안	-13449
▁시국	-13450
본다	-13451
▁소명	-13452
─────	-13453
▁유용	-13454
▁취업을	-13455
▁구축해	-13456
▁불로	-13457
▁무혐의	-13458
▁독립운동	-13459
▁동포	-13460
경보	-13461
▁분야는	-13462
▁다음으로	-13463
▁폐쇄회로	-13464
▁해운대구	-13465
▁꾀	-13466
▁개원	-13467
였으나	-13468
진료	-13469
▁판단할	-13470
▁공매	-13471
▁발전소	-13472
디스	-13473
▁기능성	-13474
▁변수	-13475
▁피하기	-13476
▁이희	-13477
▁위치해	-13478
▁담겼다	-13479
태경	-13480
▁연안	-13481
입니까	-13482
▁금리는	-13483
▁프로세	-13484
▁김석	-13485
▁답을	-13486
분권	-13487
미로	-13488
▁연쇄	-13489
▁회고	-13490
▁하나다	-13491
~19	-13492
▁뒤인	-13493
▁월요일	-13494
▁시점에서	-13495
▁고무	-13496
박람	-13497
▁오너	-13498
▁총리와	-13499
▁느낌을	-13500
▁혼란을	-13501
▁겪었다	-13502
▁다쳐	-13503
▁선정한	-13504
▁해소를	-13505
▁자세로	-13506
▁인쇄	-13507
▁허리	-13508
▁없는데	-13509
▁등기	-13510
만으로는	-13511
▁시기가	-13512
ow	-13513
상수	-13514
▁환경부는	-13515
일수록	-13516
▁물량을	-13517
엄마	-13518
▁관객	-13519
▁조카	-13520
▁외곽	-13521
est	-13522
▁괴롭	-13523
정책과	-13524
마당	-13525
▁창작	-13526
교회	-13527
▁서강	-13528
▁기획재정부는	-13529
했으면	-13530
▁정진석	-13531
호에	-13532
▁독특한	-13533
연구원이	-13534
▁코오롱	-13535
▁서울시의	-13536
▁충당	-13537
▁제작한	-13538
▁금융위원회	-13539
▁살인사건	-13540
▁서울시교육청	-13541
▁칸	-13542
심에	-13543
▁갖췄다	-13544
▁그러자	-13545
임대주택	-13546
▁구워	-13547
▁할인된	-13548
가계	-13549
▁공동체	-13550
감으로	-13551
▁아들을	-13552
▁증가에	-13553
▁밝히지	-13554
▁경기도는	-13555
▁지난해까지	-13556
▁수서	-13557
▁뜻으로	-13558
중개	-13559
▁총력을	-13560
▁공채	-13561
▁진지	-13562
▁소주	-13563
▁어민	-13564
▁후보자를	-13565
▁들을	-13566
그렇	-13567
판에서	-13568
▁마련하는	-13569
▁살포	-13570
▁도시락	-13571
▁캔	-13572
▁부모가	-13573
▁Con	-13574
▁직원들에게	-13575
▁수성	-13576
▁형식	-13577
오일	-13578
▁수협	-13579
값은	-13580
▁발견돼	-13581
▁구치	-13582
▁수중	-13583
과학수사	-13584
날을	-13585
시설에	-13586
▁서산	-13587
▁답한	-13588
▁1.2	-13589
▁죽음	-13590
▁금융회사	-13591
▁신원	-13592
▁사의를	-13593
리포	-13594
▁뜯어	-13595
▁받아들이지	-13596
로서의	-13597
▁일본에	-13598
▁시작되는	-13599
▁드러낸	-13600
클래	-13601
▁기상청	-13602
▁국무회의	-13603
▁심재	-13604
호흡기증후군	-13605
▁필로	-13606
▁위에서	-13607
▁불이익을	-13608
▁기내	-13609
News	-13610
▁늘었고	-13611
▁넘기	-13612
▁정모	-13613
▁달콤	-13614
▁상세	-13615
▁주의를	-13616
▁지원과	-13617
▁대통령직	-13618
▁기여한	-13619
▁나의	-13620
▁막말	-13621
▁처음부터	-13622
▁폐기물	-13623
▁재판에서	-13624
▁강경화	-13625
▁환경이	-13626
요원	-13627
▁간편하게	-13628
분할	-13629
▁항소심에서	-13630
공직자	-13631
▁경청	-13632
지나	-13633
▁돼지고	-13634
월에도	-13635
▁수입이	-13636
▁or	-13637
▁번영	-13638
급을	-13639
할까	-13640
▁이해가	-13641
▁한쪽	-13642
▁대단히	-13643
...”	-13644
▁지지하는	-13645
표가	-13646
▁쿠키	-13647
한국의	-13648
산림	-13649
▁신종	-13650
▁험	-13651
▁오늘도	-13652
▁원내대표를	-13653
▁어젯	-13654
▁전셋	-13655
▁의식을	-13656
▁부회장의	-13657
전문대학원	-13658
CHA	-13659
▁통합을	-13660
공사를	-13661
▁총학생	-13662
▁사랑하는	-13663
▁구성원	-13664
▁연계한	-13665
▁하려고	-13666
▁대상자	-13667
▁진행되며	-13668
▁해결해야	-13669
atch	-13670
▁상반기에	-13671
▁탄소	-13672
년간의	-13673
▁l	-13674
▁수익성	-13675
▁해병대	-13676
▁듀	-13677
억원이다	-13678
명예	-13679
▁영토	-13680
▁김은	-13681
▁김병준	-13682
▁동월	-13683
▁원내대변인은	-13684
▁혁	-13685
▁정부세종청사	-13686
변을	-13687
▁것이기	-13688
▁들어간다	-13689
▁전체회의를	-13690
▁여성들이	-13691
▁펼칠	-13692
▁조원	-13693
▁갓	-13694
▁우세	-13695
▁보수단체	-13696
▁PD	-13697
▁벚꽃	-13698
▁장성택	-13699
▁주목받고	-13700
▁경제는	-13701
언스	-13702
▁과징	-13703
▁규정이	-13704
▁기술개발	-13705
▁알뜰	-13706
▁환자를	-13707
▁쌓여	-13708
▁방문객	-13709
용역	-13710
▁혁명	-13711
▁고공	-13712
▁ᄀ	-13713
▁문희상	-13714
▁간단한	-13715
▁급증했다	-13716
▁건보	-13717
▁맡겨	-13718
409(	-13719
▁미르	-13720
▁그중	-13721
▁다가온	-13722
▁입소	-13723
플랜트	-13724
%)││	-13725
비정규직	-13726
▁프로그램은	-13727
회사를	-13728
▁결국은	-13729
▁명은	-13730
▁맑은	-13731
▁편리하게	-13732
▁심의를	-13733
▁위원은	-13734
▁아트	-13735
▁삼성바이오	-13736
▁주변에서	-13737
▁연탄	-13738
▁효과적으로	-13739
▁후쿠시마	-13740
▁용납	-13741
▁뽑아	-13742
▁보여주고	-13743
▁최선의	-13744
▁관광객들이	-13745
▁시장과	-13746
▁귀성	-13747
▁적혀	-13748
나게	-13749
▁프로그램이	-13750
▁직거래	-13751
▁내정자는	-13752
▁인상이	-13753
▁과거사	-13754
ook	-13755
▁토론회에서	-13756
72	-13757
양성	-13758
대기	-13759
신저	-13760
▁다양하게	-13761
▁한국어	-13762
▁이종걸	-13763
문서	-13764
변동	-13765
▁자치단체	-13766
▁기동	-13767
▁제일모직	-13768
증명	-13769
▁고지	-13770
▁연극	-13771
▁규제개혁	-13772
▁모른	-13773
석으로	-13774
렉션	-13775
▁김상조	-13776
전북	-13777
▁결정은	-13778
▁'2015	-13779
▁꽤	-13780
▁버티	-13781
았을	-13782
연장	-13783
▁몰라	-13784
▁건국	-13785
▁시행하고	-13786
▁홍익	-13787
▁외교부는	-13788
▁결과적으로	-13789
▁주범	-13790
▁정계	-13791
▁특사	-13792
▁기지	-13793
▁김진표	-13794
정희	-13795
▁끝으로	-13796
▁김혜	-13797
(52)	-13798
▁보자	-13799
▁얻는	-13800
▁때문이라고	-13801
▁힐링	-13802
▁한옥	-13803
주의보가	-13804
현동	-13805
▁고등학생	-13806
설에	-13807
▁자부	-13808
▁불가능하다	-13809
▁박람	-13810
위원이	-13811
▁성별	-13812
▁아무래도	-13813
AS	-13814
▁천막	-13815
▁번에	-13816
일랜드	-13817
▁응답이	-13818
대학생	-13819
▁부산항	-13820
▁왕복	-13821
모터	-13822
▁의장이	-13823
▁행사로	-13824
▁이광	-13825
동욱	-13826
▁학생과	-13827
조는	-13828
▁경제성장률	-13829
▁맥락	-13830
상거래	-13831
▁새누리당과	-13832
▁잘못을	-13833
▁판결했다	-13834
▁2021	-13835
▁밖의	-13836
팅을	-13837
▁애니	-13838
▁태백	-13839
▁전문성을	-13840
▁긴밀한	-13841
AP	-13842
▁결정했다고	-13843
]'	-13844
▁걸리는	-13845
받게	-13846
▁수천	-13847
▁김홍	-13848
▁부상을	-13849
▁장치	-13850
확대	-13851
▁꾸준한	-13852
▁기대감이	-13853
살이	-13854
연대는	-13855
▁보령	-13856
▁결과로	-13857
냈습니다	-13858
노이	-13859
▁됐다는	-13860
▁청구했다	-13861
▁저의	-13862
▁한라	-13863
▁논란과	-13864
▁골프장	-13865
▁넘었다	-13866
▁강화에	-13867
부고	-13868
는지를	-13869
▁태스크포스	-13870
▁위임	-13871
▁엽	-13872
▁이주열	-13873
▁사태로	-13874
협력을	-13875
친박	-13876
▁휘두	-13877
▁주의가	-13878
▁특조	-13879
▁그것도	-13880
▁반발이	-13881
▁일하고	-13882
▁수단으로	-13883
▁금호타이어	-13884
▁판시했다	-13885
▁그야말로	-13886
▁늘어난다	-13887
▁국회법	-13888
열차	-13889
▁부분도	-13890
▁처한	-13891
▁국민권익	-13892
사과	-13893
역량	-13894
▁출근길	-13895
개월만에	-13896
▁조사했다	-13897
85	-13898
하기를	-13899
▁주당	-13900
▁입장은	-13901
▁둘러보고	-13902
▁생리	-13903
▁고영	-13904
▁피로	-13905
▁한국지	-13906
▁살처분	-13907
믹스	-13908
크라	-13909
▁밀어	-13910
개월에	-13911
프가	-13912
▁현대상	-13913
영어	-13914
코리아는	-13915
▁사용이	-13916
▁활발한	-13917
급적	-13918
▁당연한	-13919
▁선대위	-13920
▁이재오	-13921
▁사실이다	-13922
▁대부분은	-13923
▁최적의	-13924
분은	-13925
▁증거인멸	-13926
▁일간	-13927
▁이슈가	-13928
hanne	-13929
리그	-13930
▁강정	-13931
▁프린	-13932
▁빚고	-13933
▁있거든요	-13934
▁교보	-13935
▁수단	-13936
▁시가총액	-13937
▁서해안	-13938
▁수신	-13939
▁리조트	-13940
▁출간	-13941
▁사단	-13942
93	-13943
▁되자	-13944
▁연예인	-13945
▁대다수	-13946
▁아이디	-13947
▁한명숙	-13948
▁공보	-13949
▁결산	-13950
▁노동개혁	-13951
▁진상규명	-13952
재무	-13953
▁내면	-13954
▁잡을	-13955
▁사모	-13956
▁김황식	-13957
브란스	-13958
름을	-13959
▁윗	-13960
게시	-13961
▁연락이	-13962
▁제한하는	-13963
▁해결하는	-13964
▁뮤지컬	-13965
▁이곳에서	-13966
▁맛이	-13967
▁컵	-13968
▁되며	-13969
한강	-13970
자유구역	-13971
▁딸을	-13972
▁대내외	-13973
▁한국형	-13974
▁교육과학기술	-13975
▁곰	-13976
라디오	-13977
▁낭비	-13978
▁기대가	-13979
oodNews	-13980
▁최후	-13981
▁내세운	-13982
▁덴마크	-13983
▁감상	-13984
소매	-13985
▁잦은	-13986
▁협상에	-13987
▁사실과	-13988
▁사고는	-13989
▁민주당과	-13990
▁통과한	-13991
▁종북	-13992
▁자체적으로	-13993
▁세우	-13994
요타	-13995
▁0.3%	-13996
▁달라진	-13997
▁춤	-13998
▁입건했다고	-13999
▁보여준다	-14000
▁땅을	-14001
▁헌혈	-14002
실장이	-14003
▁경선을	-14004
▁캄보디아	-14005
▁하락세를	-14006
~12	-14007
▁효과는	-14008
중이	-14009
▁세종문화	-14010
▁앓고	-14011
▁자치구	-14012
▁일회	-14013
▁계획에	-14014
▁건설을	-14015
▁수상했다	-14016
▁일주	-14017
이행	-14018
▁높인	-14019
▁어떨	-14020
▁반해	-14021
▁서울시청	-14022
▁유상증	-14023
아지	-14024
▁기다리는	-14025
▁적게	-14026
CHAN	-14027
▁김정숙	-14028
▁바꿔야	-14029
▁경제학	-14030
▁롤	-14031
▁내용이다	-14032
지방법원	-14033
▁퍼포먼스를	-14034
▁"5	-14035
▁태평양	-14036
▁평등	-14037
▁구입한	-14038
▁도입된	-14039
▁"2	-14040
▁성장세를	-14041
▁구두	-14042
▁종결	-14043
▁잇단	-14044
둥이	-14045
▁염려	-14046
▁상권	-14047
▁박경	-14048
▁공간으로	-14049
art	-14050
▁하수	-14051
모비스	-14052
작은	-14053
▁사라진	-14054
▁생각하지	-14055
NEL	-14056
▁있어도	-14057
▁투표율	-14058
▁줘	-14059
터카	-14060
관리공단	-14061
▁즐겨	-14062
▁주도하는	-14063
▁정홍	-14064
▁국제금융	-14065
네스코	-14066
CS	-14067
▁문화가	-14068
▁건강에	-14069
신고를	-14070
▁국가와	-14071
(53)	-14072
강제	-14073
▁강조하는	-14074
▁배를	-14075
만명의	-14076
차게	-14077
▁대응하기	-14078
질서	-14079
▁반발했다	-14080
증시	-14081
조원에	-14082
스런	-14083
▁함양	-14084
▁통상임금	-14085
8%)	-14086
▁일본에서	-14087
▁인용해	-14088
▁달해	-14089
▁비방	-14090
▁부드러운	-14091
기업으로	-14092
▁근육	-14093
▁물품을	-14094
▁이유에	-14095
▁남쪽	-14096
▁추도	-14097
▁와이	-14098
-0	-14099
▁키우	-14100
▁부적절	-14101
▁특검은	-14102
먹는	-14103
교부	-14104
ichanne	-14105
▁게임을	-14106
중견기업	-14107
HO	-14108
▁국가보훈	-14109
ichannela	-14110
(49)	-14111
▁환승	-14112
▁피력	-14113
CHANNEL	-14114
파워	-14115
▁cCHANNEL	-14116
었으나	-14117
▁중점을	-14118
▁결과다	-14119
▁중장	-14120
▁계층	-14121
청래	-14122
리콘	-14123
▁끝나면	-14124
▁외국인이	-14125
▁낙관	-14126
▁중고차	-14127
▁일대에	-14128
충북	-14129
기만	-14130
▁하루에	-14131
▁활짝	-14132
▁집필	-14133
▁권력을	-14134
▁휴대전화를	-14135
▁본점	-14136
▁정했다	-14137
하고도	-14138
▁중견	-14139
▁쪼	-14140
▁사실도	-14141
▁사용되는	-14142
▁받았던	-14143
▁창고	-14144
인정	-14145
수능	-14146
가에서	-14147
분리	-14148
7%)	-14149
으론	-14150
▁다스	-14151
죄로	-14152
부양	-14153
류에	-14154
과대학	-14155
회사인	-14156
거래일	-14157
▁깨끗한	-14158
▁자산을	-14159
▁자아	-14160
▁소비가	-14161
악산	-14162
▁명예를	-14163
처음	-14164
▁뺀	-14165
▁시설물	-14166
(50)	-14167
▁영결	-14168
▁부당하게	-14169
▁소환해	-14170
▁이명	-14171
▁변론	-14172
▁정년	-14173
▁효성	-14174
▁압력을	-14175
▁주된	-14176
▁지원한	-14177
파는	-14178
▁믿을	-14179
민이	-14180
방재	-14181
▁검토를	-14182
▁이어진다	-14183
▁김우	-14184
▁이번에도	-14185
▁비주류	-14186
▁축적	-14187
▁신사	-14188
쉼터	-14189
▁북한인권	-14190
외환	-14191
▁제시하고	-14192
▁추진된다	-14193
▁파급	-14194
▁사직	-14195
▁제조사	-14196
카카오	-14197
씨로부터	-14198
가전	-14199
방어체계	-14200
눈에	-14201
▁부족하다	-14202
▁안전에	-14203
압의	-14204
▁en	-14205
▁알지	-14206
▁외국계	-14207
▁안타까운	-14208
▁갖는다	-14209
▁기탁	-14210
▁국정화	-14211
▁정치에	-14212
▁마신	-14213
▁확인을	-14214
▁구속하고	-14215
▁학계	-14216
▁해외로	-14217
개년	-14218
▁구리	-14219
▁매립	-14220
여만원을	-14221
▁상품이	-14222
▁일어날	-14223
구니	-14224
▁순수	-14225
▁101	-14226
▁포트폴리오	-14227
▁효과적인	-14228
시간은	-14229
▁천정배	-14230
▁빚은	-14231
▁아파트는	-14232
▁심각하게	-14233
▁다음주	-14234
▁헤드	-14235
국적	-14236
▁중단하고	-14237
▁휴식	-14238
▁피자	-14239
렸지만	-14240
사전	-14241
▁임진	-14242
▁닷	-14243
▁양질의	-14244
▁“201	-14245
▁그해	-14246
▁유공	-14247
bp	-14248
▁철학	-14249
▁청구할	-14250
▁도발을	-14251
▁그쳐	-14252
▁않았을	-14253
▁자유를	-14254
▁설치돼	-14255
▁자발적으로	-14256
챔피	-14257
해진다	-14258
▁기쁘	-14259
장이나	-14260
▁서울남부	-14261
▁〈	-14262
▁내부에서	-14263
▁구매한	-14264
▁고쳐	-14265
▁‘1	-14266
▁성립	-14267
▁알려지면서	-14268
▁줘야	-14269
▁상태였다	-14270
집중	-14271
▁유기농	-14272
▁3.	-14273
▁광진구	-14274
▁학생부	-14275
▁장면을	-14276
jo	-14277
ra	-14278
만원대	-14279
▁연구소	-14280
▁찾아온	-14281
▁걱정이	-14282
▁엄격한	-14283
▁파생	-14284
▁알파	-14285
▁없었다고	-14286
▁행운	-14287
피해자	-14288
엔지니어링	-14289
▁전보	-14290
조금	-14291
▁터뜨	-14292
▁여당의	-14293
라엘	-14294
스타일	-14295
▁호우	-14296
▁들어보	-14297
▁장기적으로	-14298
▁정부서울청사	-14299
(54)	-14300
▁획정	-14301
▁랜드	-14302
타이	-14303
지정	-14304
▁레이더	-14305
번지	-14306
▁법이	-14307
▁대의	-14308
페이스	-14309
▁포용	-14310
▁심리로	-14311
▁낚시	-14312
▁가로막	-14313
▁수출을	-14314
▁관계에	-14315
▁유모	-14316
▁개인이	-14317
▁많은데	-14318
▁모친상	-14319
▁더불어민주당은	-14320
▁이용하면	-14321
주기를	-14322
버린	-14323
▁선보여	-14324
▁전에는	-14325
▁8%	-14326
▁경제와	-14327
▁석유화학	-14328
▁신문은	-14329
▁여성가족부	-14330
▁통진	-14331
▁작년보다	-14332
▁맞물려	-14333
하러	-14334
세탁	-14335
▁유치를	-14336
▁장시간	-14337
▁휴가를	-14338
▁중요하다고	-14339
▁그러한	-14340
▁후폭	-14341
▁넣고	-14342
토리	-14343
▁9000	-14344
▁사장과	-14345
분까지	-14346
셨다	-14347
▁짓고	-14348
▁추진한	-14349
▁거센	-14350
Sc	-14351
▁40.	-14352
▁코스피가	-14353
▁기저	-14354
▁물려	-14355
▁실수요	-14356
▁정서	-14357
기에는	-14358
EX	-14359
▁없었고	-14360
▁!"	-14361
▁스페셜	-14362
▁영국의	-14363
.19	-14364
▁자격이	-14365
레이크	-14366
명령을	-14367
▁도로를	-14368
▁임무	-14369
▁활약	-14370
▁105	-14371
▁호소하고	-14372
▁그렇다	-14373
지속	-14374
결산	-14375
수학능력시험	-14376
▁리베이트	-14377
특허	-14378
▁정윤	-14379
해양수산	-14380
▁원로	-14381
▁스튜디오	-14382
파의	-14383
▁마비	-14384
▁혼인	-14385
▁체험을	-14386
▁대상이다	-14387
▁서거	-14388
▁담배를	-14389
증거	-14390
▁연합뉴스와의	-14391
소연	-14392
▁노선을	-14393
▁수사관	-14394
나와	-14395
지수가	-14396
주면	-14397
고생	-14398
▁거리에	-14399
▁수익률을	-14400
▁정치권이	-14401
치사	-14402
▁실어	-14403
▁정권을	-14404
▁우정	-14405
▁의도가	-14406
봉투	-14407
▁장례식장	-14408
▁당선인이	-14409
MI	-14410
▁무책임	-14411
▁마케팅을	-14412
▁챙기	-14413
▁차로	-14414
보험료	-14415
영장을	-14416
▁입수	-14417
▁영향은	-14418
▁숨겨	-14419
▁졸업한	-14420
▁원리	-14421
집에	-14422
▁김일성	-14423
▁가난	-14424
▁국무조정	-14425
겁다	-14426
▁약화	-14427
▁고객은	-14428
▁고민이	-14429
(57)	-14430
▁되기를	-14431
▁지목된	-14432
▁자녀가	-14433
▁이어지면서	-14434
▁금융감독원은	-14435
▁제공하기	-14436
▁1.6	-14437
um	-14438
▁국방위원회	-14439
▁효율적인	-14440
▁일일	-14441
▁선거인	-14442
▁지켜보	-14443
▁달걀	-14444
▁축사를	-14445
▁차관이	-14446
▁일행	-14447
▁나뉘	-14448
(51)	-14449
▁밝혀야	-14450
▁곳곳	-14451
▁대남	-14452
▁다친	-14453
령이	-14454
▁예매	-14455
▁들어서고	-14456
▁도마	-14457
▁공개하고	-14458
▁김관영	-14459
▁순회	-14460
▁때에는	-14461
▁장중	-14462
▁한다며	-14463
▁6%	-14464
▁워터	-14465
▁좋고	-14466
▁상설	-14467
▁개봉	-14468
▁정선	-14469
▁참관	-14470
▁중소기업이	-14471
계선	-14472
▁유착	-14473
94	-14474
▁피서	-14475
▁날씨를	-14476
기업은	-14477
▁강풍	-14478
▁목사	-14479
▁your	-14480
베트남	-14481
▁구속했다	-14482
출연	-14483
▁프라	-14484
▁연다고	-14485
▁이룰	-14486
▁해주는	-14487
▁미수습	-14488
▁재산피해	-14489
▁부산저축은행	-14490
▁아이스	-14491
▁팽팽	-14492
▁손가락	-14493
작년	-14494
(56)	-14495
▁인정할	-14496
마일	-14497
▁1994	-14498
▁paper	-14499
▁바꾸고	-14500
▁가구가	-14501
▁대한적십자	-14502
▁어디에	-14503
▁사업과	-14504
▁횡단	-14505
▁[201	-14506
▁북미정상회담	-14507
▁인정하지	-14508
▁남지	-14509
▁소나	-14510
▁정상화를	-14511
▁요건	-14512
▁굽	-14513
활용	-14514
▁포격	-14515
▁추가경정	-14516
▁압박을	-14517
와이	-14518
▁해온	-14519
석은	-14520
프를	-14521
야권	-14522
장터	-14523
▁목을	-14524
yout	-14525
▁국제기구	-14526
▁실태를	-14527
현지시각	-14528
▁만취	-14529
▁사형	-14530
▁내년에는	-14531
톨릭	-14532
▁신세계백화점	-14533
범한	-14534
▁등록된	-14535
▁즐기고	-14536
▁통계청이	-14537
▁내놨	-14538
▁오산	-14539
▁전문의	-14540
▁그렇지만	-14541
▁이스	-14542
▁결렬	-14543
oc	-14544
▁3.1	-14545
▁상품의	-14546
▁모래	-14547
▁무거운	-14548
▁확보에	-14549
▁탈북자	-14550
▁성주	-14551
▁유진	-14552
▁성폭	-14553
교육지원	-14554
종은	-14555
▁박사는	-14556
▁소비자에게	-14557
▁노트북	-14558
퓰리즘	-14559
HAAD	-14560
▁컨벤션	-14561
▁크다고	-14562
▁개정안에	-14563
경제연구원	-14564
▁증폭	-14565
▁상습적으로	-14566
가구가	-14567
▁강기	-14568
▁두는	-14569
▁위기가	-14570
▁바삭	-14571
▁추석을	-14572
▁교수님	-14573
교도	-14574
▁해석이	-14575
▁신차	-14576
▁것이죠	-14577
▁근접	-14578
▁1987	-14579
▁재학	-14580
▁과태료를	-14581
▁차에	-14582
▁휴일	-14583
토론회	-14584
▁오지	-14585
교환	-14586
▁춘천시	-14587
중부	-14588
▁족	-14589
▁분명한	-14590
▁위치를	-14591
▁연임	-14592
트럭	-14593
▁공장에서	-14594
▁잃고	-14595
▁몇몇	-14596
▁역사의	-14597
ace	-14598
▁최근에	-14599
▁대출이	-14600
▁화물차	-14601
승인	-14602
▁이루고	-14603
▁개최하고	-14604
▁쇄	-14605
▁촉발	-14606
▁투신	-14607
메이션	-14608
▁건넸	-14609
▁양해각서	-14610
▁취지를	-14611
▁공급을	-14612
▁기술과	-14613
▁참여연대	-14614
▁벌어지고	-14615
▁dis	-14616
▁구축하고	-14617
▁회복을	-14618
문화재	-14619
▁참여정부	-14620
▁다운로드	-14621
▁제출할	-14622
취소	-14623
▁최씨	-14624
▁촉구한다	-14625
▁파주시	-14626
▁메뉴를	-14627
산업이	-14628
▁책임자	-14629
시죠	-14630
▁커지는	-14631
▁종사자	-14632
학과를	-14633
스러워	-14634
▁한반도의	-14635
▁플라	-14636
▁결정된	-14637
▁청계천	-14638
▁비대위원장	-14639
▁알코올	-14640
▁바닥에	-14641
▁지원했다	-14642
▁정병	-14643
▁학업	-14644
▁이해관계	-14645
▁위하여	-14646
▁정책위의장	-14647
▁리서치	-14648
▁this	-14649
리라	-14650
▁소비자들에게	-14651
▁고령화	-14652
▁받던	-14653
▁중남미	-14654
▁폭행을	-14655
▁본부장	-14656
▁의원총회에서	-14657
금고	-14658
▁오가는	-14659
▁합산	-14660
▁냉장고	-14661
사찰	-14662
▁인정하는	-14663
소득이	-14664
▁달할	-14665
▁항해	-14666
에게서	-14667
▁폼	-14668
문과	-14669
▁정당이	-14670
종인	-14671
▁말씀이	-14672
▁리비아	-14673
플레	-14674
▁고추	-14675
시설과	-14676
▁크레	-14677
▁확정됐다	-14678
▁수상한	-14679
시피	-14680
▁아픈	-14681
▁조사됐습니다	-14682
▁얽	-14683
▁논리	-14684
▁강의를	-14685
▁다짐했다	-14686
▁프로그램에	-14687
▁어젯밤	-14688
파를	-14689
▁끝나고	-14690
▁화폐	-14691
▁캠퍼스	-14692
구조를	-14693
▁있으므로	-14694
재벌	-14695
▁1.5%	-14696
▁교육감은	-14697
▁행진을	-14698
▁개발과	-14699
▁지켜야	-14700
▁직영	-14701
▁양측은	-14702
▁자존	-14703
▁또다른	-14704
▁감자	-14705
▁성동	-14706
▁초고	-14707
▁원장의	-14708
▁브랜드가	-14709
▁평창올림픽	-14710
96	-14711
이사장	-14712
▁촛불집회	-14713
▁반포	-14714
▁치즈	-14715
▁아냐	-14716
▁조각	-14717
보고서를	-14718
정책에	-14719
▁톤	-14720
▁민영화	-14721
▁저렴하게	-14722
▁국립과학수사	-14723
동의안	-14724
▁전병헌	-14725
▁중소기업에	-14726
▁문건을	-14727
▁성동구	-14728
주자	-14729
el	-14730
▁이자를	-14731
▁바다의	-14732
OMC	-14733
▁계획은	-14734
▁아무도	-14735
▁LS	-14736
▁소셜네트워크	-14737
74	-14738
▁눈치	-14739
▁구속됐다	-14740
▁들어오는	-14741
▁치명	-14742
등의	-14743
▁변화와	-14744
▁비하	-14745
▁쪽에	-14746
:30	-14747
▁협회	-14748
잠수	-14749
▁제기돼	-14750
▁미지수	-14751
▁기독교	-14752
▁창업을	-14753
▁의정	-14754
▁메인	-14755
주심	-14756
∼8	-14757
▁정쟁	-14758
▁전동차	-14759
▁정치가	-14760
▁실태조사	-14761
▁출시를	-14762
▁내란	-14763
▁당황	-14764
▁하이트	-14765
▁비난을	-14766
▁직결	-14767
▁사례도	-14768
▁탄탄	-14769
▁시대가	-14770
기후	-14771
지금은	-14772
▁순매수	-14773
센터의	-14774
▁민영	-14775
입법	-14776
▁양상	-14777
▁자식	-14778
특보	-14779
리츠	-14780
▁됐던	-14781
▁클린	-14782
욕을	-14783
▁총회	-14784
▁나주	-14785
▁주저	-14786
▁모습으로	-14787
▁공사는	-14788
트의	-14789
개념	-14790
▁국회의원이	-14791
있던	-14792
▁전분기	-14793
보호법	-14794
▁대응에	-14795
▁이외에	-14796
해져	-14797
▁권장	-14798
▁명문	-14799
▁기해	-14800
▁투자에	-14801
▁급격한	-14802
IMF	-14803
▁있겠지만	-14804
▁상식	-14805
▁박주선	-14806
▁국공립	-14807
▁법조계	-14808
▁이천	-14809
널리스트	-14810
▁발생하면	-14811
산업은	-14812
▁딸이	-14813
부도	-14814
▁운반	-14815
만히	-14816
▁마찰	-14817
▁설립을	-14818
▁악수	-14819
▁겨냥해	-14820
마리를	-14821
▁이씨가	-14822
▁나타내는	-14823
효과를	-14824
퀘어	-14825
▁자구	-14826
▁후보들이	-14827
▁바쁜	-14828
▁아이스크	-14829
▁거대	-14830
▁중계	-14831
▁네트워크를	-14832
▁공개할	-14833
▁------	-14834
▁써야	-14835
(10.	-14836
개발원	-14837
td	-14838
의결	-14839
▁생겼다	-14840
▁한계를	-14841
▁난다	-14842
▁은행권	-14843
(58)	-14844
▁보상을	-14845
색이	-14846
몬드	-14847
ul	-14848
▁닷새	-14849
▁김미	-14850
▁KDI	-14851
▁그쳤	-14852
▁성산	-14853
▁아이의	-14854
회의는	-14855
▁오후에	-14856
▁있다가	-14857
▁유죄로	-14858
날인	-14859
▁숫자	-14860
▁우리에게	-14861
강릉	-14862
▁이정희	-14863
▁순차적으로	-14864
▁말씀하신	-14865
▁사료	-14866
▁강화해야	-14867
소니	-14868
▁가까워	-14869
▁신경을	-14870
정책의	-14871
▁조윤선	-14872
▁과장은	-14873
▁김윤	-14874
▁수용할	-14875
사업본부	-14876
회사에	-14877
수사를	-14878
▁바람을	-14879
▁일감	-14880
리랑	-14881
▁사외이사	-14882
▁공격을	-14883
▁경찰청은	-14884
▁찾아가는	-14885
▁기한	-14886
▁선고받은	-14887
▁공수	-14888
▁원에서	-14889
▁효율적으로	-14890
▁변신	-14891
▁농림축산식품부	-14892
ia	-14893
충제	-14894
▁다채로운	-14895
▁당해	-14896
▁저해	-14897
▁DMZ	-14898
개월을	-14899
▁돋보	-14900
▁소방서	-14901
▁엄중한	-14902
▁개최된	-14903
▁법정에서	-14904
리던	-14905
▁원금	-14906
▁대박	-14907
▁당협	-14908
▁잠수함	-14909
▁지자체가	-14910
▁여러분의	-14911
셀러	-14912
소수	-14913
드루킹	-14914
▁하니까	-14915
▁무분	-14916
ity	-14917
학력	-14918
THAAD	-14919
▁영종	-14920
실무	-14921
▁법원행정처	-14922
▁두바이	-14923
▁나서서	-14924
▁알렸다	-14925
▁어쩌	-14926
▁학교가	-14927
▁있거나	-14928
▁지지율은	-14929
▁시민사회단체	-14930
여당	-14931
▁요청할	-14932
▁도보	-14933
▁생각할	-14934
▁전망치	-14935
스턴	-14936
▁중심에	-14937
▁신율	-14938
▁전북도	-14939
▁대학수학능력시험	-14940
▁늘어나면서	-14941
인들은	-14942
▁정의화	-14943
▁기후변화	-14944
▁전대	-14945
▁설치하는	-14946
갑니다	-14947
년제	-14948
해준	-14949
▁배포금지	-14950
▁부문의	-14951
년차	-14952
▁수준에서	-14953
▁거부한	-14954
해준다	-14955
▁서울로	-14956
특례	-14957
▁것들을	-14958
절도	-14959
▁금리인상	-14960
김정	-14961
▁자리잡	-14962
▁바뀔	-14963
▁던진	-14964
▁개발하고	-14965
▁농식품부	-14966
all	-14967
▁엔화	-14968
▁가입할	-14969
▁발견했다	-14970
▁국제적	-14971
▁받았지만	-14972
포항	-14973
▁규정한	-14974
▁정책위의장은	-14975
론가	-14976
▁동아시아	-14977
▁국정원의	-14978
▁당신	-14979
▁마켓	-14980
▁메이크	-14981
격이	-14982
▁본연의	-14983
전과	-14984
4441(	-14985
▁솔직	-14986
▁02-398-4441(	-14987
MA	-14988
▁원유철	-14989
저가	-14990
▁자유한국당은	-14991
3·	-14992
▁박기	-14993
▁지난해에	-14994
▁후유	-14995
▁근로자가	-14996
▁논란은	-14997
▁대통령선거	-14998
▁포항시	-14999
▁검사는	-15000
▁교직원	-15001
기업과	-15002
나쁨	-15003
국회의원	-15004
err	-15005
정치적	-15006
▁정치개혁	-15007
▁이슬람	-15008
▁학력	-15009
▁한두	-15010
개와	-15011
▁찍고	-15012
▁정기적으로	-15013
▁맘	-15014
▁지방선거에서	-15015
▁미만의	-15016
방지법	-15017
▁자세를	-15018
ive	-15019
▁감수	-15020
▁업주	-15021
▁정책으로	-15022
▁폭을	-15023
볼라	-15024
▁목적이	-15025
▁배분	-15026
▁의무가	-15027
▁종종	-15028
▁공간이	-15029
▁대담	-15030
동생	-15031
▁±	-15032
동으로	-15033
업체와	-15034
▁부지에	-15035
▁두려워	-15036
그림	-15037
▁드린다	-15038
기온이	-15039
▁신중한	-15040
식당	-15041
73	-15042
안내	-15043
▁근본적으로	-15044
직무	-15045
.,	-15046
▁싶습니다	-15047
▁비리를	-15048
▁상황입니다	-15049
▁하자는	-15050
▁고부가	-15051
▁차분	-15052
▁건설업	-15053
▁도대체	-15054
체와	-15055
▁형사처벌	-15056
▁3.0	-15057
▁모습은	-15058
▁성장이	-15059
▁스펙	-15060
▁붙잡아	-15061
(48)	-15062
▁무궁	-15063
▁외신	-15064
▁이익이	-15065
▁훌쩍	-15066
▁인터넷에	-15067
▁카드사	-15068
▁기구	-15069
▁여의	-15070
▁산학협력	-15071
▁사표를	-15072
▁비판했습니다	-15073
▁뽑는	-15074
▁삼고	-15075
▁제명	-15076
본을	-15077
해결	-15078
▁표정으로	-15079
▁임박	-15080
▁용의자	-15081
▁다뤄	-15082
겠어요	-15083
운전을	-15084
시로	-15085
ideo	-15086
▁끄	-15087
▁내부의	-15088
youtube	-15089
안심	-15090
았으며	-15091
▁해가	-15092
▁건축물	-15093
만약	-15094
▁몸이	-15095
▁선고했다고	-15096
라기	-15097
▁방송된	-15098
금자리	-15099
▁검증을	-15100
▁버려	-15101
▁포르	-15102
▁내려가	-15103
어머니	-15104
▁제도는	-15105
▁소득을	-15106
▁김인	-15107
▁중으로	-15108
CB	-15109
▁일본과	-15110
▁구속했다고	-15111
▁안종범	-15112
▁정치의	-15113
▁상황과	-15114
▁발표한다	-15115
여만	-15116
▁조정을	-15117
▁이르기까지	-15118
▁그다음에	-15119
▁책임은	-15120
▁잉	-15121
▁성장률이	-15122
▁관계자들은	-15123
▁일정한	-15124
▁노동시장	-15125
▁대리점	-15126
▁공무원의	-15127
보지	-15128
RS	-15129
ight	-15130
▁108	-15131
▁금통	-15132
지배	-15133
▁사무처	-15134
재단이	-15135
▁준비해	-15136
▁성폭행한	-15137
▁변호인은	-15138
ver	-15139
▁한수	-15140
▁맡게	-15141
▁신기술	-15142
▁송전	-15143
가구로	-15144
병원에	-15145
6·	-15146
4·	-15147
▁잇따르고	-15148
▁국립공원	-15149
·15	-15150
▁발표에	-15151
▁명의의	-15152
▁퇴직연금	-15153
▁치밀	-15154
ava	-15155
▁공문을	-15156
이후	-15157
id	-15158
▁이렇다	-15159
▁최하	-15160
고도미사일	-15161
▁교장	-15162
▁마라톤	-15163
측의	-15164
▁엘리베이터	-15165
▁정홍원	-15166
▁불은	-15167
▁첩	-15168
▁임금피크	-15169
▁잠을	-15170
▁콜라	-15171
9%)	-15172
▁뜻이	-15173
▁쉽고	-15174
오면서	-15175
정수	-15176
▁지원사업	-15177
일으	-15178
▁체험할	-15179
배나	-15180
▁모레	-15181
▁열대	-15182
▁더욱이	-15183
▁앞세워	-15184
▁In	-15185
▁밀어붙	-15186
▁화재로	-15187
▁닮	-15188
▁보건복지부는	-15189
두는	-15190
▁이끌고	-15191
▁증가율은	-15192
▁승마	-15193
▁견해를	-15194
▁서청원	-15195
▁개인적으로	-15196
권으로	-15197
▁기습	-15198
원으로부터	-15199
▁특수활동	-15200
▁기재부는	-15201
▁촉구했습니다	-15202
▁요청에	-15203
▁대한상의	-15204
▁현대모비스	-15205
▁지붕	-15206
교육과	-15207
▁있는가	-15208
▁관건	-15209
지자체	-15210
▁인삼	-15211
▁종가	-15212
오석	-15213
이거나	-15214
▁환경에	-15215
공공기관	-15216
나가는	-15217
▁언론의	-15218
▁없었지만	-15219
규정	-15220
▁종업원	-15221
▁흐름이	-15222
▁과거에	-15223
▁회의가	-15224
으려고	-15225
총연맹	-15226
▁건설사	-15227
▁야기	-15228
형태	-15229
▁럭	-15230
▁힘쓰	-15231
▁학사	-15232
비밀	-15233
▁답하고	-15234
종과	-15235
▁대목이다	-15236
▁직격	-15237
▁if	-15238
▁보름	-15239
▁차려	-15240
▁외교안보	-15241
▁규정에	-15242
등은	-15243
▁한국여성	-15244
atching	-15245
▁당진	-15246
▁공지	-15247
▁끓	-15248
▁활력을	-15249
▁비정상	-15250
▁김명수	-15251
▁사안이	-15252
▁20~30	-15253
▁무렵	-15254
▁고생	-15255
▁원내대책회의에서	-15256
▁정보기술	-15257
▁기승을	-15258
ript	-15259
으로서는	-15260
▁장기화	-15261
해주고	-15262
▁동래	-15263
.0%,	-15264
▁아들의	-15265
▁부족해	-15266
▁공유하는	-15267
암동	-15268
▁준비에	-15269
▁상승을	-15270
▁아버지가	-15271
강의	-15272
▁환산	-15273
성공	-15274
▁결정될	-15275
▁반려동물	-15276
회째	-15277
▁등장한	-15278
▁금융위는	-15279
세일	-15280
▁미분양	-15281
▁유네스코	-15282
벽을	-15283
▁실장	-15284
▁여당은	-15285
▁도로교통	-15286
▁케이크	-15287
시도	-15288
▁가능하다는	-15289
▁시행할	-15290
▁사회에서	-15291
▁한동안	-15292
증으로	-15293
▁해법을	-15294
▁자산운용	-15295
▁별점	-15296
▁평일	-15297
▁간주	-15298
▁나가고	-15299
▁세번째	-15300
▁경부고속도로	-15301
▁확대되고	-15302
▁│├────	-15303
▁나지	-15304
▁이번주	-15305
▁자본시장	-15306
▁나머지는	-15307
▁누출	-15308
▁기조를	-15309
률도	-15310
Tube	-15311
▁불가피한	-15312
▁수행할	-15313
닝썬	-15314
희룡	-15315
▁아시아경제	-15316
련의	-15317
▁프랑	-15318
메이	-15319
▁떠넘	-15320
▁복지부는	-15321
▁오면	-15322
개월이	-15323
▁220	-15324
▁불가피하다	-15325
▁이보다	-15326
~200	-15327
▁일가	-15328
▁효능	-15329
▁확보하기	-15330
▁경찰에서	-15331
▁약한	-15332
▁통학	-15333
▁원칙적으로	-15334
▁삼성증권	-15335
▁양대	-15336
▁해외에	-15337
▁어버	-15338
▁남대문	-15339
▁단독주택	-15340
▁최고위원이	-15341
▁시의회	-15342
공작	-15343
▁패스트트랙	-15344
설명회	-15345
▁0.2	-15346
▁쿠폰	-15347
한화	-15348
▁각국의	-15349
8·	-15350
▁우리도	-15351
▁확대와	-15352
▁개선과	-15353
▁끌려	-15354
베리	-15355
로봇	-15356
통신은	-15357
▁할부	-15358
▁프로그램으로	-15359
경제적	-15360
멘트	-15361
▁햄	-15362
▁저를	-15363
공간을	-15364
러스터	-15365
은혜	-15366
▁김제	-15367
▁일삼	-15368
▁확보하는	-15369
▁구조조정을	-15370
만명으로	-15371
▁나타났다고	-15372
▁bro	-15373
▁둥	-15374
7·	-15375
▁댓글을	-15376
▁시행된	-15377
error	-15378
시험을	-15379
▁수입차	-15380
▁세력이	-15381
업체는	-15382
▁시리아	-15383
소시효	-15384
▁수석이	-15385
소추	-15386
도심	-15387
▁노원구	-15388
▁해왔다	-15389
업체들이	-15390
▁>>	-15391
▁지수가	-15392
▁압축	-15393
특별법	-15394
▁국정원이	-15395
▁GoodNews	-15396
▁정도에	-15397
▁얘기도	-15398
▁occ	-15399
▁결론이	-15400
▁부인하고	-15401
▁요금을	-15402
▁장점이	-15403
▁생각하면	-15404
급한	-15405
▁충북도	-15406
례가	-15407
▁떠오른	-15408
박사	-15409
난방	-15410
▁낮추는	-15411
▁실패한	-15412
(31	-15413
▁한숨	-15414
처분을	-15415
▁진단을	-15416
▁error	-15417
내에	-15418
▁그친	-15419
▁연세	-15420
국민의당	-15421
품으로	-15422
▁질을	-15423
▁Java	-15424
▁신입사원	-15425
▁복용	-15426
나도	-15427
▁로펌	-15428
▁YouTube	-15429
▁0.4%	-15430
▁자신감을	-15431
▁구명	-15432
▁occur	-15433
Script	-15434
▁적극적	-15435
▁아끼지	-15436
▁지식경제부	-15437
▁승계	-15438
▁르노삼성	-15439
▁넘어가	-15440
▁occurred	-15441
▁새만금	-15442
연은	-15443
▁석사	-15444
▁한국도로	-15445
▁JavaScript	-15446
▁쾌적한	-15447
▁특혜를	-15448
비선	-15449
이었다고	-15450
▁깃	-15451
▁하태경	-15452
▁서울시와	-15453
▁서울대학교	-15454
▁일병	-15455
▁키운	-15456
▁출석한	-15457
▁강사	-15458
▁유정	-15459
▁사하	-15460
층과	-15461
병원성	-15462
▁공공기관의	-15463
▁화천	-15464
▁스파	-15465
▁전망치를	-15466
▁보이콧	-15467
▁있었을	-15468
▁민주화운동	-15469
▁투어	-15470
▁시선을	-15471
▁주호영	-15472
▁국가에	-15473
▁동탄	-15474
▁통보했다	-15475
▁빌라	-15476
▁이씨의	-15477
▁신산업	-15478
▁video	-15479
품목	-15480
▁양당	-15481
▁낮게	-15482
▁집중되고	-15483
▁특검팀은	-15484
▁균열	-15485
▁윤석	-15486
▁수임	-15487
▁성적을	-15488
승용	-15489
테크노	-15490
▁2∼3	-15491
▁구간을	-15492
퍼트	-15493
▁국장은	-15494
▁양국의	-15495
▁조치는	-15496
선도	-15497
▁한국무역	-15498
남동	-15499
▁대기업이	-15500
▁지나친	-15501
▁클릭	-15502
▁국민들은	-15503
▁낯	-15504
리포니아	-15505
▁지급한	-15506
▁인원은	-15507
▁진출한	-15508
▁마련하기	-15509
내셔널	-15510
▁무엇인가	-15511
▁굵	-15512
▁분과	-15513
▁주민들에게	-15514
▁불에	-15515
▁스프	-15516
▁나타내고	-15517
▁허위사실	-15518
▁enable	-15519
▁계엄	-15520
▁부모의	-15521
▁독재	-15522
▁부터	-15523
임금을	-15524
불안	-15525
abled	-15526
▁watching	-15527
▁스타벅스	-15528
▁심포지엄	-15529
난다	-15530
wser	-15531
▁Try	-15532
▁1988	-15533
▁450	-15534
▁경험과	-15535
▁조성해	-15536
회생	-15537
▁to	-15538
▁성장률을	-15539
▁당선된	-15540
▁방문했다	-15541
▁몰랐다	-15542
▁교육의	-15543
증진	-15544
▁처벌이	-15545
▁browser	-15546
MD	-15547
▁바람직하지	-15548
▁disabled	-15549
▁한방	-15550
▁용인시	-15551
▁앞당겨	-15552
업계가	-15553
▁들어설	-15554
▁네이	-15555
▁해소하기	-15556
▁교사가	-15557
▁모집한다	-15558
▁경복	-15559
완전	-15560
했어요	-15561
대북	-15562
▁이준석	-15563
▁당선인의	-15564
▁국경	-15565
II	-15566
지다	-15567
▁변수가	-15568
▁대의원	-15569
▁이견이	-15570
▁키우고	-15571
▁마이크로	-15572
▁저감	-15573
▁위배	-15574
▁위상을	-15575
▁적용된	-15576
▁산악	-15577
▁식당에서	-15578
▁교육부가	-15579
▁그칠	-15580
▁멸종	-15581
▁든든	-15582
지기도	-15583
▁민병	-15584
것이	-15585
▁케어	-15586
▁역학	-15587
▁거대한	-15588
▁판결에	-15589
▁내기	-15590
▁화답	-15591
▁무능	-15592
▁트레이	-15593
▁결성	-15594
지마	-15595
▁장수	-15596
▁교육문화	-15597
답게	-15598
작물	-15599
.15	-15600
방송통신	-15601
▁혼합	-15602
▁비판하는	-15603
반도체	-15604
듭니다	-15605
▁북상	-15606
시즌	-15607
(45)	-15608
▁연면적	-15609
▁변호사를	-15610
▁커플	-15611
▁판매량	-15612
▁강간	-15613
▁움직이는	-15614
▁모델이	-15615
▁평가하는	-15616
▁승용차를	-15617
▁래	-15618
▁어두	-15619
오던	-15620
▁세상에	-15621
▁임기를	-15622
주세요	-15623
▁외출	-15624
9·	-15625
▁법적으로	-15626
▁핵심인	-15627
행위가	-15628
고사	-15629
▁당론	-15630
▁특별감찰	-15631
▁KO	-15632
▁은행이	-15633
▁국민대	-15634
▁남편이	-15635
형에	-15636
▁최고위	-15637
▁마련된다	-15638
▁꿈꾸는	-15639
▁비영리	-15640
▁것일	-15641
관제	-15642
▁레저	-15643
▁정책적	-15644
▁물의를	-15645
▁세계에	-15646
로워	-15647
▁이력	-15648
▁친인척	-15649
공화국	-15650
더불어민주당	-15651
▁없어요	-15652
▁불러일으	-15653
영향을	-15654
▁조장	-15655
▁지냈	-15656
▁업데이트	-15657
▁민자	-15658
▁나이가	-15659
층으로	-15660
▁멜	-15661
▁허위로	-15662
여고	-15663
▁첫날인	-15664
▁태안	-15665
직접	-15666
RO	-15667
▁것임을	-15668
▁연방준비	-15669
▁밭	-15670
▁트랙	-15671
76	-15672
▁권오	-15673
▁연주	-15674
▁좌파	-15675
호성	-15676
천안	-15677
사스	-15678
▁어버이	-15679
▁스트레스를	-15680
▁포털사이트	-15681
▁제도의	-15682
▁지급한다	-15683
▁소득공제	-15684
포장	-15685
▁원안	-15686
▁50.	-15687
▁가기	-15688
대회에	-15689
운동본부	-15690
▁공감대를	-15691
▁재취업	-15692
▁화제를	-15693
이었는데	-15694
▁기술력을	-15695
청주	-15696
▁광복절	-15697
▁올라온	-15698
▁구매하는	-15699
▁소리가	-15700
▁240	-15701
▁투자할	-15702
▁훌륭한	-15703
▁편리한	-15704
차도	-15705
▁마스터	-15706
▁낙태	-15707
▁정치적으로	-15708
▁권영	-15709
▁사칭	-15710
전체	-15711
▁기소돼	-15712
▁대졸	-15713
▁페이스북을	-15714
▁차별화	-15715
▁거둔	-15716
▁불발	-15717
▁희귀	-15718
▁상무는	-15719
▁메신저	-15720
▁계승	-15721
▁배우자	-15722
▁대부분을	-15723
범죄가중처벌법상	-15724
▁평가는	-15725
▁버리고	-15726
▁차지한	-15727
▁일각에선	-15728
▁공주	-15729
▁인프라를	-15730
체육관에서	-15731
동아	-15732
▁수사는	-15733
▁벤츠	-15734
▁키즈	-15735
▁농림수산식품	-15736
▁넘지	-15737
▁경감	-15738
▁타입	-15739
▁알리기	-15740
▁발견해	-15741
▁승용차가	-15742
▁될지	-15743
▁김포공항	-15744
▁1.7	-15745
▁벡	-15746
▁스킨	-15747
비대	-15748
▁하려면	-15749
▁폐지를	-15750
중을	-15751
▁수사와	-15752
▁조항을	-15753
거티브	-15754
브라	-15755
▁산지	-15756
프레스	-15757
▁3.5	-15758
▁어찌	-15759
▁후손	-15760
▁확고	-15761
▁대기업과	-15762
▁이뤄져	-15763
▁불신	-15764
▁돌려보	-15765
▁조치에	-15766
▁학교는	-15767
▁만전을	-15768
▁임기가	-15769
▁박태	-15770
▁김씨를	-15771
▁사각지	-15772
▁사무총장이	-15773
▁부러	-15774
▁넓혀	-15775
▁‘3	-15776
▁않거나	-15777
▁못했다는	-15778
▁최측근	-15779
닷컴은	-15780
투자가	-15781
▁Ltd	-15782
▁축산물	-15783
▁전자상거래	-15784
▁이라크	-15785
▁증상을	-15786
▁방식은	-15787
▁한국사	-15788
▁분야별	-15789
급으로	-15790
▁소재를	-15791
▁개최되는	-15792
▁운전자가	-15793
▁댄	-15794
▁문학	-15795
▁강릉시	-15796
린다는	-15797
▁기록했습니다	-15798
▁이씨	-15799
▁국무회의에서	-15800
▁의무적으로	-15801
겼습니다	-15802
문화예술	-15803
▁포천	-15804
치와	-15805
▁'2	-15806
▁공약으로	-15807
▁지방자치	-15808
▁직원들을	-15809
▁넥슨	-15810
▁생긴다	-15811
▁없다면	-15812
▁투자한	-15813
▁진흥	-15814
▁경제성	-15815
▁서울경찰청	-15816
▁접어들	-15817
념을	-15818
남녀	-15819
특구	-15820
▁시에	-15821
▁공세	-15822
▁클라우드	-15823
비즈니스	-15824
▁입법예고	-15825
항쟁	-15826
▁소녀상	-15827
성기	-15828
▁오토바이	-15829
▁눌	-15830
▁마시는	-15831
▁대세	-15832
▁하반기에	-15833
메트로	-15834
▁푼	-15835
매각	-15836
▁주변을	-15837
▁전세가	-15838
주요	-15839
▁철원	-15840
▁지나면	-15841
▁반대하고	-15842
거리는	-15843
▁안타깝다	-15844
▁줄곧	-15845
▁발표했습니다	-15846
▁미국산	-15847
▁----------	-15848
orea	-15849
식물	-15850
▁정청래	-15851
▁끝날	-15852
▁교정	-15853
▁나오면서	-15854
▁복권	-15855
조명	-15856
▁법원에서	-15857
페인	-15858
▁초중	-15859
▁아파트에서	-15860
▁없었습니다	-15861
위원으로	-15862
▁한반	-15863
로에서	-15864
▁져야	-15865
등급을	-15866
▁군수	-15867
▁왔습니다	-15868
▁동문	-15869
단기	-15870
창호	-15871
우선	-15872
▁압류	-15873
▁지방선거를	-15874
▁견해	-15875
▁그림을	-15876
엔터테인먼트	-15877
▁추가경정예산	-15878
▁판로	-15879
▁가늠	-15880
▁할당	-15881
khan	-15882
파리	-15883
▁최태원	-15884
▁심어	-15885
92	-15886
▁들면	-15887
▁박병	-15888
▁산림청	-15889
▁제한적	-15890
월께	-15891
(100	-15892
▁입주민	-15893
▁파악해	-15894
연령	-15895
▁결핵	-15896
▁높다고	-15897
▁한국수력	-15898
▁정기국회	-15899
타임스	-15900
(61)	-15901
지역본부	-15902
86	-15903
▁불법으로	-15904
▁원룸	-15905
▁시민과	-15906
▁담보로	-15907
▁서울시내	-15908
▁여사가	-15909
▁탄압	-15910
신뢰	-15911
구호	-15912
▁사이트를	-15913
▁원세훈	-15914
▁체결하고	-15915
▁360	-15916
▁악수를	-15917
▁본청	-15918
▁간호사	-15919
발이	-15920
▁새겨	-15921
연설을	-15922
▁경제활성화	-15923
▁터미널	-15924
▁퇴진을	-15925
▁평가하고	-15926
운행	-15927
▁지식재산	-15928
▁못했습니다	-15929
▁판매량이	-15930
도날	-15931
▁건데요	-15932
▁지위	-15933
네트	-15934
▁긴급체포	-15935
▁토마토	-15936
▁건전한	-15937
▁비행기	-15938
롭고	-15939
막이	-15940
▁제품과	-15941
▁보세요	-15942
▁할머니는	-15943
(60	-15944
▁기관에	-15945
갤럭시	-15946
▁교회	-15947
▁열풍	-15948
메리카	-15949
▁태어나	-15950
▁방과	-15951
▁농식품부는	-15952
▁체계적으로	-15953
▁도청	-15954
▁근거를	-15955
∼1	-15956
페스티벌	-15957
▁추진하겠다	-15958
▁소모	-15959
경제를	-15960
보험은	-15961
프로젝트	-15962
▁나눴다	-15963
pp	-15964
▁양의	-15965
▁느낀다	-15966
▁비선	-15967
전문점	-15968
▁갈라	-15969
▁구름이	-15970
네이	-15971
▁비위	-15972
▁파일	-15973
▁파라	-15974
개성	-15975
▁대학을	-15976
.0%),	-15977
보드	-15978
내려	-15979
▁김상곤	-15980
▁전방위	-15981
▁설치할	-15982
▁공개됐다	-15983
▁개각	-15984
▁35%	-15985
▁부작용이	-15986
일간의	-15987
▁무대	-15988
▁조영	-15989
▁정치권에	-15990
함은	-15991
▁앨	-15992
▁채용을	-15993
▁육성을	-15994
▁배경으로	-15995
▁이집	-15996
직으로	-15997
관계자는	-15998
▁세련	-15999
▁개를	-16000
▁지정해	-16001
▁조형	-16002
▁다룬	-16003
▁여성들의	-16004
▁실명	-16005
이번에	-16006
혈압	-16007
▁출전	-16008
▁불출석	-16009
항이	-16010
▁소관	-16011
▁기준은	-16012
시에서	-16013
▁임종석	-16014
▁한양대	-16015
휴게	-16016
디스크	-16017
▁호소하는	-16018
▁투자자들이	-16019
▁바가	-16020
▁선점	-16021
▁시원한	-16022
MO	-16023
▁자료가	-16024
▁산업을	-16025
▁않겠다고	-16026
▁말했다고	-16027
▁멘토링	-16028
▁동향을	-16029
▁사태의	-16030
▁불허	-16031
▁대화가	-16032
▁선거운동을	-16033
▁시각이	-16034
▁아카데미	-16035
▁각별한	-16036
▁협의회	-16037
물량	-16038
▁쓰러져	-16039
▁노력해	-16040
▁건지	-16041
보복	-16042
▁지역과	-16043
손실	-16044
춘천	-16045
▁관련자	-16046
▁총재가	-16047
당원	-16048
님을	-16049
▁수제	-16050
▁전략공천	-16051
▁삼성의	-16052
▁시설이	-16053
▁산업부는	-16054
▁지원금	-16055
▁기록했다고	-16056
인한	-16057
▁KEB	-16058
▁정부세종청사에서	-16059
▁최선	-16060
▁이스라엘	-16061
▁부당이	-16062
▁비만	-16063
▁고래	-16064
교를	-16065
▁치러진	-16066
▁분들은	-16067
비도	-16068
이죠	-16069
▁증시가	-16070
업무를	-16071
▁찾아야	-16072
▁곱	-16073
▁현금을	-16074
대결	-16075
▁구조적	-16076
▁결단을	-16077
▁예정대로	-16078
▁얼어붙	-16079
▁법과	-16080
▁고집	-16081
킴이	-16082
▁미래의	-16083
UN	-16084
▁양극화	-16085
금리는	-16086
▁조양호	-16087
가구를	-16088
가을	-16089
.16	-16090
▁방사성	-16091
멘텀	-16092
▁중앙은행	-16093
으려는	-16094
(60)	-16095
▁6·4	-16096
데스	-16097
▁단정	-16098
갔습니다	-16099
▁자랑하는	-16100
▁대학이	-16101
▁오후부터	-16102
착륙	-16103
화력	-16104
강을	-16105
▁생애	-16106
▁뒤에는	-16107
▁-0.	-16108
▁대사는	-16109
▁기피	-16110
~40	-16111
▁사안에	-16112
▁제시하는	-16113
▁하에	-16114
원한	-16115
▁양쪽	-16116
▁홍문	-16117
▁UAE	-16118
조사는	-16119
▁투자자들의	-16120
▁박재완	-16121
▁감싸	-16122
▁게시판	-16123
▁속으로	-16124
동성	-16125
▁아이돌	-16126
여명은	-16127
▁확인하기	-16128
▁꿀	-16129
▁시간대	-16130
▁한눈에	-16131
▁업체인	-16132
▁교실	-16133
▁지켜봐야	-16134
(☎	-16135
▁연기를	-16136
(47)	-16137
∼20	-16138
──────────	-16139
▁유럽의	-16140
▁재심	-16141
▁양천구	-16142
▁누구도	-16143
▁우울증	-16144
병수	-16145
아카데미	-16146
▁되살	-16147
▁고발했다	-16148
노동당	-16149
▁기울이고	-16150
▁외교장관	-16151
▁기쁨	-16152
▁차입	-16153
▁프레임	-16154
문제가	-16155
▁남양주	-16156
▁실제로는	-16157
▁보장하는	-16158
▁톱	-16159
▁적격	-16160
▁중소벤처기업	-16161
▁역임했다	-16162
▁캠코	-16163
전략을	-16164
▁뜬	-16165
▁단백	-16166
▁상여	-16167
▁기록할	-16168
▁고마	-16169
▁일당이	-16170
▁韓	-16171
진로	-16172
▁성장에	-16173
▁역사교과서	-16174
스팅	-16175
▁넘겨졌다	-16176
산의	-16177
▁운영한	-16178
▁공관	-16179
▁펼쳐진다	-16180
▁과도하게	-16181
▁최문	-16182
▁구인	-16183
▁김주	-16184
커뮤니	-16185
▁이럴	-16186
장관이	-16187
▁빌린	-16188
▁알아야	-16189
▁진료를	-16190
▁퀴	-16191
부총	-16192
▁넣은	-16193
▁장소를	-16194
▁관철	-16195
기관에서	-16196
▁인정받아	-16197
▁송구	-16198
▁남부지방	-16199
▁그거	-16200
▁국정기획	-16201
▁임무를	-16202
▁리얼미터	-16203
▁감염병	-16204
▁거뒀다	-16205
▁파이낸	-16206
하이닉스	-16207
▁필요로	-16208
▁폭스바겐	-16209
세서	-16210
▁만나볼	-16211
즈는	-16212
상무	-16213
...1	-16214
▁철새	-16215
러시아	-16216
▁더블	-16217
단지를	-16218
▁시장점유	-16219
∼10	-16220
등이	-16221
▁국내로	-16222
조원으로	-16223
▁년간	-16224
~11	-16225
▁외환위기	-16226
▁가라앉	-16227
▁기술로	-16228
방학	-16229
망에	-16230
▁주총	-16231
▁지니	-16232
컨대	-16233
▁김도	-16234
▁민선	-16235
기관은	-16236
▁IBK	-16237
▁웹사이트	-16238
▁0.3	-16239
▁행자	-16240
▁되어야	-16241
구리	-16242
▁공소시효	-16243
▁방위사업	-16244
▁때려	-16245
▁심하게	-16246
감정	-16247
초를	-16248
무효	-16249
▁범국민	-16250
▁장면이	-16251
▁깎아	-16252
▁걸맞	-16253
시절	-16254
▁(02)	-16255
박원순	-16256
▁사물인터넷	-16257
▁소득주도	-16258
오스	-16259
섬유	-16260
긴급	-16261
▁1300	-16262
▁욕설	-16263
국회가	-16264
▁동화	-16265
▁보장을	-16266
년에도	-16267
▁손수	-16268
▁트리	-16269
▁공세를	-16270
▁주민들	-16271
▁부부는	-16272
주유	-16273
▁올해의	-16274
제과	-16275
▁102	-16276
한도	-16277
▁열기로	-16278
▁방류	-16279
했거나	-16280
▁애널리스트	-16281
▁일상생활	-16282
▁고인의	-16283
▁찜	-16284
▁일과	-16285
▁호전	-16286
▁개발이	-16287
▁보건의료	-16288
용량	-16289
▁운세	-16290
▁지속가능한	-16291
▁뜻한다	-16292
낸다	-16293
동은	-16294
▁언론사	-16295
▁강화했다	-16296
▁감안할	-16297
▁대응이	-16298
▁분양가	-16299
▁딴	-16300
커머스	-16301
▁경쟁률을	-16302
▁법정에	-16303
박이	-16304
▁선거는	-16305
▁보좌관	-16306
▁각광	-16307
▁반쯤	-16308
졌으나	-16309
▁징후	-16310
▁표출	-16311
▁헌법소	-16312
▁덤	-16313
▁둬	-16314
▁동호	-16315
▁도시철도	-16316
▁한국농	-16317
▁성장과	-16318
▁세븐	-16319
▁성능을	-16320
▁양국이	-16321
▁탁월한	-16322
▁놓인	-16323
▁재도	-16324
▁이벤트는	-16325
▁자녀의	-16326
협은	-16327
▁적용을	-16328
통화기금	-16329
▁연이어	-16330
▁부도	-16331
▁소재로	-16332
▁좀처럼	-16333
▁기자들의	-16334
와대로	-16335
▁인명피해는	-16336
어치를	-16337
▁수행하는	-16338
▁책임지는	-16339
▁폭력을	-16340
까지만	-16341
▁있기를	-16342
▁업무방해	-16343
▁연휴를	-16344
SC	-16345
▁현오석	-16346
▁긴밀히	-16347
▁제고를	-16348
아들	-16349
▁거쳐야	-16350
▁혐의는	-16351
시안게임	-16352
▁조성된	-16353
조례	-16354
▁주목할	-16355
보라	-16356
▁일본을	-16357
▁전술	-16358
▁자산관리	-16359
▁밑돌	-16360
▁강화하기로	-16361
▁취지다	-16362
▁장학금을	-16363
▁기소했다	-16364
역의	-16365
▁뜻하는	-16366
▁수입은	-16367
육성	-16368
수업	-16369
▁때와	-16370
매일	-16371
▁인물이	-16372
▁전염	-16373
▁관행을	-16374
▁크기의	-16375
곳과	-16376
▁법에	-16377
경제의	-16378
데도	-16379
▁수호	-16380
▁과거의	-16381
71	-16382
▁대조	-16383
▁사례로	-16384
커녕	-16385
▁전기를	-16386
▁이례적으로	-16387
▁해적	-16388
▁가능하고	-16389
▁산사태	-16390
▁떠났다	-16391
▁추진에	-16392
▁양국은	-16393
▁인식하고	-16394
▁적임	-16395
공동모금	-16396
▁세균	-16397
구름	-16398
협의회는	-16399
이러	-16400
위치	-16401
▁논란의	-16402
▁근로소득	-16403
달러를	-16404
선관위	-16405
▁발표가	-16406
조사에	-16407
▁소개하는	-16408
▁양평	-16409
▁급증하고	-16410
▁새정치민주연합은	-16411
▁톡톡	-16412
▁단독으로	-16413
▁의견으로	-16414
▁통지	-16415
회장이	-16416
지연	-16417
▁아무것도	-16418
▁효과도	-16419
▁소아	-16420
스포츠재단	-16421
▁대표적이다	-16422
▁데리고	-16423
▁돌입했다	-16424
넥스	-16425
▁있었는지	-16426
▁논의한다	-16427
▁엑스포	-16428
▁헌재는	-16429
창수	-16430
▁삼성전자와	-16431
▁집중할	-16432
▁더는	-16433
▁전투기	-16434
▁박스	-16435
▁입구	-16436
▁추격	-16437
▁실현을	-16438
▁받도록	-16439
▁제외하면	-16440
▁싱글	-16441
▁국조	-16442
전단	-16443
▁윤영	-16444
▁i	-16445
▁사범	-16446
▁김정은의	-16447
▁인원이	-16448
TC	-16449
▁채널을	-16450
▁아우디	-16451
롯데월드	-16452
▁강성	-16453
▁그렇죠	-16454
▁악영향을	-16455
년전	-16456
▁증가율이	-16457
▁넘는다	-16458
▁이주영	-16459
▁전문가가	-16460
▁주중	-16461
침을	-16462
전당	-16463
▁입지를	-16464
세제	-16465
▁쇠고기	-16466
▁PB	-16467
▁사진과	-16468
▁지속되고	-16469
▁막걸	-16470
▁묻고	-16471
▁박찬	-16472
▁김세	-16473
▁완전한	-16474
▁숙명	-16475
시에는	-16476
긴다	-16477
상해	-16478
▁의구	-16479
형과	-16480
▁정하는	-16481
▁불고	-16482
▁이해하고	-16483
▁흠	-16484
개동	-16485
▁검사장	-16486
▁강연을	-16487
독한	-16488
▁튼튼	-16489
버드	-16490
▁주사	-16491
이라든지	-16492
스레	-16493
▁해요	-16494
▁대책은	-16495
▁우려하는	-16496
투자는	-16497
▁불쾌	-16498
▁달라질	-16499
▁국민의당이	-16500
▁1.8	-16501
▁검토한	-16502
▁정당의	-16503
공인	-16504
▁주민과	-16505
▁디저트	-16506
▁범죄에	-16507
▁처리에	-16508
셨습니다	-16509
▁KA	-16510
▁한ᆞ	-16511
▁고려해야	-16512
▁이벤트도	-16513
▁벗어나지	-16514
▁오래된	-16515
▁상승에	-16516
▁회장에게	-16517
▁수석대변인은	-16518
겠는가	-16519
▁대화의	-16520
▁부응	-16521
▁DJ	-16522
▁약세	-16523
의학	-16524
▁강조하며	-16525
▁국유	-16526
▁의결했다	-16527
▁제치고	-16528
▁수입을	-16529
우미	-16530
▁춘추	-16531
▁잡지	-16532
▁티켓	-16533
▁대법원이	-16534
이노베이션	-16535
사카	-16536
호우	-16537
▁무기징	-16538
▁거부하고	-16539
▁전국경제인	-16540
석희	-16541
▁현대건설	-16542
시간여	-16543
▁서울은	-16544
▁냉각	-16545
▁공방이	-16546
▁상당수가	-16547
▁김중	-16548
챔피언	-16549
▁혐의다	-16550
▁무엇이	-16551
항에서	-16552
▁지상파	-16553
직에	-16554
▁커져	-16555
한나라	-16556
▁당부했습니다	-16557
너무	-16558
▁대응해	-16559
마리가	-16560
▁통장	-16561
▁소공동	-16562
▁만났	-16563
▁식약처	-16564
행정부	-16565
▁포함되지	-16566
▁모듈	-16567
▁잠깐	-16568
▁돌파했다	-16569
▁만약에	-16570
▁소셜네트워크서비스	-16571
외선	-16572
프는	-16573
▁VIP	-16574
▁부산대	-16575
▁조세일보	-16576
▁일각에서	-16577
사고를	-16578
▁부하	-16579
▁방지하기	-16580
▁누군가	-16581
▁증상	-16582
▁여론조사에서	-16583
▁경제활동	-16584
(46)	-16585
▁걸음	-16586
▁개인정보를	-16587
▁시신이	-16588
▁공판에서	-16589
▁세계를	-16590
(40	-16591
▁쌓인	-16592
▁문성	-16593
산은	-16594
▁대화록	-16595
가칭	-16596
종목	-16597
▁육아휴직	-16598
인플루엔자	-16599
동시	-16600
▁외국인은	-16601
▁졸업하고	-16602
중지	-16603
▁김두	-16604
▁연기가	-16605
대표이사	-16606
▁상륙	-16607
▁아직은	-16608
▁추측	-16609
▁문체부	-16610
▁수순	-16611
▁미소	-16612
▁무더기로	-16613
▁하라	-16614
▁선진화	-16615
텍사스	-16616
매입	-16617
▁교육이	-16618
▁학교의	-16619
▁상품에	-16620
답을	-16621
▁권위	-16622
▁국가주	-16623
▁창설	-16624
▁최저기온은	-16625
▁넘치는	-16626
▁아파트의	-16627
▁파악할	-16628
제도가	-16629
버리	-16630
실세	-16631
▁코트라	-16632
▁결단	-16633
▁적용했다	-16634
▁죽은	-16635
▁방안은	-16636
▁온갖	-16637
▁할머니가	-16638
▁동력	-16639
▁하기도	-16640
▁정상은	-16641
▁유영	-16642
▁인간의	-16643
▁정보는	-16644
▁쓰이는	-16645
▁전하는	-16646
저우	-16647
▁비치	-16648
▁탐지	-16649
▁해달라	-16650
▁중단된	-16651
▁대타협	-16652
아는	-16653
▁화학물질	-16654
▁정직	-16655
자영업	-16656
▁여론의	-16657
▁안전과	-16658
▁인터넷을	-16659
보조금	-16660
▁우리금융	-16661
년에서	-16662
▁이뤘다	-16663
▁인정된다	-16664
로직	-16665
▁지킬	-16666
시리즈	-16667
▁보인다고	-16668
▁교내	-16669
▁새정치연합은	-16670
▁길게	-16671
▁특임	-16672
콜라	-16673
▁참석자들은	-16674
KT	-16675
▁아이스크림	-16676
지청	-16677
특보가	-16678
.2018	-16679
▁자격으로	-16680
▁성격이	-16681
▁위협하는	-16682
▁깔끔	-16683
▁수사하는	-16684
▁상수도	-16685
▁이동하고	-16686
▁보석	-16687
▁소비를	-16688
▁등장했다	-16689
▁유료	-16690
▁고충	-16691
▁접촉을	-16692
▁건수가	-16693
▁부사장이	-16694
▁수돗	-16695
사법연수원	-16696
국민이	-16697
▁김정은이	-16698
복제	-16699
ment	-16700
▁개입한	-16701
▁데도	-16702
▁인허가	-16703
▁단계에서	-16704
▁확대됐다	-16705
▁발언으로	-16706
▁중앙대	-16707
시기	-16708
▁줄기	-16709
세계를	-16710
▁관계자와	-16711
▁정책조정	-16712
연계	-16713
▁자기자본	-16714
(59)	-16715
▁123	-16716
▁단절	-16717
태우	-16718
▁스카	-16719
▁시간과	-16720
▁©	-16721
척을	-16722
▁대명	-16723
▁시중에	-16724
개월여	-16725
협회장	-16726
▁박진	-16727
사업과	-16728
▁선언을	-16729
▁용도로	-16730
민원	-16731
회장의	-16732
▁.."	-16733
▁취임한	-16734
▁철도노조	-16735
부인	-16736
▁번복	-16737
▁방문할	-16738
▁한수원	-16739
▁2.5%	-16740
▁매일경제	-16741
▁인준	-16742
개는	-16743
▁개선해	-16744
작가	-16745
▁사설	-16746
▁공부를	-16747
뇌물	-16748
선진화	-16749
▁1992	-16750
▁높았고	-16751
고도미사일방어체계	-16752
▁일가의	-16753
▁아이들에게	-16754
▁접근할	-16755
끄러운	-16756
▁원희룡	-16757
▁구조개혁	-16758
▁개선될	-16759
내륙	-16760
▁길로	-16761
▁청담	-16762
▁파장이	-16763
▁중에서는	-16764
▁높아지는	-16765
군인	-16766
께서는	-16767
인간	-16768
▁싸게	-16769
▁동국대	-16770
▁응하지	-16771
▁직후인	-16772
▁12%	-16773
▁아파트가	-16774
▁통계를	-16775
합을	-16776
▁기간제	-16777
▁캘리포니아	-16778
배임	-16779
▁인성	-16780
▁민경	-16781
만원과	-16782
▁보겠습니다	-16783
청소	-16784
종에	-16785
경과	-16786
▁위반으로	-16787
▁낙마	-16788
▁숨어	-16789
▁겁니까	-16790
공여	-16791
크리트	-16792
▁무작	-16793
▁이후로	-16794
사격	-16795
▁내려놓	-16796
▁유혹	-16797
▁토익	-16798
여분	-16799
▁민주주의를	-16800
▁고창	-16801
▁재래	-16802
▁벡스코	-16803
▁마련이	-16804
▁개인적인	-16805
드로이드	-16806
▁의료비	-16807
▁문제점	-16808
▁거론되고	-16809
▁헛	-16810
두언	-16811
▁릴레이	-16812
▁고병원성	-16813
SR	-16814
세액	-16815
▁출발한	-16816
결국	-16817
▁기득권	-16818
투표를	-16819
CNBC	-16820
▁김현미	-16821
충청	-16822
저널	-16823
▁조성하는	-16824
▁논술	-16825
▁상징하는	-16826
▁일시적으로	-16827
▁업계에서는	-16828
▁가족들은	-16829
왔고	-16830
▁초선	-16831
▁도지사	-16832
▁정재	-16833
▁제철	-16834
▁구원	-16835
플라자	-16836
세금	-16837
▁팽목	-16838
▁저질렀	-16839
일에서	-16840
▁230	-16841
▁혁신적인	-16842
대생	-16843
▁증세를	-16844
▁빈번	-16845
실습	-16846
▁될까	-16847
▁4·	-16848
▁세이	-16849
▁국무회의를	-16850
▁한데	-16851
▁생중계	-16852
▁실효성	-16853
▁오전에	-16854
▁조사하는	-16855
있고	-16856
수영	-16857
▁때문이라는	-16858
▁악재	-16859
타르	-16860
▁눈앞	-16861
▁단장	-16862
▁맡았던	-16863
▁태우고	-16864
▁영웅	-16865
▁안상수	-16866
▁보이면서	-16867
▁단말기	-16868
하긴	-16869
▁이행을	-16870
▁주최하는	-16871
▁지역별로	-16872
소생	-16873
이전	-16874
권에서	-16875
▁감각	-16876
▁VR	-16877
▁사용했다	-16878
자이	-16879
uk	-16880
▁만남을	-16881
▁한국지엠	-16882
▁컷	-16883
폴리	-16884
▁이끈	-16885
▁협의가	-16886
▁상급	-16887
석의	-16888
▁넘을	-16889
91	-16890
▁넘겼다	-16891
▁추운	-16892
전자가	-16893
로와	-16894
본부를	-16895
▁블록체인	-16896
▁노르	-16897
▁박수를	-16898
▁지켜보고	-16899
연결	-16900
▁대금	-16901
▁취득세	-16902
▁1993	-16903
KO	-16904
▁보게	-16905
음성	-16906
바이러스	-16907
▁상하	-16908
▁되돌아	-16909
다양	-16910
▁출입국	-16911
▁관계자들과	-16912
▁한국소비자	-16913
▁거론하며	-16914
▁평가에서	-16915
버트	-16916
▁교사는	-16917
th	-16918
▁멍	-16919
모가	-16920
▁문턱	-16921
▁권고했다	-16922
▁해결에	-16923
▁저수	-16924
▁지는	-16925
▁인사하는	-16926
.27	-16927
▁서남	-16928
작업이	-16929
테스트	-16930
▁은닉	-16931
▁타당성	-16932
▁하나를	-16933
▁내놓지	-16934
▁비판도	-16935
개방	-16936
▁사태와	-16937
▁양심	-16938
▁조희연	-16939
표시	-16940
▁보조금을	-16941
▁해법	-16942
▁가세	-16943
▁거창	-16944
▁유감을	-16945
▁타워	-16946
만명에	-16947
으로만	-16948
▁지지층	-16949
▁공개하지	-16950
팀에	-16951
▁중심이	-16952
▁처리하는	-16953
소개	-16954
협의체	-16955
▁한참	-16956
시간으로	-16957
신라	-16958
▁주의해야	-16959
▁했기	-16960
▁불안한	-16961
▁부작용을	-16962
▁감정을	-16963
스타그램	-16964
되나	-16965
마련	-16966
▁마사	-16967
▁올라왔다	-16968
아니	-16969
▁합동으로	-16970
▁부진한	-16971
▁기부금	-16972
▁소나무	-16973
∼2	-16974
▁잣	-16975
ard	-16976
선한	-16977
▁활동하고	-16978
▁물고	-16979
▁빼고	-16980
▁지적한	-16981
▁체크카드	-16982
있어	-16983
▁경보	-16984
▁주식형	-16985
▁지도자	-16986
▁지지율을	-16987
▁박선	-16988
▁1.4	-16989
▁4~5	-16990
▁토종	-16991
논란	-16992
총회를	-16993
뺑소니	-16994
월이	-16995
▁근무한	-16996
▁만나고	-16997
▁국회의장이	-16998
인데도	-16999
차익	-17000
서류	-17001
▁심폐	-17002
▁삼성은	-17003
▁모양새다	-17004
▁장이	-17005
▁갱신	-17006
▁똑같이	-17007
▁뭐가	-17008
하려다	-17009
농민	-17010
▁언론이	-17011
▁4.	-17012
농산물	-17013
량진	-17014
과학원	-17015
오프라인	-17016
▁편지	-17017
▁감금	-17018
▁새끼	-17019
▁Cont	-17020
당선	-17021
▁성금	-17022
건에서	-17023
▁그었다	-17024
화장품	-17025
갑질	-17026
▁영주	-17027
▁삼성중공업	-17028
▁업계는	-17029
▁농약	-17030
▁청와대로	-17031
▁파업을	-17032
개발연구원	-17033
토지주택	-17034
진한	-17035
▁주관으로	-17036
바게	-17037
▁푸른	-17038
▁국무총리는	-17039
▁홍대	-17040
▁선순환	-17041
성모	-17042
▁생일	-17043
자산관리	-17044
▁서울중앙지방법	-17045
▁국과	-17046
▁지검	-17047
▁외국어	-17048
▁소식통은	-17049
저장	-17050
▁않으면서	-17051
▁돌연	-17052
▁기반의	-17053
▁등급을	-17054
▁것만	-17055
▁연상	-17056
▁첨가	-17057
▁성균관대	-17058
▁없이는	-17059
▁다자	-17060
하듯	-17061
▁순매도	-17062
▁인력이	-17063
▁친이	-17064
▁도저히	-17065
▁확고한	-17066
▁수수한	-17067
▁직원들	-17068
▁하나도	-17069
▁관련해선	-17070
▁경선에서	-17071
▁초록	-17072
▁보충	-17073
하지도	-17074
번째로	-17075
적이지	-17076
코노미	-17077
▁추정하고	-17078
종일	-17079
▁조지	-17080
▁리뉴얼	-17081
▁좁혀	-17082
▁공청회	-17083
▁이현	-17084
▁출발했다	-17085
▁우리나라에서	-17086
▁주최하고	-17087
▁지장이	-17088
▁발굴해	-17089
▁진해	-17090
▁동창	-17091
▁생산성	-17092
▁김천	-17093
▁대관	-17094
▁즉석	-17095
간부	-17096
▁외국인의	-17097
발적으로	-17098
▁전월보다	-17099
▁드러내	-17100
▁텔레	-17101
▁방영	-17102
▁수익률이	-17103
론은	-17104
∼30	-17105
▁위협을	-17106
세이	-17107
▁누진	-17108
▁공기청	-17109
▁일본인	-17110
▁이장	-17111
걸음을	-17112
산동	-17113
▁양호한	-17114
병으로	-17115
▁커지면서	-17116
▁해수부는	-17117
▁유선	-17118
▁추세를	-17119
▁나노	-17120
▁마늘	-17121
▁옹호	-17122
▁이마트는	-17123
▁원자로	-17124
▁사이트에	-17125
어스	-17126
비율이	-17127
▁“1	-17128
▁지주회사	-17129
소리를	-17130
▁전략이	-17131
티나	-17132
▁강하다	-17133
▁개선하고	-17134
▁기분	-17135
등록금	-17136
▁1.3	-17137
유는	-17138
▁1∼2	-17139
▁설문조사를	-17140
▁했는지	-17141
SB	-17142
불량	-17143
▁회의는	-17144
▁경복궁	-17145
▁발목을	-17146
▁아파트에	-17147
▁4·3	-17148
▁작년에	-17149
▁실전	-17150
▁당헌	-17151
▁생명보험	-17152
▁큐	-17153
▁확인이	-17154
▁증가했고	-17155
강한	-17156
(44)	-17157
▁만의	-17158
▁달러화	-17159
▁프로모션을	-17160
크로	-17161
지금까지	-17162
▁김관진	-17163
▁고민하고	-17164
▁방향에	-17165
▁금지하는	-17166
▁잘라	-17167
▁모를	-17168
패스	-17169
▁청문회를	-17170
▁흔적	-17171
▁단어	-17172
▁집회에	-17173
교육원	-17174
▁LIG	-17175
▁도착해	-17176
상권	-17177
▁오일	-17178
▁과징금을	-17179
▁지원하기로	-17180
▁출고	-17181
▁의미하는	-17182
▁슬픔	-17183
선언을	-17184
▁닛	-17185
▁줄어들고	-17186
방울	-17187
83	-17188
▁휴식을	-17189
하진	-17190
▁다르지	-17191
▁벤처기업	-17192
▁도입하는	-17193
▁역삼	-17194
시경	-17195
▁그들이	-17196
책으로	-17197
▁서울지역	-17198
▁통보를	-17199
▁발로	-17200
검진	-17201
▁농협중앙회	-17202
▁성실히	-17203
▁1991	-17204
▁싣고	-17205
트리온	-17206
납세	-17207
▁사용된	-17208
▁대법원에서	-17209
▁운행을	-17210
▁기본계획	-17211
▁윤병	-17212
취재단	-17213
▁전문위원	-17214
▁탈루	-17215
▁경우를	-17216
▁외래	-17217
▁다중	-17218
▁발전과	-17219
치인	-17220
▁신청이	-17221
헬스	-17222
▁보증금	-17223
▁모멘텀	-17224
▁점수	-17225
▁도의	-17226
▁표류	-17227
▁생산한	-17228
유니	-17229
▁채팅	-17230
▁불리한	-17231
으로의	-17232
▁2,000	-17233
▁나라는	-17234
▁바람직하다	-17235
날씨	-17236
▁선수가	-17237
▁바깥	-17238
위원장에	-17239
▁타깃	-17240
▁자기가	-17241
▁협의체	-17242
삭한	-17243
다란	-17244
▁강화와	-17245
▁돌아가는	-17246
▁집중하고	-17247
▁최씨가	-17248
피의	-17249
▁사고에	-17250
▁당사자	-17251
▁우위를	-17252
▁이노	-17253
▁금속노조	-17254
▁운영되고	-17255
▁오신	-17256
▁의료기기	-17257
갈이	-17258
▁학자금	-17259
▁불응	-17260
마저도	-17261
▁관절	-17262
▁더구나	-17263
▁일으켜	-17264
▁경영을	-17265
연구소는	-17266
업의	-17267
▁내실	-17268
▁가격도	-17269
▁연행	-17270
시설의	-17271
▁약정	-17272
로또	-17273
전투	-17274
조류	-17275
▁반경	-17276
▁지방의	-17277
루미	-17278
워서	-17279
▁박희	-17280
▁인정해	-17281
▁하반기부터	-17282
었어요	-17283
국장이	-17284
▁바라보고	-17285
▁명목	-17286
▁산란	-17287
▁상장사	-17288
▁자라	-17289
▁간판	-17290
사고로	-17291
▁전가	-17292
▁낮춘	-17293
복권	-17294
▁견디	-17295
▁살피	-17296
▁허술	-17297
자율	-17298
▁활동하는	-17299
▁영농	-17300
▁조립	-17301
서울대	-17302
▁이젠	-17303
▁이혜훈	-17304
▁혈중	-17305
▁이사회를	-17306
▁이어서	-17307
▁전체회의	-17308
▁핵실험을	-17309
▁찾아와	-17310
▁참전	-17311
▁결혼을	-17312
화성	-17313
▁자신들이	-17314
▁법안은	-17315
▁담화	-17316
▁근로기준	-17317
▁모두에게	-17318
▁맞을	-17319
▁브렉시트	-17320
음모	-17321
▁거치지	-17322
▁농성을	-17323
여년	-17324
▁남기	-17325
▁식중독	-17326
창고	-17327
▁출신이	-17328
▁여주	-17329
▁부산에	-17330
▁그저	-17331
아름	-17332
▁경선에	-17333
▁있습니까	-17334
식장	-17335
▁노조의	-17336
▁물놀이	-17337
자리를	-17338
▁효율성을	-17339
▁파란	-17340
▁문자를	-17341
▁맡는다	-17342
▁고백	-17343
▁신병	-17344
▁청구한	-17345
▁세계의	-17346
직에서	-17347
서구	-17348
▁맺었다	-17349
▁총리를	-17350
▁균형을	-17351
▁결선	-17352
▁안건	-17353
▁시작된다	-17354
▁론스타	-17355
▁발생한다	-17356
연구원에	-17357
량에	-17358
▁위스키	-17359
▁본회의에	-17360
국민은행	-17361
▁다목적	-17362
중동	-17363
▁전면에	-17364
전공	-17365
▁http	-17366
▁을지로	-17367
▁들어선다	-17368
▁탱크	-17369
▁믿는다	-17370
등에	-17371
▁웅진	-17372
여개의	-17373
미수	-17374
▁9%	-17375
▁독일의	-17376
▁에버랜드	-17377
▁적십자	-17378
김치	-17379
보에	-17380
▁LPG	-17381
▁국면	-17382
▁MSI	-17383
▁이길	-17384
▁한국은행은	-17385
▁파트너십	-17386
▁저성장	-17387
▁법학전문대학원	-17388
▁영역을	-17389
▁곤두	-17390
▁개혁의	-17391
▁차질을	-17392
▁절반을	-17393
▁은행에	-17394
▁청와대를	-17395
▁쉴	-17396
▁St	-17397
▁통화를	-17398
▁일축했다	-17399
▁세포	-17400
▁노벨	-17401
▁맞벌이	-17402
▁구조가	-17403
▁75%	-17404
▁등장하는	-17405
도시철도	-17406
▁용기	-17407
▁칠레	-17408
▁자유로운	-17409
비례	-17410
요즘	-17411
▁목적을	-17412
▁섹	-17413
막을	-17414
▁결함	-17415
협회에	-17416
를린	-17417
▁당에	-17418
페이오	-17419
▁재테크	-17420
▁올랐고	-17421
▁흑자를	-17422
▁사실에	-17423
▁과정은	-17424
(42)	-17425
▁출석하고	-17426
추석	-17427
▁우려되는	-17428
▁전진	-17429
▁공방을	-17430
▁개그	-17431
▁살리	-17432
▁배수	-17433
▁돌아갈	-17434
▁비극	-17435
트와	-17436
명품	-17437
시키지	-17438
▁반응은	-17439
▁박범	-17440
▁산하기	-17441
▁임직원들이	-17442
▁버스를	-17443
▁관리하고	-17444
▁이규	-17445
졌는데	-17446
▁한국수력원자력	-17447
▁정경	-17448
▁있었기	-17449
▁차이는	-17450
▁남의	-17451
제도의	-17452
이수	-17453
▁장소에서	-17454
-4	-17455
▁강동구	-17456
근한	-17457
▁투자와	-17458
▁수석부	-17459
작을	-17460
▁내비쳤다	-17461
▁과감한	-17462
▁양이	-17463
▁금융상품	-17464
▁휩쓸	-17465
자마자	-17466
▁국제유가	-17467
▁바뀌었다	-17468
왼쪽부터	-17469
▁구성하고	-17470
▁옥시	-17471
▁선거관리	-17472
▁한진중공업	-17473
▁사유가	-17474
▁공존	-17475
▁글에서	-17476
▁나눌	-17477
▁몰카	-17478
▁한미동맹	-17479
▁확대한다	-17480
도시로	-17481
▁송전탑	-17482
▁최첨단	-17483
▁법정관리	-17484
▁고소한	-17485
▁내역을	-17486
월부터는	-17487
▁관제	-17488
EF	-17489
대출을	-17490
▁물결은	-17491
▁이사는	-17492
▁심도	-17493
▁도래	-17494
▁여건을	-17495
▁청년들이	-17496
▁삼성이	-17497
▁대우건설	-17498
게시판	-17499
▁건물에	-17500
▁선고를	-17501
김영란	-17502
▁정규직으로	-17503
▁급변	-17504
▁탄핵소추	-17505
관찰	-17506
▁조직의	-17507
▁지점에서	-17508
▁서민금융	-17509
▁오차	-17510
▁유가증권시장에서	-17511
▁부유	-17512
▁해남	-17513
리에서	-17514
▁어디서나	-17515
개에서	-17516
▁의심되는	-17517
▁개헌을	-17518
▁이루는	-17519
내역	-17520
▁걷기	-17521
▁같은데요	-17522
▁사망했다	-17523
▁재무장관	-17524
▁보은	-17525
▁퓨	-17526
▁숨졌습니다	-17527
▁국민건강보험	-17528
▁유의해야	-17529
▁표절	-17530
▁죄질이	-17531
▁참가하는	-17532
▁사회적기업	-17533
▁소진	-17534
▁스캔	-17535
▁언니	-17536
월로	-17537
▁평년	-17538
텔레콤은	-17539
▁외환보유	-17540
▁보람	-17541
▁많게는	-17542
▁이곳에	-17543
▁표했다	-17544
▁파업에	-17545
▁광교	-17546
▁절반이	-17547
▁개발하는	-17548
▁개선하는	-17549
병원은	-17550
▁운영한다고	-17551
▁임산	-17552
▁신영	-17553
▁이한구	-17554
▁시기는	-17555
▁영화를	-17556
▁지역에서는	-17557
oul	-17558
▁하야	-17559
▁점진	-17560
▁유출된	-17561
경의	-17562
▁발의한	-17563
▁대응하는	-17564
나나	-17565
▁회부	-17566
▁차림	-17567
▁박창	-17568
▁대하여	-17569
분향	-17570
▁교차	-17571
▁수석의	-17572
▁시행하는	-17573
▁기대감을	-17574
▁관악구	-17575
▁티셔츠	-17576
▁파고	-17577
CJ	-17578
▁심층	-17579
▁국가적	-17580
▁한국관광	-17581
▁개최할	-17582
▁인체	-17583
▁노동자의	-17584
SBS	-17585
▁참여가	-17586
▁이용이	-17587
▁길에	-17588
▁시상식	-17589
▁건가요	-17590
▁행정자치부	-17591
▁후원금	-17592
가맹	-17593
에미	-17594
▁인사혁신	-17595
▁성관계	-17596
총연합회	-17597
냐고	-17598
▁최씨의	-17599
▁해를	-17600
수요가	-17601
▁기성	-17602
▁한발	-17603
파이낸	-17604
▁가져야	-17605
불을	-17606
▁희망의	-17607
받기	-17608
▁문구	-17609
▁인도적	-17610
▁청해진	-17611
북한은	-17612
라운드	-17613
승진	-17614
▁묶어	-17615
▁과시	-17616
▁살아남	-17617
국감	-17618
▁대치동	-17619
▁내역	-17620
▁단계에	-17621
들만	-17622
▁건강기능	-17623
▁보이지만	-17624
여론조사	-17625
▁해외여행	-17626
도발	-17627
투자를	-17628
티드	-17629
▁방제	-17630
▁의문이	-17631
▁제작해	-17632
▁설명하는	-17633
▁검사의	-17634
▁비록	-17635
▁금메달	-17636
▁...'	-17637
▁입문	-17638
▁지체	-17639
물가지	-17640
▁신중하게	-17641
상도	-17642
▁바꿨다	-17643
▁실적은	-17644
▁편향	-17645
▁국가는	-17646
율도	-17647
▁않았기	-17648
▁대회를	-17649
취약	-17650
▁김해공항	-17651
▁쿠키뉴스	-17652
▁롱	-17653
▁이바지	-17654
▁삼청	-17655
▁단체가	-17656
▁국민안전처	-17657
▁평범한	-17658
▁공동대표는	-17659
수정	-17660
.10	-17661
▁여행객	-17662
▁정상이	-17663
▁남짓	-17664
▁자사고	-17665
ID	-17666
▁애니메이션	-17667
▁키울	-17668
▁찰	-17669
계로	-17670
▁남기고	-17671
▁전력이	-17672
▁발목	-17673
▁국방장관	-17674
▁서울광장에서	-17675
os	-17676
잡이	-17677
쓰레	-17678
부서	-17679
▁틀을	-17680
▁비공개로	-17681
▁충실히	-17682
협회와	-17683
격호	-17684
생명은	-17685
▁충청권	-17686
으므로	-17687
▁서서히	-17688
▁구본	-17689
▁벤치	-17690
▁드릴	-17691
억여원을	-17692
감면	-17693
위원을	-17694
▁대두	-17695
제안	-17696
해지면서	-17697
▁결정적	-17698
▁부속	-17699
▁서울서부	-17700
선거구	-17701
르다	-17702
서해	-17703
전주	-17704
▁옮겨져	-17705
▁궁극	-17706
▁시그	-17707
경희	-17708
▁네티즌은	-17709
▁밀착	-17710
▁손실이	-17711
▁구성했다	-17712
▁실수	-17713
▁안건을	-17714
▁신청은	-17715
혜원	-17716
▁1.0	-17717
▁5.18	-17718
김현	-17719
▁거래되고	-17720
▁내주	-17721
▁조찬	-17722
▁우선적으로	-17723
▁후보도	-17724
▁랩	-17725
▁던져	-17726
당했다	-17727
▁추진해야	-17728
인력을	-17729
▁논의에	-17730
동네	-17731
▁늘렸다	-17732
▁변화의	-17733
다툼	-17734
▁목표는	-17735
▁북쪽	-17736
▁꼽혔다	-17737
▁시티	-17738
티스트	-17739
▁만점	-17740
▁전문가로	-17741
▁평가해	-17742
▁가던	-17743
▁재연	-17744
▁한진그룹	-17745
▁속한	-17746
▁사실로	-17747
▁5·6	-17748
섰습니다	-17749
▁특화된	-17750
▁상응	-17751
▁육상	-17752
됐다가	-17753
▁쏟아져	-17754
▁반문했다	-17755
▁더한	-17756
▁건물이	-17757
▁상승으로	-17758
▁이달부터	-17759
거래를	-17760
들에게도	-17761
▁핵무	-17762
▁지원은	-17763
▁전문가를	-17764
우회	-17765
대회가	-17766
척이	-17767
▁선택하는	-17768
▁권리가	-17769
▁메가	-17770
▁천주교	-17771
▁도입했다	-17772
-5	-17773
장일	-17774
우면	-17775
▁택시를	-17776
▁장미	-17777
▁김영란법	-17778
▁성추행한	-17779
▁지리산	-17780
▁잇따른	-17781
▁보였습니다	-17782
▁철회를	-17783
자살	-17784
건전성	-17785
▁무리하게	-17786
▁가져올	-17787
▁잃어버	-17788
▁NS	-17789
▁내게	-17790
▁초미세먼지	-17791
▁통관	-17792
▁미국으로	-17793
군에서	-17794
▁조직이	-17795
▁자신과	-17796
▁원스톱	-17797
82	-17798
▁Res	-17799
▁1960	-17800
▁것이지	-17801
▁가다	-17802
▁연구팀은	-17803
▁사고와	-17804
▁우리나라에	-17805
▁회견	-17806
▁내부에	-17807
▁기대에	-17808
▁지침을	-17809
대부	-17810
▁반전	-17811
▁최종적으로	-17812
발사	-17813
▁의뢰해	-17814
▁가급적	-17815
▁청구를	-17816
▁소신	-17817
▁식품의약품안전	-17818
▁국제통화기금	-17819
르며	-17820
▁후진	-17821
▁날로	-17822
▁방학	-17823
비용이	-17824
▁받기도	-17825
▁103	-17826
▁의하면	-17827
▁by	-17828
밖에도	-17829
▁보도한	-17830
▁살리는	-17831
▁인물로	-17832
▁형을	-17833
▁의원들과	-17834
운동연합	-17835
▁조성한	-17836
▁트렌드를	-17837
▁띈	-17838
무상	-17839
LO	-17840
▁작성해	-17841
▁특허를	-17842
▁수년간	-17843
▁처음에는	-17844
▁근간	-17845
▁사법부	-17846
어선	-17847
▁투명하게	-17848
▁열쇠	-17849
▁신약	-17850
▁청년실업	-17851
▁촉구하며	-17852
▁생필	-17853
자전거	-17854
▁부산을	-17855
조원이	-17856
▁계기	-17857
▁나름대로	-17858
▁교복	-17859
▁롯데홈쇼핑	-17860
보이	-17861
▁브랜드인	-17862
▁토론회를	-17863
▁수익이	-17864
▁업황	-17865
▁소중	-17866
사와의	-17867
조원의	-17868
▁경영진	-17869
▁부지를	-17870
▁편안한	-17871
어링	-17872
▁불가피할	-17873
슬러	-17874
▁일부러	-17875
미노	-17876
▁수뇌	-17877
▁우량	-17878
▁포퓰리즘	-17879
단체의	-17880
▁6,	-17881
▁급증한	-17882
논의	-17883
장관은	-17884
변에	-17885
▁약물	-17886
▁흥행	-17887
▁예산결산	-17888
라디	-17889
생들이	-17890
▁삼성생명	-17891
▁이강	-17892
▁대표이사는	-17893
권리	-17894
▁정화	-17895
▁스토리	-17896
법관	-17897
적폐	-17898
▁1~3	-17899
▁업체와	-17900
▁인권침해	-17901
ad	-17902
▁확대했다	-17903
▁피해자들이	-17904
▁미수습자	-17905
▁복직	-17906
▁비결	-17907
▁우리를	-17908
▁경제민주	-17909
들기	-17910
녹색	-17911
당국에	-17912
▁IoT	-17913
▁심리적	-17914
▁국도	-17915
▁프로그램이다	-17916
▁무제한	-17917
▁자수	-17918
공장에서	-17919
▁학생들과	-17920
폭은	-17921
▁오리온	-17922
▁비자	-17923
바꿈	-17924
유엔	-17925
▁ETF	-17926
▁운전면허	-17927
정밀	-17928
▁내연	-17929
▁데뷔	-17930
▁차익	-17931
문으로	-17932
▁의제	-17933
증과	-17934
▁여성과	-17935
속도	-17936
▁흐리고	-17937
지던	-17938
▁특가	-17939
▁개최하는	-17940
▁안전하고	-17941
▁사고의	-17942
▁홍천	-17943
▁강화한다	-17944
▁사업계획	-17945
타당	-17946
▁영상이	-17947
▁일한	-17948
잘못	-17949
인인	-17950
▁검출된	-17951
▁울주군	-17952
▁집어	-17953
▁무시하고	-17954
▁북한군	-17955
▁생산자	-17956
▁전방	-17957
교원	-17958
▁늦춰	-17959
▁증설	-17960
▁얇	-17961
▁에너지를	-17962
창을	-17963
▁편하게	-17964
▁홍보를	-17965
관리법	-17966
▁당국에	-17967
▁랜드마크	-17968
▁아닐까	-17969
▁헌법에	-17970
▁하나은행	-17971
일이다	-17972
▁유관기관	-17973
▁양측의	-17974
기자회견	-17975
민주화운동	-17976
▁소홀히	-17977
▁퇴원	-17978
▁해결해	-17979
▁수락	-17980
비한	-17981
▁실형	-17982
▁경찰청장	-17983
이민	-17984
발찌	-17985
▁걷어	-17986
애플	-17987
장치를	-17988
▁국무부	-17989
▁판매할	-17990
▁오른다	-17991
만달러로	-17992
축을	-17993
치료를	-17994
▁스마트폰으로	-17995
▁강점	-17996
▁미래창조과학부	-17997
환율	-17998
▁부동	-17999
일정	-18000
▁만하다	-18001
▁일으킬	-18002
▁한국산업	-18003
▁달린	-18004
▁'2014	-18005
▁국가보안	-18006
▁금융통화	-18007
▁일정에	-18008
여행을	-18009
▁7,	-18010
▁백운기	-18011
데타	-18012
▁취항	-18013
▁아쉽	-18014
방식을	-18015
르면서	-18016
▁관리할	-18017
▁예능	-18018
▁언제든	-18019
▁일어나는	-18020
▁합격자	-18021
▁횡령한	-18022
김해	-18023
▁걷고	-18024
▁품목을	-18025
▁유시민	-18026
▁나고	-18027
모두	-18028
▁조사와	-18029
▁대주	-18030
공단이	-18031
▁끼어	-18032
▁칼럼	-18033
용이	-18034
의장	-18035
▁마련돼	-18036
▁보금자리	-18037
▁구역	-18038
▁주인이	-18039
▁전년도	-18040
서야	-18041
▁사회부총리	-18042
▁헐	-18043
투자증권은	-18044
북핵	-18045
▁제주항공	-18046
▁외압	-18047
▁정오	-18048
렸을	-18049
▁정체가	-18050
상황에	-18051
▁상승률	-18052
용수	-18053
지거나	-18054
▁공식적인	-18055
▁전화로	-18056
▁하나하나	-18057
▁사무실에	-18058
협상을	-18059
▁바지	-18060
▁못했고	-18061
▁것이어서	-18062
▁역외	-18063
▁시간도	-18064
▁지자체의	-18065
사회가	-18066
▁경기도지사	-18067
▁자료는	-18068
▁포스터	-18069
▁그분	-18070
▁생산된	-18071
▁조직개편	-18072
▁백령	-18073
아프리카	-18074
▁별개로	-18075
▁국민행복	-18076
▁의문을	-18077
▁찢	-18078
친환경	-18079
평생	-18080
▁정신과	-18081
육아	-18082
겹살	-18083
▁내진	-18084
▁중수	-18085
▁번의	-18086
창의	-18087
▁사은	-18088
▁특성에	-18089
▁남는	-18090
테마	-18091
▁답변했다	-18092
라운	-18093
▁차남	-18094
▁들어올	-18095
▁덕분	-18096
▁오락	-18097
▁막바지	-18098
▁벌어지는	-18099
랑이	-18100
▁설명회를	-18101
▁이산화	-18102
▁안드로이드	-18103
▁편지를	-18104
홍준표	-18105
▁미미	-18106
▁중소기업을	-18107
속을	-18108
▁소각	-18109
▁몰린	-18110
나타	-18111
비율은	-18112
ilbo	-18113
▁사안을	-18114
▁행사장	-18115
▁확실하게	-18116
▁개최해	-18117
▁한가	-18118
감치	-18119
▁달리는	-18120
▁인스타그램	-18121
책임자	-18122
총회에서	-18123
▁구경	-18124
▁제목으로	-18125
일레	-18126
▁가입을	-18127
환경이	-18128
▁유세를	-18129
▁찔러	-18130
사다	-18131
▁실리콘	-18132
충돌	-18133
▁양은	-18134
▁쪽에서	-18135
▁방미	-18136
매체	-18137
▁추대	-18138
▁확인하실	-18139
▁115	-18140
▁감소로	-18141
▁대학은	-18142
▁역동	-18143
소상공	-18144
▁포함된다	-18145
▁많지만	-18146
▁성북구	-18147
▁비무장	-18148
열을	-18149
▁데이트	-18150
마의	-18151
ine	-18152
▁지은	-18153
▁늘었습니다	-18154
입학	-18155
▁우즈	-18156
▁우려해	-18157
▁수당	-18158
▁지뢰	-18159
공감	-18160
▁허용하는	-18161
▁임명된	-18162
시간의	-18163
▁어디로	-18164
▁분배	-18165
추경	-18166
▁퍼포먼스	-18167
▁치아	-18168
▁:[	-18169
회담을	-18170
▁집계됐다고	-18171
▁정읍	-18172
LA	-18173
병에	-18174
▁띄는	-18175
(-2	-18176
▁무마	-18177
만큼은	-18178
▁이슈에	-18179
▁오르면서	-18180
징용	-18181
▁줄인	-18182
▁서두	-18183
▁원씩	-18184
▁업체들은	-18185
The	-18186
▁극히	-18187
▁백악관	-18188
▁버튼	-18189
▁집중호우	-18190
▁총영	-18191
▁문구가	-18192
▁뒤에도	-18193
▁자택에서	-18194
▁지급할	-18195
량과	-18196
느냐는	-18197
▁목요일	-18198
▁흥미	-18199
▁직원과	-18200
롭지	-18201
▁규모에	-18202
▁디지털뉴스팀	-18203
▁않아서	-18204
▁싹	-18205
▁리퍼트	-18206
억원과	-18207
▁선두	-18208
▁의혹은	-18209
있습니다	-18210
살균	-18211
▁친일	-18212
버스를	-18213
▁2.4	-18214
▁교류를	-18215
▁탄력을	-18216
▁웃도는	-18217
▁흩	-18218
▁사거리	-18219
▁맡는	-18220
▁정보공개	-18221
접수	-18222
▁더이상	-18223
▁반영하는	-18224
민구	-18225
▁안심하고	-18226
▁진입을	-18227
▁농촌진흥	-18228
림이	-18229
오픈	-18230
▁안경	-18231
▁구워낸	-18232
▁1,0	-18233
▁구청장은	-18234
▁뜨거	-18235
능력이	-18236
▁기록하는	-18237
▁돌아섰다	-18238
▁직원들과	-18239
▁미투	-18240
∼7	-18241
▁공무원들이	-18242
▁단단	-18243
▁동계	-18244
부실	-18245
▁월간	-18246
▁어디까지	-18247
이렇게	-18248
▁금융당국은	-18249
▁운수	-18250
:1	-18251
▁놀이터	-18252
는지는	-18253
▁인근의	-18254
▁주력하고	-18255
▁대미	-18256
▁어획	-18257
▁공급할	-18258
▁전원이	-18259
▁구형했다	-18260
▁태워	-18261
▁배경에	-18262
▁수직	-18263
방사	-18264
▁고의로	-18265
화했다	-18266
▁중동호흡기증후군	-18267
▁방사선	-18268
▁생각도	-18269
▁플랜트	-18270
▁떠오르고	-18271
드럽	-18272
▁유저	-18273
▁붙은	-18274
▁점과	-18275
▁가사	-18276
▁오후에는	-18277
▁북한에서	-18278
▁커다란	-18279
료품	-18280
▁약세를	-18281
▁도시계획	-18282
봉사단	-18283
▁국내에서는	-18284
▁마음의	-18285
▁의미에서	-18286
교동	-18287
▁SS	-18288
보좌관	-18289
▁일방적인	-18290
▁사적	-18291
▁여섯	-18292
▁응답자	-18293
대왕	-18294
▁때만	-18295
▁중의	-18296
▁폴리	-18297
▁대표단	-18298
▁사업도	-18299
편성	-18300
(40)	-18301
▁옛날	-18302
▁심폐소생	-18303
▁뺑소니	-18304
▁중요하지만	-18305
▁파문이	-18306
▁의원님	-18307
▁기억이	-18308
▁시민들과	-18309
▁컬렉션	-18310
▁요청하는	-18311
▁관세를	-18312
▁위원회는	-18313
▁노무	-18314
▁일원에서	-18315
▁논의하기	-18316
▁타는	-18317
▁예상되고	-18318
폐쇄	-18319
▁코레일은	-18320
▁당기순이익은	-18321
▁대사관	-18322
천동	-18323
▁조건이	-18324
▁동지	-18325
▁그치지	-18326
▁밖에서	-18327
오지	-18328
▁연합뉴스가	-18329
▁읽어	-18330
▁음식물	-18331
▁탈바꿈	-18332
▁아이들은	-18333
들께	-18334
립대	-18335
장으로부터	-18336
년마다	-18337
▁교육은	-18338
▁셀트리온	-18339
스트라	-18340
▁미주	-18341
▁법의	-18342
▁본사를	-18343
▁있음에도	-18344
▁낮추고	-18345
▁워킹	-18346
▁재미있는	-18347
▁얘기는	-18348
▁커뮤니케이션	-18349
▁역전	-18350
찌감치	-18351
▁0.8%	-18352
▁부를	-18353
▁발견되지	-18354
성남	-18355
▁대선에	-18356
년부터는	-18357
집이	-18358
▁병사	-18359
▁벨기에	-18360
▁소유한	-18361
▁이통	-18362
어떻	-18363
▁비용으로	-18364
▁정면으로	-18365
헬기	-18366
▁서울신문	-18367
▁나타났	-18368
▁남북이	-18369
▁지나지	-18370
행사가	-18371
▁이들에	-18372
고용노동	-18373
▁SC	-18374
▁포즈를	-18375
▁KDB	-18376
▁금고	-18377
▁제한을	-18378
▁시행한다고	-18379
▁생산을	-18380
라든지	-18381
▁계좌를	-18382
▁못했다고	-18383
▁정치적인	-18384
▁투쟁을	-18385
조절	-18386
▁기장군	-18387
▁박물관	-18388
▁사의	-18389
▁외교적	-18390
측에	-18391
▁104	-18392
▁연제	-18393
▁관계자들을	-18394
▁격차	-18395
▁운영하며	-18396
▁조모	-18397
▁세금이	-18398
▁알았다	-18399
▁조금이라도	-18400
관계에	-18401
▁단일화를	-18402
레이터	-18403
▁나가기로	-18404
▁경인	-18405
▁폐사	-18406
바게뜨	-18407
아무개	-18408
▁남학생	-18409
▁드물	-18410
▁봉하	-18411
▁실손	-18412
▁106	-18413
(35)	-18414
▁기관과	-18415
▁찾아볼	-18416
▁돌아와	-18417
편에	-18418
▁참석을	-18419
▁드립니다	-18420
▁법규	-18421
▁할까	-18422
페어	-18423
라시아	-18424
▁완성차	-18425
사령관	-18426
물품	-18427
▁0%	-18428
▁딸의	-18429
▁위험에	-18430
▁관세청은	-18431
▁단속에	-18432
▁사정을	-18433
용석	-18434
▁대회는	-18435
▁활발하게	-18436
▁선고받	-18437
▁시선	-18438
▁기획조정	-18439
경력	-18440
▁윤종	-18441
▁갯	-18442
정책이	-18443
▁보호하기	-18444
▁극복하고	-18445
▁한성	-18446
▁남북한	-18447
MBC	-18448
적으로도	-18449
▁다루는	-18450
농도	-18451
▁연설을	-18452
▁있어서는	-18453
▁샐	-18454
로이	-18455
▁장기적인	-18456
▁계곡	-18457
▁국영	-18458
∼9	-18459
▁용도	-18460
▁행렬	-18461
▁용이	-18462
▁눈으로	-18463
▁각별	-18464
▁비관	-18465
▁회의에서는	-18466
▁한은이	-18467
▁시행을	-18468
▁완벽한	-18469
▁살기	-18470
▁참전용	-18471
(32	-18472
▁주어진다	-18473
불이	-18474
▁대정부질문	-18475
▁차장은	-18476
없음	-18477
▁칭찬	-18478
대변인	-18479
▁행보에	-18480
▁잡혀	-18481
▁에볼라	-18482
량으로	-18483
▁SBSCNBC	-18484
▁특활	-18485
▁성매매를	-18486
토지주택공사	-18487
▁도발에	-18488
데일리안	-18489
▁좁은	-18490
▁서귀포시	-18491
▁하동	-18492
▁상반	-18493
▁시사했다	-18494
CF	-18495
정화	-18496
▁논의한	-18497
어떻게	-18498
▁운행이	-18499
▁비서관은	-18500
▁전통적인	-18501
▁유한	-18502
▁강남역	-18503
▁지역별로는	-18504
▁125	-18505
▁산타	-18506
▁압력	-18507
▁아침에	-18508
의료원	-18509
▁비로	-18510
▁종합대책	-18511
▁기숙사	-18512
▁Hub	-18513
▁펜션	-18514
▁0.7%	-18515
경향신문은	-18516
▁클래식	-18517
▁신청서를	-18518
▁직원에게	-18519
▁필요는	-18520
▁이동하는	-18521
▁전념	-18522
까지의	-18523
격으로	-18524
▁상품이다	-18525
로만	-18526
▁제때	-18527
▁노골	-18528
▁했어요	-18529
▁얼마든지	-18530
▁네거티브	-18531
▁까닭	-18532
상한	-18533
▁종일	-18534
판결	-18535
PM	-18536
복구	-18537
▁방침에	-18538
▁전사	-18539
▁이대로	-18540
▁기밀	-18541
▁품고	-18542
em	-18543
▁대란	-18544
자유한국당	-18545
▁동아리	-18546
▁표명했다	-18547
▁푸틴	-18548
하다며	-18549
징어	-18550
▁세종대로	-18551
▁채용비리	-18552
스틱	-18553
▁기자들에게	-18554
▁국무위원	-18555
▁입니다	-18556
▁서울이	-18557
도스	-18558
성완종	-18559
▁서울시의회	-18560
▁강화한	-18561
▁뛰었다	-18562
▁심리가	-18563
▁의료진	-18564
▁계열사인	-18565
룸버그	-18566
▁거부했다	-18567
▁주기로	-18568
대통령의	-18569
▁공헌	-18570
기아차	-18571
하므로	-18572
시킨다	-18573
▁좌석	-18574
▁사이로	-18575
▁송영무	-18576
하시기	-18577
일레븐	-18578
▁근무를	-18579
▁부과하는	-18580
▁견본	-18581
PI	-18582
되더라도	-18583
▁재산이	-18584
명대	-18585
내부	-18586
▁0.6%	-18587
▁귀환	-18588
▁낙하산	-18589
국민연금	-18590
▁간이	-18591
▁주목하고	-18592
▁욕설을	-18593
▁전력수급	-18594
▁주장한다	-18595
▁산업통상자원부는	-18596
▁악수하고	-18597
정에서	-18598
▁외환시장에서	-18599
▁호황	-18600
▁배우고	-18601
위성	-18602
▁금융사	-18603
▁때의	-18604
▁부산진구	-18605
지사의	-18606
▁박준	-18607
▁고유의	-18608
▁부품을	-18609
주의보	-18610
▁인질	-18611
▁환경에서	-18612
▁머물고	-18613
▁투표율이	-18614
▁승합	-18615
▁Content	-18616
파견	-18617
▁밝히면서	-18618
▁서비스에	-18619
▁부드럽	-18620
▁국가에서	-18621
▁비핵화를	-18622
▁컨트롤타워	-18623
▁헤지	-18624
하려던	-18625
▁4·13	-18626
▁파악한	-18627
ure	-18628
장으로서	-18629
물질이	-18630
▁부분에서	-18631
▁부족으로	-18632
▁참석자들과	-18633
패드	-18634
▁바삭바	-18635
▁활발히	-18636
검찰이	-18637
교육청이	-18638
▁불어넣	-18639
▁조류인플루엔자	-18640
제출	-18641
▁낮아졌다	-18642
▁이슈를	-18643
▁번역	-18644
▁대통령과의	-18645
▁정두언	-18646
▁잡힌	-18647
▁처벌할	-18648
▁배터	-18649
▁주파	-18650
심의위원회	-18651
▁보태	-18652
▁보고했다	-18653
▁재난안전	-18654
대상은	-18655
횡령	-18656
▁올해보다	-18657
▁한국으로	-18658
정책연구원	-18659
고위	-18660
▁전략이다	-18661
▁제도개선	-18662
▁책임지고	-18663
▁경남기업	-18664
▁바다에	-18665
미투	-18666
▁기운	-18667
▁악취	-18668
▁가해자	-18669
▁지정한	-18670
▁진정성	-18671
▁경력을	-18672
LH	-18673
가리	-18674
▁기회로	-18675
▁바람직한	-18676
▁의혹으로	-18677
변조	-18678
▁장점을	-18679
▁외에는	-18680
▁의학	-18681
사업부	-18682
(43)	-18683
[...]
