<unk>	0
<s>	0
</s>	0
▁	-3.52684
▁.	-3.62562
을	-4.29059
의	-4.29397
이	-4.30146
에	-4.45676
가	-4.6197
는	-4.67991
,	-4.71773
를	-4.76296
은	-4.91557
고	-4.95918
도	-5.01742
로	-5.1236
한	-5.20802
일	-5.24431
)	-5.28179
에서	-5.34007
과	-5.39406
(	-5.4363
인	-5.43678
지	-5.57084
으로	-5.58488
▁수	-5.67598
▁이	-5.70877
▁있다	-5.70936
기	-5.7188
와	-5.76227
해	-5.78228
다	-5.80446
년	-5.81457
"	-5.877
하는	-5.93533
▁"	-5.9485
▁1	-5.95619
만	-5.9666
하고	-5.98845
시	-5.99788
자	-6.03958
.	-6.04223
사	-6.05788
할	-6.07747
'	-6.09748
대	-6.10177
했다	-6.11986
수	-6.13186
리	-6.15842
▁전	-6.16985
▁'	-6.19082
▁등	-6.19685
월	-6.20447
▁2	-6.22309
·	-6.23362
어	-6.29971
서	-6.31059
스	-6.31236
▁한	-6.31809
주	-6.33222
▁3	-6.35679
나	-6.42754
상	-6.42806
▁그	-6.45141
장	-6.45433
전	-6.47986
성	-6.49615
▁“	-6.49849
라	-6.50295
정	-6.50977
”	-6.51626
면	-6.51836
▁있는	-6.5211
원	-6.52786
동	-6.5359
부	-6.53949
며	-6.56435
이다	-6.57386
화	-6.57773
▁중	-6.57939
진	-6.6038
구	-6.62042
▁‘	-6.62418
’	-6.62647
적	-6.65558
드	-6.67158
된	-6.67508
명	-6.67612
▁4	-6.68588
선	-6.70896
세	-6.71456
보	-6.73298
아	-6.75006
제	-6.75521
게	-6.77083
▁5	-6.78512
차	-6.81364
▁것으로	-6.81488
개	-6.81658
치	-6.8247
산	-6.82765
소	-6.83278
▁유	-6.84032
▁정	-6.85097
에게	-6.8558
당	-6.86662
▁것	-6.86857
비	-6.8688
▁안	-6.8779
한다	-6.87947
회	-6.88048
까지	-6.90126
조	-6.90169
▁김	-6.90404
트	-6.91712
▁시	-6.92665
우	-6.94637
신	-6.95075
야	-6.95354
▁신	-6.95862
미	-6.96143
들이	-6.96318
▁대	-6.97186
▁내	-6.9945
위	-6.99757
하게	-7.00419
용	-7.00767
▁10	-7.01062
오	-7.01083
▁대한	-7.01515
호	-7.02174
▁아	-7.02306
▁제	-7.0272
▁서울	-7.02937
단	-7.04422
식	-7.054
여	-7.0559
▁6	-7.05681
마	-7.06802
형	-7.06826
▁(	-7.06832
관	-7.07587
천	-7.08397
▁주	-7.08531
▁한다	-7.09211
하	-7.09226
중	-7.09539
▁사	-7.10641
▁원	-7.11453
무	-7.15298
▁오	-7.16195
▁위해	-7.16261
권	-7.16319
유	-7.16405
에는	-7.16943
▁7	-7.17043
공	-7.17289
▁박	-7.18105
니	-7.18529
적으로	-7.19761
▁및	-7.20084
안	-7.20115
▁보	-7.20193
계	-7.20317
영	-7.20609
▁소	-7.2098
▁한국	-7.21024
▁마	-7.21162
국	-7.21591
▁더	-7.22038
▁부	-7.22886
분	-7.22985
경	-7.23208
▁때	-7.23734
이라고	-7.24169
재	-7.25321
실	-7.2594
2	-7.26117
타	-7.2682
▁기	-7.27152
모	-7.27196
▁미	-7.27343
▁무	-7.27578
▁비	-7.27829
▁후	-7.28003
▁지	-7.28593
르	-7.28618
연	-7.28822
▁8	-7.28864
방	-7.29036
법	-7.29481
▁말	-7.29674
하기	-7.30195
적인	-7.30281
요	-7.30346
▁조	-7.30872
물	-7.31012
러	-7.31109
▁밝혔다	-7.31432
들	-7.3164
▁19	-7.32565
히	-7.32992
e	-7.33889
문	-7.35581
▁9	-7.36128
하지	-7.36347
에서는	-7.36477
▁다	-7.36625
▁상	-7.36641
▁공	-7.36889
▁말했다	-7.37193
▁동	-7.37362
▁불	-7.37492
금	-7.37973
▁구	-7.38606
▁때문에	-7.38748
행	-7.38843
▁해	-7.39972
▁지난	-7.40236
...	-7.40477
▁이후	-7.40901
역	-7.40975
보다	-7.41198
1	-7.41212
양	-7.41489
파	-7.41652
군	-7.41847
점	-7.42886
▁통해	-7.43013
카	-7.43253
▁나	-7.4357
▁함께	-7.43884
▁?	-7.44079
라고	-7.44174
▁하	-7.4506
급	-7.45316
▁또	-7.45726
▁강	-7.45793
내	-7.4612
려	-7.46742
종	-7.46879
던	-7.47066
▁모	-7.4756
▁재	-7.47832
▁장	-7.48296
▁했다	-7.48479
체	-7.49523
건	-7.49616
▁연	-7.49806
토	-7.5006
면서	-7.50231
직	-7.50402
부터	-7.50436
▁경우	-7.5051
석	-7.51019
노	-7.51105
간	-7.52016
즈	-7.52028
▁세	-7.52542
▁것이	-7.52754
청	-7.52972
▁같은	-7.5305
▁자	-7.53107
▁할	-7.545
루	-7.54965
됐다	-7.55039
력	-7.55044
▁두	-7.55561
▁당	-7.56547
질	-7.57102
3	-7.57598
현	-7.58368
이나	-7.58387
된다	-7.58905
포	-7.60117
▁12	-7.60127
크	-7.61087
-	-7.61134
억	-7.61384
▁대해	-7.61409
m	-7.61974
병	-7.62026
되는	-7.62172
민	-7.6231
▁20	-7.62605
▁A	-7.62667
▁거	-7.6273
▁뒤	-7.62839
▁선	-7.63107
데	-7.63129
하며	-7.63406
학	-7.63417
▁다른	-7.63453
운	-7.63555
▁이상	-7.63979
▁반	-7.6413
▁성	-7.64314
▁서	-7.6474
▁11	-7.64832
강	-7.64837
배	-7.65378
터	-7.65601
▁파	-7.65961
하여	-7.66285
생	-7.66399
심	-7.67029
▁된다	-7.67147
▁인	-7.67174
▁입	-7.67455
▁위한	-7.67505
▁바	-7.67624
▁하는	-7.68146
▁적	-7.6839
라는	-7.68753
바	-7.69033
레	-7.69174
들은	-7.69194
교	-7.69268
▁양	-7.69296
▁등을	-7.69381
하면	-7.69422
키	-7.69642
코	-7.70087
▁이날	-7.71385
들의	-7.7139
▁하지만	-7.71718
거	-7.72295
▁문	-7.72451
▁이어	-7.72793
▁가장	-7.72847
▁총	-7.73403
▁스	-7.73891
~	-7.7391
해야	-7.7393
남	-7.74194
그	-7.74983
▁간	-7.75067
▁위	-7.75377
▁없다	-7.75696
▁오후	-7.76378
프	-7.76681
▁것은	-7.77213
▁따라	-7.77458
감	-7.78066
P	-7.78363
격	-7.78486
류	-7.79024
▁관련	-7.79024
발	-7.79332
하다	-7.79602
▁단	-7.80004
린	-7.80138
태	-7.80141
판	-7.80191
▁오전	-7.80388
지만	-7.80869
▁데	-7.8101
4	-7.81483
▁저	-7.81511
▁남	-7.82206
▁지난해	-7.82242
디	-7.82309
임	-7.82465
▁최	-7.82483
들을	-7.82652
▁이번	-7.82779
▁여	-7.83022
▁발	-7.83288
▁어	-7.83656
속	-7.83676
저	-7.83691
▁미국	-7.83805
▁배	-7.83869
출	-7.84094
s	-7.84747
▁것이다	-7.84957
▁지원	-7.84973
승	-7.85201
▁게	-7.85228
매	-7.85595
▁지역	-7.85659
란	-7.85897
▁모두	-7.86294
▁노	-7.8636
▁우	-7.86595
반	-7.87584
▁초	-7.87721
▁!	-7.87944
▁카	-7.88119
▁사용	-7.88373
▁개	-7.88411
론	-7.88451
통	-7.88586
▁대표	-7.90119
작	-7.90332
었다	-7.90905
▁경	-7.90978
▁하고	-7.91012
▁차	-7.91539
될	-7.92114
층	-7.92149
▁30	-7.92479
설	-7.92494
준	-7.92512
▁일본	-7.92575
환	-7.92732
▁중국	-7.92825
업	-7.93085
▁것을	-7.93124
하면서	-7.93209
o	-7.93289
▁피	-7.93378
박	-7.93411
▁실	-7.93505
▁큰	-7.93847
▁약	-7.93854
▁세계	-7.94237
▁없는	-7.94245
▁건	-7.94396
▁경제	-7.9468
티	-7.94788
등	-7.94793
▁잘	-7.94829
▁당시	-7.94982
집	-7.95328
5	-7.95413
▁방	-7.95707
▁알	-7.96053
두	-7.96828
증	-7.96894
네	-7.97065
t	-7.97221
▁진행	-7.97389
▁S	-7.9742
▁현재	-7.98109
복	-7.98609
a	-7.98628
에도	-7.98648
▁국	-7.98765
입	-7.9898
▁기업	-7.99007
버	-7.9911
▁대통령	-7.9955
▁올해	-7.9962
▁포	-7.99715
▁우리	-7.99898
▁경기	-8.00187
▁외	-8.00199
이라는	-8.00284
초	-8.00492
희	-8.00886
▁진	-8.01041
억원	-8.01308
만원	-8.01419
▁특히	-8.01579
돼	-8.01655
▁B	-8.02026
T	-8.02384
▁달	-8.02384
▁하나	-8.02429
창	-8.02649
i	-8.0308
▁그리고	-8.03183
▁이런	-8.03302
p	-8.03336
결	-8.03364
되고	-8.03629
D	-8.03659
철	-8.04089
편	-8.04218
량	-8.04796
▁명	-8.04853
음	-8.05113
▁따르면	-8.05285
▁영	-8.05331
번	-8.05503
▁15	-8.05519
위원회	-8.05546
▁사업	-8.05562
▁다시	-8.0582
▁못	-8.05834
>	-8.05917
▁타	-8.06369
▁아니라	-8.0688
길	-8.06883
▁국가	-8.07092
후	-8.07337
▁심	-8.07518
E	-8.07578
▁분	-8.07787
해서	-8.07962
),	-8.08065
▁열린	-8.08268
래	-8.08331
A	-8.08399
▁최근	-8.0911
▁교	-8.09167
▁코	-8.09349
더	-8.09447
는데	-8.09744
B	-8.0983
▁▲	-8.09841
▁편	-8.09943
▁치	-8.09956
▁많은	-8.10159
했습니다	-8.10173
입니다	-8.10209
▁조사	-8.10315
워	-8.1051
▁국민	-8.10906
▁부산	-8.11004
M	-8.1104
스트	-8.11056
각	-8.11276
▁리	-8.11389
▁열	-8.11446
▁국내	-8.12032
▁매	-8.1213
피	-8.12199
료	-8.12443
탄	-8.12466
약	-8.12851
▁감	-8.13251
▁손	-8.13395
되었다	-8.13614
6	-8.13761
살	-8.13893
온	-8.14026
▁본	-8.14139
평	-8.14236
C	-8.14387
▁국회	-8.14411
▁호	-8.14711
시간	-8.14814
▁...	-8.14949
▁정부	-8.15036
목	-8.15092
합	-8.15908
▁운영	-8.16091
외	-8.16223
▁정도	-8.1625
▁그러나	-8.16846
되어	-8.16851
▁물	-8.16867
▁후보	-8.16934
]	-8.17166
▁첫	-8.17582
▁줄	-8.17922
시장	-8.17992
▁의원	-8.18191
▁그는	-8.18785
G	-8.19891
▁많이	-8.19967
▁있습니다	-8.19981
▁결과	-8.20063
사업	-8.201
▁M	-8.20363
▁시작	-8.20566
S	-8.21035
▁문제	-8.21289
▁18	-8.21293
지는	-8.21584
▁각	-8.21628
▁[	-8.217
▁모든	-8.22042
져	-8.22228
츠	-8.22782
▁될	-8.22798
O	-8.22858
▁일부	-8.22896
▁가운데	-8.22974
▁여성	-8.23099
▁13	-8.23114
▁추진	-8.23216
y	-8.23307
▁또한	-8.23324
▁전국	-8.23353
표	-8.23437
k	-8.23452
▁관계자는	-8.23498
백	-8.23523
락	-8.23764
근	-8.23839
색	-8.23854
엔	-8.23965
령	-8.24048
였다	-8.24228
▁맞	-8.24427
씨	-8.24694
▁날	-8.25182
림	-8.25207
립	-8.25297
브	-8.25573
절	-8.25842
▁C	-8.2609
▁금융	-8.26183
▁추	-8.26823
▁등의	-8.26825
별	-8.26924
▁16	-8.27106
▁볼	-8.27199
K	-8.27334
▁게임	-8.27334
▁산	-8.27341
이었다	-8.27361
▁추가	-8.27767
릴	-8.28377
h	-8.28622
9	-8.28858
▁시장	-8.29279
예	-8.29542
▁걸	-8.29806
▁강화	-8.29972
▁14	-8.30183
함	-8.30205
7	-8.30259
▁있었다	-8.30475
▁생	-8.30633
열	-8.30745
북	-8.30931
▁보고	-8.31211
▁결정	-8.31261
불	-8.31264
액	-8.31415
들에게	-8.315
▁D	-8.31557
▁막	-8.31578
▁임	-8.31768
▁<	-8.31947
▁예	-8.32308
▁사실	-8.32704
투	-8.3322
▁-	-8.33286
▁군	-8.33375
▁집	-8.33465
8	-8.33732
졌다	-8.33814
곳	-8.33965
▁생각	-8.33977
▁사건	-8.34129
항	-8.34233
▁있어	-8.34401
F	-8.34622
에서도	-8.34628
추	-8.34651
▁개발	-8.34776
난	-8.34943
▁17	-8.3497
▁들어	-8.35321
▁보면	-8.35426
거나	-8.35543
()	-8.35623
▁않고	-8.35676
술	-8.35825
▁점	-8.35936
▁확대	-8.36089
L	-8.36256
처럼	-8.36487
센터	-8.36566
▁교육	-8.36975
말	-8.37059
▁공격	-8.37121
▁관	-8.37368
▁최대	-8.37399
▁직접	-8.37733
▁수사	-8.37764
습니다	-8.37803
▁판매	-8.37806
c	-8.37825
10	-8.38133
했고	-8.38153
울	-8.38184
했다고	-8.382
▁속	-8.38256
했던	-8.38271
송	-8.38275
▁L	-8.3847
▁백	-8.3855
▁토	-8.38702
▁채	-8.3875
▁투자	-8.38845
▁마련	-8.39034
▁증가	-8.39424
커	-8.3978
▁화	-8.39919
기를	-8.39966
▁자신의	-8.40348
총	-8.40442
▁이에	-8.40479
광	-8.4054
30	-8.40604
▁100	-8.40626
▁용	-8.40672
테	-8.40685
▁않은	-8.40698
팀	-8.41671
메	-8.41699
망	-8.41999
하였다	-8.42214
▁결국	-8.42214
▁오늘	-8.42255
▁공개	-8.42614
본	-8.42626
경제	-8.42675
▁안전	-8.42827
n	-8.42933
er	-8.43037
든	-8.4353
이라며	-8.43581
▁아닌	-8.43713
친	-8.43868
▁확인	-8.44175
품	-8.44448
▁해당	-8.44569
지역	-8.44675
패	-8.44809
씨는	-8.44811
▁전체	-8.45017
처	-8.45081
▁통	-8.45158
▁선거	-8.45198
▁기술	-8.45313
쿠	-8.45587
▁물론	-8.45932
▁받고	-8.46392
▁동안	-8.46652
명이	-8.46677
▁번	-8.467
대로	-8.4688
▁있을	-8.46956
언	-8.46964
▁기록	-8.4742
▁요	-8.47563
▁평가	-8.47572
▁이를	-8.47633
향	-8.47644
변	-8.47745
이며	-8.47749
▁정책	-8.47844
▁참여	-8.47871
R	-8.47878
▁25	-8.47966
기업	-8.48199
왕	-8.48604
g	-8.48623
▁보인다	-8.48665
▁청와대	-8.48968
규	-8.49027
순	-8.49158
▁청	-8.49298
▁국제	-8.49506
션	-8.496
곡	-8.49815
u	-8.49834
달	-8.4987
▁높은	-8.50074
▁계속	-8.50077
▁삼	-8.50211
으며	-8.50254
▁메	-8.50257
▁잡	-8.50312
▁새누리당	-8.50356
▁한편	-8.50393
▁주장	-8.50437
▁새	-8.50682
▁애	-8.50684
▁등이	-8.50905
▁역	-8.5092
▁살	-8.51099
날	-8.5119
▁사회	-8.5119
▁출	-8.51224
성을	-8.51236
훈	-8.51329
▁다만	-8.51353
50	-8.51367
▁쓰	-8.51537
독	-8.5159
▁P	-8.51915
▁순	-8.51939
▁인사	-8.52008
자가	-8.52172
▁북한	-8.52333
▁금지	-8.52388
r	-8.52414
른	-8.52805
ᆞ	-8.52808
▁다양한	-8.52981
▁역시	-8.5306
▁다음	-8.53318
까	-8.535
▁기준	-8.53756
▁0	-8.53902
▁G	-8.54058
▁금	-8.5409
▁송	-8.54246
▁행사	-8.54286
족	-8.54521
채	-8.54713
랑	-8.54752
되지	-8.54847
범	-8.54847
▁죽	-8.54877
명을	-8.5495
▁아이	-8.54959
%	-8.55252
▁대상	-8.55341
장은	-8.55726
갈	-8.55797
축	-8.55857
담	-8.5657
▁폭	-8.56572
▁변	-8.56717
너	-8.56725
▁있다는	-8.56835
▁난	-8.56978
▁발표	-8.57144
▁그런	-8.57201
▁있고	-8.57207
봉	-8.57224
20	-8.5761
▁온	-8.58073
장을	-8.58358
았다	-8.58397
▁키	-8.58554
=	-8.58675
▁눈	-8.58686
탈	-8.58964
l	-8.58975
관리	-8.59017
▁특	-8.59105
은행	-8.59132
기관	-8.59213
▁홍	-8.594
▁카드	-8.59541
▁학교	-8.5955
▁된	-8.59804
▁않았다	-8.59831
율	-8.59873
▁천	-8.59881
▁경찰	-8.59984
▁법	-8.60117
▁K	-8.60128
▁상승	-8.60173
▁종	-8.60301
▁있도록	-8.60482
▁정치	-8.60693
김	-8.60808
▁이용	-8.60808
▁없이	-8.6087
▁21	-8.61187
▁제공	-8.61253
▁24	-8.61328
▁윤	-8.61402
▁관리	-8.61435
▁계	-8.6156
▁바로	-8.61638
악	-8.61715
▁발생	-8.61739
▁찾아	-8.62014
▁요구	-8.62015
▁사고	-8.62043
▁주요	-8.62127
▁50	-8.62234
런	-8.62246
거리	-8.62252
이라	-8.62371
기도	-8.62404
▁않는	-8.6256
▁생산	-8.62591
정부	-8.62678
하자	-8.6268
주의	-8.62713
충	-8.62753
▁팀	-8.62779
긴	-8.62805
▁있으며	-8.62819
업체	-8.62939
∼	-8.63078
▁않는다	-8.63176
▁시간	-8.63204
d	-8.63409
인데	-8.63597
▁적용	-8.63674
퍼	-8.63688
▁해외	-8.64
or	-8.64043
▁지금	-8.6409
▁좋은	-8.64107
사회	-8.64132
▁일반	-8.64188
N	-8.64388
▁22	-8.64572
▁허	-8.64642
▁민	-8.64646
들과	-8.64667
▁학	-8.64677
교육	-8.649
▁드	-8.65044
▁개선	-8.65315
산업	-8.65383
서울	-8.65495
▁사람	-8.66106
▁황	-8.66214
▁광	-8.6644
▁E	-8.66447
▁기간	-8.66463
플	-8.66569
▁받아	-8.66584
으면	-8.66611
▁돌	-8.66722
▁오는	-8.66769
▁되었다	-8.66813
▁연구	-8.66902
▁23	-8.6695
▁결	-8.66987
냐	-8.67111
▁예정이다	-8.67151
▁성공	-8.67429
▁매우	-8.6755
▁커	-8.67677
▁급	-8.68143
익	-8.68246
▁박근혜	-8.68381
v	-8.68475
▁최고	-8.68504
▁제품	-8.68622
H	-8.68661
겠다	-8.68665
▁창	-8.68707
개월	-8.68708
▁방송	-8.68987
▁기자	-8.69079
▁되	-8.6914
▁계획	-8.69209
▁만들어	-8.69268
일부터	-8.69432
자는	-8.69736
▁독	-8.69897
택	-8.69917
▁올	-8.69938
▁F	-8.69965
▁권	-8.70017
▁회사	-8.70039
▁여러	-8.70054
▁캐릭터	-8.70165
▁설명했다	-8.70183
▁분석	-8.70192
▁앞서	-8.70417
하기로	-8.7062
▁농	-8.70719
▁활동	-8.70867
▁T	-8.70871
▁가능	-8.7101
▁문재인	-8.71044
▁새로운	-8.71154
▁친	-8.71427
폭	-8.71467
▁의원은	-8.71578
▁준비	-8.71708
▁│	-8.71711
▁성장	-8.71714
▁구성	-8.71864
▁입장	-8.71945
습	-8.71961
▁레	-8.72007
▁어떤	-8.7212
▁네	-8.72141
합니다	-8.72143
링	-8.72177
I	-8.72228
▁각각	-8.72335
▁있다고	-8.72346
▁먹	-8.72363
▁크게	-8.72529
블	-8.72578
▁현	-8.72617
공사	-8.72659
▁악	-8.72702
덕	-8.72865
▁대비	-8.72919
▁차량	-8.73216
▁베	-8.73506
▁북	-8.73623
▁논의	-8.73639
▁공동	-8.73697
5%	-8.73709
례	-8.7371
▁되는	-8.7376
일까지	-8.73909
쪽	-8.73997
▁처음	-8.74074
찬	-8.74184
▁받은	-8.74287
▁검찰	-8.74295
▁유지	-8.74309
▁판단	-8.74357
겨	-8.74371
그룹	-8.7444
록	-8.74518
▁앞	-8.7475
▁표	-8.75052
▁이미	-8.75121
죠	-8.75482
▁2017	-8.75516
▁2015	-8.75653
새	-8.75762
▁방문	-8.7577
손	-8.7588
▁=	-8.75987
▁개최	-8.76066
▁귀	-8.76153
리는	-8.76306
▁인정	-8.76308
▁들	-8.76338
▁삼성	-8.76351
책	-8.76403
▁설치	-8.76426
▁사이	-8.76429
▁왕	-8.76503
▁정보	-8.7668
▁2016	-8.76806
▁만큼	-8.76841
▁있지만	-8.76881
름	-8.77034
▁수준	-8.77135
▁중앙	-8.77165
▁27	-8.77349
▁공식	-8.77418
▁26	-8.77948
▁평	-8.77998
▁수출	-8.78314
막	-8.78408
▁있	-8.78409
장이	-8.78414
▁광주	-8.78421
▁직	-8.78509
필	-8.78607
했지만	-8.78693
▁상태	-8.78759
▁28	-8.78978
정책	-8.79261
기에	-8.79296
▁도시	-8.79342
▁규모	-8.79351
문화	-8.79484
/	-8.79488
위를	-8.79507
V	-8.79572
▁c	-8.79664
▁때문이다	-8.79762
▁교수	-8.79814
▁실시	-8.79821
하던	-8.79838
▁사망	-8.80389
▁어떻게	-8.8043
W	-8.80499
시설	-8.80611
▁영화	-8.80615
베	-8.80626
▁40	-8.80627
▁설	-8.80646
▁산업	-8.8082
▁예정	-8.80824
▁피해	-8.8091
▁특별	-8.81074
▁복	-8.81248
X	-8.81285
칭	-8.81467
때	-8.81499
▁만나	-8.81502
b	-8.8153
지를	-8.81534
▁현대	-8.81642
▁있는데	-8.81679
▁전문	-8.81722
님	-8.81839
▁병	-8.81915
하겠다	-8.81959
▁등에	-8.81999
찰	-8.82014
▁증	-8.82018
▁예상	-8.82172
능	-8.82173
▁길	-8.82187
▁이동	-8.82256
돌	-8.82276
▁대학	-8.82309
▁부분	-8.82503
▁갈	-8.82865
▁같이	-8.8288
▁문화	-8.83135
취	-8.83198
▁설명	-8.83276
▁개인	-8.83361
▁선정	-8.83406
▁민주당	-8.8341
▁야	-8.83539
▁대선	-8.83557
▁태	-8.83772
▁회장	-8.83861
▁마지막	-8.83905
▁2014	-8.83974
▁분류	-8.84109
▁달리	-8.84169
▁도입	-8.84178
풍	-8.84325
▁가격	-8.84688
볼	-8.8476
▁때문	-8.84767
▁좀	-8.84808
▁항	-8.84922
▁몸	-8.84989
▁팔	-8.85057
▁▶	-8.85066
▁합	-8.85075
▁투	-8.85095
금융	-8.85166
▁서비스	-8.85172
(1	-8.85198
에선	-8.85208
위원장	-8.85268
▁소속	-8.8528
▁평균	-8.85367
▁해결	-8.85425
▁기존	-8.85441
▁현장	-8.85486
▁따른	-8.85555
올	-8.85571
▁것도	-8.85596
▁등장	-8.85782
▁H	-8.85791
▁제작	-8.8641
▁건설	-8.86528
▁등으로	-8.86539
회의	-8.86614
▁선택	-8.86619
▁내년	-8.86705
▁측	-8.86762
황	-8.86852
▁혐의로	-8.86877
쳐	-8.86907
하지만	-8.87048
▁별	-8.87048
사를	-8.87172
▁의미	-8.87181
▁고객	-8.87302
▁관계	-8.87336
▁따	-8.87432
▁상품	-8.87677
11	-8.87776
하거나	-8.87912
인지	-8.87916
▁역사	-8.88032
▁출시	-8.881
▁전투	-8.88635
균	-8.887
▁수도	-8.88708
었	-8.88766
지원	-8.8878
▁곳	-8.88785
▁패	-8.88836
검	-8.88918
세를	-8.88951
▁아니다	-8.89062
▁처리	-8.8918
흥	-8.89366
▁승	-8.89473
성이	-8.89544
▁합의	-8.89589
▁출신	-8.89702
▁모습을	-8.89705
.1	-8.89713
▁상대	-8.89801
▁아직	-8.89833
▁대신	-8.89837
▁상황	-8.89912
력을	-8.89949
▁지적	-8.90057
씩	-8.90072
▁거의	-8.90093
▁29	-8.90179
▁않	-8.90259
▁신청	-8.9035
슬	-8.90388
▁확보	-8.9041
▁제기	-8.9048
▁이야기	-8.9055
▁의혹	-8.90644
ar	-8.90648
▁환	-8.90734
▁대부분	-8.90804
▁하루	-8.90823
애	-8.90868
▁R	-8.90924
▁집중	-8.90986
이지만	-8.91024
▁2013	-8.91225
협	-8.91305
자를	-8.91354
▁지난달	-8.91419
▁디	-8.91516
▁인천	-8.91533
▁참	-8.9157
▁반대	-8.91641
년간	-8.91661
농	-8.91747
▁2012	-8.91903
▁자체	-8.91909
관계	-8.91973
▁낮	-8.91983
분기	-8.92131
▁강조했다	-8.92208
▁대구	-8.92271
라며	-8.92301
▁넘	-8.9236
▁장관	-8.92417
조사	-8.92438
▁기본	-8.92443
한다고	-8.9245
단체	-8.92489
숙	-8.92528
an	-8.92561
▁너무	-8.92594
로부터	-8.92605
▁대상으로	-8.92664
▁경영	-8.92787
▁협력	-8.92864
극	-8.9287
▁이렇게	-8.92921
▁:	-8.92969
▁활용	-8.9298
▁이는	-8.92991
▁N	-8.93005
밀	-8.93068
▁존재	-8.93098
▁과거	-8.93116
▁학생	-8.93142
in	-8.93371
km	-8.93457
윤	-8.93662
▁가능성이	-8.9373
▁경기도	-8.93736
▁또는	-8.93736
▁인해	-8.93776
▁자기	-8.94163
▁되어	-8.94174
▁W	-8.94175
▁않다	-8.94275
▁발견	-8.94293
줄	-8.9434
렌	-8.94363
%)	-8.94625
다는	-8.9485
뉴스	-8.94881
▁대통령이	-8.94945
견	-8.94952
▁앞으로	-8.95117
골	-8.9524
글	-8.95259
▁그런데	-8.95333
▁시즌	-8.95357
▁생활	-8.95393
▁최종	-8.95532
on	-8.95721
삼	-8.95732
▁감소	-8.95741
확	-8.95789
▁거래	-8.95823
▁서울시	-8.95922
▁미래	-8.95957
▁많다	-8.95981
▁밀	-8.96019
▁발전	-8.96195
▁인상	-8.96234
▁제대로	-8.96236
턴	-8.96247
40	-8.96264
▁대통령은	-8.96272
▁비해	-8.96283
▁시리즈	-8.96311
▁계획이다	-8.9632
▁가족	-8.96351
존	-8.96422
침	-8.96529
▁문제가	-8.96577
19	-8.96673
▁주변	-8.96836
▁버	-8.96837
▁포함	-8.96979
진다	-8.96994
▁언급	-8.97095
:	-8.97146
▁...)	-8.97149
있	-8.97188
▁듯	-8.9743
▁대표는	-8.97454
▁행	-8.97509
▁더욱	-8.97756
▁만에	-8.97777
▁가지고	-8.97912
니다	-8.97974
x	-8.98015
▁혐의	-8.98083
▁탄	-8.9818
납	-8.98251
▁않아	-8.98302
▁함	-8.98304
▁31	-8.98398
▁사람이	-8.98512
▁숨	-8.98531
▁신고	-8.98533
▁라	-8.98562
▁일이	-8.98566
혜	-8.98569
본부	-8.98588
옥	-8.98612
병원	-8.98715
기로	-8.98793
▁대응	-8.98832
▁선수	-8.98853
▁됐다	-8.98859
3%	-8.98991
▁구조	-8.99019
움	-8.99062
▁△	-8.99077
명의	-8.99198
▁필요	-8.99234
▁시행	-8.99255
▁기대	-8.99257
되면서	-8.99359
률	-8.99526
▁목	-8.99679
탁	-8.99681
▁관련해	-8.99724
▁같다	-8.99755
12	-8.99826
▁지방	-8.99888
것	-8.99967
▁프로	-8.99993
al	-9.00016
▁환경	-9.00021
8%	-9.00248
▁정도로	-9.00343
사가	-9.00471
▁가지	-9.00721
▁얘기	-9.0074
측	-9.00774
60	-9.00884
▁과정에서	-9.00887
▁절	-9.0094
▁힘	-9.00949
▁휴	-9.00984
하기도	-9.01101
되	-9.01136
했으며	-9.01155
▁처	-9.01232
레이	-9.01306
▁트	-9.01387
페	-9.01504
지고	-9.01507
리고	-9.01584
척	-9.01595
머	-9.01599
▁책임	-9.01626
▁내려	-9.01747
▁식	-9.01766
▁있던	-9.01802
점을	-9.01869
▁일정	-9.01986
압	-9.02039
▁불법	-9.02228
▁하지	-9.02242
째	-9.02328
▁씨	-9.02398
폐	-9.02405
▁취	-9.02673
스터	-9.02703
6%	-9.02749
▁받았다	-9.02853
기가	-9.02891
자의	-9.02907
▁변화	-9.02965
7%	-9.03131
▁정부가	-9.03148
▁어느	-9.032
년에	-9.03374
렸다	-9.03418
▁지급	-9.03432
정보	-9.03434
▁루	-9.03699
▁아파트	-9.03753
▁구속	-9.0381
▁있기	-9.03871
홍	-9.03917
혀	-9.03944
개발	-9.0406
▁효과	-9.04073
▁스킬	-9.04084
15	-9.04105
▁시민	-9.04118
▁하락	-9.04195
▁브랜드	-9.04218
▁전망	-9.04219
값	-9.04283
▁경찰은	-9.04314
▁2011	-9.0434
▁잠	-9.04424
▁먼저	-9.0447
▁시스템	-9.04492
연합뉴스	-9.04508
국민	-9.04553
▁벌	-9.04562
▁뜻	-9.04567
▁조성	-9.04573
먹	-9.04575
▁돈	-9.046
▁모습	-9.04654
▁재판	-9.04679
▁우려	-9.04689
U	-9.04713
▁봉	-9.04751
▁나서	-9.04782
학생	-9.0488
다고	-9.04927
▁질	-9.05015
헌	-9.0512
▁알려졌다	-9.05479
곤	-9.05515
▁없어	-9.05526
▁예산	-9.05831
▁없	-9.05908
한국	-9.05935
▁작품	-9.06011
▁방법	-9.06269
▁풀	-9.06433
객	-9.06455
▁O	-9.06491
▁주민	-9.06513
▁무기	-9.06578
한다는	-9.06673
▁반면	-9.06701
▁행정	-9.06709
9%	-9.06739
1%	-9.06865
하도록	-9.06873
씨가	-9.0692
▁체	-9.06978
▁올라	-9.07012
암	-9.07061
으	-9.07199
으나	-9.07268
▁영상	-9.07315
▁실제로	-9.07341
▁쿠	-9.07432
권을	-9.07493
▁그대로	-9.07507
▁인물	-9.07514
갑	-9.07533
▁이전	-9.07558
▁참가	-9.07591
▁담	-9.07654
육	-9.07758
녀	-9.07768
▁마음	-9.07825
▁철	-9.07856
▁사진	-9.07959
▁둘	-9.07984
▁총리	-9.08096
케	-9.08119
▁검토	-9.08219
▁직원	-9.08234
년부터	-9.08299
▁제도	-9.08451
착	-9.08587
▁기관	-9.08592
▁경남	-9.08795
▁분야	-9.0892
▁아니	-9.08923
▁얻	-9.08974
▁나온다	-9.09063
▁극	-9.09126
안전	-9.09219
클	-9.09367
▁클	-9.09499
있는	-9.09502
▁전했다	-9.09544
▁계약	-9.09575
4%	-9.09583
특	-9.09729
▁조직	-9.09835
했을	-9.09841
기술	-9.09867
협회	-9.09923
스타	-9.09956
▁대한민국	-9.10043
▁고려	-9.10164
지도	-9.10186
했	-9.10253
기는	-9.1026
대학교	-9.10652
▁비판	-9.10738
▁회복	-9.10834
라이	-9.10986
린다	-9.11025
▁글로벌	-9.11025
▁이름	-9.11138
▁이벤트	-9.11141
▁조선	-9.11149
▁탈	-9.11167
▁업체	-9.11206
▁음	-9.11251
다가	-9.11353
▁전달	-9.11411
자로	-9.11557
▁2010	-9.11572
▁요청	-9.11647
▁골	-9.11792
▁접	-9.11805
▁전략	-9.11834
▁위반	-9.12071
맨	-9.12078
▁즉	-9.12078
혼	-9.12082
▁페	-9.12123
▁업무	-9.1217
▁않았	-9.12539
25	-9.12571
카드	-9.12787
▁몇	-9.13001
▁이제	-9.13051
▁대통령의	-9.13086
참	-9.13244
▁후보는	-9.13383
▁갖고	-9.13396
포인트	-9.13412
▁뉴스	-9.13423
걸	-9.13454
▁경쟁	-9.13499
▁건물	-9.1367
리아	-9.1378
▁실제	-9.13789
▁나타났다	-9.13809
▁남성	-9.13918
▁공급	-9.13931
18	-9.13944
▁일자리	-9.14088
▁우리나라	-9.14089
▁핵심	-9.14246
벌	-9.1432
▁들어가	-9.14372
▁위험	-9.14508
▁붙	-9.14543
▁그래서	-9.14559
▁대전	-9.14612
버스	-9.14768
상을	-9.14953
시켜	-9.14957
로서	-9.15011
니까	-9.15088
▁만들	-9.15151
▁정부는	-9.1518
▁가능하다	-9.15225
▁터	-9.15296
▁판	-9.15341
▁글	-9.15376
▁이유	-9.15456
▁넘어	-9.15483
마다	-9.15616
▁지지	-9.15633
f	-9.15658
▁우선	-9.15682
▁인간	-9.15765
▁나가	-9.15784
춘	-9.158
▁내부	-9.15818
▁대해서는	-9.15838
▁누	-9.15855
졌	-9.15881
▁테	-9.15903
▁나오	-9.15998
▁모델	-9.16014
▁투표	-9.16014
촌	-9.16026
이고	-9.16086
en	-9.16088
▁끝	-9.16173
경기	-9.16197
▁논란	-9.16478
▁은행	-9.16509
▁건강	-9.1656
▁암	-9.16638
했으나	-9.16735
▁사랑	-9.16736
▁사실상	-9.16908
▁하다	-9.17025
▁보호	-9.17025
re	-9.17049
▁나라	-9.17093
▁통합	-9.17232
학교	-9.17252
투자	-9.17268
▁사람들	-9.17461
▁세월호	-9.17481
없이	-9.1764
회사	-9.17723
▁프로그램	-9.1783
되면	-9.17835
▁돼	-9.17898
▁제주	-9.17928
▁필	-9.17952
▁이것	-9.18302
▁지속	-9.1837
▁상당히	-9.18404
▁인터넷	-9.18485
▁돌아	-9.18499
▁의해	-9.18818
▁시절	-9.1896
▁가진	-9.18963
▁노력	-9.19027
▁확정	-9.19077
▁검사	-9.19211
▁방식	-9.19214
허	-9.19249
▁I	-9.19315
귀	-9.19378
▁회의	-9.19426
▁곡	-9.19465
▁그냥	-9.19513
▁후보자	-9.19579
치를	-9.19688
팅	-9.19722
선거	-9.19848
접	-9.20085
▁부담	-9.20103
▁필요하다	-9.20138
▁필요한	-9.20181
▁고용	-9.20222
▁재배포	-9.20262
80	-9.2033
들도	-9.20338
▁U	-9.2034
▁영향을	-9.20345
▁롯데	-9.20348
▁크	-9.20476
▁뿐	-9.20501
주는	-9.20529
▁침	-9.2058
▁그것	-9.20617
▁60	-9.20724
▁각종	-9.20754
▁제출	-9.20767
16	-9.20802
▁지정	-9.2082
▁언론	-9.20835
▁자신	-9.20845
▁출연	-9.2085
▁충	-9.2088
▁있게	-9.20899
▁지나	-9.20929
빈	-9.2111
▁격	-9.21219
하는데	-9.21274
▁병원	-9.21391
▁감독	-9.21728
▁내용	-9.21766
금을	-9.2191
▁◆	-9.21915
월부터	-9.22002
했다는	-9.22044
▁나오는	-9.22135
▁운	-9.22139
겠	-9.22154
▁정신	-9.22212
le	-9.22264
70	-9.22301
▁위치	-9.22333
▁중소기업	-9.22359
대표	-9.22393
힌	-9.22527
느	-9.22581
▁헤	-9.22596
▁인근	-9.22606
500	-9.22627
▁승리	-9.22701
▁자신이	-9.22853
▁SK	-9.22868
운동	-9.22899
▁능력	-9.22905
봤	-9.2299
랜드	-9.23041
▁수입	-9.23079
▁문서	-9.23128
▁찍	-9.23166
▁담당	-9.23271
▁향	-9.23312
완	-9.23317
▁망	-9.23439
▁독일	-9.23456
▁프	-9.23481
▁노동	-9.23554
력이	-9.23569
▁제시	-9.23623
▁나온	-9.23629
ing	-9.23816
▁대출	-9.2382
▁청년	-9.23862
▁~	-9.23904
몬	-9.23958
▁왜	-9.24072
듯	-9.24143
▁여야	-9.2419
▁달러	-9.24206
증권	-9.24215
▁민간	-9.24274
▁LG	-9.24324
공원	-9.24448
▁정부의	-9.24471
수를	-9.24492
았	-9.24521
있다	-9.24549
▁보내	-9.24635
▁자동차	-9.24655
대회	-9.24792
ic	-9.24841
▁소환	-9.24843
하라	-9.24878
▁주택	-9.24938
잡	-9.24976
련	-9.2498
▁경험	-9.25031
▁의사	-9.25136
▁상대로	-9.25229
▁속도	-9.25334
▁경우가	-9.25354
▁알고	-9.25425
▁풍	-9.25469
▁구매	-9.25523
▁높	-9.25553
▁변경	-9.25622
이자	-9.25648
▁유럽	-9.25648
▁배우	-9.25692
▁오히려	-9.2572
돈	-9.25795
지방	-9.25798
갔다	-9.25869
▁제한	-9.25878
▁달라	-9.25989
서를	-9.26131
▁이해	-9.26181
▁역할을	-9.26198
▁없었다	-9.263
▁사례	-9.26316
▁설립	-9.26348
▁사장	-9.26398
▁가입	-9.26439
치는	-9.26664
▁특수	-9.2669
보험	-9.26706
▁밤	-9.26817
킨	-9.26828
▁낙	-9.26879
▁한다는	-9.26898
▁◇	-9.26977
▁하면	-9.26977
보다는	-9.27098
킹	-9.2711
2%	-9.27231
▁중인	-9.27254
▁발언	-9.27289
▁현실	-9.27299
▁잔	-9.27326
▁영국	-9.27367
▁몰	-9.2744
▁만든	-9.27447
▁엄	-9.27542
▁반영	-9.27687
▁전쟁	-9.27702
▁빈	-9.27739
폰	-9.27779
▁많	-9.27791
13	-9.27792
▁시대	-9.27877
▁마법	-9.27929
▁두고	-9.27968
▁중단	-9.27977
▁육	-9.28047
위원	-9.28078
대를	-9.28102
(2	-9.28254
▁이들	-9.28277
▁원내대표	-9.28284
응	-9.28294
▁본인	-9.2831
릭	-9.28324
▁정상	-9.28357
슨	-9.28496
▁자유	-9.28545
▁구축	-9.28595
▁아버지	-9.28607
▁공무원	-9.28607
▁되고	-9.28635
▁분위기	-9.28716
▁받는	-9.28761
기간	-9.28782
▁주인공	-9.28889
▁않을	-9.28943
▁위기	-9.29049
였던	-9.29104
▁전환	-9.29253
▁진출	-9.29293
▁해야	-9.29366
▁변호사	-9.29374
감을	-9.29668
▁소득	-9.29759
▁동시에	-9.29774
이란	-9.29798
▁원인	-9.29821
화를	-9.29852
거래	-9.29905
▁서로	-9.29931
▁혁신	-9.29968
수가	-9.30058
었고	-9.30107
▁매출	-9.30202
재단	-9.30304
▁남북	-9.3031
▁재정	-9.30333
▁받을	-9.30433
징	-9.30473
우리	-9.30476
▁중심으로	-9.3051
▁관한	-9.30616
▁못한	-9.30837
▁책	-9.30846
누	-9.31096
장에서	-9.31163
됐습니다	-9.31189
▁width	-9.31213
왔다	-9.31219
▁2009	-9.31254
▁높이	-9.31281
▁일단	-9.3133
▁연결	-9.31458
사의	-9.31552
▁조금	-9.31556
▁보도	-9.31592
왔	-9.31719
▁그렇게	-9.31724
▁더불어민주당	-9.31833
▁대형	-9.32006
연구원	-9.32063
▁외국인	-9.32079
▁제안	-9.32081
틀	-9.32143
▁기념	-9.32154
룡	-9.32207
▁표현	-9.32263
▁겪	-9.32302
▁주장했다	-9.32334
▁딸	-9.32341
궁	-9.32354
도록	-9.32429
▁온라인	-9.32812
it	-9.32924
혁	-9.33198
▁전기	-9.3324
▁피해자	-9.3327
셔	-9.33283
▁시기	-9.33355
▁정말	-9.3336
▁V	-9.33369
평가	-9.33417
▁이들은	-9.33455
▁버스	-9.33558
▁비용	-9.33567
▁그러	-9.33587
되며	-9.33631
▁설정	-9.33658
▁혼	-9.33685
▁그의	-9.33691
▁규정	-9.33724
▁슬	-9.33812
슈	-9.33973
▁의료	-9.34009
생활	-9.34301
is	-9.34307
번째	-9.34307
▁울산	-9.34648
▁말을	-9.34657
스의	-9.34774
▁검	-9.34819
십	-9.34941
▁히	-9.34971
식을	-9.34982
▁감사	-9.35003
▁삼성전자	-9.35034
▁부족	-9.35048
렇	-9.35048
▁석	-9.35145
▁중요한	-9.35156
▁주로	-9.35217
▁종합	-9.3524
휴	-9.35254
명으로	-9.353
소득	-9.35378
혹	-9.35396
▁에너지	-9.35459
▁규제	-9.35545
▁이유로	-9.35565
▁시설	-9.35635
▁형	-9.35651
▁퇴	-9.35706
▁있었	-9.35731
▁문제를	-9.35743
▁덧붙였다	-9.35822
▁정당	-9.35856
▁퍼	-9.35867
사는	-9.35967
▁밝혔습니다	-9.35997
▁후보가	-9.36004
▁거쳐	-9.36007
▁안정	-9.36066
득	-9.36225
▁이러한	-9.36285
▁취업	-9.36291
쟁	-9.36367
탑	-9.36426
▁떠	-9.3645
스를	-9.36469
▁늘	-9.36498
서비스	-9.36519
▁머리	-9.36537
▁통과	-9.36564
▁방안	-9.36575
▁이하	-9.36581
▁중심	-9.36646
▁숙	-9.3675
▁번째	-9.36805
▁연속	-9.3695
리를	-9.3701
▁라이	-9.37049
리스	-9.37051
▁회원	-9.37077
▁나왔다	-9.37077
▁좋다	-9.37082
▁지적했다	-9.37212
효	-9.37217
스크	-9.37242
▁수요	-9.37259
▁해도	-9.37294
w	-9.37313
&	-9.37383
▁희망	-9.37522
▁소비자	-9.37576
씨를	-9.3767
학년	-9.37673
▁홍보	-9.37748
▁맛	-9.37759
▁2008	-9.37798
▁측은	-9.3783
섭	-9.37868
▁상위	-9.37911
▁복지	-9.37913
스가	-9.37938
환경	-9.37943
J	-9.37945
▁괴	-9.38144
▁높아	-9.38188
th	-9.38235
렸	-9.38248
▁앞에서	-9.38259
▁캐	-9.38295
학과	-9.38347
▁대화	-9.3852
▁`	-9.38547
▁TV	-9.38589
▁상황에서	-9.38598
▁공사	-9.38641
▁보수	-9.38674
14	-9.38683
▁홈페이지	-9.38695
▁야당	-9.38703
▁혐의를	-9.38721
▁쓸	-9.38813
▁사태	-9.38848
▁주식	-9.38919
▁기사	-9.38933
랜	-9.38961
▁소개	-9.38989
▁깨	-9.39018
▁전혀	-9.39094
▁채용	-9.39096
▁행동	-9.3914
라면	-9.39205
▁칼	-9.39231
▁검찰은	-9.3924
▁200	-9.3927
▁2000	-9.39309
최	-9.39375
200	-9.394
▁법원	-9.39434
▁위원장	-9.39436
▁무단전재	-9.39478
▁무단	-9.39481
건설	-9.39486
몰	-9.39544
www	-9.39654
년대	-9.39676
했는데	-9.3983
대학	-9.39852
▁부동산	-9.39877
답	-9.39906
▁있어서	-9.40005
▁인기	-9.40013
▁도로	-9.40216
▁플레이	-9.40257
▁등록	-9.40436
▁그녀	-9.40459
▁활성화	-9.40551
자금	-9.40619
▁원래	-9.40738
▁울	-9.40751
▁범죄	-9.40853
됩니다	-9.40869
▁앞두고	-9.40889
▁레벨	-9.40906
▁아들	-9.40942
▁J	-9.40956
▁가치	-9.41014
▁조정	-9.41124
▁선고	-9.41183
▁답	-9.41192
▁가능한	-9.41244
▁쪽	-9.41281
▁묻	-9.41354
▁여전히	-9.41376
▁파악	-9.41414
으로서	-9.41419
▁총선	-9.41421
알	-9.41548
계획	-9.4158
17	-9.41582
48	-9.41607
▁맡	-9.41671
▁이와	-9.41808
Y	-9.41991
염	-9.42004
겠습니다	-9.42075
개의	-9.42151
물을	-9.42229
▁맞아	-9.4238
at	-9.42568
▁프랑스	-9.42574
전을	-9.42623
▁못하고	-9.42678
▁근무	-9.42837
쳤다	-9.42843
▁국회의원	-9.42952
▁상황이	-9.42997
낼	-9.43003
▁여의도	-9.43012
▁아래	-9.43019
▁의원이	-9.4305
▁장기	-9.43118
주택	-9.43133
으니	-9.43161
▁협상	-9.4329
으로부터	-9.43316
▁평화	-9.43395
낸	-9.43484
▁그동안	-9.43608
▁작	-9.43614
▁참석	-9.4365
(3	-9.4366
▁보였다	-9.4368
100	-9.43728
z	-9.43887
▁자주	-9.43926
▁잃	-9.44007
▁남자	-9.44036
▁기준으로	-9.44061
▁브	-9.44071
▁입장을	-9.44079
코리아	-9.44131
끼	-9.44155
▁목표	-9.44197
▁레이	-9.44229
▁유통	-9.44336
▁안철수	-9.4434
원을	-9.44361
▁좋아	-9.44393
▁개혁	-9.44476
▁강조	-9.44705
▁거리	-9.44753
▁영업	-9.44885
▁씨는	-9.44907
mm	-9.44921
▁디자인	-9.45037
년까지	-9.45125
갔	-9.45151
▁좋	-9.45176
혈	-9.45202
▁교통	-9.4537
▁보는	-9.45371
▁작년	-9.45463
닉	-9.4556
▁점을	-9.45648
▁폐	-9.45667
싱	-9.45668
과의	-9.45671
▁대책	-9.45781
중앙	-9.45853
컨	-9.45899
▁사실을	-9.46205
▁스스로	-9.46269
▁인식	-9.46333
퇴	-9.46341
▁스타	-9.46385
났	-9.46399
▁것이라고	-9.4645
▁결혼	-9.4645
세대	-9.46545
▁견	-9.4655
▁행위	-9.46557
▁운동	-9.46607
▁판결	-9.46642
나가	-9.46656
▁어려운	-9.46715
▁징역	-9.46739
▁못했다	-9.46772
▁단체	-9.46987
▁자금	-9.47001
▁준	-9.47336
▁해서	-9.4737
▁티	-9.47436
칠	-9.47556
조원	-9.47559
대책	-9.4757
▁열고	-9.4759
▁화재	-9.47645
▁2018	-9.47737
▁돈을	-9.47914
0	-9.47961
▁내용을	-9.47964
▁실패	-9.48041
▁놓	-9.48126
라도	-9.48198
간다	-9.48218
▁섬	-9.48369
제를	-9.48376
24	-9.48386
제도	-9.48388
▁신규	-9.48453
000	-9.48493
원이	-9.48562
▁살아	-9.48595
▁꿈	-9.48602
23	-9.48605
정치	-9.48607
서는	-9.48745
종합	-9.48773
00	-9.48987
▁너	-9.49007
럼	-9.49221
▁사전	-9.4941
대한	-9.49417
▁기능	-9.49434
어서	-9.49464
별로	-9.49482
▁축	-9.49539
▁노선	-9.49592
▁적이	-9.49616
▁시도	-9.49652
씨의	-9.49758
▁70	-9.49841
구조	-9.49884
▁할인	-9.49905
스는	-9.49944
▁전날	-9.49994
렉	-9.50107
비를	-9.50212
시키는	-9.50231
▁대회	-9.50264
죄	-9.50294
▁여자	-9.50386
▁전남	-9.5049
▁믿	-9.50505
▁투입	-9.50683
단계	-9.5073
TV	-9.50835
쓰	-9.50858
▁겸	-9.50861
▁소식	-9.50882
▁가정	-9.50886
st	-9.50895
▁밝혀	-9.50923
▁존	-9.50976
▁공공	-9.50994
▁힘을	-9.51003
▁러시아	-9.51104
▁환자	-9.51302
수사	-9.51338
▁뭐	-9.51428
▁바람	-9.51441
▁압	-9.51533
▁소비	-9.51543
개혁	-9.51545
▁하는데	-9.51573
▁창업	-9.51574
▁인구	-9.51584
▁조치	-9.51659
▁거부	-9.51674
났다	-9.51695
▁점검	-9.517
▁전용	-9.51723
받	-9.51776
문을	-9.51795
▁여부	-9.51819
▁사회적	-9.51841
▁부인	-9.51879
▁보통	-9.51969
▁한번	-9.52025
와의	-9.52027
▁선언	-9.52036
22	-9.52061
공항	-9.52127
▁사람들이	-9.52173
▁비슷한	-9.52205
ro	-9.52218
▁사과	-9.52264
▁높다	-9.52267
▁약속	-9.52307
▁자유한국당	-9.52313
▁특정	-9.52331
시키	-9.52364
▁블	-9.52455
▁조건	-9.52456
▁얼굴	-9.52526
▁때는	-9.52587
ed	-9.52667
▁체결	-9.52746
었습니다	-9.52794
▁개정	-9.52818
▁낮은	-9.5289
▁음식	-9.52907
▁전화	-9.52924
com	-9.52945
▁관광	-9.53017
먼	-9.53033
명은	-9.53039
▁초반	-9.53049
자리	-9.53051
▁음악	-9.53088
리가	-9.5313
받은	-9.53215
도로	-9.5327
▁장면	-9.53308
▁가져	-9.53414
나라	-9.53429
▁통한	-9.53465
▁범	-9.53496
▁수상	-9.53678
만큼	-9.53695
▁알려	-9.53724
자들이	-9.53812
차례	-9.53864
▁문제는	-9.53903
억원을	-9.53988
▁금리	-9.54016
▁되면	-9.54034
▁싸	-9.54042
▁졸업	-9.54171
▁쉽게	-9.54216
▁작업	-9.54265
ch	-9.54268
▁솔	-9.54351
베이	-9.54363
▁선물	-9.54373
▁핵	-9.54383
▁넣	-9.54496
▁좌	-9.54519
▁보여	-9.54545
▁나와	-9.54564
▁시험	-9.54578
쉬	-9.54633
▁비롯한	-9.54644
람	-9.54669
21	-9.5475
▁친구	-9.54769
맹	-9.548
▁국정	-9.54815
▁과정	-9.54825
널	-9.54984
▁배치	-9.54985
업계	-9.55009
▁항목	-9.55088
▁따라서	-9.55104
발전	-9.55117
전자	-9.55144
▁나머지	-9.55145
치고	-9.55169
▁500	-9.55202
▁연기	-9.55271
▁전력	-9.55296
▁마을	-9.55322
▁말씀	-9.55324
▁소리	-9.55525
▁어렵다	-9.55575
킬	-9.5562
만원을	-9.55648
위는	-9.55648
▁출마	-9.55683
▁언	-9.55686
세계	-9.55712
▁공간	-9.55724
▁노래	-9.55752
▁중이다	-9.5576
75	-9.5579
▁국민의당	-9.55888
▁차례	-9.55904
▁올리	-9.55928
▁알아	-9.55969
도시	-9.56005
▁선발	-9.5607
▁이상의	-9.56075
▁당선	-9.56092
▁향후	-9.56103
▁모양	-9.56126
쯤	-9.56241
▁단계	-9.56241
지가	-9.56256
▁놓고	-9.56289
▁그룹	-9.56356
▁KBS	-9.56609
텔	-9.56625
멸	-9.56676
협력	-9.56695
연구소	-9.56714
▁국정원	-9.56805
▁술	-9.56892
▁차지	-9.56897
념	-9.56916
공단	-9.57023
원으로	-9.57047
▁처벌	-9.5711
▁비율	-9.57207
▁위해서	-9.57232
톤	-9.57266
하겠다는	-9.57268
검사	-9.57324
▁모르	-9.57343
▁광고	-9.57389
▁웃	-9.57424
▁피해를	-9.57438
탕	-9.57614
▁전년	-9.57617
▁운행	-9.57652
밖에	-9.57671
▁응	-9.57746
▁방향	-9.57803
▁여행	-9.57822
달러	-9.57878
▁1000	-9.57901
▁항공	-9.57929
롤	-9.57956
es	-9.57975
▁적극	-9.58025
엘	-9.58121
(19	-9.58145
us	-9.58193
▁인수	-9.58202
▁열어	-9.58208
▁영어	-9.58227
▁없고	-9.58314
▁방안을	-9.58323
▁대법원	-9.58368
▁시간이	-9.58372
복지	-9.5838
▁자연	-9.5839
▁소재	-9.58406
▁방어	-9.58459
▁한다고	-9.58483
▁공연	-9.58521
▁협의	-9.58529
▁밖에	-9.58565
딩	-9.58585
▁플	-9.58618
▁소송	-9.58626
▁학생들	-9.58643
행위	-9.58709
▁법률	-9.58762
▁대표가	-9.58797
▁써	-9.58801
▁공격력	-9.58888
▁청구	-9.58954
▁초기	-9.58974
좌	-9.59004
▁팬	-9.59035
방송	-9.59066
▁완	-9.59108
빙	-9.59327
▁아이템	-9.59328
▁보장	-9.59341
였	-9.59352
▁대기업	-9.59376
장관	-9.59392
▁대사	-9.59508
이번	-9.59534
사와	-9.59539
안을	-9.5959
▁많아	-9.59662
▁근	-9.59772
바이	-9.5978
▁경북	-9.59796
▁의견	-9.59908
▁국회에서	-9.5997
일보	-9.59971
사고	-9.59979
▁수행	-9.60045
▁기억	-9.60103
이기	-9.60118
▁처음으로	-9.60135
▁땅	-9.60188
kr	-9.60199
▁지시	-9.6021
▁주목	-9.60304
▁것이라는	-9.60415
성과	-9.60417
▁300	-9.60501
▁체험	-9.60647
▁성격	-9.60664
▁유명	-9.60692
▁구간	-9.60764
사진	-9.60777
▁내놓	-9.60883
▁체력	-9.60939
▁빌	-9.61084
▁확산	-9.61084
▁빼	-9.61115
▁나이	-9.61248
▁데미지	-9.61251
▁마무리	-9.61256
▁갈등	-9.6128
▁되지	-9.6133
라인	-9.61335
▁독립	-9.61367
▁강원	-9.61374
이었던	-9.61389
▁기초	-9.61391
조차	-9.61394
▁현지	-9.61428
▁소방	-9.61507
성장	-9.61538
▁전문가	-9.61548
활동	-9.61583
▁일을	-9.61588
▁2007	-9.6162
▁촉구	-9.61665
▁갖	-9.61719
▁전자	-9.61727
▁전부	-9.61731
▁임명	-9.61843
▁발생한	-9.61879
▁달성	-9.619
겠다는	-9.61948
과정	-9.62068
▁의견을	-9.62131
통신	-9.62134
텍	-9.62197
▁보여주	-9.62275
벽	-9.62279
▁보험	-9.62318
▁이용해	-9.62417
세가	-9.6242
▁수익	-9.62422
▁불안	-9.62502
▁오른	-9.62518
▁자료	-9.62536
홀	-9.62599
▁논란이	-9.62612
전문	-9.62616
량이	-9.62672
am	-9.62695
▁옥	-9.6272
▁합니다	-9.62773
선을	-9.62799
▁총장	-9.62907
젠	-9.62919
▁시청	-9.62922
▁주는	-9.62926
▁치료	-9.63035
주년	-9.63115
▁실적	-9.63117
▁사상	-9.63126
하겠다고	-9.63234
국제	-9.63272
▁비상	-9.63272
▁차단	-9.63379
께	-9.63391
▁받았	-9.63425
▁성우	-9.63481
엄	-9.63506
콘	-9.63518
▁경찰에	-9.63721
대가	-9.63747
▁아시아	-9.6375
▁늦	-9.63764
47	-9.63775
46	-9.63775
뿐	-9.63817
▁형사	-9.63818
▁신뢰	-9.64081
이기도	-9.64089
▁의무	-9.64126
원의	-9.64146
▁꽤	-9.64301
▁하며	-9.64317
▁완전히	-9.64326
26	-9.64337
욕	-9.64364
되기	-9.64431
90	-9.64502
▁보이는	-9.64505
▁없다는	-9.64523
▁X	-9.64532
욱	-9.64594
▁수도권	-9.64679
▁주도	-9.64705
▁상당	-9.64723
▁오르	-9.64906
▁강제	-9.6498
▁전시	-9.64986
▁기획	-9.65035
▁기소	-9.65124
▁작성	-9.65207
하나	-9.65387
더라도	-9.65428
포토	-9.65454
▁슈퍼	-9.65517
▁중구	-9.6556
▁분양	-9.65702
▁발매	-9.65703
49	-9.6579
▁끼	-9.65812
▁것과	-9.65823
▁중요	-9.65839
▁놀	-9.65851
겠지만	-9.65856
▁어디	-9.65856
▁기록했다	-9.6588
▁전에	-9.65884
▁삶	-9.65902
보고	-9.65938
▁예방	-9.65951
▁발사	-9.66055
▁SNS	-9.66056
35	-9.66086
▁the	-9.66092
큐	-9.66174
▁장비	-9.66203
프라	-9.66314
▁증거	-9.66333
빨	-9.66335
트로	-9.66378
타임	-9.66398
본부장	-9.664
▁확	-9.66412
▁연장	-9.66421
민주	-9.66451
▁특검	-9.66469
섰	-9.66524
28	-9.66595
▁수밖에	-9.66636
▁재산	-9.66675
▁추천	-9.66711
▁전재	-9.66731
▁수석	-9.66735
▁끊	-9.66806
하다는	-9.66937
▁작은	-9.66949
▁이미지	-9.67018
구역	-9.67049
쇄	-9.67059
자와	-9.67077
윈	-9.67088
능력	-9.67089
600	-9.67109
▁나타나	-9.6715
▁만드는	-9.67201
et	-9.67223
▁인한	-9.67224
▁유리	-9.6724
▁통화	-9.6733
앙	-9.67368
▁말이	-9.67427
▁외교	-9.67441
▁이때	-9.67494
대상	-9.67532
(4	-9.67572
원은	-9.67609
읍	-9.67629
연구	-9.67653
따	-9.67685
받는	-9.6772
마을	-9.67742
▁있었던	-9.67778
▁가는	-9.67832
▁반발	-9.67836
▁전반	-9.67842
노동	-9.67931
▁업계	-9.67958
▁현상	-9.68129
▁탐	-9.68132
▁것에	-9.68166
행사	-9.68212
▁콜	-9.6826
▁미국의	-9.68293
▁스마트폰	-9.68323
▁우승	-9.68338
▁파괴	-9.68403
지면서	-9.6841
29	-9.68457
▁직후	-9.68466
▁훈련	-9.68557
려고	-9.68571
들에	-9.68576
▁아예	-9.68601
▁범위	-9.68636
▁잘못	-9.68644
▁어린이	-9.68647
롱	-9.68669
▁여기	-9.68705
▁이같이	-9.68761
88	-9.68878
▁블랙	-9.6895
▁지하	-9.68953
▁몬스터	-9.68969
▁긴급	-9.68977
56	-9.69017
교육청	-9.69045
800	-9.69116
27	-9.69235
사건	-9.69246
▁비롯해	-9.69326
닐	-9.69382
▁보이	-9.69409
기준	-9.69432
▁모바일	-9.69443
니아	-9.69519
▁쌓	-9.6952
임을	-9.69551
▁형태	-9.69624
맞	-9.69643
▁반드시	-9.69681
냈	-9.69829
닝	-9.69859
▁했지만	-9.69868
▁어머니	-9.69869
▁매장	-9.69908
▁출석	-9.69908
(5	-9.69911
▁정권	-9.69996
▁방침이다	-9.70019
▁게다가	-9.70136
▁이재	-9.70141
융	-9.70191
풀	-9.70275
동안	-9.70283
▁이달	-9.70295
▁이루어	-9.70338
▁가능성	-9.70374
▁뉴	-9.70391
▁절대	-9.70406
렬	-9.7046
▁참고로	-9.70465
59	-9.70521
하려	-9.70627
프레	-9.70659
▁굉장히	-9.70674
64	-9.70715
상품	-9.70745
시는	-9.70841
▁성능	-9.70847
co	-9.70854
▁생명	-9.70885
▁폭발	-9.70901
부는	-9.70949
ol	-9.70992
▁불구하고	-9.71087
겼다	-9.71101
▁갑	-9.71121
자들	-9.71137
럭	-9.71322
▁교수는	-9.71422
지지	-9.71441
웅	-9.71482
▁엘	-9.71504
▁강한	-9.71506
보면	-9.71594
캐	-9.716
▁부상	-9.71633
시스템	-9.71652
부장	-9.71657
▁철도	-9.71689
▁진술	-9.71719
연합	-9.71745
▁들고	-9.71756
▁노조	-9.71798
▁넓	-9.71839
▁타고	-9.71891
▁지키	-9.72086
▁공약	-9.72103
▁휘	-9.72213
09	-9.72234
▁/	-9.72248
▁같	-9.72263
리그	-9.72339
장에	-9.72359
회장	-9.7239
기구	-9.7245
▁출발	-9.72542
▁이번에	-9.72567
▁고민	-9.72583
▁김영	-9.72611
▁사퇴	-9.72682
▁바이	-9.72745
▁주민들	-9.72804
▁이름을	-9.72834
틴	-9.72837
ri	-9.72838
85	-9.72854
▁공정	-9.72897
▁후반	-9.72897
▁불러	-9.72912
스와	-9.72951
▁접근	-9.72961
▁근거	-9.72999
▁수원	-9.73073
얼	-9.73118
냈다	-9.73125
▁유닛	-9.73141
▁자체가	-9.73143
장으로	-9.73148
▁국립	-9.73254
시민	-9.7326
▁부문	-9.73368
▁80	-9.73394
문제	-9.73398
ra	-9.73441
둥	-9.73442
으로는	-9.73451
위에	-9.73457
의원	-9.73458
▁업	-9.73462
▁까	-9.73488
43	-9.735
▁폐지	-9.73505
45	-9.73542
▁순간	-9.73596
▁받	-9.73618
▁탄핵	-9.73701
▁짓	-9.73704
법인	-9.7371
▁염	-9.73781
겐	-9.73801
▁프로젝트	-9.73808
)'	-9.73829
트리	-9.73867
▁빚	-9.7389
▁4.	-9.73925
▁옆	-9.73947
식품	-9.73972
개를	-9.73973
41	-9.73981
▁주문	-9.74014
▁교체	-9.74051
실장	-9.74063
▁여기에	-9.74094
맥	-9.74113
▁여름	-9.74126
▁보상	-9.74159
▁충격	-9.74163
▁전북	-9.74252
▁끝나	-9.74298
▁아무	-9.74329
▁사람은	-9.74341
▁주의	-9.74379
▁혹은	-9.74411
▁특성	-9.74486
▁강력한	-9.74488
되었고	-9.74579
▁죄	-9.74608
▁최소	-9.74614
만명	-9.74615
▁크다	-9.74625
어야	-9.74664
▁사실이	-9.74667
▁전통	-9.74678
▁행복	-9.74722
꾼	-9.74779
▁외부	-9.74862
드라	-9.74924
▁아주	-9.74995
▁정리	-9.75036
젤	-9.75074
▁인권	-9.75093
▁반응	-9.75112
로운	-9.75164
없는	-9.7517
▁뽑	-9.75176
▁않으면	-9.75237
▁자리	-9.75269
월까지	-9.75273
▁무료	-9.75311
▁궁	-9.75334
▁대체	-9.75375
드리	-9.75448
▁그림	-9.75475
연금	-9.7552
▁내리	-9.75523
▁읽	-9.75539
▁그러면서	-9.75562
▁지구	-9.75573
▁덕	-9.75584
▁워	-9.75587
▁하이	-9.7569
▁청소년	-9.75737
▁부정	-9.75777
▁결과를	-9.7578
▁작가	-9.75901
▁성적	-9.75906
▁근로자	-9.7596
ur	-9.75962
▁플레이어	-9.76015
▁일대	-9.76032
▁임금	-9.76034
국가	-9.76051
물질	-9.76149
점이	-9.76153
다면	-9.76171
센	-9.76234
▁개편	-9.76252
32	-9.76276
콜	-9.76284
▁부회장	-9.76292
▁of	-9.76298
트를	-9.76358
▁걱정	-9.76363
▁이유는	-9.76364
▁밝히	-9.76412
에게는	-9.76416
▁역할	-9.76428
▁군사	-9.76444
▁중간	-9.76449
▁넘는	-9.76478
몽	-9.76491
▁적발	-9.76497
▁엔	-9.76534
▁가구	-9.76585
▁훨씬	-9.76596
IC	-9.76625
57	-9.76683
찌	-9.76814
군의	-9.76839
▁지금까지	-9.76912
게임	-9.76944
▁우수	-9.77086
▁출범	-9.77089
벨	-9.77128
▁촬영	-9.7713
▁슈	-9.77146
▁인터뷰	-9.77177
▁의심	-9.77194
▁필요가	-9.77198
▁왔다	-9.77217
▁홈	-9.77298
광장	-9.77301
찾	-9.77302
르는	-9.77303
등급	-9.77313
▁회장은	-9.77323
▁아마	-9.77324
년에는	-9.77393
▁녹	-9.77399
08	-9.7743
같은	-9.77433
팔	-9.77501
▁빛	-9.77505
럴	-9.77524
▁차이	-9.77565
소를	-9.77569
지로	-9.77587
쇼	-9.77652
▁절반	-9.77656
밴	-9.77693
▁인도	-9.77713
우스	-9.7778
뜨	-9.77972
범죄	-9.77985
▁참고	-9.77988
정을	-9.78245
겠다고	-9.78291
▁상황을	-9.78344
회의에서	-9.78368
▁배경	-9.78417
졸	-9.78506
▁언제	-9.78522
됐	-9.78613
장과	-9.78652
▁꾸	-9.7868
▁케이	-9.78749
▁사용하는	-9.78789
▁걸쳐	-9.78809
▁스토리	-9.78827
01	-9.78867
컬	-9.78923
▁자녀	-9.78967
▁취임	-9.78976
58	-9.78978
가지	-9.78988
▁자동	-9.79043
and	-9.79069
▁욕	-9.79079
▁연계	-9.79099
▁없다고	-9.79112
놓고	-9.79115
▁나누	-9.79137
주기	-9.79228
▁관계자	-9.7927
하려는	-9.79286
▁떨어진	-9.79289
un	-9.79291
경영	-9.79314
여명	-9.79323
▁35	-9.79342
▁그래도	-9.79348
관광	-9.79353
▁포함한	-9.79406
▁시작했다	-9.79419
▁해석	-9.79488
▁구입	-9.79515
+	-9.79534
었던	-9.79569
53	-9.79663
▁범행	-9.79699
대통령	-9.79734
▁안에	-9.7981
▁강남	-9.79819
▁냉	-9.79885
▁보니	-9.79916
▁매년	-9.79967
▁헌	-9.79996
▁정보를	-9.8002
닥	-9.8005
▁조사를	-9.80139
▁사기	-9.80165
▁쓰는	-9.8024
보호	-9.80325
▁한반도	-9.80351
▁불과	-9.80366
▁흑	-9.80367
▁메이	-9.80393
드는	-9.80407
첩	-9.80456
▁5.	-9.80475
▁접수	-9.80631
▁없을	-9.80642
▁교사	-9.80649
▁이사장	-9.80649
롭	-9.80691
▁늘어나	-9.80715
▁긴	-9.80725
▁직업	-9.80757
▁바뀌	-9.8079
▁영향	-9.8084
빠	-9.80855
▁당국	-9.8089
리스트	-9.80892
▁듣	-9.80896
▁등은	-9.80943
솔	-9.80958
▁목적	-9.80991
시아	-9.81036
▁위치한	-9.81059
▁보이고	-9.81109
▁맞는	-9.81129
었는데	-9.81182
as	-9.81285
번호	-9.81308
▁끌어	-9.81349
▁논	-9.8135
오는	-9.81419
당한	-9.81574
▁설계	-9.81583
▁심지어	-9.81585
▁자격	-9.81587
위기	-9.81629
국회	-9.8164
▁꼭	-9.81661
브리핑	-9.81665
▁없었	-9.81705
법을	-9.81819
▁잇	-9.8186
짝	-9.81877
99	-9.81878
▁기회	-9.8189
▁축구	-9.81918
▁민주	-9.81978
국장	-9.82104
▁기부	-9.82119
▁리그	-9.82126
략	-9.82161
▁못하는	-9.82188
》	-9.82188
되었	-9.82194
▁법안	-9.82196
▁버전	-9.82217
▁장관은	-9.82227
▁바꾸	-9.82271
페이	-9.82296
▁아침	-9.82378
▁꽃	-9.82387
▁사용할	-9.82402
▁국민의	-9.82416
▁딜	-9.82422
▁나오고	-9.82432
▁충남	-9.82441
활	-9.82453
02	-9.82494
▁도전	-9.8252
▁직원들	-9.82569
▁관심을	-9.82633
54	-9.82685
밥	-9.82687
▁개정안	-9.82691
한테	-9.82706
픽	-9.82715
▁낸	-9.82767
계약	-9.82895
했기	-9.82967
▁맥	-9.82967
▁드라마	-9.82981
촉	-9.82988
▁마리	-9.83029
▁누구	-9.83043
▁활동을	-9.83048
수록	-9.83078
▁위협	-9.83097
회담	-9.83107
▁이뤄	-9.83119
함을	-9.83133
엇	-9.83153
▁전망이다	-9.83154
▁제외한	-9.83175
▁공유	-9.83211
▁최고위원	-9.83222
▁관심이	-9.8326
논	-9.83286
협의회	-9.83338
▁도착	-9.8334
▁포기	-9.83362
▁겨울	-9.83423
시티	-9.83458
84	-9.83594
분께	-9.83598
▁원칙	-9.83615
▁오래	-9.83641
▁방침	-9.83655
▁한정	-9.83683
릿	-9.83705
▁해소	-9.83706
▁힘들	-9.83732
▁임시	-9.83738
▁기반	-9.83767
ad	-9.83769
▁후에	-9.83777
▁세금	-9.83831
▁법정	-9.83843
잉	-9.83936
▁심사	-9.8394
▁무역	-9.8399
장의	-9.83996
▁창출	-9.84009
▁신경	-9.84087
▁샤	-9.84112
묘	-9.84158
▁맞춰	-9.84221
▁있지	-9.84243
66	-9.84257
둔	-9.84281
호선	-9.84282
▁보스	-9.84322
조선	-9.84326
▁종로구	-9.84338
▁시점	-9.8434
▁참석한	-9.84356
▁표시	-9.84358
▁명예	-9.84391
▁전면	-9.84419
마리	-9.84461
el	-9.84535
▁정치적	-9.84536
▁장소	-9.84569
▁효율	-9.84573
▁집단	-9.84609
심을	-9.8464
▁역대	-9.84672
느냐	-9.84683
▁전해졌다	-9.84693
▁아동	-9.84741
▁했	-9.84876
▁소유	-9.84946
cm	-9.84948
전에서	-9.84951
▁기자가	-9.85011
▁사무	-9.85095
▁내용이	-9.85111
▁빠져	-9.85194
봐야	-9.85246
▁경우도	-9.85297
사항	-9.85298
87	-9.8531
▁《	-9.85312
63	-9.85334
▁어제	-9.85343
▁새로	-9.85375
▁활	-9.85478
▁■	-9.85488
▁발표한	-9.85666
▁확률	-9.8571
▁지켜	-9.85798
▁사업을	-9.85801
신문	-9.85884
▁틀	-9.8589
▁아이들	-9.85913
▁공장	-9.85913
▁허용	-9.85921
▁비난	-9.8594
▁서비스를	-9.85944
▁관심	-9.86058
부가	-9.86067
▁프리	-9.86077
레스	-9.86172
▁의원들	-9.86214
가구	-9.86274
▁자신을	-9.86355
스케	-9.86357
▁외국	-9.8636
지수	-9.8638
▁부모	-9.86387
아이	-9.86397
▁동료	-9.86402
나는	-9.86471
55	-9.86543
죽	-9.86564
▁최초로	-9.86577
▁한미	-9.86631
86	-9.86727
(20	-9.86763
스테	-9.86777
05	-9.86828
▁대규모	-9.86904
▁맺	-9.86941
▁취소	-9.86952
▁싶다	-9.86971
▁하기	-9.86974
수는	-9.87004
▁대해서	-9.87059
▁d	-9.87062
가격	-9.87095
▁완화	-9.87256
▁도움이	-9.87286
제품	-9.87291
IP	-9.87297
▁성과	-9.87325
▁시간을	-9.87353
▁다니	-9.87373
▁자세한	-9.87389
결과	-9.87404
스러운	-9.8744
▁보고서	-9.875
철도	-9.87516
▁6.	-9.87529
▁서울대	-9.87567
▁북한의	-9.87582
▁한나라당	-9.8761
▁모집	-9.87655
끌	-9.87678
행정	-9.8768
▁라인	-9.87713
▁기자회견을	-9.87765
월에	-9.87767
빌	-9.87804
금리	-9.87828
31	-9.87832
▁고위	-9.87844
▁혼자	-9.87885
▁명의	-9.87911
쳤	-9.87911
▁것처럼	-9.87932
▁사이에	-9.87953
▁인력	-9.8798
▁세력	-9.88
▁통일	-9.88086
▁떠나	-9.88144
원에	-9.88237
씨와	-9.88251
▁경쟁력	-9.88353
▁보다	-9.88472
▁활약	-9.88512
꾸	-9.88583
52	-9.88673
▁아울러	-9.88692
세요	-9.88713
▁사이트	-9.88719
부산	-9.8872
대출	-9.88723
07	-9.88783
겁	-9.88797
케이	-9.88798
▁젊은	-9.88801
멘	-9.88819
▁받지	-9.88845
연대	-9.88857
▁상반기	-9.88939
▁인증	-9.89013
▁Q	-9.89055
68	-9.89076
힐	-9.89147
▁세종	-9.89181
▁2006	-9.89195
핑	-9.89215
지구	-9.89233
▁비중	-9.89254
▁집회	-9.89361
▁방식으로	-9.89376
▁관련된	-9.89406
',	-9.89413
▁다소	-9.89456
▁정체	-9.89529
▁무시	-9.89543
▁그리	-9.89562
하다고	-9.89583
과학	-9.89588
버리	-9.89606
구를	-9.89658
BS	-9.89682
▁취지	-9.89683
77	-9.89739
▁상담	-9.89784
▁금액	-9.89847
89	-9.89865
▁소통	-9.89877
▁육성	-9.89905
▁모습이	-9.89928
▁잡아	-9.89944
테크	-9.89962
▁효과를	-9.90016
▁부대	-9.90036
조정	-9.90103
▁살해	-9.90148
교통	-9.90161
▁시각	-9.9017
▁응답	-9.90202
웠다	-9.9025
▁▷	-9.90254
▁통신	-9.90299
▁수정	-9.9035
받아	-9.90373
▁기여	-9.90434
▁색	-9.90461
럽	-9.90487
▁규모의	-9.90582
▁부여	-9.90631
▁멤버	-9.90659
▁제조	-9.90661
▁위해서는	-9.90678
크로	-9.90693
▁예상된다	-9.9072
67	-9.90722
아웃	-9.90751
▁충북	-9.90829
▁신설	-9.90836
▁쇼	-9.90872
▁장애인	-9.90896
▁하자	-9.90911
▁내가	-9.90927
대의	-9.90948
법원	-9.90959
▁추가로	-9.91082
▁폭행	-9.91088
흡	-9.91094
▁연간	-9.9111
▁굴	-9.91178
700	-9.9118
▁머	-9.91199
▁바다	-9.91258
▁기타	-9.91295
▁생각한다	-9.9132
▁운전	-9.91328
▁알리	-9.9133
▁씨가	-9.91336
데이	-9.91359
마저	-9.91362
▁주고	-9.91377
92	-9.91444
▁밝힌	-9.91489
앤	-9.91531
kg	-9.91547
음을	-9.9156
▁노인	-9.91563
한다면	-9.91579
▁참사	-9.91609
0.0	-9.91642
▁법인	-9.91708
▁보기	-9.91758
▁진정	-9.91759
▁익	-9.91768
▁중에	-9.91799
▁벽	-9.91947
핀	-9.91965
▁특징	-9.9205
▁정치권	-9.92129
▁이야기를	-9.92196
▁열리는	-9.92265
▁호텔	-9.92277
셋	-9.92299
기획	-9.92327
어요	-9.92338
ow	-9.92358
▁진입	-9.92372
▁불편	-9.9241
▁나올	-9.92497
화가	-9.92528
▁혈	-9.92555
▁얼마나	-9.92596
..."	-9.92661
▁책임을	-9.9273
▁효	-9.92783
ir	-9.92815
사단	-9.92875
▁바탕으로	-9.9291
▁강원도	-9.92925
룸	-9.92957
▁과학	-9.9296
▁유치	-9.93011
들어	-9.93067
처리	-9.93067
짜	-9.9308
야마	-9.93203
시킬	-9.93223
▁나왔	-9.93294
▁여기서	-9.93348
전략	-9.93348
포럼	-9.93361
하다가	-9.93387
비가	-9.93393
▁점에서	-9.93412
파크	-9.93441
▁단지	-9.93458
▁참조	-9.93547
버린	-9.93575
없	-9.93594
회를	-9.93621
▁공모	-9.9365
▁KT	-9.93651
자들의	-9.93659
랄	-9.93706
▁나는	-9.93723
시킨	-9.93731
혁신	-9.93778
id	-9.93789
▁명칭	-9.93797
il	-9.93815
▁효과가	-9.93816
▁케	-9.93867
저축은행	-9.93875
▁인하	-9.93913
▁쓴	-9.94004
칸	-9.94015
▁덕분에	-9.94106
▁자리를	-9.94143
▁살인	-9.94174
▁질문에	-9.94202
춤	-9.94209
▁체제	-9.94212
▁우주	-9.94217
▁뒷	-9.94404
▁있으면	-9.94447
사로	-9.9445
▁종료	-9.94469
▁고발	-9.94478
톡	-9.9449
▁베트남	-9.94531
줬다	-9.94568
▁원전	-9.94676
▁수록	-9.94701
▁심리	-9.94715
물이	-9.94733
▁호소	-9.94778
93	-9.9478
▁원장	-9.94789
군은	-9.94845
▁확장	-9.94923
▁충분히	-9.94952
써	-9.94974
▁평소	-9.95036
▁과제	-9.95062
▁홀	-9.95064
더니	-9.95085
▁이명박	-9.95088
51	-9.95126
이라도	-9.95135
저작권자	-9.95168
▁봄	-9.95191
▁둔	-9.95192
▁하면서	-9.95197
▁했습니다	-9.95198
▁우리가	-9.9521
69	-9.95265
룬	-9.95307
▁패배	-9.95338
▁현금	-9.9547
시험	-9.95479
▁김성	-9.95518
▁생존	-9.95526
▁말한다	-9.95539
▁물리	-9.95546
제로	-9.95591
ight	-9.95614
이라면	-9.95734
▁비교	-9.95739
▁진짜	-9.95755
굴	-9.95767
▁포인트	-9.95783
▁체포	-9.95844
▁여당	-9.95855
▁가까운	-9.95857
CE	-9.95869
주민	-9.95874
쇼핑	-9.9589
만으로	-9.95917
▁입주	-9.95951
개국	-9.9597
▁팬들	-9.95988
▁거주	-9.96052
▁액	-9.96068
▁애니메이션	-9.96096
▁관광객	-9.96123
팩	-9.96147
06	-9.96199
▁32	-9.96215
65	-9.9629
▁듣고	-9.96301
보증	-9.96388
▁수치	-9.96405
험	-9.96452
▁모아	-9.96468
▁밑	-9.9648
300	-9.96484
▁얼마	-9.96563
▁형성	-9.96594
▁축소	-9.96613
▁어렵	-9.96623
▁이곳	-9.96635
운영	-9.96764
▁스포츠	-9.96783
▁나무	-9.96859
▁사건을	-9.96861
▁건축	-9.96882
▁지상	-9.96993
▁완료	-9.97018
대는	-9.97071
▁경우에는	-9.97113
▁나섰다	-9.97157
컴	-9.972
78	-9.97206
▁동물	-9.97211
대전	-9.97215
▁만약	-9.97218
▁크기	-9.9725
▁곳이	-9.97254
▁조합	-9.9733
▁&	-9.97332
▁라는	-9.97342
투표	-9.97374
72	-9.97398
▁조작	-9.97412
▁정확한	-9.97433
▁좋지	-9.97468
▁류	-9.97516
▁빠른	-9.97579
)’	-9.97611
▁불가능	-9.97642
셨	-9.97685
점으로	-9.97705
▁여론	-9.97719
▁영웅	-9.97735
▁지방선거	-9.97745
▁지원을	-9.9781
세기	-9.97811
▁그나마	-9.97827
털	-9.97833
▁신용	-9.97846
차를	-9.97874
▁헌법	-9.97878
▁강력	-9.97897
▁정기	-9.97906
▁이른바	-9.97923
▁대해서도	-9.97978
괴	-9.97979
량을	-9.98022
비용	-9.98038
내는	-9.98041
▁공천	-9.98048
900	-9.98052
▁당연히	-9.98088
해진	-9.98102
03	-9.98149
▁받는다	-9.98167
76	-9.98174
으면서	-9.98178
▁에이	-9.98279
해도	-9.98293
▁지속적으로	-9.98298
▁자랑	-9.98308
▁만족	-9.9831
분류	-9.98313
▁45	-9.98329
▁제외	-9.98381
▁주력	-9.98441
▁돌아가	-9.98455
랙	-9.985
리지	-9.98515
▁추석	-9.98595
▁의장	-9.98598
▁재판부는	-9.98715
시대	-9.98737
▁느낌	-9.98764
▁90	-9.98767
▁유출	-9.98788
▁자산	-9.988
▁서울시장	-9.98817
위가	-9.98878
단지	-9.98879
씨에게	-9.98895
▁주말	-9.98917
점에서	-9.98934
▁부과	-9.9894
돼야	-9.9901
▁다수	-9.99069
▁트럼프	-9.99087
상황	-9.99117
엽	-9.9912
전에	-9.99162
▁일어나	-9.99171
▁마찬가지로	-9.99185
▁국무총리	-9.99196
웨이	-9.99234
▁야권	-9.99274
▁답변	-9.99313
비아	-9.99365
감이	-9.99373
▁완성	-9.99409
▁오픈	-9.99438
62	-9.99461
하려고	-9.99469
콩	-9.99473
으려	-9.99515
넷	-9.99519
샤	-9.99528
74	-9.99536
▁묘	-9.99566
경찰	-9.99572
▁반응을	-9.9962
▁바란다	-9.99664
▁푸	-9.99677
▁차관	-9.99711
▁기획재정부	-9.9976
▁지하철	-9.99778
스코	-9.99788
▁획득	-9.99897
튼	-9.99917
▁절차	-9.99926
잔	-10.0001
▁앞에	-10.0007
▁채권	-10.0008
▁제목	-10.0011
경찰서	-10.0013
ha	-10.0015
▁기자회견	-10.0016
▁여부를	-10.0022
▁적극적으로	-10.0025
▁후보의	-10.0026
▁맨	-10.0029
▁오브	-10.003
▁더불어	-10.0037
▁발동	-10.0044
▁국방부	-10.0045
기금	-10.0048
▁내용은	-10.0048
▁지분	-10.0048
▁난이도	-10.0053
▁만화	-10.0053
ST	-10.0056
▁등장하는	-10.0056
훈련	-10.0058
▁옷	-10.0059
틱	-10.0069
▁새정치민주연합	-10.007
▁느끼	-10.0072
▁돌파	-10.0073
▁약간	-10.0078
79	-10.0096
▁양국	-10.0097
▁지휘	-10.0102
자에게	-10.0103
44	-10.0104
체를	-10.0105
교과서	-10.0106
텐	-10.0113
▁압박	-10.0114
여성	-10.0115
▁돌려	-10.0118
▁체계	-10.0122
겼	-10.0124
34	-10.0128
04	-10.0129
▁꼬	-10.013
▁남편	-10.0131
비서관	-10.0131
렴	-10.0138
▁착	-10.0144
▁사항	-10.0146
▁찬	-10.0151
▁일본의	-10.0155
핵	-10.0158
▁해군	-10.0161
단은	-10.0162
▁취급	-10.0165
▁임대	-10.0165
지에	-10.0166
▁하반기	-10.0167
▁차이가	-10.0169
▁증가했다	-10.017
빛	-10.0172
▁국민들	-10.0173
체계	-10.0174
마트	-10.0174
▁운용	-10.0177
`	-10.0178
▁지배	-10.0179
2)	-10.018
▁생기	-10.0182
▁캠페인	-10.0183
(6	-10.0183
▁아니고	-10.019
▁갑자기	-10.0192
자치	-10.0195
▁발표했다	-10.0195
▁대기	-10.0196
▁모드	-10.0199
▁빨리	-10.0201
▁추정	-10.0203
▁간담회	-10.0206
▁새벽	-10.0207
▁수용	-10.0212
멀	-10.0216
실에서	-10.0219
▁늘어난	-10.0221
▁한국의	-10.0223
91	-10.0229
▁단속	-10.0236
ay	-10.024
95	-10.024
▁관측	-10.0246
▁근로	-10.0248
▁비밀	-10.025
▁곧	-10.0252
▁내린	-10.0252
▁앨범	-10.0255
칙	-10.0262
푸	-10.0264
▁적은	-10.0266
튜	-10.0267
▁이뤄지	-10.0272
─────	-10.0277
▁매각	-10.0278
트라	-10.028
든지	-10.0286
까요	-10.0287
▁쏟아	-10.0287
항공	-10.0292
컵	-10.0303
▁예비	-10.0307
73	-10.0308
지난	-10.0312
▁제일	-10.0316
끈	-10.0317
표를	-10.0326
▁w	-10.0329
억원으로	-10.033
▁2005	-10.033
▁실력	-10.0331
버렸다	-10.0332
j	-10.0337
▁진화	-10.0343
om	-10.0346
▁미사일	-10.0347
▁원내대표는	-10.0348
▁해양	-10.035
61	-10.035
라운드	-10.0356
▁지진	-10.0361
▁들어서	-10.0362
콤	-10.0364
▁스마트	-10.0364
엠	-10.0365
장치	-10.0367
▁준다	-10.0368
팀장	-10.0375
▁노동자	-10.038
▁미리	-10.0382
▁의혹을	-10.0385
일본	-10.0386
지사	-10.0389
▁무슨	-10.0389
▁이익	-10.0392
▁교육부	-10.0393
▁김종	-10.0396
▁사정	-10.0402
36	-10.0408
중국	-10.0411
칼	-10.0411
딜	-10.0414
빵	-10.0415
자인	-10.0437
▁싶	-10.0437
▁적절	-10.0439
회관	-10.0439
받고	-10.0441
▁커피	-10.0442
▁찾는	-10.0445
37	-10.0447
▁늘었다	-10.0449
98	-10.0449
▁식품	-10.0452
자원	-10.0457
▁데뷔	-10.046
nd	-10.0463
33	-10.0467
▁시민들	-10.0468
되자	-10.0479
▁권력	-10.0488
▁보유	-10.0494
▁공공기관	-10.0497
과는	-10.0501
노조	-10.0501
▁택시	-10.0504
화에서	-10.0505
▁지자체	-10.0507
통합	-10.051
쾌	-10.0514
시켰다	-10.0515
▁Y	-10.0516
▁엄청난	-10.0517
▁부르	-10.0517
▁싸우	-10.0521
▁유엔	-10.0521
▁FTA	-10.0523
▁상태에서	-10.0529
▁CJ	-10.0531
▁제국	-10.0533
▁이게	-10.0535
▁감정	-10.0536
▁못해	-10.0539
▁많았다	-10.0539
상의	-10.0539
▁33	-10.0543
▁원을	-10.0547
▁최저임금	-10.0551
시키고	-10.0553
뉴	-10.0557
제가	-10.0562
▁피부	-10.0562
쥐	-10.0562
▁최고의	-10.0564
▁대통령과	-10.057
▁대변인은	-10.0571
▁개입	-10.0576
▁데이터	-10.0576
▁흐	-10.058
▁아내	-10.0589
▁집행	-10.0592
부를	-10.0596
▁거듭	-10.0602
▁자세	-10.0602
▁무리	-10.0604
▁정식	-10.0608
▁싸움	-10.0609
▁수사를	-10.0611
▁미세먼지	-10.0614
▁향상	-10.0618
▁사무실	-10.0618
▁명령	-10.0619
▁마케팅	-10.062
▁최저	-10.0622
획	-10.0622
▁김정은	-10.0626
▁타격	-10.0635
▁생긴	-10.0636
켓	-10.0636
▁하늘	-10.064
하였고	-10.0641
▁반복	-10.0643
IS	-10.0644
▁회담	-10.0648
▁끝에	-10.0649
총회	-10.0649
▁앞둔	-10.065
▁정상회담	-10.0651
▁나눠	-10.0656
듯이	-10.0657
▁후원	-10.0659
ul	-10.0661
▁동원	-10.0665
▁물건	-10.0667
이면	-10.0668
▁엔진	-10.0672
▁빠	-10.0675
▁가동	-10.0675
▁징계	-10.0679
▁지도부	-10.0686
규모	-10.0688
▁직전	-10.069
▁주거	-10.0693
38	-10.0695
▁올려	-10.0696
▁합동	-10.071
▁유사	-10.0712
▁제거	-10.0713
수도	-10.0722
▁빠르게	-10.0729
83	-10.0745
▁자본	-10.075
82	-10.0751
속도	-10.0751
륙	-10.0756
▁결론	-10.076
▁야구	-10.0761
▁했는데	-10.0761
▁주최	-10.0767
▁한계	-10.0768
▁속에서	-10.0769
스티	-10.0777
▁한국당	-10.0779
놈	-10.0779
▁!!	-10.0786
▁에어	-10.0789
피해	-10.0793
▁현대차	-10.0794
▁처분	-10.0796
나무	-10.0799
려는	-10.08
벤	-10.0801
셜	-10.0805
▁MBC	-10.0807
▁등에서	-10.0813
▁단독	-10.0817
▁계열사	-10.0818
▁헬	-10.0819
▁경우는	-10.082
준다	-10.082
▁진보	-10.0822
▁만난	-10.0823
▁올랐다	-10.0828
토리	-10.083
▁요소	-10.0831
뢰	-10.0836
▁원작	-10.0844
여객	-10.0847
▁본다	-10.0848
자들은	-10.0848
‘	-10.085
▁허위	-10.0855
▁사법	-10.0856
▁도움을	-10.0858
▁타이	-10.0858
해주는	-10.0858
▁10%	-10.0859
그래	-10.0875
▁초청	-10.0885
니스	-10.0886
의료	-10.0886
부문	-10.0887
브라	-10.0892
▁김정	-10.0893
▁올림픽	-10.09
가량	-10.0907
▁대폭	-10.0908
▁개념	-10.0909
짐	-10.0909
방안	-10.091
▁본사	-10.091
▁안내	-10.0911
▁종류	-10.0912
▁선임	-10.0912
오른쪽	-10.0912
▁150	-10.0916
▁마감	-10.0917
▁◀	-10.0917
▁대학생	-10.092
▁드러났다	-10.0922
다운	-10.0923
▁안보	-10.0925
▁세상	-10.0928
▁부실	-10.0929
눈	-10.093
▁부분이	-10.0936
놓	-10.0938
줘	-10.0955
위로	-10.0955
▁환율	-10.0956
▁덜	-10.0957
5000	-10.0969
군이	-10.0973
졌습니다	-10.0973
▁분노	-10.0979
▁기계	-10.098
▁토론	-10.0983
▁때까지	-10.0988
▁박원순	-10.099
▁차원에서	-10.0992
▁쉬	-10.0995
쇠	-10.0995
▁국방	-10.0996
▁신분	-10.0998
▁부당	-10.1
▁동의	-10.1
키로	-10.1006
▁따로	-10.1011
▁북미	-10.1017
▁이틀	-10.102
▁최초	-10.1021
▁36	-10.1022
기사	-10.1027
셀	-10.1035
▁뜻을	-10.1038
▁당신	-10.1038
▁b	-10.104
▁줄어들	-10.1046
▁창원	-10.1051
▁엘리	-10.1051
▁이내	-10.1051
▁의식	-10.1056
율이	-10.1058
년생	-10.1058
▁검증	-10.1069
▁수술	-10.1069
세트	-10.107
39	-10.1076
터미널	-10.1077
▁떨어지	-10.1078
▁통상	-10.1081
▁가수	-10.1083
▁상대적으로	-10.1085
▁부탁	-10.1085
▁f	-10.1091
400	-10.1097
혔다	-10.1099
레벨	-10.11
▁주제로	-10.1101
덩	-10.1105
북한	-10.1105
효과	-10.111
가능	-10.1114
었지만	-10.1115
피아	-10.1118
▁당장	-10.112
헤	-10.1122
▁내에서	-10.1124
스카	-10.1126
▁악화	-10.1127
고등학교	-10.1129
맛	-10.1134
▁옮겨	-10.1136
▁압수수색	-10.1137
었으나	-10.1137
▁부진	-10.114
71	-10.1147
▁카페	-10.1151
레이드	-10.1152
▁중요하다	-10.1155
하시	-10.1157
▁발행	-10.116
▁똑같	-10.116
음에도	-10.1161
▁지사	-10.1163
대에	-10.1166
▁내일	-10.1166
▁대표적인	-10.1171
▁동일	-10.1171
▁실무	-10.1174
▁낮아	-10.1176
▁불리	-10.1177
하더라도	-10.1181
▁복귀	-10.1184
▁자리에서	-10.1198
▁사람을	-10.1204
▁들어간	-10.1207
▁경찰이	-10.1209
ut	-10.1211
se	-10.1213
▁지지율	-10.1214
▁의한	-10.1215
▁뒤에	-10.1216
됐고	-10.1217
지게	-10.122
녕	-10.1221
▁요리	-10.1221
▁회장이	-10.1226
▁방지	-10.1228
▁법무부	-10.1229
▁재개	-10.123
덴	-10.1236
사실	-10.1237
▁찾은	-10.1243
▁죽음	-10.1245
▁SBS	-10.1247
▁단순	-10.1255
후보	-10.1257
▁손을	-10.126
▁할머니	-10.1288
쉽	-10.129
▁품	-10.1302
▁진실	-10.1305
머니	-10.1306
▁34	-10.131
▁점이	-10.1312
▁드래곤	-10.1315
▁충돌	-10.1319
▁선박	-10.1319
작업	-10.1322
▁미만	-10.1323
닭	-10.1324
▁상징	-10.1333
웠	-10.1335
▁연합뉴스	-10.1336
▁Δ	-10.1337
적이고	-10.1337
▁대부분의	-10.134
▁비리	-10.1342
▁조기	-10.1344
▁뉴욕	-10.1344
▁위원장은	-10.1346
▁도중	-10.1348
▁속성	-10.1351
▁셈이다	-10.1352
→	-10.1357
기록	-10.1368
▁있다면	-10.137
늘	-10.1371
▁있으나	-10.1371
▁여론조사	-10.1373
▁댓글	-10.1374
▁자살	-10.1374
룰	-10.1376
▁전원	-10.1377
▁질문	-10.1379
일간	-10.1381
▁띄	-10.1389
▁도와	-10.1391
▁동영상	-10.1392
ce	-10.1395
받았다	-10.1395
톱	-10.1395
▁방문해	-10.1399
▁센	-10.1399
▁가까이	-10.1404
▁가로	-10.1406
▁평가를	-10.1407
▁많았	-10.1409
조치	-10.141
▁2004	-10.1413
면서도	-10.1413
박근혜	-10.1417
관을	-10.1418
▁전주	-10.1419
▁요인	-10.1421
▁채택	-10.1422
판매	-10.1422
듀	-10.1425
▁했던	-10.1426
▁원하는	-10.1426
▁의도	-10.1427
81	-10.1429
▁코스	-10.1431
▁등장인물	-10.1435
ER	-10.1435
▁어린	-10.1436
중학교	-10.145
▁선출	-10.1452
질환	-10.1455
▁협약	-10.1457
▁이행	-10.1458
▁50%	-10.1458
▁항상	-10.1461
▁농협	-10.1463
▁고통	-10.1468
la	-10.1476
▁판정	-10.1477
▁명이	-10.1482
기온	-10.1482
▁길이	-10.1484
닌	-10.1487
생명	-10.1497
▁검찰에	-10.1498
▁앱	-10.1499
▁밝	-10.1501
현장	-10.1504
▁위에	-10.1517
함으로써	-10.1518
밍	-10.152
였고	-10.152
▁KB	-10.1521
▁권리	-10.1522
▁않도록	-10.1531
▁페이스북	-10.1532
▁메시지	-10.1538
둘	-10.154
공격	-10.1543
▁작중	-10.1544
▁컴퓨터	-10.1547
▁빅	-10.1547
▁꾸준히	-10.155
▁구성된	-10.1551
▁다이	-10.1552
▁벗	-10.1555
전쟁	-10.1556
리어	-10.1558
1)	-10.1563
섬	-10.1564
떼	-10.1565
▁거론	-10.1566
▁패턴	-10.1569
ss	-10.1569
▁제품을	-10.1576
▁쉽지	-10.1582
▁공부	-10.1588
▁아니면	-10.1592
▁해상	-10.1592
▁점수	-10.16
▁저는	-10.1607
▁소녀	-10.1611
▁이슈	-10.1612
▁남은	-10.1614
▁열차	-10.1619
▁진단	-10.1623
▁뇌	-10.1624
▁앵커	-10.1629
▁임원	-10.1632
▁편이다	-10.1634
▁경선	-10.1639
였습니다	-10.1644
▁부활	-10.1645
▁The	-10.165
▁이끌	-10.1654
▁상장	-10.1655
일에는	-10.1658
▁기업의	-10.1662
▁북한이	-10.1663
라스	-10.1665
▁중소	-10.167
싸	-10.1672
▁내용의	-10.1674
▁나중에	-10.1674
▁임직원	-10.1675
▁부부	-10.1675
순환	-10.1677
투쟁	-10.1677
▁의지	-10.1678
▁알려져	-10.168
▁파견	-10.1682
▁축제	-10.1684
▁본회의	-10.1684
▁생각해	-10.1685
▁얼	-10.1686
▁부품	-10.1686
예술	-10.1686
▁실험	-10.1689
광역시	-10.1689
▁태도	-10.1689
▁이건	-10.169
뿐만	-10.1695
▁파워	-10.1706
▁분리	-10.1707
▁부총리	-10.1708
▁우려가	-10.1708
▁작용	-10.1709
영화	-10.1712
타워	-10.1717
▁대한민국의	-10.1731
와는	-10.1731
▁호남	-10.1732
▁식으로	-10.1733
▁대북	-10.1733
▁청문회	-10.174
▁주소	-10.1745
라이트	-10.1746
자료	-10.1748
데요	-10.1749
▁알려진	-10.1749
▁코스피	-10.1749
▁장착	-10.1751
▁겁니다	-10.1752
▁장관이	-10.176
▁정도의	-10.1764
▁상당한	-10.1766
▁기회를	-10.1768
▁하나로	-10.1776
▁표기	-10.1776
▁에피소드	-10.1776
▁합격	-10.1776
▁만들기	-10.1777
▁테러	-10.1779
▁관계자들	-10.1781
률이	-10.1785
▁걸어	-10.1794
공동	-10.1796
만한	-10.1799
▁형식	-10.1804
▁예측	-10.1809
켄	-10.1811
괄	-10.1812
▁긍정적	-10.1813
▁20%	-10.1814
▁때마다	-10.1814
im	-10.1815
뇌	-10.1815
▁주가	-10.1817
펜	-10.1817
▁현행	-10.1818
▁필수	-10.1819
▁이루	-10.182
수석	-10.1821
자동차	-10.1827
재정	-10.1833
▁가리	-10.1833
공장	-10.1834
▁제재	-10.1835
▁나선	-10.1836
멜	-10.1837
▁단일화	-10.1843
▁매일	-10.1844
랍	-10.1846
지검	-10.1852
▁감염	-10.1854
97	-10.1855
▁수준으로	-10.1863
▁포함해	-10.1867
궐	-10.1871
AR	-10.1872
▁유니	-10.1874
▁30%	-10.1875
▁완전	-10.1876
펀드	-10.1878
▁벌어	-10.1879
오늘	-10.188
▁확실	-10.188
▁농업	-10.1881
첨	-10.1882
▁있으니	-10.1891
해달라	-10.1891
▁마음을	-10.1892
▁뛰어	-10.1894
▁한화	-10.1895
▁가격이	-10.1895
심사	-10.1896
▁무려	-10.1896
▁경고	-10.19
이어서	-10.1903
갤	-10.1908
과학기술	-10.1912
직원	-10.1915
▁향해	-10.1918
▁구속영장	-10.1918
▁다르다	-10.1921
등록	-10.1921
시즌	-10.1923
처분	-10.1924
시부터	-10.1928
96	-10.1929
▁벌금	-10.1931
▁늘리	-10.1934
ter	-10.1934
▁맵	-10.1934
거래소	-10.1938
▁김동	-10.1943
▁제가	-10.1943
플래	-10.1945
▁비판했다	-10.1947
▁걷	-10.1949
▁사는	-10.1953
▁바꿔	-10.1954
▁해명	-10.1957
▁마스터	-10.1965
▁최순실	-10.1969
▁운영하는	-10.1974
▁특허	-10.1975
▁발굴	-10.1976
▁입학	-10.1976
▁홍준표	-10.1978
▁비슷	-10.198
▁급증	-10.198
ED	-10.1986
천만원	-10.1987
▁외에	-10.1997
▁실현	-10.1997
▁지역의	-10.1997
▁광역	-10.1998
공제	-10.2002
▁육군	-10.2004
랩	-10.2006
▁이름이	-10.201
▁진행한다	-10.2011
▁장점	-10.2017
▁부산시	-10.2018
▁확인할	-10.2027
▁자원	-10.2034
붙	-10.204
▁채널	-10.2044
▁징	-10.2047
▁그리스	-10.2052
팽	-10.2053
▁담은	-10.2057
플러스	-10.2058
또	-10.2067
▁눈에	-10.2072
▁시작한	-10.2073
▁정비	-10.2074
▁잠시	-10.208
▁스타일	-10.208
▁엄마	-10.2081
총장	-10.2082
▁서민	-10.2087
▁물가	-10.2088
▁신임	-10.2088
▁이탈리아	-10.2089
▁공항	-10.2091
▁전개	-10.2093
즘	-10.2094
▁들여	-10.2095
틸	-10.2096
PS	-10.2096
▁그렇지	-10.2102
▁공격을	-10.2111
▁수능	-10.2113
▁구분	-10.2114
적이다	-10.2119
유치원	-10.2122
▁인기를	-10.2122
상태	-10.2123
▁AI	-10.2125
▁지금은	-10.2126
▁능력을	-10.2132
▁흐름	-10.2136
▁분들	-10.2136
되었으며	-10.214
현재	-10.2142
도서관	-10.2146
▁후보를	-10.2147
뜻	-10.2153
▁넘겨	-10.2155
▁?)	-10.2162
▁맹	-10.2162
흘	-10.2162
▁짜	-10.2165
▁유도	-10.2168
안보	-10.2168
미국	-10.2171
▁주제	-10.2171
닫	-10.218
소리	-10.2184
▁시위	-10.2185
▁콘	-10.2186
가족	-10.2189
▁묘사	-10.2189
▁삭제	-10.2197
▁지역에	-10.2202
▁참석해	-10.2203
됨	-10.2204
▁소설	-10.2204
▁St	-10.2211
▁목소리	-10.2214
▁움직임	-10.2216
▁예를	-10.2217
▁공감	-10.2222
▁고소	-10.2224
▁직무	-10.2226
지법	-10.2228
▁행사를	-10.2228
IN	-10.223
▁업종	-10.2238
─	-10.2238
컷	-10.2239
▁달려	-10.2241
▁간부	-10.2243
▁강남구	-10.2246
묵	-10.2248
▁남아	-10.2249
▁방영	-10.2256
경찰서는	-10.2258
▁않게	-10.2261
사이	-10.2263
▁관련한	-10.2266
4000	-10.2268
렀다	-10.2272
▁도망	-10.2274
▁프리미엄	-10.2274
▁청주	-10.2277
▁실종	-10.2283
▁광화문	-10.2283
▁협조	-10.2286
▁흔들	-10.2291
▁이용한	-10.2297
▁연출	-10.2297
▁친박	-10.23
▁자율	-10.2304
▁끝난	-10.2306
▁제주도	-10.2311
사랑	-10.2312
▁고정	-10.2316
사무소	-10.2316
▁하였다	-10.2317
▁배출	-10.2319
▁부처	-10.2319
▁당초	-10.2319
▁사건이	-10.2321
▁취약	-10.2323
▁용산	-10.2323
▁것입니다	-10.2337
▁출입	-10.2338
뷰	-10.2339
였지만	-10.2342
짓	-10.2344
▁외에도	-10.2347
▁승인	-10.235
▁말했습니다	-10.2352
lo	-10.2358
프로	-10.2359
면세점	-10.2363
▁순위	-10.2363
▁연락	-10.2364
▁그린	-10.2364
▁유명한	-10.2367
▁금품	-10.2369
▁속에	-10.2369
▁보이지	-10.2373
짜리	-10.2376
▁자료를	-10.2377
▁심각한	-10.2378
▁검찰이	-10.2383
체육	-10.2383
▁늘어	-10.2388
▁작전	-10.2393
│	-10.2395
▁정치인	-10.2404
빗	-10.2411
천만	-10.2412
앞으로	-10.2415
▁트위터	-10.2422
▁펼쳐	-10.2422
▁글을	-10.2423
▁극복	-10.2428
횡	-10.243
▁후속	-10.2431
해온	-10.2436
축제	-10.2439
▁날아	-10.244
델	-10.2441
▁붙잡	-10.2442
▁대우	-10.2443
▁살펴보	-10.2444
CC	-10.2446
캔	-10.245
▁통제	-10.2455
▁않기	-10.2458
▁경찰청	-10.246
▁시신	-10.2462
버린다	-10.2463
▁구체적인	-10.2465
해왔다	-10.2466
구청장	-10.2466
건강	-10.2469
▁통보	-10.2471
▁초대	-10.2475
▁뇌물	-10.2481
받을	-10.2482
▁지역에서	-10.2482
▁..)	-10.2482
▁38	-10.2489
▁현안	-10.2493
▁김씨	-10.2493
스키	-10.2493
▁봐	-10.25
▁나갈	-10.2502
▁최대한	-10.2504
▁일제	-10.2504
▁가스	-10.2505
▁마치	-10.2506
▁가르	-10.2507
▁종교	-10.251
▁웨	-10.2512
▁근처	-10.2512
부대	-10.2512
옹	-10.2516
흔	-10.2523
▁등과	-10.2524
▁선호	-10.2524
▁정작	-10.2527
▁결제	-10.2529
▁위원	-10.253
▁폭력	-10.2531
됐던	-10.2537
▁그가	-10.2538
▁이전에	-10.2539
▁벗어나	-10.254
▁부사장	-10.2541
▁제정	-10.2542
▁상황에	-10.2543
당국	-10.2552
▁챔피언	-10.2552
▁영역	-10.2553
▁고려해	-10.2555
▁정책을	-10.2555
즐	-10.2559
▁양성	-10.2561
▁400	-10.2562
▁저녁	-10.2563
▁계기로	-10.2568
▁기술을	-10.2568
삼성	-10.2568
PC	-10.2571
특별	-10.2573
차량	-10.2576
▁몰아	-10.2576
▁의원의	-10.2577
▁박사	-10.2579
▁외교부	-10.2584
▁바닥	-10.2585
▁개방	-10.2589
▁다양	-10.2595
▁죽이	-10.2595
ac	-10.2596
▁등급	-10.26
덤	-10.2604
▁갖추	-10.2604
▁입법	-10.2604
▁편성	-10.2607
메이	-10.2607
하니	-10.2608
▁쓰고	-10.2612
▁쌀	-10.2614
램	-10.2616
▁영업이익	-10.2619
▁얻을	-10.262
▁지식	-10.2626
▁세대	-10.2626
▁연금	-10.2633
렛	-10.2635
▁가량	-10.264
▁추모	-10.2643
자산	-10.2643
ver	-10.2648
▁>	-10.2652
▁뿐만	-10.2653
▁그때	-10.2653
액은	-10.266
▁불구속	-10.2674
소송	-10.2676
▁남부	-10.268
▁피의자	-10.2682
▁인재	-10.2683
▁조사됐다	-10.269
줬	-10.2691
▁제조업	-10.2695
▁신체	-10.2698
▁가계	-10.27
▁히로	-10.27
폭력	-10.2702
▁연말	-10.2702
좁	-10.2706
▁동생	-10.2706
▁2002	-10.271
▁고급	-10.2712
▁아니냐는	-10.2713
하려면	-10.2713
ent	-10.2715
티브	-10.2715
▁증인	-10.2718
분야	-10.272
▁착수	-10.2723
공간	-10.2724
42	-10.273
▁패치	-10.273
놀이	-10.2738
▁성향	-10.274
▁의결	-10.274
▁지도	-10.2742
특위	-10.2746
ia	-10.2752
포트	-10.2754
▁캠프	-10.2754
▁해제	-10.2758
▁꺼	-10.2759
교사	-10.276
▁아군	-10.2764
▁장애	-10.2765
▁싶은	-10.2767
▁말고	-10.2771
▁예술	-10.278
▁개통	-10.2783
▁문제로	-10.2789
▁승객	-10.2789
▁대중	-10.279
▁대한항공	-10.2792
▁동기	-10.2793
▁계열	-10.2796
▁받게	-10.2798
▁되기	-10.2802
▁요금	-10.2804
멍	-10.2805
▁가끔	-10.2805
▁뜨	-10.282
릉	-10.2822
는데요	-10.2822
▁검은	-10.2822
▁수립	-10.2827
▁초과	-10.2834
▁구조조정	-10.2835
▁역량	-10.2838
▁공정위	-10.2838
2017	-10.2839
▁보안	-10.2841
▁유저들	-10.2844
▁취득	-10.2845
▁제공한다	-10.2846
94	-10.2846
▁가슴	-10.285
▁연합	-10.2851
▁떨어져	-10.2852
▁추세	-10.2852
▁공중	-10.2853
▁이정	-10.2854
▁계획을	-10.2861
▁입건	-10.2866
▁있는지	-10.2866
▁시작된	-10.2869
워드	-10.2869
하라고	-10.2876
협정	-10.288
▁상황이다	-10.2885
▁연휴	-10.2886
▁힘든	-10.2886
▁37	-10.2898
▁올라가	-10.2899
▁칠	-10.29
무역	-10.29
▁단어	-10.2902
▁친환경	-10.2903
Z	-10.2904
▁법적	-10.2912
▁사이에서	-10.2912
▁소모	-10.2916
금액	-10.2917
템	-10.2918
▁디지털	-10.2921
▁증가한	-10.2921
▁상호	-10.2923
▁조치를	-10.2925
▁강릉	-10.2929
재판	-10.2929
▁무대	-10.2929
▁의뢰	-10.2933
했는지	-10.2939
박람회	-10.2939
▁꼽	-10.294
▁잊	-10.2941
▁유저	-10.2951
▁경계	-10.2951
▁혜택을	-10.2951
▁중국의	-10.2954
▁마친	-10.2954
▁휴대전화	-10.2954
▁아이돌	-10.2958
▁벨	-10.2963
넥	-10.2968
▁펀드	-10.2973
▁수수료	-10.2975
거든요	-10.298
폼	-10.2982
▁화물	-10.2983
해양	-10.2983
▁품질	-10.2987
“	-10.2987
▁물러	-10.2987
었으며	-10.299
▁다음달	-10.2991
▁못한다	-10.2994
▁월드	-10.2994
▁사무총장	-10.2995
▁실천	-10.2999
용품	-10.3002
신고	-10.3005
▁계산	-10.3005
▁국세청	-10.3011
▁사고가	-10.3012
문학	-10.3013
숭	-10.3015
스피	-10.3019
um	-10.302
선수	-10.3024
업자	-10.3025
탱	-10.3025
▁이후로	-10.3028
▁시작으로	-10.3029
▁다음과	-10.303
ne	-10.3032
▁사안	-10.3034
▁다리	-10.3045
▁의문	-10.3045
아시아	-10.3046
AT	-10.3052
▁옛	-10.3055
▁기다리	-10.3057
(7	-10.3058
▁기울	-10.3061
노트	-10.3065
▁누가	-10.307
▁선보이	-10.307
쥬	-10.3082
▁도쿄	-10.3086
냥	-10.3089
조직	-10.309
리얼	-10.3092
▁44	-10.3099
▁공포	-10.3099
▁쏘	-10.31
ig	-10.3103
꼴	-10.311
▁산하	-10.3112
▁출전	-10.3115
▁보건	-10.3119
▁저희	-10.3126
▁없지만	-10.3133
체제	-10.3135
▁바람에	-10.3138
▁점점	-10.314
▁왼쪽	-10.3141
▁뛰	-10.3141
지금	-10.3142
▁추락	-10.3142
셰	-10.3148
▁은퇴	-10.3157
깊	-10.3174
방위	-10.3181
▁괜찮	-10.3184
▁텐	-10.3186
▁제공하는	-10.319
▁오랜	-10.3194
잠	-10.3201
▁씨의	-10.3203
▁형태로	-10.3203
▁가서	-10.3205
▁요즘	-10.3208
▁수가	-10.3209
▁대표이사	-10.3212
ot	-10.3216
▁척	-10.3229
▁나오지	-10.3229
▁즐기	-10.323
▁회장의	-10.3231
븐	-10.3235
여서	-10.3236
▁5000	-10.3236
▁경비	-10.3238
▁날씨	-10.324
▁상처	-10.3245
▁노출	-10.3249
▁심각	-10.3253
▁불리는	-10.3255
▁노사	-10.3256
▁성과를	-10.3258
현지시간	-10.3261
▁당부했다	-10.3263
▁경력	-10.3264
2000	-10.3266
▁조종	-10.3268
▁세트	-10.3272
▁임기	-10.3273
습니까	-10.3274
▁클리어	-10.3278
▁화면	-10.3282
▁수업	-10.3282
▁수준의	-10.3284
▁검거	-10.3286
에너지	-10.3286
▁과정을	-10.3287
▁올린	-10.3287
▁먹는	-10.3287
▁저지	-10.3289
▁사람의	-10.329
하우스	-10.329
▁학생들이	-10.3294
버리는	-10.3298
▁힐	-10.3299
▁판사	-10.3302
▁현재는	-10.3304
▁로봇	-10.3304
화학	-10.3306
려면	-10.3307
▁2003	-10.3309
em	-10.3312
▁있었고	-10.3324
달라고	-10.3326
▁기존의	-10.3326
▁콘텐츠	-10.333
베르	-10.3336
▁vs	-10.3336
▁가면	-10.3339
▁있었지만	-10.3339
▁맞추	-10.3343
▁지점	-10.3346
▁생각이	-10.3346
▁주인	-10.3346
▁성인	-10.3349
▁숫자	-10.3352
▁찬성	-10.3356
▁동부	-10.3356
▁비중이	-10.3363
▁폐쇄	-10.3366
▁쿨	-10.3366
▁가능성을	-10.3371
▁패션	-10.3372
봐	-10.3372
▁탑승	-10.3373
▁독자	-10.3373
▁노무현	-10.3374
▁눈물	-10.3375
▁생각을	-10.3376
ld	-10.3382
▁저렴	-10.3382
▁들어오	-10.3383
여명이	-10.3383
▁상태로	-10.3384
기념	-10.3385
해졌다	-10.3385
레이션	-10.3389
센터에서	-10.3391
사용	-10.3391
낸다	-10.3406
▁여러분	-10.3407
▁공략	-10.341
▁전세	-10.3414
예산	-10.3415
BC	-10.3418
▁분명	-10.3419
▁밥	-10.342
▁풀어	-10.342
▁품목	-10.3424
책임	-10.3438
감독	-10.3439
▁무장	-10.3439
▁사드	-10.3439
▁의견이	-10.3447
더라	-10.3454
▁별로	-10.3455
붕	-10.3457
▁탓에	-10.3459
▁방면	-10.3464
▁주재	-10.3466
▁학부모	-10.3471
▁딱	-10.3475
▁가능성도	-10.3476
6000	-10.3476
SS	-10.3483
▁증시	-10.3486
▁탈출	-10.3487
▁화제	-10.3488
?	-10.3489
~20	-10.3496
GM	-10.3496
▁일상	-10.3496
2015	-10.3498
▁떨	-10.35
▁상태다	-10.3508
▁일행	-10.3509
MB	-10.3512
삭	-10.3514
▁트레	-10.352
율은	-10.352
▁포항	-10.3528
▁실수	-10.3528
▁민주통합당	-10.3529
op	-10.353
▁목록	-10.353
▁벤	-10.353
봇	-10.3532
▁번역	-10.3536
▁신문	-10.3538
펠	-10.3539
▁노력을	-10.354
▁알게	-10.3541
▁누리	-10.3541
▁네티즌	-10.3543
▁인원	-10.3543
▁원내	-10.3546
고속도로	-10.355
딘	-10.355
▁부채	-10.3555
방향	-10.3556
▁공시	-10.3559
▁내고	-10.3561
진흥	-10.3562
틈	-10.357
춰	-10.3573
▁마찬가지	-10.3574
므로	-10.3578
샷	-10.3578
▁있겠	-10.3579
▁탈당	-10.3583
뚫	-10.3583
꽃	-10.3585
▁무죄	-10.3592
업무	-10.3593
▁혼란	-10.3593
놓은	-10.3599
▁했다고	-10.36
▁보완	-10.36
▁종목	-10.3604
▁유일한	-10.3605
낳	-10.3606
▁무소속	-10.3606
▁했고	-10.3607
▁PC	-10.3608
▁위로	-10.361
▁예고	-10.361
▁나름	-10.361
▁120	-10.3614
▁한국은행	-10.3615
공무원	-10.3617
▁당연	-10.362
교수	-10.3626
▁국토부	-10.3627
정당	-10.3627
버려	-10.3628
2016	-10.3632
▁얻어	-10.3633
▁배제	-10.3635
▁기능을	-10.3636
▁끝내	-10.3639
마켓	-10.364
▁표준	-10.3641
▁수많은	-10.3643
▁받기	-10.3656
▁도심	-10.3656
▁국민연금	-10.3658
이므로	-10.3658
켜	-10.3659
▁갖춘	-10.3661
▁교류	-10.3662
▁석유	-10.3663
▁앤	-10.3664
카와	-10.3669
▁본인이	-10.3672
갱	-10.3679
▁싱글	-10.3685
▁유권자	-10.3685
▁개설	-10.3687
▁대리	-10.369
▁충청	-10.3691
▁방해	-10.3693
▁기소된	-10.3693
▁부지	-10.3696
▁상임	-10.3697
▁드러나	-10.37
대학원	-10.3701
연합회	-10.3704
▁블루	-10.3705
▁사용자가	-10.371
▁정의당	-10.3711
▁교육감	-10.3712
▁셀	-10.3713
땅	-10.3715
▁현장에서	-10.3719
▁회동	-10.3719
▁GS	-10.373
▁권한	-10.3733
▁현재까지	-10.3735
▁골프	-10.3738
▁이들이	-10.374
▁개막	-10.3743
▁사람들은	-10.3746
▁변신	-10.3759
▁경위	-10.376
졌고	-10.376
▁자신들	-10.3762
▁이걸	-10.3766
텀	-10.377
미터	-10.3772
▁훼손	-10.3775
▁무엇보다	-10.3778
▁바른정당	-10.3779
▁키우	-10.378
▁끌고	-10.3782
▁비행	-10.3782
▁시장은	-10.3782
!	-10.3783
벼	-10.3783
되기도	-10.3785
▁뛰어난	-10.3787
▁펼치	-10.3791
▁근접	-10.3791
▁길을	-10.3794
8000	-10.3799
탐	-10.3802
▁수는	-10.3803
▁다르게	-10.3806
▁설득	-10.3814
륜	-10.3823
▁새롭게	-10.3825
▁in	-10.3826
▁메인	-10.3828
약품	-10.3829
▁마시	-10.3832
▁필요성	-10.3834
▁정황	-10.3835
▁(.	-10.3838
머리	-10.3839
아파트	-10.3842
함에	-10.3843
발전소	-10.3843
버프	-10.3843
▁목소리를	-10.385
▁물량	-10.3851
▁55	-10.3856
▁예전	-10.3859
▁일은	-10.3866
엉	-10.3868
시마	-10.3869
▁만들고	-10.3869
▁42	-10.3869
▁검색	-10.3871
▁한국인	-10.3881
개선	-10.3882
▁걸리	-10.3883
▁운전자	-10.3883
▁개별	-10.3884
점검	-10.3885
▁쳐	-10.3885
▁다르	-10.389
▁담배	-10.389
▁사진을	-10.3892
▁쌍	-10.3893
▁같아	-10.3893
▁리더	-10.3894
IT	-10.3896
▁즉시	-10.3896
▁있어야	-10.3896
▁미니	-10.3898
▁보급	-10.3906
▁작업을	-10.3907
▁만한	-10.3909
▁이유가	-10.3912
▁타입	-10.3913
프리	-10.3913
해진다	-10.393
▁태풍	-10.3932
꿀	-10.3938
▁카메라	-10.3939
▁내렸다	-10.3942
▁움직이	-10.3945
EC	-10.3946
추진	-10.3946
▁재무	-10.3946
▁창조	-10.3946
▁당첨	-10.3947
▁모여	-10.3951
▁토론회	-10.3951
박물관	-10.3954
▁65	-10.3954
▁통해서	-10.3956
▁임무	-10.396
끄	-10.3962
▁to	-10.3969
▁사유	-10.3969
▁테마	-10.3971
▁언어	-10.3971
▁만들었다	-10.3977
캡	-10.398
▁퇴직	-10.3982
흉	-10.3985
질문	-10.3986
▁대선후보	-10.3987
▁Z	-10.3988
단장	-10.399
▁희생	-10.3991
으므로	-10.3993
콘서트	-10.3994
▁발언을	-10.3997
였는데	-10.4001
▁어려워	-10.4005
▁입고	-10.4005
▁김모	-10.4007
▁지명	-10.4017
▁서초구	-10.4021
▁수십	-10.4026
▁빙	-10.4028
무기	-10.4029
▁문제점	-10.4032
▁주관	-10.4036
▁붕괴	-10.4038
▁39	-10.4043
뿌	-10.4045
▁답했다	-10.4051
학원	-10.4055
▁정부와	-10.4057
께서	-10.4057
▁미션	-10.4058
▁싶어	-10.4059
"...	-10.406
▁불가피	-10.4062
공화국	-10.4068
▁정상화	-10.4068
▁대결	-10.4068
▁수색	-10.4071
▁되는데	-10.4072
▁수비	-10.4074
http	-10.4078
▁3000	-10.4078
▁확인됐다	-10.4078
드러	-10.4081
여행	-10.4082
준비	-10.4086
▁표정	-10.4087
IM	-10.4095
뻔	-10.4097
▁이웃	-10.4097
▁라디오	-10.4098
▁등장한다	-10.4099
▁행보	-10.4099
▁대처	-10.4102
▁본격적인	-10.4108
▁메뉴	-10.4109
▁떡	-10.4109
▁이래	-10.411
깃	-10.4111
이라면서	-10.4112
▁IT	-10.4117
▁비교적	-10.4119
▁강하게	-10.412
도지사	-10.4126
▁실행	-10.413
▁막아	-10.4133
▁프로그램을	-10.4134
▁곳에	-10.4141
▁그러니까	-10.4143
▁모른다	-10.4146
안타	-10.4147
끼리	-10.4148
되도록	-10.415
버리고	-10.4151
대교	-10.4151
모토	-10.4153
▁김씨는	-10.416
▁막기	-10.416
bo	-10.4165
▁조세	-10.4165
▁건립	-10.4174
▁시장에서	-10.4175
▁시민들이	-10.4176
▁피해가	-10.4179
▁냈다	-10.4183
▁진행된다	-10.4183
▁소비자들	-10.4184
▁묶	-10.4185
▁정확히	-10.4185
▁부정적	-10.4186
타운	-10.4187
▁파티	-10.4189
▁개헌	-10.419
▁보도합니다	-10.4191
▁방향으로	-10.4194
▁브라질	-10.4196
▁착용	-10.4198
장애인	-10.4201
지수는	-10.4206
▁교환	-10.4211
률은	-10.4217
▁감시	-10.4219
▁대책을	-10.4222
▁것인지	-10.4224
▁사용한	-10.4225
▁직장	-10.4227
ard	-10.4228
▁농가	-10.4237
▁들었다	-10.4241
▁있었는데	-10.4243
시킨다	-10.4244
▁업무를	-10.4247
▁점차	-10.4247
▁천안	-10.4247
▁존재한다	-10.4258
▁보낸	-10.426
-1	-10.426
사이트	-10.426
▁군대	-10.4266
▁김경	-10.4266
sh	-10.4267
▁손실	-10.4269
▁결과가	-10.4276
르트	-10.4279
▁어려움을	-10.4285
▁먹고	-10.4287
▁폴	-10.4289
▁모임	-10.4291
▁업데이트	-10.4291
ie	-10.4291
▁잡고	-10.4301
▁크리스	-10.4303
금속	-10.4304
룩	-10.4306
▁고등학교	-10.4307
사람	-10.4311
▁달아	-10.4314
▁도발	-10.4316
▁무게	-10.4319
▁포스코	-10.4325
랭크	-10.4326
닛	-10.4326
▁유족	-10.4329
▁복합	-10.433
▁지연	-10.4331
요금	-10.4333
▁춘천	-10.4334
생산	-10.4334
▁칸	-10.4334
피스	-10.4337
▁됐	-10.4348
▁추적	-10.4349
띠	-10.4353
▁승용차	-10.4354
▁조사하고	-10.4354
▁완벽	-10.4355
▁없기	-10.4357
▁탑재	-10.4362
▁단위	-10.4363
▁상무	-10.4364
▁시범	-10.4368
치기	-10.437
▁김무성	-10.4371
▁민생	-10.4372
▁이외에	-10.4373
▁총괄	-10.4376
ation	-10.4377
기능	-10.4379
▁환영	-10.4386
▁월드컵	-10.4392
▁번호	-10.4395
훌	-10.4397
▁금감원	-10.4398
▁총재	-10.44
▁비정규직	-10.4401
▁위안부	-10.4402
▁미디어	-10.4408
▁대미지	-10.4413
▁숨진	-10.4414
▁출근	-10.4416
튀	-10.4418
▁거기에	-10.4419
0.1	-10.4419
▁즐길	-10.4423
▁목적으로	-10.4426
▁셈	-10.4426
▁뿌리	-10.443
EU	-10.443
▁묵	-10.4433
밸	-10.4438
▁주어	-10.4444
▁부르는	-10.445
낭	-10.4453
▁촉구했다	-10.4456
▁무조건	-10.4457
휘	-10.4457
▁김태	-10.4458
▁않겠다	-10.446
▁경주	-10.4463
▁스페인	-10.4463
▁보관	-10.4463
▁변동	-10.4467
▁식당	-10.4467
▁가격은	-10.4467
믹스	-10.4471
▁사장은	-10.4472
▁허가	-10.4476
대비	-10.4477
져야	-10.4483
▁연령	-10.4485
▁초등학교	-10.4488
▁통계	-10.4489
▁기본적으로	-10.4489
2018	-10.4492
▁덤	-10.4493
▁이들의	-10.4498
▁넘게	-10.4499
▁유일하게	-10.4501
천여	-10.4501
▁숲	-10.4502
▁you	-10.4514
샘	-10.4517
퓨	-10.4525
▁목표로	-10.4527
▁파업	-10.4529
▁최초의	-10.453
▁세우	-10.4536
▁항공기	-10.4543
▁반대로	-10.4543
▁열린다	-10.455
▁민족	-10.4561
li	-10.4564
▁참여한	-10.4565
▁회계	-10.4569
▁근본	-10.4579
▁접촉	-10.4579
▁그걸	-10.4585
▁트리	-10.4588
▁여담으로	-10.4589
방식	-10.459
▁이름으로	-10.4591
신청	-10.4594
담당	-10.4595
▁공기	-10.4597
평화	-10.4602
7000	-10.4604
▁노후	-10.461
▁애니	-10.4612
만원으로	-10.4616
▁매출액	-10.4618
TF	-10.4623
랐다	-10.4623
▁세상을	-10.4624
▁경향	-10.4625
앉	-10.463
▁FC	-10.4631
▁퀘스트	-10.4632
▁머물	-10.464
▁저항	-10.4643
▁펜	-10.4644
▁자리에	-10.4646
▁다루	-10.4647
1.2	-10.4648
구나	-10.465
▁이용할	-10.4655
만달러	-10.4663
▁토대로	-10.4666
▁신세계	-10.4668
연맹	-10.4668
▁탈락	-10.4672
명에게	-10.4678
프트	-10.4678
궤	-10.4682
▁본격적으로	-10.4682
스턴	-10.4683
보건	-10.4686
▁결의	-10.4692
Q	-10.4694
▁유세	-10.4695
▁수단	-10.4696
ap	-10.4698
▁모르는	-10.4699
활동을	-10.47
▁고령	-10.47
팬	-10.4702
▁서류	-10.4703
▁응원	-10.4704
▁권고	-10.4709
았던	-10.4709
▁지원하는	-10.471
▁합류	-10.4711
▁애플	-10.4713
협상	-10.4714
2.0	-10.4715
비율	-10.4716
굳	-10.4717
▁최선을	-10.4717
▁특별한	-10.472
▁의지를	-10.473
▁합병	-10.473
▁이끌어	-10.4733
됐지만	-10.4735
신도시	-10.4736
▁조언	-10.4741
▁측면	-10.4743
▁유력	-10.4748
▁재난	-10.4752
▁쏠	-10.4755
넣	-10.4756
▁좋아하는	-10.4758
▁바라	-10.4761
이닝	-10.4764
▁차별	-10.4766
▁혜택	-10.4771
0.2	-10.4776
▁엔딩	-10.4777
▁안팎	-10.4778
페이스	-10.4779
▁출생	-10.4781
▁집계됐다	-10.4787
OS	-10.4793
▁먼	-10.4799
선언	-10.4802
▁밟	-10.4805
안정	-10.4807
역사	-10.4809
▁새해	-10.4818
▁절차를	-10.482
월에는	-10.482
▁나타난	-10.4826
줘야	-10.4837
▁말하는	-10.4847
▁로마	-10.4848
▁발생했다	-10.4848
▁당내	-10.485
▁남아있	-10.4852
_	-10.4853
바람	-10.4855
▁영장	-10.4857
픈	-10.4859
▁힘들다	-10.4862
▁분야에서	-10.4863
▁민원	-10.4871
▁문자	-10.4872
▁아무리	-10.4874
져서	-10.4874
▁선수들	-10.4875
▁최강	-10.4877
▁동반	-10.488
분쯤	-10.488
▁투명	-10.488
공학	-10.4885
▁업그레이드	-10.4886
▁김용	-10.4887
▁담긴	-10.4888
▁비서실장	-10.4897
장비	-10.4898
▁요구했다	-10.4899
조건	-10.4909
▁달하는	-10.4915
▁재료	-10.4921
▁서해	-10.4924
▁복수	-10.4926
▁한글	-10.4929
▁차지했다	-10.493
▁전작	-10.4932
▁상향	-10.4944
달라	-10.495
▁일시	-10.495
▁워낙	-10.4962
▁동작	-10.4965
▁넣어	-10.4969
▁깔	-10.4969
▁부분은	-10.4971
플레이	-10.4972
▁백화점	-10.4976
▁대표와	-10.4977
스쿨	-10.4978
▁한강	-10.4979
▁의미가	-10.4981
▁보조	-10.499
▁서울시는	-10.4995
▁짐	-10.4999
브리	-10.4999
▁짧	-10.4999
▁사이버	-10.5001
▁투수	-10.5002
▁침해	-10.5004
▁전설	-10.5005
▁기원	-10.5012
난다	-10.5013
▁100%	-10.5013
박스	-10.5013
법상	-10.5021
▁탄생	-10.5027
▁요구하는	-10.503
▁Co	-10.5033
▁승진	-10.5035
▁세워	-10.5038
AN	-10.504
▁부담을	-10.5045
선관위	-10.5047
▁대변인	-10.5047
▁이뤄진	-10.505
os	-10.5054
▁취재	-10.5055
▁화학	-10.506
▁홍콩	-10.5061
보니	-10.5068
홈	-10.5069
올해	-10.507
폴	-10.507
관련	-10.5072
으로써	-10.5072
CD	-10.5073
▁신호	-10.5074
호텔	-10.5077
▁덱	-10.5078
▁체육	-10.5079
영업	-10.5079
▁아르	-10.508
▁유형	-10.508
별로는	-10.5081
▁관계를	-10.5083
▁용인	-10.5087
▁학원	-10.5088
▁마치고	-10.5091
상담	-10.5096
▁활발	-10.5102
▁돌입	-10.5108
▁Re	-10.5113
▁줄었다	-10.5119
▁연방	-10.512
체험	-10.512
▁섞	-10.5122
▁생각하는	-10.5122
▁부족한	-10.5133
▁커뮤니티	-10.5134
▁현황	-10.5135
▁납품	-10.5138
▁아프리카	-10.514
DI	-10.5141
내기	-10.5145
▁않지만	-10.5145
주간	-10.5159
흐	-10.516
▁곽	-10.516
▁모자	-10.5161
▁즉각	-10.5169
▁싫어	-10.5173
왼쪽	-10.5175
▁흡수	-10.5175
▁빼앗	-10.5179
▁대안	-10.518
▁열심히	-10.5183
▁곳은	-10.5184
▁기체	-10.5189
all	-10.519
▁민주주의	-10.519
통화	-10.5191
학회	-10.5195
▁이름은	-10.5199
롬	-10.5201
밤	-10.5204
▁보험료	-10.5206
자재	-10.5207
▁쪽으로	-10.5209
▁미군	-10.5214
▁발휘	-10.5221
땐	-10.5225
▁가득	-10.5227
▁지지를	-10.5227
▁고문	-10.5227
▁봐도	-10.523
▁멋	-10.5239
뼈	-10.5239
▁이처럼	-10.5244
검찰	-10.5244
0.5	-10.5245
앞	-10.5251
▁촉	-10.5252
최근	-10.5253
▁본격	-10.5253
▁뭔가	-10.526
자마자	-10.5261
▁지역구	-10.5262
▁고속도로	-10.5265
▁해당하는	-10.5265
▁못할	-10.5268
옷	-10.527
캠퍼스	-10.527
▁차기	-10.5271
▁단순히	-10.5271
na	-10.5274
▁정착	-10.5275
문재인	-10.5277
▁발급	-10.5283
▁오리	-10.5286
北	-10.5286
▁그만큼	-10.5288
▁서부	-10.5289
청장	-10.5289
▁활용해	-10.529
▁진료	-10.529
블록	-10.529
▁연습	-10.5293
▁살리	-10.5293
▁황제	-10.5303
▁탓	-10.5303
II	-10.5303
▁회피	-10.5304
▁보여주는	-10.5305
▁레드	-10.5306
▁그야말로	-10.5312
아버지	-10.5312
▁영입	-10.5314
▁당선인	-10.5317
▁올렸다	-10.5317
밭	-10.5321
▁유승민	-10.5323
▁진영	-10.5336
순위	-10.534
▁2001	-10.5344
▁작곡	-10.5347
▁중반	-10.5351
▁인터뷰에서	-10.5353
▁느껴	-10.5355
백화점	-10.536
ON	-10.5361
절차	-10.5364
모씨	-10.5365
▁인프라	-10.5369
듬	-10.5372
▁없음	-10.5378
▁빠지	-10.538
(8	-10.5384
재산	-10.5389
▁이승	-10.539
▁진행된	-10.5394
▁후보와	-10.5395
같이	-10.5396
넘	-10.5398
▁지출	-10.5398
MS	-10.5399
범위	-10.5399
▁양산	-10.5402
▁배틀	-10.5408
9000	-10.5409
민주당	-10.5411
▁코스닥	-10.5412
▁경제적	-10.5415
▁연대	-10.5417
▁학습	-10.542
▁호주	-10.5426
▁산림	-10.543
▁없어서	-10.5438
▁거치	-10.5439
▁대해선	-10.5439
▁아이디어	-10.544
▁지내	-10.544
파이어	-10.544
간담회	-10.5442
▁가게	-10.5445
▁잇따라	-10.5447
문화재	-10.546
▁횡령	-10.546
해준다	-10.5463
△	-10.5465
혐	-10.5465
▁고교	-10.5469
▁심판	-10.547
▁네이버	-10.547
▁김진	-10.5479
▁보여준다	-10.548
▁계좌	-10.5482
▁최소화	-10.5483
▁적합	-10.5484
▁폐기	-10.5489
▁넘어가	-10.5489
▁몇몇	-10.549
▁밀어	-10.5501
▁기상청	-10.5502
▁화력	-10.5503
▁소장	-10.5505
▁열었다	-10.5511
▁매입	-10.5513
▁나눔	-10.5515
▁클럽	-10.5516
AC	-10.5517
▁없애	-10.5518
▁HP	-10.5525
▁병력	-10.5526
▁매매	-10.5533
▁맡은	-10.5534
▁단축	-10.5534
갓	-10.5536
▁승부	-10.5538
▁사라지	-10.5542
▁한때	-10.5544
시키기	-10.5549
▁1990	-10.5552
▁비교해	-10.5556
文	-10.5561
재배포	-10.5575
▁명단	-10.558
▁성장률	-10.5581
▁편의점	-10.5589
▁귀국	-10.5589
팝	-10.559
▁고향	-10.5594
교섭	-10.5595
못	-10.5596
하였으며	-10.56
부분	-10.5603
▁과연	-10.561
▁환경부	-10.5612
▁애초에	-10.5614
▁국내에서	-10.5616
▁덮	-10.5617
▁군인	-10.5618
뱅	-10.562
▁대화를	-10.5626
if	-10.5628
▁마약	-10.5629
광주	-10.563
▁전직	-10.5642
▁플랫폼	-10.5642
▁증언	-10.5642
▁사격	-10.5642
억달러	-10.5643
꼼	-10.5644
▁형제	-10.5647
▁이같은	-10.5648
▁사용한다	-10.5652
▁식사	-10.5656
ab	-10.5657
팡	-10.5658
쌍	-10.5661
▁경찰관	-10.5663
NA	-10.5665
▁웹	-10.5666
▁방어력	-10.5667
▁스테이지	-10.5668
▁벌인	-10.5669
▁해체	-10.5673
▁공군	-10.5675
스포츠	-10.5678
빌딩	-10.5678
▁깊은	-10.5681
▁네트워크	-10.5682
▁평창	-10.5683
AI	-10.5689
▁뮤	-10.569
ho	-10.569
▁철회	-10.5692
▁폭탄	-10.5692
렁	-10.5693
▁듯한	-10.5693
▁아니지만	-10.5698
▁철거	-10.5707
▁고유	-10.571
▁국내외	-10.571
▁편집	-10.5715
中	-10.5721
폴리	-10.5722
2014	-10.5723
▁곳에서	-10.5728
엑	-10.5733
▁분명히	-10.5733
▁로드	-10.5733
▁끝까지	-10.5739
▁만들어진	-10.5742
▁일어난	-10.5743
원장	-10.5745
▁직장인	-10.5746
좋	-10.5749
▁대체로	-10.5753
▁포켓몬	-10.5754
여개	-10.5755
호텔에서	-10.576
▁벌이고	-10.5773
숨	-10.5774
▁본래	-10.5776
감사	-10.5777
▁빠진	-10.5777
───	-10.578
▁나아가	-10.5784
▁줄어든	-10.5787
▁보유한	-10.579
AS	-10.5797
유통	-10.5798
▁등장한	-10.5798
▁아니냐	-10.5799
▁연구원은	-10.5799
네요	-10.5803
▁적극적인	-10.5805
클래스	-10.5807
▁수집	-10.5808
▁기조	-10.5811
▁골드	-10.5814
▁쓰레기	-10.5816
▁예금	-10.582
▁말까지	-10.5823
▁곧바로	-10.5823
▁영향으로	-10.583
FTA	-10.583
▁공방	-10.5835
▁재벌	-10.5841
▁맡고	-10.5842
▁단점	-10.5845
▁상대방	-10.585
▁소련	-10.585
▁아무런	-10.5852
▁문건	-10.5863
▁토지	-10.5865
▁갤럭시	-10.5866
▁표명	-10.5869
▁전문가들은	-10.5871
▁가족들	-10.5871
▁수습	-10.5876
▁어려움	-10.5878
▁늘고	-10.5879
▁추측	-10.5882
▁측정	-10.589
푸드	-10.5893
▁서울중앙지검	-10.5902
▁찾기	-10.5904
▁굳이	-10.5906
규칙	-10.591
▁최후	-10.5911
▁부장판사	-10.5913
얀	-10.5913
했었다	-10.5916
▁공통	-10.5923
초등학교	-10.5928
믹	-10.5929
▁협박	-10.593
▁2020	-10.5931
▁반도체	-10.5933
▁시내	-10.5934
턱	-10.5934
세력	-10.5944
▁긴장	-10.5945
▁인생	-10.5946
▁회수	-10.5955
▁화장품	-10.5957
헬	-10.5958
▁구현	-10.596
▁치료를	-10.596
▁일원	-10.596
▁목소리가	-10.5969
펀	-10.5971
▁출동	-10.5974
오프	-10.5975
▁능력치	-10.5976
ate	-10.5979
▁국토교통부	-10.598
▁복잡	-10.5981
뒀	-10.5982
플랜	-10.5982
▁악마	-10.5982
▁배당	-10.5984
부처	-10.5984
▁기대한다	-10.5995
▁캐나다	-10.5996
훼	-10.6
▁정규	-10.6001
참여	-10.6002
앨	-10.6002
▁대답	-10.6005
천억원	-10.6005
▁몰려	-10.6008
▁국회의장	-10.6017
▁면적	-10.6017
▁주주	-10.602
▁둘러싼	-10.602
▁어린이집	-10.6021
▁좋겠다	-10.6024
▁균형	-10.6031
▁예약	-10.6033
▁아키	-10.6036
▁집권	-10.6038
▁고객들	-10.6046
▁분석했다	-10.6047
▁제외하고	-10.6055
▁대피	-10.6056
친다	-10.6061
▁보입니다	-10.6063
깎	-10.6066
운전	-10.6069
▁참여하는	-10.6071
▁두산	-10.6074
미래	-10.6075
임금	-10.6077
▁이쪽	-10.6081
▁걸려	-10.6084
▁고속	-10.6085
사령관	-10.6087
지않	-10.609
▁수준이다	-10.6091
▁이어질	-10.6092
때문에	-10.6093
▁대외	-10.6096
▁성분	-10.61
치료	-10.6121
자본	-10.6125
▁가맹점	-10.6129
▁40%	-10.6136
타이어	-10.6137
▁사업자	-10.6139
▁고성	-10.6144
FA	-10.6146
외교	-10.6149
▁받으	-10.6151
▁견제	-10.6154
됐으며	-10.6155
▁흘러	-10.6157
리온	-10.6158
▁여수	-10.6164
부담	-10.617
컨설팅	-10.6172
▁입지	-10.6173
▁기각	-10.6174
▁거두	-10.6178
▁상생	-10.6184
ill	-10.6187
▁붉은	-10.619
▁이마트	-10.6192
▁누적	-10.6195
하셨	-10.6195
▁보도했다	-10.62
▁유가족	-10.62
뒤	-10.62
▁소형	-10.6202
ine	-10.6204
▁장난	-10.6206
UN	-10.6214
그러	-10.6215
ive	-10.6221
티어	-10.6223
▁들어갔다	-10.6227
▁강연	-10.6227
▁매달	-10.6231
왔던	-10.6233
▁황금	-10.6236
▁감소했다	-10.6245
맘	-10.6247
SI	-10.6249
▁누구나	-10.6259
▁Copyrights	-10.626
▁손님	-10.626
▁감사원	-10.6261
▁출산	-10.6261
▁장례	-10.6262
윗	-10.6274
▁떨어지는	-10.6288
▁받아들이	-10.629
art	-10.6291
닷	-10.6294
▁생겨	-10.6294
웃	-10.6295
▁발생하는	-10.6314
▁녹색	-10.6316
▁링크	-10.6317
▁다크	-10.6319
TO	-10.6327
▁사용자	-10.6327
▁음성	-10.6328
꼬	-10.6332
하므로	-10.6338
no	-10.634
▁종종	-10.6345
美	-10.6347
▁위력	-10.6348
▁최씨	-10.635
곰	-10.6352
▁서명	-10.6352
▁비핵화	-10.6352
▁종족	-10.6353
▁주기	-10.6353
▁새정치연합	-10.6356
롭게	-10.6357
▁파트너	-10.636
▁김현	-10.6361
▁보아	-10.6362
낙	-10.6362
▁개장	-10.6362
▁보건복지부	-10.6364
▁입찰	-10.6364
▁태양	-10.6366
▁민심	-10.6367
▁목숨을	-10.6369
▁짧은	-10.637
▁고대	-10.6371
▁농촌	-10.6371
섯	-10.6372
▁배포	-10.6375
1.0	-10.6383
데다가	-10.6389
RA	-10.6393
▁자전거	-10.6396
rea	-10.6398
▁남녀	-10.6401
뚝	-10.6402
▁시민단체	-10.6404
▁입증	-10.6408
▁70%	-10.641
▁합리적	-10.641
몸	-10.6411
go	-10.6411
IA	-10.6414
ry	-10.6419
뤄	-10.642
▁줄여	-10.6427
▁각성	-10.643
▁개그	-10.6431
▁걸린	-10.6441
▁영향력	-10.6441
▁충전	-10.6442
▁작동	-10.6446
▁정규직	-10.6447
▁가문	-10.6453
▁던전	-10.6458
천원	-10.646
▁만났	-10.6464
▁적자	-10.6465
▁상당수	-10.6471
▁연관	-10.6475
▁개인정보	-10.6475
▁참석자들	-10.6479
▁사냥	-10.648
이었지만	-10.6485
눌	-10.6492
▁에스	-10.6501
디아	-10.6502
학부	-10.6506
▁연주	-10.6508
3.0	-10.6509
▁타이틀	-10.651
수익	-10.6511
▁채무	-10.6511
▁투자자	-10.6513
▁저작권	-10.6518
od	-10.6519
▁별명	-10.6522
랭	-10.6526
▁유입	-10.6529
▁전후	-10.6533
센트	-10.6533
▁국정감사	-10.6534
tion	-10.6535
▁맞춤형	-10.6536
▁점포	-10.6537
▁사거리	-10.6541
▁서버	-10.6541
▁발효	-10.6543
▁자문	-10.6552
투자증권	-10.6553
▁뒤집	-10.656
분석	-10.6562
▁인천시	-10.6562
▁차지하는	-10.6563
인데요	-10.6564
▁격차	-10.6565
▁크레	-10.6565
쁘	-10.6566
2012	-10.6566
벤처	-10.6567
▁성폭행	-10.657
모델	-10.6582
MA	-10.6584
잭	-10.6584
▁벌어지	-10.6587
▁Ch	-10.6593
포털	-10.6596
▁예산안	-10.6598
est	-10.66
▁화성	-10.6601
▁상관없	-10.6602
▁대장	-10.6604
▁특유의	-10.6604
릇	-10.6604
▁바뀐	-10.6607
왔습니다	-10.6608
쫓	-10.6611
옵	-10.6612
▁멤버들	-10.6618
▁과세	-10.662
조합	-10.6626
▁검출	-10.6633
▁생각하면	-10.6633
▁무관	-10.6634
▁건너	-10.6636
▁방법으로	-10.6638
▁결정했다	-10.6641
▁나설	-10.6645
▁평양	-10.6651
▁라이브	-10.6663
뱃	-10.6664
▁대법관	-10.6668
하겠습니다	-10.6671
세월호	-10.6672
▁확충	-10.6672
▁건담	-10.6673
뜬	-10.6678
▁밀려	-10.668
▁그러면	-10.6688
▁추구	-10.669
▁시작한다	-10.6692
▁지닌	-10.6693
▁무산	-10.6694
▁교통사고	-10.6708
▁동참	-10.6708
▁포함된	-10.6712
▁건조	-10.6713
▁항소심	-10.6714
지방경찰청	-10.6716
2013	-10.6722
▁선거구	-10.6722
▁거절	-10.6726
▁흉기	-10.6727
▁2019	-10.6733
▁미친	-10.6734
펼	-10.6739
▁목포	-10.674
▁복원	-10.6743
▁높게	-10.6744
▁모색	-10.6748
▁떨어졌다	-10.6751
렵	-10.6751
2.5	-10.6752
스럽게	-10.6753
소비자	-10.6753
▁공주	-10.6762
▁와서	-10.6768
▁공판	-10.6779
▁발견된	-10.6779
▁신용카드	-10.6782
닷컴	-10.6784
흑	-10.6787
다보니	-10.6788
놨	-10.6788
▁근데	-10.6793
▁가졌다	-10.6806
▁만남	-10.6812
창업	-10.6813
곽	-10.6813
▁납부	-10.6814
▁돌아오	-10.6815
▁잠재	-10.6816
▁실시간	-10.6819
경북	-10.6821
▁때부터	-10.6821
▁금융감독원	-10.6823
터널	-10.6825
US	-10.6831
웬	-10.6831
밖	-10.6838
SC	-10.6841
▁쉬운	-10.6843
▁운항	-10.6843
▁당사자	-10.6845
2011	-10.6847
▁제외하면	-10.6851
▁면담	-10.6852
▁목격	-10.6856
▁나타내	-10.6862
▁아름다운	-10.6864
▁잘못된	-10.6865
▁논리	-10.6867
▁누군가	-10.6868
회복	-10.6872
▁규명	-10.6873
▁대거	-10.6879
▁우수한	-10.688
ub	-10.689
답게	-10.6898
곱	-10.6906
▁싱가포르	-10.6913
세포	-10.6915
▁필리핀	-10.6923
▁특화	-10.6924
▁없게	-10.6929
▁놀라	-10.6931
▁참석했다	-10.6936
웰	-10.6937
▁조심	-10.6938
▁제약	-10.694
▁민주노총	-10.694
ID	-10.6941
▁포지션	-10.6945
▁가시	-10.695
둑	-10.6951
장애	-10.696
1000	-10.696
▁현역	-10.6961
▁증상	-10.6962
HD	-10.6968
▁격려	-10.6969
▁경유	-10.6971
▁함정	-10.6974
잖	-10.6977
▁무효	-10.6978
▁출판	-10.6979
▁국정조사	-10.6984
3000	-10.6984
▁지도자	-10.6994
▁미치는	-10.6997
▁밀리	-10.6998
▁기반으로	-10.7003
▁관여	-10.7006
OECD	-10.7011
▁빌려	-10.7013
▁서울중앙지법	-10.7019
태평양	-10.7022
▁치러	-10.7025
▁시급	-10.7027
▁No	-10.703
톰	-10.703
▁해경	-10.7035
▁전담	-10.7041
▁의회	-10.7045
설명회	-10.7046
▁스탠	-10.7048
▁분쟁	-10.7051
쓸	-10.7052
▁전망했다	-10.7053
▁죽어	-10.7053
▁실태	-10.7056
▁차별화	-10.7057
▁두번째	-10.7057
였으나	-10.7058
경남	-10.7059
▁개봉	-10.7062
▁없습니다	-10.7062
2.2	-10.7063
▁듯하다	-10.7063
▁희생자	-10.7074
큰	-10.7074
▁관세	-10.7085
▁증명	-10.7086
▁동일한	-10.709
▁눈길을	-10.709
▁마르	-10.7091
경찰청	-10.7101
▁갈수록	-10.7101
캠	-10.711
렐	-10.7113
ell	-10.7114
▁강요	-10.7115
▁그럴	-10.7124
▁결합	-10.7132
▁늘려	-10.7138
▁축하	-10.7138
▁엑스	-10.7138
▁양측	-10.7145
▁확실히	-10.7146
▁커지고	-10.715
쿄	-10.7151
▁절감	-10.7156
▁여유	-10.7156
▁CCTV	-10.7157
껏	-10.7158
up	-10.7158
▁오염	-10.7161
AM	-10.7175
▁선진국	-10.718
▁바라보	-10.718
▁여권	-10.7181
▁1999	-10.7181
▁평생	-10.7183
흰	-10.7187
▁대다수	-10.7187
▁가사	-10.7194
걸음	-10.72
ack	-10.7204
GDP	-10.7212
▁매체	-10.7213
▁의하면	-10.7216
▁성폭력	-10.7223
▁철저히	-10.7227
▁바른미래당	-10.7234
▁강경	-10.7238
▁헌법재판소	-10.724
▁지목	-10.724
계열	-10.7241
클럽	-10.7242
▁눈치	-10.7243
▁추정된다	-10.7245
▁쟁점	-10.7249
▁조절	-10.725
▁선고했다	-10.7256
▁해운대	-10.7257
3.3	-10.7258
▁가야	-10.7263
공업	-10.7271
샌	-10.7276
▁일으키	-10.7278
칩	-10.7279
맑	-10.7279
닮	-10.7281
▁지켜보	-10.7281
▁헬기	-10.7283
▁In	-10.7287
▁평택	-10.729
▁매력	-10.7293
▁스트레스	-10.73
기아차	-10.7306
렀	-10.7307
채권	-10.7308
켈	-10.7317
보조금	-10.7317
▁선생님	-10.7321
▁연재	-10.7326
▁준공	-10.7335
륭	-10.7341
▁설치된	-10.7343
▁일반적인	-10.7345
▁빠르	-10.7346
ag	-10.7346
▁맞서	-10.7347
▁의외로	-10.735
처장	-10.7351
▁마이크	-10.7355
▁생성	-10.7362
심판	-10.7366
▁1997	-10.737
▁헌재	-10.7375
▁대립	-10.7377
▁의존	-10.7377
▁MBN	-10.7386
▁부작용	-10.739
▁증정	-10.7394
▁이어지는	-10.7397
빔	-10.7402
핫	-10.7402
▁일반적으로	-10.7402
▁없었던	-10.7403
▁맞지	-10.7411
▁시점에서	-10.7413
▁특성상	-10.7414
▁판매량	-10.7416
디스플레이	-10.742
▁선거운동	-10.7423
▁예외	-10.7425
▁면접	-10.7432
▁부각	-10.7434
▁청소	-10.7435
▁폭염	-10.7435
▁일방적	-10.7439
▁내달	-10.7439
대응	-10.7441
▁대량	-10.7441
돋	-10.7441
유럽	-10.7456
잘	-10.7457
보고서	-10.7465
▁득표	-10.7468
▁레어	-10.7473
▁1980	-10.7474
▁친구들	-10.7475
녹취	-10.7475
머스	-10.7475
흠	-10.7478
▁어둠	-10.7482
▁병역	-10.7487
▁옵션	-10.7488
▁던지	-10.7488
▁보너스	-10.7491
▁변수	-10.7493
▁명절	-10.7493
▁조항	-10.7499
▁역임	-10.75
▁차질	-10.7502
▁물품	-10.751
▁AP	-10.7511
▁얼음	-10.7511
뱀	-10.7516
▁둘째	-10.7518
▁나쁘	-10.7519
▁시나리오	-10.7519
▁응급	-10.752
▁측면에서	-10.7526
▁formula	-10.7533
▁높았다	-10.7534
▁상업	-10.7534
삽	-10.7535
옮	-10.7544
▁조합원	-10.7545
았습니다	-10.7547
▁만든다	-10.7548
▁몰래	-10.7556
▁수익률	-10.7557
▁일종의	-10.7557
청소년	-10.7564
▁접속	-10.7572
~5	-10.7577
▁조달	-10.7579
▁도움	-10.758
▁살려	-10.7587
EN	-10.7587
소프트	-10.7592
갚	-10.7592
▁비즈니스	-10.7594
▁1998	-10.7596
▁투표율	-10.7599
▁전문가들	-10.7601
▁보유하고	-10.7611
朴	-10.7612
▁따르	-10.762
▁참가자들	-10.7621
▁통일부	-10.7624
▁외모	-10.7624
▁첨단	-10.7627
시의회	-10.7632
▁인도네시아	-10.7635
▁변호인	-10.7644
▁이르는	-10.7652
0.3	-10.7659
▁더블	-10.766
크래프트	-10.7663
되었는데	-10.7664
▁기준금리	-10.7665
롯	-10.7676
▁집안	-10.7678
RE	-10.7682
▁복구	-10.7684
▁흑자	-10.7692
▁재생	-10.7696
대한민국	-10.7701
▁동네	-10.7705
▁재배	-10.7706
▁영하	-10.771
▁크리스마스	-10.7711
긋	-10.7715
▁코너	-10.7717
▁좀비	-10.7728
산업단지	-10.773
▁퇴진	-10.7736
▁맥주	-10.7738
RO	-10.7741
▁거짓말	-10.7741
▁타카	-10.7744
▁장갑	-10.7748
닿	-10.7752
▁세종시	-10.7755
▁성추행	-10.7756
▁물류	-10.7758
▁가속	-10.7761
▁영양	-10.7763
▁히어로	-10.7764
▁실내	-10.7769
▁많지	-10.7776
대사관	-10.7778
▁집계	-10.778
오카	-10.7781
노동조합	-10.779
▁순수	-10.7794
ang	-10.7795
▁구제역	-10.7796
시께	-10.7801
▁높여	-10.7812
▁재발	-10.7821
정관용	-10.7821
▁고기	-10.7823
▁왜곡	-10.7824
▁Copyright	-10.7825
싼	-10.7826
▁기름	-10.7827
▁도내	-10.7827
▁일본군	-10.7832
OC	-10.7832
▁계정	-10.7832
▁일러스트	-10.7833
▁대형마트	-10.7834
떨	-10.7835
▁사립	-10.7835
▁개성공단	-10.7836
▁논문	-10.7846
▁도주	-10.7853
▁미칠	-10.7855
▁가공	-10.7857
▁포착	-10.786
TI	-10.7862
▁농민	-10.7867
ant	-10.7868
▁침체	-10.7877
▁도박	-10.7877
윙	-10.7878
▁합쳐	-10.7881
▁있는데요	-10.7882
▁앉아	-10.7888
▁지속적인	-10.789
▁납치	-10.7891
뮤	-10.7894
▁순서	-10.7895
봄	-10.79
▁둔화	-10.7902
▁지표	-10.7902
▁행진	-10.7903
하세요	-10.7904
▁암살	-10.7905
▁사전투표	-10.7906
뱅크	-10.7912
▁가짜	-10.7918
홈쇼핑	-10.7921
LA	-10.7925
벨트	-10.7926
쩍	-10.793
▁또다시	-10.7931
▁맞게	-10.7932
▁최악의	-10.7934
☎	-10.7938
▁영등포구	-10.7938
넨	-10.7944
0.7	-10.7952
소녀	-10.7954
▁기재부	-10.7959
○	-10.7965
▁인류	-10.7969
▁관람	-10.797
▁겨냥	-10.797
▁계기가	-10.797
▁예정입니다	-10.7972
댄	-10.7976
▁천연	-10.7978
▁헤어	-10.7978
크림	-10.7978
▁알았	-10.7982
▁흔히	-10.7995
▁주차장	-10.7996
쉐	-10.7996
▁인천공항	-10.8
▁기념식	-10.8005
싸움	-10.8008
▁컨셉	-10.8009
▁체감	-10.8015
꺾	-10.8016
▁증가율	-10.8017
3.5	-10.8019
▁몰라	-10.8021
▁출국	-10.803
▁화장실	-10.8032
▁받아들여	-10.8034
▁뿐이다	-10.8036
LS	-10.8041
▁농장	-10.8042
농협	-10.8043
▁메르스	-10.8045
▁성매매	-10.8046
▁사라진	-10.8048
톨	-10.805
▁맡아	-10.8053
▁나선다	-10.8055
▁특징이다	-10.8062
▁집행유예	-10.8066
▁올랐	-10.8067
ff	-10.8067
▁꺼내	-10.8067
▁점프	-10.8078
끄러	-10.808
▁별도로	-10.8083
▁결심	-10.8085
IB	-10.8086
▁측근	-10.8092
▁면제	-10.8103
▁일주일	-10.8108
웨어	-10.8112
▁이용자	-10.8116
▁리스크	-10.8123
임에도	-10.8124
▁불가능하다	-10.8124
하느냐	-10.813
넉	-10.8131
▁겨우	-10.8131
▁로비	-10.8132
ly	-10.8144
▁뽑아	-10.8146
교육감	-10.8147
찔	-10.8149
0.6	-10.8152
▁점령	-10.8158
▁1996	-10.8162
사령부	-10.8172
▁패키지	-10.8175
▁느낄	-10.8182
▁나쁜	-10.8184
▁드러내	-10.8197
리조트	-10.8199
▁통계청	-10.8202
퀴	-10.8207
ers	-10.821
▁준수	-10.8213
FC	-10.8216
대책위원회	-10.8218
▁다섯	-10.822
▁지낸	-10.823
▁급등	-10.8232
겠느냐	-10.8239
▁위축	-10.824
▁컨트롤	-10.8241
▁쓴다	-10.8241
▁지방자치단체	-10.8253
솟	-10.8253
▁가상	-10.8254
▁조각	-10.8254
▁재능	-10.8256
프레스	-10.8258
▁않았지만	-10.8261
칫	-10.8262
▁않을까	-10.8266
▁별다른	-10.8269
▁열렸다	-10.8282
▁박지원	-10.8287
페스티벌	-10.8289
▁5·18	-10.8289
▁자택	-10.8289
▁멀리	-10.8293
▁왕국	-10.8301
헨	-10.8301
▁완공	-10.8302
AD	-10.8307
킷	-10.831
▁것인가	-10.8319
▁바이러스	-10.8321
▁이어지고	-10.8325
▁바뀌었다	-10.833
▁북측	-10.8331
▁루트	-10.8335
▁발령	-10.8342
▁발달	-10.8345
▁손해배상	-10.8345
프로그램	-10.835
▁공익	-10.8352
▁선배	-10.8354
잦	-10.8357
▁취재진	-10.8359
▁그랬	-10.836
▁있었으나	-10.8361
▁구체적으로	-10.8362
▁명품	-10.8368
▁자신에게	-10.8376
몫	-10.8378
ont	-10.838
년만에	-10.8381
베리	-10.8381
▁거죠	-10.8382
하긴	-10.8383
▁기자들과	-10.8384
▁멀티	-10.8386
텔레콤	-10.8398
▁부른다	-10.8401
하였으나	-10.8402
▁히트	-10.8403
▁계속해서	-10.8409
▁결코	-10.8411
협약	-10.8412
TS	-10.8414
▁낮추	-10.8414
▁맡았다	-10.8419
▁배달	-10.8422
0%)	-10.8423
▁특혜	-10.8424
▁서술	-10.8437
▁코레일	-10.844
스톤	-10.8442
왜	-10.8449
렸습니다	-10.845
▁붙여	-10.8451
SA	-10.8471
▁정밀	-10.8476
몹	-10.8478
힘	-10.8483
개월간	-10.8483
▁창립	-10.8486
짱	-10.849
▁별도의	-10.8491
▁여겨	-10.8496
▁아무래도	-10.8496
▁관행	-10.8502
깨	-10.8503
뚜	-10.8504
펙	-10.8505
DS	-10.851
▁썼다	-10.8511
▁전당대회	-10.8513
0.8	-10.8514
▁어찌	-10.8516
AL	-10.8523
넌	-10.8525
찮	-10.8531
▁가려	-10.8535
▁로켓	-10.8537
▁연료	-10.8538
▁벌어진	-10.8544
▁오리지널	-10.8547
랐	-10.8548
▁본격화	-10.8549
복합	-10.8564
▁음반	-10.8568
킴	-10.8571
▁어려울	-10.8572
▁같습니다	-10.8572
▁담아	-10.8578
▁지나치게	-10.8579
▁구글	-10.8585
▁그렇다고	-10.8585
▁자회사	-10.8586
취업	-10.859
▁질병	-10.8595
▁진행되는	-10.8601
미사일	-10.8602
ES	-10.8606
휩	-10.8613
롯데	-10.8617
캠프	-10.8618
▁비행기	-10.8621
녹	-10.8623
▁하향	-10.8629
▁체크	-10.8631
지원센터	-10.8633
ex	-10.8633
중공업	-10.8634
겹	-10.8636
스럽다	-10.8636
▁편입	-10.8637
▁유튜브	-10.8638
췄	-10.8642
▁순천	-10.8649
▁말았다	-10.8654
▁발음	-10.8659
워크	-10.8663
▁건강보험	-10.8668
뭉	-10.8668
▁교황	-10.867
▁대륙	-10.8671
▁영혼	-10.8671
▁비례대표	-10.8672
멘트	-10.8673
처벌	-10.8674
▁참전	-10.8675
회의실에서	-10.8677
긍	-10.8679
▁자극	-10.8684
▁존중	-10.8685
▁담보	-10.8688
▁규탄	-10.869
▁남쪽	-10.8716
▁촛불	-10.8724
▁아빠	-10.8729
썼	-10.8734
▁내년부터	-10.8738
졌지만	-10.8743
▁피고인	-10.8748
▁크라	-10.8752
▁농산물	-10.8753
▁없으며	-10.8754
▁산불	-10.8765
글로벌	-10.8768
▁녀석	-10.8768
▁다녀	-10.8775
▁와중에	-10.8788
▁KTX	-10.8791
▁청약	-10.8798
▁수험생	-10.88
▁침몰	-10.8803
미디어	-10.8803
▁고용노동부	-10.8803
올림픽	-10.8807
쿼	-10.8807
▁과태료	-10.8808
▁누르	-10.8814
▁압력	-10.8814
▁생겼다	-10.8815
▁그쳤다	-10.8821
▁기대감	-10.8825
▁태국	-10.8831
1.3	-10.8834
섹	-10.8839
▁적립	-10.8839
▁보험사	-10.8841
▁현직	-10.8842
▁식물	-10.8848
▁밖으로	-10.8849
▁광복	-10.8858
▁인사들	-10.8865
▁1995	-10.8879
ect	-10.8887
CG	-10.8892
▁권한대행	-10.8894
▁60%	-10.8897
OL	-10.8899
저축	-10.8904
~19	-10.8904
▁테스트	-10.8916
▁2~3	-10.8928
▁가방	-10.8929
깝	-10.893
<	-10.8935
▁배터리	-10.8935
▁버그	-10.8936
▁만기	-10.8937
▁재건축	-10.8937
▁산업통상자원부	-10.8942
OR	-10.8946
▁다행히	-10.8947
▁전체회의	-10.8949
1.6	-10.8953
높	-10.8953
▁갤러리	-10.8955
〈	-10.8956
▁높였다	-10.896
픔	-10.8964
▁일어났	-10.8966
▁널리	-10.8969
돕	-10.8978
짤	-10.8978
금융지주	-10.898
▁실질적인	-10.8985
▁날려	-10.8999
놀	-10.9002
▁잠깐	-10.9002
▁80%	-10.9003
one	-10.9004
▁설명했습니다	-10.9005
▁시행령	-10.9005
故	-10.9007
▁어쩔	-10.9009
▁감안하면	-10.9018
맵	-10.9025
▁아니었다	-10.9029
툼	-10.903
썬	-10.9031
잖아요	-10.9032
▁반기문	-10.9035
▁안정적인	-10.9037
▁비롯	-10.9046
▁평범한	-10.9046
▁찾을	-10.9047
짚	-10.9048
펴	-10.9049
▁드러난	-10.9054
▁감축	-10.906
MOU	-10.9064
▁몰랐	-10.9065
▁유죄	-10.9072
▁NH	-10.9075
▁돌아온	-10.9083
특히	-10.9087
▁기대된다	-10.9088
SR	-10.9094
시켰	-10.9096
ist	-10.9107
토록	-10.9107
▁베이징	-10.9109
진흥원	-10.9111
희망	-10.9115
▁내다봤다	-10.9123
▁연봉	-10.9133
▁사회공헌	-10.9136
▁구름	-10.9141
잎	-10.9141
펌	-10.9142
▁시내버스	-10.9145
▁벌였다	-10.9145
넬	-10.9147
1.4	-10.915
되거나	-10.9152
▁다음날	-10.9158
▁나이트	-10.9167
계좌	-10.9185
▁들어온	-10.9185
▁조만간	-10.9186
렘	-10.9189
▁풀이된다	-10.9194
▁송파구	-10.9195
▁부모님	-10.9196
ity	-10.9198
▁않았던	-10.9215
▁이르면	-10.9217
▁횟수	-10.922
둬	-10.9225
▁선보인다	-10.9225
▁살펴	-10.9228
▁김현정	-10.9236
받았	-10.9236
▁전망된다	-10.924
▁연세대	-10.9243
▁갖춰	-10.9244
▁바랍니다	-10.9245
▁일당	-10.9246
▁해킹	-10.9246
▁비대위	-10.9247
▁있을까	-10.925
새누리당	-10.9252
▁처음부터	-10.9254
▁챙기	-10.9261
▁브레	-10.9268
▁철학	-10.9273
▁어깨	-10.9277
CO	-10.9282
▁조금씩	-10.9285
인터넷	-10.9291
인터뷰	-10.9295
▁화염	-10.9304
중소기업	-10.9312
▁챙긴	-10.9315
▁당분간	-10.9317
▁보냈다	-10.9326
▁터키	-10.9329
▁관통	-10.9331
혔	-10.9332
학습	-10.934
▁패널	-10.9343
▁덧붙	-10.9353
킥	-10.9359
▁밝혔	-10.9369
쁜	-10.9373
▁실망	-10.9377
▁리더십	-10.9378
▁금융당국	-10.939
▁있으므로	-10.9404
▁성남시	-10.9408
*	-10.9414
앵	-10.9414
▁없으면	-10.9415
▁승무원	-10.942
▁오피스텔	-10.9421
였으며	-10.9421
▁쇄신	-10.9425
▁비싼	-10.9428
▁야간	-10.9429
▁뛰어나	-10.9431
▁만날	-10.9432
▁쇼핑몰	-10.9438
▁경제부총리	-10.944
────┼────	-10.9443
▁불과하다	-10.9444
꺼	-10.9445
ood	-10.9447
▁들어갈	-10.9448
▁일관	-10.9451
★	-10.9452
▁공동대표	-10.9453
▁JTBC	-10.9456
▁황교안	-10.9456
▁첫날	-10.946
▁신제품	-10.9464
쁨	-10.9465
0.9	-10.9467
▁소프트웨어	-10.947
언론	-10.9472
▁득점	-10.9475
어린이	-10.9479
햇	-10.9479
▁좌우	-10.9488
▁멕시코	-10.9492
소방서	-10.9494
되었던	-10.9499
▁세미나	-10.9502
끔	-10.952
라이더	-10.9525
▁디스	-10.9529
녔	-10.9535
버렸	-10.9535
▁되찾	-10.9539
▁런던	-10.9544
▁뒤늦게	-10.9549
▁있음을	-10.9561
ong	-10.9563
▁원활	-10.9563
▁저지른	-10.9566
채널	-10.9576
eat	-10.9581
▁그럼에도	-10.9582
ove	-10.9593
위험	-10.9594
▁인사청문회	-10.9597
▁돕는	-10.96
웨	-10.9602
클리	-10.9605
▁밝혀졌다	-10.9605
▁스펙	-10.9618
▁궁극	-10.9618
농업	-10.9626
▁나경원	-10.9627
▁깊이	-10.963
▁촉진	-10.9634
▁추정되는	-10.9645
벤처기업	-10.9648
ast	-10.9654
▁페르	-10.9659
▁김대중	-10.9663
시리즈	-10.9663
협동조합	-10.9663
1.7	-10.9671
음악	-10.9673
▁청탁	-10.9673
썩	-10.968
샵	-10.969
▁이뤄질	-10.9693
age	-10.9694
▁어르신	-10.9697
▁여러가지	-10.9698
꿈	-10.9699
옳	-10.9703
▁계란	-10.9704
▁태양광	-10.9711
▁털어	-10.9716
▁블로그	-10.9717
▁없도록	-10.9718
▁다짐	-10.9719
경향신문	-10.9719
▁충족	-10.9729
▁한마디	-10.9733
▁거짓	-10.976
▁콤보	-10.9765
▁게시판	-10.9766
▁분열	-10.9769
1.8	-10.9773
▁사라졌	-10.9777
굿	-10.9777
▁흔적	-10.9788
렸던	-10.9788
▁착공	-10.98
▁네덜란드	-10.982
▁옮기	-10.9821
▁국무회의	-10.9823
▁늘어날	-10.9829
딪	-10.9834
▁뚜렷	-10.9837
▁사흘	-10.9837
▁업무협약	-10.9838
▁전통시장	-10.9847
▁손학규	-10.9859
겉	-10.9863
▁남겨	-10.9863
▁도달	-10.9865
디자인	-10.9868
딴	-10.9884
▁최경환	-10.9884
▁북쪽	-10.9909
특별위원회	-10.9912
▁위탁	-10.9915
▁소멸	-10.992
▁위주로	-10.992
▁충실	-10.9927
▁습격	-10.9929
▁어린이들	-10.9931
봅	-10.9933
0.4	-10.9935
▁연예인	-10.9949
▁어느정도	-10.9955
▁이른다	-10.9959
▁가계부채	-10.9964
▁느낀	-10.9969
햄	-10.9972
▁점유율	-10.9973
▁1994	-10.9981
▁상임위	-10.9985
렙	-10.9986
▁남긴	-10.999
보좌관	-10.9993
안철수	-10.9996
▁흡연	-11.0001
▁화이트	-11.0002
빅	-11.0003
▁통합진보당	-11.0007
변호사	-11.0009
ment	-11.0011
▁1~2	-11.0045
▁관객	-11.0045
▁감찰	-11.0047
3.2	-11.0051
▁컬러	-11.0052
바퀴	-11.0055
▁녹음	-11.0057
딸	-11.0065
▁엄청	-11.0069
아카데미	-11.0076
▁온갖	-11.0076
▁떠난	-11.0084
▁버티	-11.0093
▁액션	-11.0098
팩트	-11.0102
청와대	-11.0104
뇨	-11.011
▁모험	-11.0128
▁깨끗	-11.0131
▁빨간	-11.0142
▁사회복지	-11.0142
▁담겨	-11.015
선거관리위원회	-11.0151
핏	-11.0155
▁장학금	-11.0157
▁섭취	-11.016
▁비싸	-11.016
▁논쟁	-11.0161
▁삼성물산	-11.0162
▁엄청나게	-11.017
앗	-11.0173
덱	-11.0177
▁과징금	-11.0182
▁호흡	-11.0182
랫	-11.0212
▁모티브	-11.0214
▁베이스	-11.0216
▁골든	-11.0217
챈	-11.0221
▁보컬	-11.0225
앓	-11.0226
▁회전	-11.0233
▁정부서울청사	-11.0233
▁롯데마트	-11.0246
▁민정수석	-11.025
쌀	-11.0256
▁추첨	-11.0268
▁퍼포먼스	-11.027
▁디지털뉴스	-11.0278
▁비공개	-11.0291
▁서울특별시	-11.0293
MI	-11.0294
▁핵실험	-11.0306
붐	-11.031
▁예비후보	-11.0314
▁쓰이는	-11.0317
▁챙겨	-11.0324
출입	-11.0332
▁과목	-11.034
▁고생	-11.034
▁오랫동안	-11.0344
▁(0	-11.0344
▁스파이	-11.0347
▁일으킨	-11.0353
▁듀얼	-11.0354
냉	-11.0356
▁도약	-11.036
▁어떠한	-11.0362
▁간접	-11.037
나눔	-11.0371
엔터테인먼트	-11.0375
▁상하이	-11.0384
▁재미있	-11.0386
뭘	-11.0398
▁레이저	-11.0401
野	-11.0405
네트워크	-11.0407
▁대가로	-11.0408
://	-11.0411
▁과도한	-11.0412
▁모두발언	-11.0417
똑	-11.0459
줌	-11.0466
댐	-11.0506
뚱	-11.0536
펑	-11.0541
싫	-11.0555
흙	-11.059
썰	-11.0597
늄	-11.062
뜩	-11.0662
벅	-11.0723
엿	-11.0731
삐	-11.0769
곁	-11.0796
첼	-11.0802
슴	-11.0829
쭉	-11.1
츄	-11.1037
싹	-11.1046
푼	-11.1057
日	-11.1128
촬	-11.1141
빡	-11.1155
靑	-11.1172
끝	-11.1196
놔	-11.1233
윌	-11.1235
겸	-11.1303
↑	-11.1321
휠	-11.1322
붓	-11.1343
與	-11.1381
뤘	-11.1404
떡	-11.1506
벡	-11.1527
갇	-11.1651
챔	-11.1715
퀸	-11.1724
잇	-11.174
뭄	-11.1795
뉘	-11.1812
퉁	-11.1819
前	-11.1831
펄	-11.1834
툴	-11.1835
헛	-11.1838
찍	-11.1863
탯	-11.1886
슐	-11.1923
헐	-11.1926
〉	-11.1957
젊	-11.2035
엣	-11.205
숲	-11.2069
安	-11.2105
쉴	-11.2154
듈	-11.2206
얄	-11.2234
많	-11.2297
씬	-11.2373
뮬	-11.238
낮	-11.2399
※	-11.2402
핸	-11.2417
콧	-11.2427
펫	-11.2444
땀	-11.2487
겟	-11.2627
럿	-11.2631
뿔	-11.2642
大	-11.2663
똥	-11.2707
짙	-11.271
챙	-11.2858
돔	-11.2888
젖	-11.2891
앱	-11.2893
갯	-11.2905
멈	-11.2951
●	-11.3009
끓	-11.304
옴	-11.3044
뻐	-11.3074
낫	-11.3077
뜰	-11.3094
꽂	-11.3095
륨	-11.3101
#	-11.3117
볶	-11.3172
굽	-11.3276
쪼	-11.3278
솜	-11.3307
멧	-11.3333
깡	-11.3334
|	-11.3363
꿨	-11.3375
[	-11.3389
깜	-11.3408
꽁	-11.3427
왈	-11.3441
쿨	-11.3481
켰	-11.3499
덜	-11.3532
팟	-11.3541
릅	-11.3572
힙	-11.3603
□	-11.3614
뺏	-11.3615
낡	-11.3662
딱	-11.3703
깥	-11.3715
뽀	-11.3721
왠	-11.3724
엮	-11.3748
삿	-11.3752
좀	-11.3783
▦	-11.3787
딕	-11.3812
엎	-11.3869
팜	-11.3879
늬	-11.3895
굵	-11.396
닦	-11.3976
셉	-11.3981
뿜	-11.3989
찢	-11.3994
챠	-11.4029
맙	-11.4062
☞	-11.4141
外	-11.4149
곧	-11.4152
컸	-11.4176
툰	-11.4203
딧	-11.4243
뭇	-11.4262
탭	-11.4307
씻	-11.4327
숍	-11.4332
겔	-11.434
껴	-11.4388
콕	-11.439
밋	-11.444
팍	-11.447
얘	-11.4479
▶	-11.4534
껍	-11.4535
훔	-11.4537
젯	-11.4541
퀘	-11.4568
탔	-11.4588
낚	-11.4596
李	-11.4693
씌	-11.4694
깐	-11.4703
댓	-11.4718
씹	-11.4734
꼽	-11.4807
듭	-11.4825
왼	-11.4842
떠	-11.4897
헝	-11.4913
풋	-11.4957
맷	-11.507
쟈	-11.5072
떻	-11.5085
쑤	-11.5097
얽	-11.5097
굉	-11.5131
젝	-11.514
〃	-11.5186
샀	-11.519
냄	-11.5193
흩	-11.5224
檢	-11.5283
낯	-11.5331
q	-11.5354
잣	-11.5364
넓	-11.5369
꾀	-11.541
「	-11.5429
줍	-11.5447
돗	-11.554
韓	-11.5602
걀	-11.5628
얹	-11.5657
랴	-11.5663
찜	-11.5709
벳	-11.5711
뻗	-11.5721
샐	-11.5723
귤	-11.5746
뭔	-11.5776
쏴	-11.5781
썸	-11.5794
金	-11.5795
슛	-11.5818
쑥	-11.5849
냅	-11.5854
괜	-11.5855
벙	-11.5894
뛰	-11.5925
싶	-11.5976
앰	-11.6023
―	-11.6024
셈	-11.6086
뎀	-11.6108
껑	-11.6111
섀	-11.6113
옐	-11.6159
같	-11.621
캄	-11.6216
밑	-11.6251
쏟	-11.6275
젓	-11.6314
눴	-11.6362
넛	-11.6402
즉	-11.641
싣	-11.6448
떤	-11.6468
뤼	-11.6556
즌	-11.6621
텝	-11.663
쉼	-11.666
캣	-11.6706
꽉	-11.6826
쓴	-11.684
얇	-11.6928
콥	-11.7015
뷔	-11.7041
뺀	-11.7101
」	-11.7103
뉜	-11.711
μ	-11.7184
첸	-11.7207
슘	-11.7256
낀	-11.7282
쵸	-11.7284
뜯	-11.7323
山	-11.7327
웍	-11.7336
쏜	-11.735
멤	-11.735
퀄	-11.7417
큼	-11.7432
밌	-11.7475
뱉	-11.7532
튬	-11.7551
덧	-11.7644
팁	-11.7664
닙	-11.7722
뽕	-11.7762
챕	-11.7772
┬	-11.7843
둠	-11.7855
붉	-11.7892
튕	-11.7896
툭	-11.7933
뀔	-11.7942
콰	-11.7964
캘	-11.7977
꿰	-11.8021
쿤	-11.8029
웹	-11.8129
新	-11.8146
빼	-11.8304
┴	-11.8392
뜸	-11.8427
깔	-11.8464
땡	-11.8496
뻥	-11.8642
늠	-11.8681
쫄	-11.8688
軍	-11.8739
낱	-11.8741
탬	-11.8788
묻	-11.8798
옌	-11.8799
↓	-11.8804
쏘	-11.8843
°	-11.8859
人	-11.8915
횟	-11.8957
늦	-11.9086
궈	-11.9129
늙	-11.9149
짬	-11.9179
덮	-11.92
쎄	-11.9225
ᄀ	-11.9235
듣	-11.925
홉	-11.9283
國	-11.9412
팰	-11.9423
±	-11.9503
샴	-11.9503
첫	-11.9563
큘	-11.9573
쿵	-11.9582
볕	-11.9586
女	-11.9612
떴	-11.963
짖	-11.9632
촛	-11.9642
옛	-11.9663
텅	-11.9678
쯔	-11.97
헷	-11.9727
컫	-11.9727
긁	-11.9805
푹	-11.9904
킵	-11.9914
곶	-11.9925
즙	-11.9931
州	-11.9944
댔	-11.9952
볍	-12.0019
캉	-12.0113
늪	-12.0179
띈	-12.0183
셸	-12.0201
딥	-12.0202
댈	-12.0217
쌈	-12.0218
東	-12.0236
퓰	-12.0238
넸	-12.026
멕	-12.0429
잼	-12.0444
낌	-12.0447
銀	-12.0463
┼	-12.0463
뺨	-12.0488
귄	-12.0506
깁	-12.0529
룽	-12.0542
뮌	-12.0603
홋	-12.0683
퐁	-12.069
샬	-12.0711
탤	-12.0737
學	-12.0752
굶	-12.078
팥	-12.0807
왓	-12.0831
샹	-12.0841
늑	-12.0899
퀵	-12.0946
텟	-12.0981
탠	-12.0983
딛	-12.0987
덥	-12.1013
딤	-12.1018
젼	-12.1044
三	-12.1076
南	-12.1078
짠	-12.1139
꼭	-12.1208
뺑	-12.1243
×	-12.1292
뻘	-12.1316
뽐	-12.1352
똘	-12.1376
랬	-12.14
쥔	-12.1427
촘	-12.1495
눕	-12.1525
쩌	-12.1533
므	-12.1584
솥	-12.1607
•	-12.1615
헥	-12.162
@	-12.1622
뛴	-12.166
폈	-12.1704
꿇	-12.1722
띤	-12.1766
平	-12.1789
핍	-12.1802
랏	-12.1835
칵	-12.1852
꼈	-12.1863
깽	-12.19
對	-12.1904
걱	-12.1917
;	-12.1948
高	-12.2037
王	-12.2083
道	-12.21
年	-12.2104
퍽	-12.2145
웜	-12.2175
텨	-12.22
맡	-12.2228
法	-12.225
폄	-12.227
쿡	-12.2312
『	-12.2315
▼	-12.2353
뎌	-12.2412
』	-12.242
팸	-12.2514
밟	-12.2515
公	-12.2552
子	-12.2561
츤	-12.261
젬	-12.2676
챌	-12.2712
끽	-12.2714
않	-12.2794
팻	-12.2805
얌	-12.2844
룻	-12.2949
씁	-12.2978
춥	-12.2992
랠	-12.3005
©	-12.301
췌	-12.3029
튠	-12.3053
및	-12.3063
섣	-12.3222
떳	-12.3223
無	-12.3227
‧	-12.3358
펭	-12.3431
一	-12.3471
욘	-12.3497
싯	-12.3559
얏	-12.3607
家	-12.3692
맏	-12.3699
∙	-12.3773
빚	-12.383
숴	-12.3878
녁	-12.3879
찼	-12.3921
낄	-12.3983
海	-12.399
캇	-12.4044
씀	-12.4059
꿔	-12.4092
車	-12.4101
쨩	-12.412
둡	-12.4124
껄	-12.4134
쫒	-12.4162
男	-12.4192
天	-12.4239
反	-12.428
쉰	-12.4307
륵	-12.4335
윽	-12.4357
튿	-12.4436
밧	-12.4468
城	-12.4502
◎	-12.4517
꿉	-12.4541
갸	-12.4557
벗	-12.4596
깬	-12.4611
맴	-12.4665
슌	-12.4667
숫	-12.4677
멋	-12.4717
읽	-12.4748
썹	-12.4776
겜	-12.4801
比	-12.4805
京	-12.4827
씽	-12.4862
뾰	-12.4892
빽	-12.4929
꽝	-12.4949
쏠	-12.4987
괌	-12.5067
上	-12.5142
쩔	-12.5202
쉘	-12.5269
댁	-12.5291
뽑	-12.531
춧	-12.5335
갭	-12.5439
몇	-12.545
企	-12.5526
녘	-12.5569
눅	-12.5618
덟	-12.5694
非	-12.5701
탓	-12.5751
♧	-12.5766
쨌	-12.5788
벵	-12.5812
톈	-12.5818
퀀	-12.5847
正	-12.5864
얕	-12.5892
츰	-12.5901
뭐	-12.5925
켐	-12.593
넋	-12.6147
찐	-12.6181
校	-12.6198
心	-12.6214
뒷	-12.6273
덫	-12.6293
事	-12.63
깍	-12.6367
옆	-12.6372
괘	-12.6401
長	-12.6424
쏙	-12.6516
섞	-12.6519
땜	-12.6521
슷	-12.6619
퉈	-12.6628
꿋	-12.6642
댕	-12.6656
숏	-12.6709
쭈	-12.6719
훤	-12.6756
島	-12.6767
낵	-12.681
쩐	-12.6858
水	-12.6867
엥	-12.6875
社	-12.6898
샨	-12.6916
쩡	-12.6937
行	-12.6941
川	-12.7039
쌔	-12.7074
洪	-12.7118
챘	-12.7144
껌	-12.7159
뵙	-12.7163
옅	-12.7172
궂	-12.7222
不	-12.7246
뛸	-12.7256
쌌	-12.7264
田	-12.7304
生	-12.7317
西	-12.7327
義	-12.7333
믈	-12.7346
캅	-12.7382
꾹	-12.7428
셧	-12.7435
뎅	-12.7454
뫼	-12.7467
成	-12.749
땠	-12.751
쥰	-12.7518
잿	-12.755
民	-12.757
政	-12.7605
빴	-12.7622
켠	-12.7639
江	-12.7683
끗	-12.77
괭	-12.7706
숱	-12.771
小	-12.7791
왁	-12.78
숯	-12.7842
찻	-12.7851
市	-12.7864
짊	-12.788
氏	-12.7885
밈	-12.7892
텃	-12.7929
썽	-12.7942
윅	-12.7942
重	-12.7974
뚤	-12.8009
샅	-12.8018
書	-12.8068
떄	-12.8079
石	-12.8117
멱	-12.8122
明	-12.8129
윕	-12.8136
숀	-12.8142
性	-12.8163
–	-12.8196
全	-12.8285
샛	-12.8307
┤	-12.832
굼	-12.8333
地	-12.8343
랗	-12.839
寺	-12.8399
깰	-12.8403
쐐	-12.8541
훅	-12.8566
윳	-12.8583
쌩	-12.8587
・	-12.8589
光	-12.8635
멩	-12.8656
쭤	-12.8671
깅	-12.8746
띵	-12.8747
宗	-12.8768
쁠	-12.8783
뻑	-12.8805
벚	-12.8822
陽	-12.8828
原	-12.8848
元	-12.8852
횃	-12.895
왑	-12.8987
찹	-12.9044
近	-12.9066
팠	-12.9148
先	-12.9224
本	-12.9259
넵	-12.9284
▲	-12.93
빕	-12.936
뇽	-12.9388
얗	-12.9391
큽	-12.9484
親	-12.9496
院	-12.9498
都	-12.9537
꿍	-12.9538
習	-12.958
롄	-12.961
훗	-12.9612
後	-12.9618
馬	-12.9635
엌	-12.9654
英	-12.9725
꺽	-12.9725
텁	-12.9733
百	-12.9839
ᄂ	-12.986
됬	-12.9923
發	-12.9934
主	-12.9935
믿	-12.9954
神	-12.9955
폿	-12.9974
뗀	-13.001
太	-13.0024
之	-13.0057
홧	-13.0058
뗐	-13.0083
펩	-13.0089
門	-13.0131
훙	-13.0137
林	-13.0156
튤	-13.0175
컥	-13.0184
뺐	-13.0199
龍	-13.0208
《	-13.0281
핌	-13.0292
▽	-13.0298
뿍	-13.0304
會	-13.0312
쾅	-13.0324
德	-13.0327
硏	-13.0341
福	-13.0353
촨	-13.0386
셴	-13.0388
官	-13.0392
α	-13.0437
콴	-13.0438
武	-13.0448
땄	-13.0463
짭	-13.0511
뼛	-13.052
經	-13.0577
삶	-13.0596
몄	-13.0688
챗	-13.0691
府	-13.0748
걷	-13.0871
렝	-13.0902
깠	-13.0906
盧	-13.0954
뀌	-13.0994
찝	-13.1015
世	-13.104
띔	-13.108
春	-13.1118
é	-13.1138
┌	-13.1149
┐	-13.1153
맣	-13.1166
史	-13.1195
君	-13.1248
月	-13.127
캬	-13.1362
숟	-13.1374
代	-13.1394
퀼	-13.1443
佛	-13.145
劉	-13.1477
使	-13.1477
뭣	-13.1477
下	-13.1492
鄭	-13.1506
읊	-13.1528
꼰	-13.1543
└	-13.1621
黨	-13.1624
┘	-13.1648
됩	-13.1689
郡	-13.1704
證	-13.1716
쐈	-13.174
◇	-13.1771
仁	-13.1798
司	-13.1902
河	-13.195
風	-13.1966
張	-13.1968
華	-13.198
和	-13.198
通	-13.1986
훑	-13.2025
렷	-13.2056
ᄋ	-13.2061
볐	-13.2076
빤	-13.2094
部	-13.2119
白	-13.213
앴	-13.2134
앳	-13.2157
닳	-13.217
탰	-13.2172
相	-13.221
쉔	-13.2241
봬	-13.2247
찡	-13.2272
慶	-13.2296
쳇	-13.2382
黃	-13.2398
知	-13.2436
쥴	-13.2499
쑨	-13.2526
갉	-13.2564
뵈	-13.2567
立	-13.2625
洞	-13.2626
同	-13.2686
좆	-13.2695
化	-13.2743
有	-13.2768
古	-13.2782
핥	-13.2799
崔	-13.2813
戰	-13.2856
슭	-13.2858
깼	-13.2868
퀑	-13.2911
웁	-13.2919
씰	-13.2962
五	-13.3007
귓	-13.3017
핼	-13.3025
等	-13.3051
밝	-13.3093
漢	-13.3101
多	-13.3105
텼	-13.3135
廣	-13.3153
縣	-13.3161
內	-13.3201
晋	-13.3223
뺄	-13.3227
樂	-13.3258
善	-13.3333
吉	-13.3364
맬	-13.337
켤	-13.3415
來	-13.342
톳	-13.3424
時	-13.3428
쬐	-13.3436
헉	-13.3436
쿰	-13.3449
숄	-13.3451
잽	-13.3455
甲	-13.3486
뷸	-13.3486
報	-13.35
훨	-13.3509
里	-13.3542
듐	-13.3586
쥘	-13.3607
줏	-13.3613
ᄏ	-13.3649
興	-13.3656
夫	-13.3689
乙	-13.3692
갖	-13.3726
信	-13.3751
者	-13.3781
聖	-13.3794
촐	-13.3805
朝	-13.3869
倍	-13.3897
돛	-13.3906
뮐	-13.3915
좇	-13.3928
木	-13.3934
四	-13.3941
敎	-13.3969
뗄	-13.3982
옇	-13.4006
쌓	-13.4019
잃	-13.402
死	-13.4057
名	-13.407
永	-13.4083
Δ	-13.4103
쇳	-13.4123
잊	-13.4146
所	-13.4158
츳	-13.4174
뮈	-13.4176
잤	-13.4189
햅	-13.4209
캥	-13.4225
뱌	-13.4259
룹	-13.4477
뀐	-13.5082
맺	-13.7104
짧	-13.711
▷	-13.763
눔	-13.8272
끊	-13.8334
묶	-13.9185
릎	-14.0625
띄	-14.1215
눠	-14.3241
얻	-14.5114
팎	-14.6946
■	-15.0545
꽤	-15.6178
◆	-15.7318
겪	-15.9281
├	-17.3623
◀	-17.3623
