렛
##방지
##딂
지칭
##】
이어져
##플리
##딮
##条
기후변화
##천
##溺
족
##出
##∎
풀이
##vel
채권
승합차
##쫩
##(54)
##줨
##퇫
연안
##攄
많았고
##풪
교량
##塊
뱐
울산
정지
수익
부위원장
음반
##逸
틸
##(42)
##Î
##뒱
스타트업
##port
룩
##薄
이루어진
Good
##CE
##ะ
=
##현황
인사혁신처
있지
##अ
##뺂
##응
##쓳
##쎆
##ゴ
꺅
##臂
히데
##뺞
##杯
##se
##佟
##驥
삔
##典
##몍
##뗷
##ậ
식민지
##닾
##桓
살짝
봉
찧
##奠
##ḏ
묾
##챱
엌
대박
##羞
##葶
즐
선거법
##矩
충주
총수
##岸
##냗
##У
##width
##淙
##전환
누구
석방
##뺈
##119
##부터
장식
##앍
##쨩
삼국
##이라며
##論
##χ
##紳
##에게는
원주민
##았던
##华
악명
##쟌
려
야구
##던지
외면
소속팀
##기부
##됁
##혐
서울시내
##놂
##궕
##奈
##朞
학업
노르웨이
##智
버
##{
멋
##긢
밖
회피
본격화
기숙사
##뱔
##ろ
##俁
2~3
##꺜
컴퓨터
마
##에게도
##딩
공안
룟
##접촉
##悳
##佃
##珦
##앴
q
기간
시점
##쒒
##翅
##작품
##跪
##ו
##≫
회전
타이거즈
##밐
##廻
##栢
##꼮
기쁨
##ev
##31
##營
##討
##딁
최적
##자의
##해준
음식물
산소
몬스터
##튑
##(61)
평택
쀼
특히
질량
##뱍
셩
등번호
##ŋ
##曜
##슽
##캍
##모드
##ST
##햐
##똁
해보
##微
##瑪
##Ó
So
사상자
##뢥
##再
집권
##澹
초반
눴
##솽
##저녁
헌법
시전
##툴
##떘
느꼈
##이어
사전투표
##潜
##OR
##攝
##.8
강남역
섣
켯
##噛
##푗
##SS
쌌
##綺
##휻
청원
##en
##ʊ
##ư
김대중
##拖
##6.2
이뤄진다
곡명
감사원
##鈗
정립
##劫
사무국장
##쑑
##탁
##越
##س
##쳤
입학식
##체육관
##낑
##즇
##교육감
##卯
게이지
성과
##사회
송
##刑
통일부
##햵
##눙
국어
##컁
련
##미야
선정
##아와
지냈
먁
##낰
##rac
의미
콱
꿔
##결
쓰이
##uck
##데미지
경산
##땊
##렀다
핸드폰
내달
##푼
매뉴얼
##草
##븆
##汪
##톗
##嗅
##뚫
운세
##誦
초미세먼지
##어도
뿐
##銀
##놀
##岛
##캥
##廛
##훳
븐
##스타
어
##플렉스
##퇼
##맑
##ュ
##国
##쐊
##뷚
갇혀
땁
##ß
##뵂
##쯼
450
##勅
##쪝
연락
기자간담회
##黎
##2016
##줴
후방
##엤
##ہ
보완
##푁
##悉
##煒
전차
##뤣
##스
##뵁
##蟠
|
##搏
##쎤
##횡령
증상
##까마귀
걸릴
##잛
##꼥
##혈
##조례
##읕
생체
##맆
##岡
##쏙
옙
##耿
##뺑
##보건소
대책
##う
##펄
맞춤
##쯫
희귀
##ཞ
##긃
##늟
내렸
깊이
국정농단
##眠
##지방검찰청
##끂
##흙
##啊
##綽
##펎
구제
보낸다
허용
##듡
지방세
##栽
##透
악취
관광버스
않는다는
##ợ
##恂
뱁
학부모
##였으나
##기능
주니어
Vol
카이
켕
##뗥
##얒
싫어한다
벳
쪼
##យ
가상
##훈
##訢
고소했다
혐의
##俟
##懷
##실에
##퀑
즉각
##시경
##베
분당
##뿐
##bo
주거지
횐
부대
붰
관리자
[unused93]
A
##撰
##謖
##탮
##7%
##뻦
##虎
끕
샙
프로그래밍
가리키
##윎
민속
나쁘지
##튭
##넷
읺
공화
##붙
##디아
°
##귦
있기에
##굑
##著
매년
##영화
쉬워
##滕
운동장
힙합
##艦
아트
샴
##ቲ
[unused54]
주사
##들만
##濡
##nt
##돖
##푒
##蚖
[unused42]
##險
##允
골목길
##ES
후유증
재단
임시정부
##인력
땝
##라고도
양반
##해당
##醋
선생
##偈
이어갔다
Fate
교훈
사회의
##뻽
가루
##돼지
##뿡
터널
##St
심지어는
둥지
##어졌다
##텍
체육
##rea
보답
##ख
##시오
##ブ
##긣
교통
##뵬
##瞻
IP
##敞
##륉
[unused48]
##횜
##食
##俣
대리
##椽
##더러
##6000
OG
##개로
8
섶
프라임
같았
서울고법
주차
##≠
호크
특허
써
악역
##砲
##돉
##사법
##講
큽
평판
셥
##팎
##는
시의회
##박스
수사
##지금
응시
윌리엄
##珛
대리점
공수
##까
큘
톱
금액
퓨전
눈빛
##컪
아니라고
##ml
##화로
##킥
영장전담
##沮
##隸
재선
토요
##▣
##싯
##먐
금강
향해
##貫
##껏
##蛙
존경
감
##믎
##뻣
##搔
##변경
ᄀ씨
##争
##ප
중단
##满
늦게
##뚚
##진단
##착륙
##사용
##킛
##‡
모듈
##지훈
상생
인플루엔자
첩
##거
귀국
동영상
시정
띨
##昔
##싋
91
##碧
다쳤
##情
결정
##sp
[unused94]
##조가
##쁘
낮은
멓
##亻
보호자
고향
##긜
##쨔
##红
##기반
##쭏
법령
유관기관
##엳
지역
##뉨
물려
##辭
##崁
##립니
##鄳
장안
##핷
실장
##턢
묶여
##ough
란스
청춘
땅
##뷍
##(19
##뷖
##톇
세포
듀얼
##昭
##莠
##사로
측면
침투
##뭘
##葫
##短
##蕆
##릤
##꼍
정신력
##퍅
비밀
##ḍ
##샮
도발
##闕
블러드
##針
[unused45]
##騰
경남
##패턴
##뜭
##섡
##바이러스
들어온
##마루
기각
##頲
##2013
시
말자
##둿
전
가시
권총
##럨
리메이크
굳어
가이
헌혈
처한
##똔
내기
고대
맵
##훜
##旒
태생
##摩
능동
늬
##오가
##팽
##NE
##쇲
막대한
연관
떡
무너졌
##쯵
통계
##期
사무라이
이목
##이션
경북
##何
##뜕
##琛
##괜
해안
##미스
영국
##세대
##뗹
쯕
##버려
##햣
작가
##頊
시합
##땅
거짓
퇴각
셀프
##拐
##屢
##볼트
가질
##부터는
어택
신비
##款
##앋
펌
##ļ
##暄
튼
##챰
동상
포스
기상
절반
무너지
##―
예약
장수
##俌
##리그
엑스트라
이뤄져야
##뎜
유서
##덏
##
##사이
##겜
사직
##스마트
##洙
강한
무적
전력
##넥
##渲
불교
##觀
##활성
##刀
팃
##뉴
##劃
원장
##襠
##境
게임
##앨범
코너
몰수
있을까요
##學
##캪
의료
##垣
##老
##្
##TION
##짱
##뇠
##동안
##멋
착용
##釀
뮨
##150
##海
(02)
##茸
닙
##웍
인력
##뉇
##狼
##풦
자치구
##vs
##倪
용
##ǐ
JR
##뉸
##씀
헬기
##콞
재원
##졀
##趙
##溫
##勺
##̊
##솞
1,000
##즘
김병
love
일대
##므
지역주민
##賊
##뮋
##ț
통틀
##샀
맞추
##킑
##身
##間
마치
##웽
쇄
##鎭
##莎
##ṭ
광양
갇힌
##簠
됭
폐쇄
##ữ
AD
동서
##邱
##핽
처우
##툿
##작전
##惇
공권력
##隔
교전
서식지
메이커
소
##학자
[unused11]
##3.0
##튤
작고
중국어선
커지고
통과
##甕
명확한
##奬
기준
럽
##莢
[unused90]
미군
갈수록
##倧
##Ἱ
막판
##埼
경찰관
##腸
[unused24]
##挺
##機
##꾢
촉
꾀
##컚
바치
##턭
##격
##집회
##걺
##
릴
##공예
BGA
##사이클
스탠드
계기
##ゑ
햇
제법
##녘
대기오염
##햝
4~5
제국
보낼
팽
##꾜
##듯한
##겤
##죲
골렘
##複
##08
##괤
##지대
소망
##疣
##뜏
##였
##平
##퍈
출신
##Ź
##뽲
##접
##捩
##동맹
적중
픈
통솔
##計
##珏
##쵴
크지
우선
##메르
칫
볓
##면사무소
간사
유은혜
##핀
##먒
괌
##澗
##쫸
##잻
KT
##弘
##퍽
골
##뭫
##펵
##ር
쮜
##徵
훅
##탥
Mar
몆
##疆
##시킨다
##꺻
##콗
##/
##櫟
##뵿
##妬
종로
##竝
##창
##겾
시대
##뀇
뼈
##ك
PP
##해진
##긆
##죡
학사
다스리
SH
이거
##ms
멱
넙
두가지
구할
최후
솨
소모량
망토
속
거절
자동차
##誕
##湜
##쪔
##썻
##쪒
##棗
##키
##많은
##톸
전문
바보
##RS
합의
묜
핀란드
파츠
실제로
현상
안종범
수준
유키
정부
뎀
##辟
##돼
펄
##회전
##完
하이
##鐸
써먹
##깷
신세
총력
바다
##伺
승률
##來
##뮞
##쾏
본인의
112
##쵐
##값
체력
##찎
##퉴
PS
올라와
##혜
갈라
##캐
##티어
##爐
##워즈
##礪
국과수
##ce
##당한
##냬
면역
##셊
##다던가
녹조
##픗
##洗
##閬
##練
사라져
##묭
반론
±
일본
##닽
##니언
##줌
선고공판
##뀌
##됉
살
통학
##迹
##퓌
##받았다
여러
##뻹
아레나
##뜒
활발히
문화재
공론화
후기
##뼆
이하
길다
동물원
좋아
##칰
##3000
건설현장
##댄다
##씛
##니시
##틱
##있는데
##옝
World
##재배포
잔인
없도록
계곡
##湟
##푝
##栒
##AR
##枓
##쇨
실명
어느날
[unused47]
##童
##저
최측근
짧게
꿈꾸
##공화국
##썿
##믇
관내
경고
마무리
벡
##팇
##슖
파울
##浪
##봁
의결
##(45)
정글러
##뮹
##싃
기어
##료
고급
유럽
##SH
냘
##첰
보관
##壱
국립과학수사연구원
##제보
첫번째
##점
##츽
##홍
##분에
##∈
##썬
##베이
없다고
##컙
##庙
##뙆
OVA
##辱
척
##뀶
왝
##낱
##匹
##だ
##븲
무력
##吃
##㫜
##⋯
##햻
##씙
편
뇽
##饒
##△
##딇
##폭발
대도시
##튯
##쪚
##전자
##힀
##바흐
##넘
있겠
무궁화
끙
석유
김해시
##을까
믐
##8.5
흔한
##谷
##х
##蹟
##힞
100%
떠올랐
##琨
##蘿
##ᄥ
##詹
##67
집필
쩌
##环
##핻
...)
##턦
##멷
##함께
린
의심
##腺
##삵
##UP
SNS
##ĝ
1989
마리아
김현정
죄
##인권
##莨
##킔
후
대학생
##喪
##퍤
##찢
##婬
##블루
##く
평등
##힁
사후
##츦
##侵
##촵
##띕
##운동본부
##糖
프라
##아이
수학
협정
신흥
##보단
##초
##쾆
##깂
##보스
거부
왠
##走
##퀨
연루
운전기사
싸이
내내
##丙
##마리
채팅
##賢
##욬
##拭
##츙
개업
스즈
여름
##아트
##틍
##원전
##얄
##찻
##糀
꿨
경부고속도로
경찰의
들어서
유우키
##뙯
진심
보존
먹이
##표준
사촌
누락
##僑
블록
##했었
##輒
##돏
빗
##돈
변환
##ع
##숟
고병원성
실사
랄
##規
미국
##짚
##슝
##龍
이때
최저임금
##α
##Ł
출격
한층
##ok
갉
##若
인해서
##TF
##主
##년대
##브
##붥
[unused73]
##비상
필름
슈퍼로봇대전
##매
플레이어
##脯
##지방법원
##詮
##쌀
서울특별시
##돘
몽골
##셿
##딿
가짜
레지
##睡
##4.0
칭호
##窒
공시
##조정
신용카드
츳
st
적용
트리거
##솗
고도
먼바다
##肥
소위
무녀
의견
믓
##로
잇따라
##푄
##질
회상
##元
##몜
수사관
##잖
##뉵
##쐑
사진공동취재단
제자리
##熏
무상
##쨦
##렮
안성
줄일
##츌
투명
##퐏
직업
##ğ
안
##胤
천체
##忽
기상청
토로
##새로운
##ox
##古
Super
바닷가
##공사
폐사
##辨
##郷
##민이
##BS
고집
##WHO
디
향상
##꼼
수요일
##안심
##아무개
CPU
##禦
용산구
순직
##底
바란다
##pp
훔치
##ni
잠
[unused74]
##깜
##旌
##ṇ
내려놓
##레이어
##赭
해피
자칭
##ake
입원
##饁
##즽
##헐
##쟋
처녀
##苟
앗
식재료
##容
##3)
간격
##葬
##톺
##햆
##낯
##위기
마을버스
##偉
##췉
##kmh
챵
폐렴
컷
부임
##밧
거북
츤
사다리
##嬉
##妸
##휥
##傀
##メ
##>
파손
##경찰청
인조
##케미칼
##俸
##화가
없으니
표기
##쥰
##裴
##잾
떰
##췟
##ホ
##턽
이동
모습
##좰
##기로
Pro
모아
##광고
##뮒
짖
부리
대전시
##뢷
생계
##예방
##che
장거리
노무현
##謨
상권
##봑
뙤
##碇
900
##幀
인형
##돞
##碖
##꿏
학생
##俑
##펜
##坨
##Ô
##미가
닥
잉여
뮬
##奴
##졬
##첩
##ug
##龙
내린다
##エ
##쌖
##좜
여건
챠
##拾
##릨
##槽
##쩔
##ᄒ
##몉
파트
##cy
##Ἐ
##몽
##co
짧은
##슔
여중생
합창
다크
휑
롓
##릫
전남
마틴
##덨
압도
연방
##ミ
##뼌
##갦
겉
##어린이
##류
##壙
##遥
##窄
성매매
##胸
1993
##쉅
##덞
여기
##쑸
서울행정법원
투표율
##靺
##멨
암흑
래퍼
벨
입장
영웅
끼어들
인문
##県
##냝
나가
##쑝
##猷
##襖
##캐스트
분명
x
밤새
##崖
정당
##邈
탱크
##象
##«
##북한
62
##賤
맽
##ྡ
객실
##厚
마이너스
들어가
##亶
방류
27
엑스포
##즌
##스코
스타리그
평창올림픽
##늰
##뺔
##hen
##▦
##장이
##濂
장학금
일어나
##쬘
##뒪
울프
##집
##CV
법조인
##칤
꾸준한
아
만끽
##옺
##얟
##왔
##쳡
##겷
##舜
팩
미디어
혔
대표
사안
##條
클래식
##け
##譚
##ぜ
##能
도교육청
##res
##壻
##嬰
##na
##极
흭
뽁
##護
퀘스트
학생부
##署
##勸
##緇
화산
##망
##죙
예산안
상품권
아카네
##숤
##쿠
##츕
##뙁
최모
##겣
극도
##샥
##뙻
##5000
바꾼
##Н
##薀
##ey
##늀
엄청나게
##庲
##솔릭
##聯
전무
##菴
UP
##鍊
##坎
##ج
##MR
보잉
##倬
##듬
얜
##.07
와중
##옥
##얪
정령
##Ĉ
##넉
##엌
총
굴
##국민
##晋
##뇘
있으면
##훸
##맖
##턷
##겔
##얼
최다
##봇
풍성
##칭
옴
어떤
##퍢
내
인근
##戒
##박한
##깖
##모
한양대
알렸
박물관
##뾑
##菡
차세대
핵실험
##퐷
##해요
##뷺
##텇
##栮
기원
숨진
방사
##韓
##돗
##IV
##個
##럹
총합
##脊
##템
##있던
스탠
난동
아프다
101
##'...
##흭
##는지
그러니까
##캴
자작
##정원
세웠
애니판
##뛙
##앾
4.
총학생회
##쎣
##七
짇
당장
##쒧
무시무시한
##詗
복구
졸라
1985
군사
##捧
##힘
많기
정선
##諧
참석
##지원금
##拆
모으
조성사업
대피
##弟
##州
동성애
벵
##CD
걸음
##蹈
##쪼
끝난
##군단
##.6
##楫
##있는
월세
방위
##뮌
오키나와
##疫
##춪
##히
메카
케이
##솬
##撞
수질
게이트
외벽
##쯹
##릭스
양대
조용
##ா
##벤처
##®
15
시선
침대
누리꾼
##퍨
##퐌
##다니
아름다움
##딺
엡
##으리라
##트리스
##출판
##800
##흚
흡혈귀
텐데
##낂
##뛜
##벐
##锅
##(51)
##5%
여대생
거주
퀀
##襄
##왢
48
특집
##긱
##영업
##昨
공고
##◯
무슨
##붼
폐지
##㸂
국내외
일쑤
##윿
##요
바둑
##깶
##귷
##the
1942
셱
##坑
으
##泡
##諡
##수학
클린
촌
버리
##기술
흰
청소
꼼
##뿺
1940
블레
##衷
##뵅
령
유권자
아케
##乳
신축
##棱
결국
연세대
타이
##땟
##奻
손목
분리
##ple
됐
죵
##특
6.25
하여금
당했
싶습니다
70%
##담당관
여주인공
죄책감
[unused63]
마사
친척
##룏
부상
넓히
##槐
또는
##該
돌진
##헉
결핵
##磨
##뛔
##la
응급실
##봫
의혹
50%
돼지
##통상
DF
##기본법
##럕
##熟
카
##본부장
마친
설탕
흩
전설
##사항
##З
E
퇴원
##텹
##삝
계층
마지막
##拓
나타난다
##긭
##임이
##將
략
정신
##욋
대역
##瑾
##좡
들어간다
##투성이
##際
##왣
멸종
Copyrightsc
##畑
무조건
##ep
상관없
##싚
##텙
수급
##堈
들어갔
정유라
##淘
영하
##륣
##지원사업
##갈등
##숎
[unused84]
##星
실천
##감독
마음
2022
##끼
##굘
##처
##植
##逢
츠
##킷
주어진
그렇죠
##쬣
##鴫
끔찍한
장본인
##탐구
##臭
##믬
##지역
결론
지은
##아버지
##웥
늑대
국기
##븍
의상
진행
지방
그림자
##챑
##떨
##방역
정해진
챌
##뒀
##잖아
1988
어느정도
박스
##頃
키운
##자체
행정
##侅
##존
##리나
##퓅
배우자
명동
국무회의
환경부
살아가
##햁
요리
##껪
60
##뢹
##궬
##OL
던진
철거
상영
##幕
##ᅠ
그
두려움
자주
##블랙리스트
여주
##쾕
애매
##놀이
##떰
과학
##7000
굴욕
##려는
##뷜
##슼
아니라면
출석
##ړ
##뀽
동결
느낀
##”
##交
##산
모양새
##鋌
##자들
##MIT
##슗
랭
##臣
##ζ
파란색
##ab
##왺
확장팩
마포
관찰
##리의
호주
##株
##天
##Е
신화
##雋
정책
순서
##틡
꽃
##아프리카
##결제
무산
##孩
##얆
##凌
##歩
다닐
일어난다
연봉
##琄
수여
##홇
무제한
##磻
##긩
##쯔
##
개정
정신건강
##21
##麞
룝
응용
내장
##성적
##y
##迦
##僿
없으나
##각
##전이
기기
##럼
쓴
변한
##篆
##합니다
항
##瑰
##거든
쉬
##즷
태운
##쎔
##❶
##챎
전례
월등
유인
▶
##욁
못한다
광경
##鍠
펼
##십자
##묠
웜
##이상
##뾌
[unused51]
지하
통영
사흘
##亳
##쒐
실시
장마
##경
폐기
##庚
##옃
##재현
##剌
조례
가디언
카르
씁
##빅
루프
단기
##ץ
##쪙
유사
셌
CJ
돌풍
##恃
##鄂
인간
##奄
##纪
##等
##欠
##盘
##퉷
##蔵
##륖
##쉼
막
##杲
##밊
공직선거법
##톰
##夢
##본부
문화체육관광부
아니냐는
종점행
##克
##쑗
폅
캠프
##대
##윶
##튚
출처
출발
##嶷
##点
븨
조기
##照
김정
##이나
##钟
##부에
배달
##폅
##ˋ
사실은
##밾
:
##사법농단
최대
침해
MC
포럼
##마사
챌린지
##플러스
##됐습니다
##「
촨
##길래
##냘
##ave
기쁘
욋
##꼅
쫒
##མ
##봻
##圜
##篤
##憓
##Ђ
러브
##飢
싶
쥡
위주
##눷
맞이
##놖
베르
까다로운
##쓲
##탴
##쥑
KIA
##拵
##直
다량
안경
##룵
그렇게
비상저감조치
##酉
아닙니다
##쯇
항소
하향
##뀷
##자격
어쩔
함유
##딄
##剝
##공모
이용한
##48
엄벌
##☆
##맟
특수
회유
없고
##墻
타카
영원히
##잇
춧
##톙
칠곡
지켜보
실제로는
사각지대
##酢
##궴
##쁟
##雜
##십시오
장례식장
만료
##뀪
도
약간
뎔
민생
##쵺
##춦
##골드
##꾚
주체
##硏
##姥
##장과
로켓
만날
##摂
크레
토지
근로자
것
서울역
##ᆵ
##描
##남매
##에서도
네티즌
##灆
지상파
##큅
느린
##毖
##澉
돈
김일성
##오염
##渠
있었으며
##酪
여타
##沛
남매
##민
##~3
대한제국
전성기
##좗
##뜪
신선
##鷄
##청탁
##판사
##唐
콤
##히로
낍
##f
##ect
월
##컭
##bl
##崩
##巣
꾸
##죤
##裳
만연
##閏
##다면
##췁
##企
없으므로
##ᄌ
닳
추후
##뭷
##돊
Content
맹세
##차
받아들이
##剖
픔
나타냈
흔히
자폭
추리
##끊
주민등록
입력
따온
##瀑
##腫
##뵨
이외
흔들
중소기업
##고용
##杏
노예
치르
##창업
마다
##펋
추돌
출판사
##페스티벌
##щ
##쪑
실태조사
아랫
NO
¡
##뙿
훌
구체
한국판
##자문
##뒼
명백한
##匿
##뮡
방법
##쥡
스튜디오
##똟
##ዓ
##썜
##샢
MOU
##祀
편의점
##싈
##좊
##ee
유튜브
다를
##쟉
본회의
충분하다
##뿤
##占
요양병원
없어졌다
##깁
장군
저희
##뒹
쁜
##컥
##EC
권영
많
##장소
유혹
##렀
수학여행
고등학교
##아이돌
동해안
원본
하사
인증
##핵
##藝
##뾷
혈중알코올농도
##А
단순
초청
##淹
##袁
##방식
지적
1982
##仕
법조
##훃
댐
하
##양의
##(2
##럿
##버튼
블리자드
##맚
봉사활동
##ø
##을
무술
회담
##慷
렸
##잹
폐허
##모바일
##像
##ត
종업원
##旴
한나라당
##瀁
슬
##跑
부작용
##~15
##卬
쎌
)
##웨이
##뀋
##佑
수련
##帆
놔
##켼
##꾳
##띀
##繹
마력
2
##廁
08
##ы
()
입점
##띃
채취
0
##뼥
##乏
##寫
권장
밑
킷
소방당국
##들에게는
궉
##死
##俵
##떪
##男
대구
긁
아스날
오스만
##վ
##뽚
##es
##증거
평균
##릱
음악
시행
##뗌
##ማ
##筰
분산
##풘
##£
오늘날
나비
강타
##庸
##라와
##纂
현실
방치
멈춰
##쟪
먼지
##풛
##으나
##셥
연습
##瞋
##잳
즌
마법소녀
##勛
줄어든
그날
입체
##츪
##교환
풍경
관할
헴
존슨
학력
##즔
##稱
논산
##ak
핥
##여성
##勞
혼합
##煐
##後
##큸
뽐
폭주
##過
화가
##퉥
유치
##ly
##땨
권리
##곡동
끝난다
흉
##안내
무시
원수
소장
나타났
갑작스
##수리
중립
##쁠
가이드라인
##해줬
이긴
##아시아
##뢆
날아가
##쀓
##자가
지도부
콥
활발한
##하는데
##feat
##동의
##햂
자국
##빶
그녀
##근로
##섲
##京
도저히
코리아
##65
##"
조성
##46
##瀛
##需
고증
##쪠
##쁣
그의
##릞
비행기
##Ф
##.29
서면
하루
##놼
뉠
##딸
추첨
##지침
##貞
##散
##裝
피
생겨
당해
읍
군단
##鉤
불법촬영
##ै
##驗
##뱅
..
##쳬
업그레이드
##爽
베트남
능숙
##案
##ь
##龜
##넚
##ゐ
##안보
##-3
하느님
휴대폰
##ヌ
조화
사쿠라
##罔
!?
##영상
##漆
##퍮
03
##더니
나서
##챉
##깡
쳐
##순양함
##麟
비정규직
나타내
##曹
공약
출입
##提
녁
##헤
##싢
##汴
##㽔
25
##(15
##뙨
1995
##吾
기법
##뻗
##궤
##섧
팎
##회차
##갠
##頤
얼
감상
##顗
[unused83]
FIFA
##蔘
##뀠
죠
##벾
칠레
##ا
샤프
##쮛
##『
##퉱
93
혠
##꾀
불렸
득
종종
행방
##갮
헨
의료기관
확인
부산지역
쩝
이러
##잚
적폐
##ele
##ย
##문서
북서쪽
##쭂
##긶
공작
키즈
##@
##贓
멤버
##졜
##풚
##께서
##땼
71
경관
과연
##ネ
##昷
부녀
##嚇
수중
##敎
쥠
괜히
##퇝
##씹
##Κ
##잣
레시피
딜링
##兌
막혀
##마을
##க
??
둡
##눋
##컒
##국가
산책
좔
당한다
##둀
##몀
챙
##튏
##ě
##ட
##ơ
##구매
박찬
찼
공공부문
사용
##쁳
동방
##잖아요
##ign
기수
##날
##커스
##홯
##밀
##켷
##역량
부드러운
##浚
븡
뜬금없이
##얀
##스탄
##俱
##サ
맛보
확률
넘치
##覚
##뾓
매립
##붿
##51
불합리
타격
지나친
##없는
1967
##浜
사장
##誣
능
##狭
##세
##MP
채소
어째서인지
량
추
##냐
##멩
주기
김천
##뺒
혹
자르
중부지방
##시켜
돋
개그맨
##强
##툸
##쿵
##뀀
##浑
플로
##뇝
2019
##苯
##갬
##癘
##相
##콭
열려
조카
광복
##per
##랉
깰
낙동강
##종류
##위원
끼
노트
들으면
##疏
##티
##쥘
##뤩
증폭
##긅
집행
##瘡
##潢
##낀
쇤
##밤
##릣
##겺
##행
##처분
Night
저런
위대한
도대체
폐교
##뀫
배출
##쫜
##뎝
급여
오늘의
요약
##⦁
이씨
극복
##넙
##髮
##냌
어드벤처
##챖
##ṃ
##섩
##덈
##봱
##찒
##국
연말
굉장한
발열
##섪
징
세무
##됃
##պ
한국사
바른정당
음주운전
##π
##豹
##챒
##콮
##럘
##목표
심리
##망이
##▲
##덆
##텃
##벽
##깆
##햗
##ш
##넌
##ove
##痘
각본
##챞
##캠프
##ә
##華
##꼙
스피드
##뫀
히든
##嵒
뵈
##清
배울
창
##업무
##걜
주자
##웠던
흰색
##뺨
Is
##넩
##봐도
모아서
가로수
은행
고종
월드
푹
##사관
##Г
##팼
기장
간
##蝟
알려져
맞춰
##롷
##츢
##咏
My
##Ε
##듍
##禳
##괘
운용
##扇
파트너
출품
##롽
고속도로
##어떤
##瘣
있다며
##刊
영결식
쟌
##懲
##짜리
##이름
중화민국
##前
##롬
##들끼리
##딆
퇴근
##라는
##流
광명
##遷
##저수지
##苩
##汀
원숭이
##250
주행
##탒
##쿕
##랞
##頀
##클레
##द
힉
농약
In
래
##瀬
큼
박종
경우
ver
##吏
##♦
##乙
##뢂
신고리
패션
##捻
있습니다
벛
동력
##st
공학
연재
##펂
##조합
문자메시지
통칭
##복지센터
##25
##89
##썩
##SR
##薩
##으로서
지적장애
##디지털
자료
가진
PV
한국전쟁
##찮
열풍
아무것
진단
##툳
##득점
건국
탓
##可
떠난다
##월말
##냁
뻐
##许
좌절
##閼
##騎
비롯해
##땭
스크린도어
콜롬비아
##l
##란
##혌
##թ
연구원
피격
새
##燁
은신
##be
##攀
##脇
##識
##콸
##㼁
##믏
마을회관
##繩
##륍
##埈
회식
켤
옯
##夕
##依
##여객
##얇
성금
##히코
##浄
아르바이트
횡단보도
구호
타마
##싌
펀치
면적
향하
고성능
밝
텄
빈곤
##어버렸다
##迟
슬퍼
주역
적혀
##듁
##섷
프레임
##수
얘기
무인
##皓
##쫙
##捉
##해온
##됏
사무총장
조윤선
억제
##텋
외래
##瀦
##客
##ear
유전자
##邀
##옰
##방울
중량
퓔
이벤트
##漑
##뚦
방지
훈장
##깑
일괄
##∥
##럸
##피해자
##藏
나눠
썩
야권
성희롱
##앞
##科
##橡
박준
##த
##頗
##쌕
전문가
와이번스
##艱
배역
소방공무원
##悟
향한
##央
##었으며
##(8
##53
##꾈
고액
##2000
##줵
묀
##抹
##师
윾
언데드
##臚
##햒
##부두
##쯤
##滬
슈퍼맨
##톕
군주
남동생
싸움
##껀
롯데
for
##끚
##낕
##蕾
##J
명은
##驅
취향
건지
##봏
타선
행정구역
차량
2010
멀
땀
생리대
그러한
흡사
##מ
경기도지사
##匈
##壽
##틴
##리고
뚧
##후보
머신
보여줄
##쌰
##⸮
##이었습니다
소외
##fe
##衰
##캎
부문
킵
##爭
낮추
전향
##때문
##膀
혈액
##WA
##턒
##ÿ
##점검
##곻
환불
포스트시즌
면모
숍
##
##컹
KBO
##퉶
매입
확실한
##재판
##ack
타입
미투
##基
##XX
##쮥
번호판
##장비
꽤나
찬성
##功
##ṛ
##蟲
수록곡
44
셕
##敬
음력
아무
재평가
##뜍
국정원
##滅
##퓂
동물
##煕
곧바로
##Ä
##馬
성폭력
명확하게
##ṯ
##潾
##쌞
프로게이머
의장
상임위원
우리
특별검사
키리
##쵟
골라
##생태
리뉴얼
##미국
##寧
잿
##걀
##펌
FM
##상
화성
##犧
##챘
##曝
##풕
##쭍
##이고
잃어버린
##챁
교원
##│
납품
##무늬
저격
##츸
다르다
없으면
##埕
##조의
##л
깨닫
##펉
지휘관
##끗
##챋
##斃
국왕
동아대
분신
##퉫
##햫
##히어로
신입생
##땩
과
##롥
##호로
##풀이
##瞬
##닐
##ὑ
구속기소
##제작
쨍
장교
##맼
##윓
##흉
위험
##쓣
##꾊
높다
##莉
익스
취임
##悷
국회의원
##훌
##궜
과학자
##◆
자녀
미처
##껭
세뇌
옳다
##뎾
절도
##arch
봉투
##銓
증발
##개발
참사
좍
노후
채무
##깽
##믁
##번이
##쒙
안팎
##1.1
다
예고편
##의
아테네
포털사이트
입건
했
통합
##რ
##巿
졌
##峽
국
브리
출범
명명
##嵐
수
##멭
##래
리듬
##睍
##坦
##뒤
##셧
##딻
##प
사라졌
##렫
공대
##200
##낽
컥
##뉋
신분
##회
##퓮
##븾
##시설
주어
##郑
##픔
##컸
선물
##胜
##우리
끔살
런
##斡
##木
##페
불사
##꼋
##낅
##푬
치즈
##뢅
##⠀
##갞
덕후
인수
진실
##뒳
한라산
통하
##지에
비상
##낖
방침
##믊
##確
제주
텐트
##롭
충실
##繞
갑자기
##뀃
가격
##斤
이적
##菜
##釗
[unused8]
##빹
##ild
맥락
##공공
전념
붕괴
##罾
##뷘
##ration
##비아
##슶
##籠
##긗
재판관
MF
다이아
##熹
6000
듯
##펖
어머니
USB
업주
##까진
##張
있겠습니다
환생
##전력
##su
인공지능
##서울
탑
경찰서
##맕
조계사
써서
개표
##쏩
##푑
짝퉁
부근
대치동
과언
태양
##썽
짫
측은
다가가
서로
##대상
그대로
##寬
##졂
##중앙일보
##챓
##듂
뮌헨
##བ
선회
리즈
입항
##妓
##뿣
##뻤
##각형
보호
자살
##라던가
특파원
록
##셟
쓰였
##嫉
껜
LA
##榛
##동욱
Cl
##征
입자
##왏
카스
##순환
##ĵ
##꼰
열릴
수석
껫
##펍
모르
기량
##흐
##이었는데
실행
##슟
##ᄡ
전개
##렗
##렧
##3.5
##芒
##맙
##어주
대다수
]
##VER
배차간격
후임
톡
귬
##(36)
종합병원
휜
re
##돕
##썟
##퍼
뻣
양성
##몐
척추
##갑니다
절약
모노
연사
화약
##얉
##鰓
번
##af
##约
수면제
##塤
##薪
에이지
##속성
##뛑
##據
##욍
##17
좁은
이날
##見
##단계
대한항공
밌
직권남용
##軽
##룐
합당
허브
예측
완치
그레이
##加
##頂
##옄
꿧
의도
##階
##麁
취지
나르
##醉
##A
##冕
인해
작아
##지마
결제
##나미
##Β
아닌
메모
##媽
햐
##짙
벌어졌
##기와
##고발
##통신사
##興
##겉
##췣
일명
담긴
강연
##티스
##미술
뚱
##¥
##협의회
흐리고
받아들여
풋
킬
##잽
넉백
##같다
##단위
##쌱
개장
##М
##괦
듕
[unused12]
##ぁ
##蓄
##ө
마스터
컸다
입힌
줄곧
##ies
##촛불
튀어나오
##暮
승부
##마스
간접
##렁
##싵
##喋
##겲
있었다는
쩐
만난
##鼻
똑같은
##시마
Re
사인
##系
분담
잡아내
청구
가면라이더
분야
대변인
##ens
##富
##전의
##煮
획
##흩
후반부
재산피해
##催
중동호흡기증후군
##쌾
##타리
뮌
왈
##팛
##丑
##瀧
존중
##엊
드물게
천안
##狂
##스턴
##映
가까운
##꿽
##페이스
내보내
##플라이
##펐
둘러싼
O
##徙
##慙
마이크
##렵
[unused65]
개인
##睿
실질
도지사
##칟
##旼
##븄
##풒
##훚
##ᅤ
##マ
기록
##첸
공조
##넨
난
##뙐
##ance
유통
##첵
##蛟
전방
##ore
굘
##X
리모델
##캊
언더
##Х
##坡
너
¿
그라
타협
그러나
PR
조만간
##考
##쑚
떴
헌법재판소
##填
##뼧
##์
##NC
##旻
##UM
##사진
##适
##e
솎
##責
##롅
##纔
##果
적혀있
##시장
##p
##筵
뵌
##楡
##띰
##얃
무역
##顆
레벨업
##코스
##係
클리어
##뼊
발언
##였다고
##뻥
##톑
##뗏
##됋
##ile
개편
##鍋
이화여대
승객
친환경
##사망
##권
##팅
##쏫
휩쓸
##유치원
자극
##燉
유발
##绛
##경향
##გ
사토
##穹
커피
웃음
하나다
그게
둘째
패배
김용균
##듞
##벡
##하면서
##搾
소통
##派
##꿃
##후
솝
만취
3164
##졋
##陈
##黙
##리가
섬
##턚
##뒶
두꺼운
욀
소액
공방
파악
##亀
##瑄
##쒘
아름
##Ȧ
##쫼
##lan
쳬
##ダ
##릳
##ps
잠복
##때
##府
늦
활력
##袞
##렉스
##뱱
##츅
##와
수거
##퍼트
##보조금
##중심
##뾝
판
##끃
계열
결심
##RO
얻
##譔
##汗
중심지
윗
##佐
##핼
##브라
횡
##퐈
모자
##褚
응하
정상회담
##크로
##쩐
##萨
##藿
싸울
쵸
쿠루
##籇
안타깝
##뢣
섞여
##卍
아이의
##污
##캔
기본
##퍯
업체
##긟
##妙
##쏠
##퓁
##자책
취약
차고지
##艤
연합군
##奢
##혹
활용
##선거관리위원회
##適
##학습
##뒰
행세
일상생활
해병
##퉅
##퐭
You
백인
##嘗
##찪
잡혔
##밭
의거
##但
##사카
##그램
대한민국
##ǫ
변장
김치
##떫
##풔
##仝
동북아
기울여
##∀
##읗
##les
##슢
##쿠스
뎠
##쫣
2009
함께하는
##茶
2001
##2017
##보다는
l
##곀
클라우드
##軍
페널티
##타입
당진
세워
##敏
(2
0.3
##皐
배상
##솖
존스
영동고속도로
##戰
##転
##Ө
편하게
1~3
##톓
##숵
가속
클레
변호사
##표현
오페라
##沌
대수
##흡연
##other
더이상
##櫶
##즚
용기
일단
있다면
하트
스페이스
##搆
묘역
##냐고
##쨂
##쌓
##뙴
##자동차
##일자리
##浙
##꿷
비서실장
##그
탕
##눠
라이온즈
##英
##된다면
##챾
##뫬
##솊
고양이
##뛘
쭸
트롤
##ி
소문
##擬
##混
페인트
##님
긍정
나카
##េ
걸그룹
온실가스
##僧
[SEP]
지난해
##츴
##산업
##ry
##ᅧ
##쉞
##腹
##呵
##출
##힅
오죽하면
쥰
##퀘
##찭
##百
다시금
##뵐
##떠
##瑛
##잴
##쒞
##ir
찾아가
조약
사상
유치원
민
아산
##됌
##쎏
##骨
##溍
1973
##엝
##땂
##ood
민감한
식사
##로봇
##뇍
##식당
옇
페스티벌
아들
##까지나
.....
##蜀
##刈
##해봐야
##맴
##謐
##겠어요
##욆
차관
##려오
##遙
냄
결혼식
어민
##닇
태평양
##柯
신라
호흡기
##쑼
구단
위임
##아카데미
##Ā
##鎖
##개혁
식당
궤도
이게
##운행
이치
##생물
##樗
##삧
##ᄢ
##깇
비고
덩치
##綏
##于
현황
##ㄞ
##클래스
##麤
##씼
##ය
##우스
있
##ɛ
제갈량
장치
잠깐
##関
##達
격투
##좯
##탡
##詞
스페인
꾼
후반기
##궹
##∞
##카르
¼
J
강동구
창설
충원
##塗
##역과
##韜
스웨덴
##脈
##았다는
저렴
##쬈
같다
정무수석
권고
퇘
보병
##페이
멀리
민중총궐기
##튓
일각
연간
보수
끓
##幅
##웬
##꺱
##粟
##迂
툴
##KI
박용
##낪
##농장
락
##핦
수사팀
##롤
##휜
##츩
##미터
##치
##공정
힙
##테츠
악용
b
화
##ä
여기저기
##air
##賠
전반
##쯥
##쫉
지불
##薊
##텆
##튣
##哥
슬픈
미래
1000
원세훈
##藶
##郵
하이브리드
걸렸
##李
##財
공단
##좉
꼰
스쿨
단발
##마당
##사이드
총경
##念
같고
##핮
Bo
본선
레코드
##済
사무장
움직일
##簽
이원
2018
##测
##퀥
##튒
군대
##귤
강민
##솕
##邉
##瘋
채
##뒩
극장판
메이드
##슈퍼
##怕
##IF
##전망대
##즶
##拘
숭
방출
##nd
##驩
##낗
##쉨
돌보
전인
무
긴밀
역대
종합
##블랙
##문화예술
죽인
##떛
##禵
만들
##ห
니코
기초
##pl
블랙홀
흑막
##豁
마포구
##랐다
##筋
##대상자
##있지
물러
##햪
론
##輞
##쥀
##제품
안내
뮈
그럼에도
특수활동비
##tur
상가
타율
##ONE
##뇚
##訂
TF
##툼
많을
체육관
##ω
##騈
##伏
##马
##雛
방어구
##捲
##괙
##슸
##ree
##수익
통행
##氣
Windows
##벍
트레일러
컫
캐리
##됐다
##쿽
잔혹
꺼
둘러싸
##쾀
##렘
##듣
비중
##제한
아시아
‘2016
##亭
##촬
##하구
##구조
##此
##rr
##훟
##뿠
##엙
당첨
##탛
##쾂
돐
썸
쿵
##螺
##仁
##흝
故
##꺺
##稻
##饔
취재
##Ј
상황
카오스
##긒
##왘
검증
##모임
##ҭ
##런
분쟁
개원
##보험
볕
##難
##뢄
##≈
보편
창구
##ە
##일수록
세라
관악
##껿
바
재혼
##ሃ
남극
양국
설문
##ח
위축
멩
##ail
##쬴
에어컨
##est
##받고
##桄
##묶
기술
##慮
##ჭ
##1.3%
둑
윳
느려
##¡
궈
##뽍
##첽
##뭭
##暗
프로듀서
자이언츠
설정상
##2
표창
##퉋
##悝
##퓛
##”...
활발하게
이어진다
##땐
전기
##범죄수사
통신
림
83
##찾
소폭
##촬영
긴장
마셔
##헁
?
##푞
자원
값
##陛
##쟼
##맨
##函
##霍
##矢
##대의
##컬
##든
기념촬영
투자자
화력
##쎟
홀리
##깠
##晁
##윂
케이크
닷새
잉
솔루션
렷
렴
##췜
연합
프로
##원인
경감
취임식
##체험관
##꺝
출근길
##怨
강탈
##턨
##드릴
달리는
##卷
##보드
##尼
몰라
##녁
Br
딱딱
##鰐
##(23
포스트
미칠
##웯
과시
폄
그렇고
웹사이트
유적
있었으나
##븃
##鮮
헷
있지만
##긻
##냄
##동생
차지
##축제
CEO
안전점검
대략
라이더
보유
잠재
구축함
##씽
##킚
##잔치
##이며
##詵
##販
##잦
11
옮긴
##퐱
장갑
울주군
그러므로
##枯
##쯘
##絞
##ᆰ
레슬링
결의
##員
##콙
##혁명
##超
##横
##현상
큅
##라며
점멸
##들
##릡
컬
##惶
##뷴
##(24
깼
##졸
경험
##棨
특징
##癸
합체
괘
해외
역량
권한
##ទ
##ull
##Ē
##게임
##봄
##였는데
##幻
##뒥
##되게
닌텐도
##晤
흡연
##キ
##기에
아랍
##킉
겊
어려
##卵
##野
##닅
사단법인
##汎
##밵
가만히
##조작
##사정
깔끔
스트라이크
##艮
##銜
##양성
증거
전했
##되며
쳅
불거진
##뵇
댄
##쿠마
도시계획
강제징용
버프
##汉
없었다고
##뮬
##ừ
##轉
##荘
##곭
중화
##壖
쨩
##羲
##뻑
##(39)
##쌊
륨
초과
공기
몇
##처음
##樂
전체회의
진로
##광
천황
##滑
민사소송
##꼀
파라
##褊
##몴
##쏭
##강원
배급
##툲
라이플
븀
호소
재심
##버렸
##汝
##쾌
##播
##斬
##胃
##레이크
##勳
##쫬
##쟛
늄
##스포츠
##邊
##left
[unused44]
상임
##슈
##red
##商
##농성
드립
7
##僖
##ú
##뗶
##킃
##휫
##낐
##떵
##솨
출력
##팀장
##ene
나왔
경보
##郊
근대
##껾
과속
##똏
##pr
방사능
탄소
생각
##構
##뤦
벤치
##해외
다짐
##행성
판사
##띄
##뭠
지리산
##ず
미쳐
##ᆡ
##秤
굉
무너진
지친
##Ս
여러가지
코미디
벴
##灰
##貶
##비정규직
##화력
1.5
위장
##식
##탓
##교
##흑
##풋
##초등학교
##펑
Dr
쭘
##葱
##쟥
##소방본부
방조
의외
##탚
정전
##섹
봐야
1963
##沪
구사
##뜩
##꿳
##б
##익
설사
##엮
##쿼터
##렅
있느냐
##湃
채용비리
가치
WWE
##왜
협박
탄력
##왶
개교
##omb
##稟
##홛
새로
##焦
오
##展
잭슨
##㚒
룬
##ざ
##熾
주머니
##⇔
##정책
##비리
##주
이용
##파
투쟁
##옡
##禩
##嶼
##힋
##然
전술
알아내
##웗
##굄
고속
##썖
##塚
##03
노멀
##겁
의정부시
##퓢
커다란
##모델
##鄭
##졍
단행
바뀐다
붕
커리어
##푙
업무상
승차권
##î
##라이더
길드
취항
##正
구석
##声
초등학교
둬
낙선
1965
width
##冶
##꽐
##藪
##땁
##귕
##쁩
##Р
쿄
드루킹
엉망
원작
##꾮
##겞
변형
##셨다
꼈
##캽
##됙
멀쩡한
##왼쪽
##oc
##뼤
##凝
##驪
대포
##IL
고백
##튇
안산
해법
적합한
##坰
샤워
##룝
##ベ
##둵
##睟
상무
관계없이
##첳
##다운
##호의
##큔
##渡
폴
##蟄
##濯
이외의
##스로
여진
반대
##理
##풝
##륳
##陸
만든
##개편
판결
소나기
왜
##니카
##宦
##陶
봅
숨져
B
우수
덱
##밣
반복
용인시
##Σ
친목
##솰
뇌물수수
##블
나쁘다
##데스크
환수
##ц
##帽
##팑
##탰
점거
내세우
##剪
##옲
##명은
병역거부
##쇼핑
##함대
튐
##민주주의
##鋪
##暈
흑역사
##犨
제조
##判
##뛚
##쟴
##∼5
가죽
##TER
말려
##貨
##ko
최상
않
##있어
BL
##盛
##떊
##춱
광진구
##냑
임원
##桕
해경
##해져
##薨
##惺
##야마
냠
##四
##弓
##쬡
배포
##畷
##럄
창립
봉사
강릉
##퐃
리퍼
병
##임금
텁
##쮸
##쬙
##齊
##잎
렌
##時
친애
##든다
##귪
##旄
욕설
##us
진술
영국군
##퍙
##딨
##諒
밀수
##浦
서울시
혼인
가문의
깡
##셉
골목
##兇
##언
원더
북
##뗫
문제의
##아동
##수색
##gen
구미시
수렴
여신
##뀲
##没
##low
금천구
시그
##데이
그다지
##石
##뜢
##왒
##책임자
따지
##스러워
##햃
부과
##【
##敖
##〈
##균
왁
##리우스
특전
오른
##篇
현대자동차
의사결정
##즁
해머
바르
인기
소각
##이기도
만한
##뛐
##枇
울려
##癬
수업
퓰
##카운트
##滴
불명
##이라면
##맽
##옆
##ィ
##遾
##텅
해병대
퍽
##隰
##泚
일련
##났다
병원
따라
##정부
지닌
##腐
##흞
##딼
##낇
그거
##р
##ll
##젓
##矣
##있었
평년
##뜘
##좃
판결문
##아파트
챔피언십
숄
냑
##슭
##파일
##욈
낙하
##렉
재임
##(☎
받아들인
##稛
##늾
##한다고
어떨까
눗
##홓
5.
##쎩
성균관대
추경
##앵
##깲
##퍪
##惰
##哺
##툀
촉구
퀭
결계
아사
가성비
따위
다가온
김대
##권리
어렵고
##낃
##TA
사진
##쭩
##좓
##ord
##(34)
여왕
##罍
필로폰
##낡
1920
주력
##僕
##캤
브라이언
개발
##마크
19
보행자
##帥
김영란법
##剛
##뢉
##,
##럅
##휴게소
##협의체
##TH
쩜
낭독
할지
카페
##죄
##륎
##캅
##덱
감금
##註
73
승무원
윽
한방
태평
##諸
은퇴
##걔
##힄
##票
##쾊
##秒
크리스티
##仗
수치
예선
##농업
이어
언제나
연상
##뷙
##菌
○
책정
##볦
자식
쌍둥이
포탑
##튄
우울증
##올해
##화학
125
##겂
##뭰
##넳
##폎
심해
##툅
82
##紬
##원은
##꾨
##75
##곛
##旧
##户
기부금
##28
##토
##나지
뉨
전진
##쬬
오래된
##ast
##늂
##山
##툕
##坪
##셴
##침
보여준다
##衿
기아
동계올림픽
##脚
##衍
##뾖
##윧
##茄
노숙인
감당
##擢
증권
##폽
##뒵
##톟
나란히
공산주의
##ke
##첿
##杭
총격
잛
동료
##̋
굵
##츯
##낳
심의
He
완료
##철도
##Ẽ
##보장
아담
면밀
##ꡊ
싯
##彼
거주자
초등
##患
##び
인스타그램
건담
##넮
##늙
##우
##SU
비용
문단
틂
이뤄졌
곡이
요코
종편
어려운
##褶
##냓
일본어
지시
인정받
선박
##62
불편
##勿
꼬집
##⓵
취업
소개
붇
배포금지
몰린
##혓
##墅
업
##아일랜드
##되지
##淀
##뜝
;
##켐
형
밝히
##문화제
##收
밀리
##쫓
##드립니다
아베
##胴
아메리카
##ᅒ
##ิ
숌
##뺭
##낤
##박물관
##땝
궬
##른
여행
습격
##군
▲
기차
##전설
##奧
##하우스
##att
##ノ
##距
##邁
##핸
없는
엾
협회
##料
##쟁이
구해
정시
##85
건너
##鞭
##瑤
TVA
영세
심각
_
원내대표
##끷
서클
##뷿
우린
##수행
##뵹
꼬리
##舒
멜로디
현안
상당
##焚
숴
##쟵
##휟
##戌
##菏
##얜
##묲
##허
##외국어
중재
이펙트
지루
가처분
##폭행
[unused57]
아메리칸
##갹
시민사회단체
##웦
##율
##자
##掃
##继
##做
##lic
##뤮
책임
##覽
##딣
##꽜
몄
##유산
##쑓
베타
한동안
##쿍
별다른
##繇
##쎪
##카미
드라마
군수
과격
##콅
##곘
##압
증정
##担
##范
##要
##평균
저작권자
##획
썅
각별히
엔딩
걸즈
순간
##首
##뿀
##협력
사무처장
엠
##뷶
8000
해양
##彪
##钢
##ང
빼
[unused80]
해상
젭
##드림
##它
##해져서
##句
##딉
광범위
##녹취
그럴
화려
##椿
텍스트
걀
경쟁력
##쏜
깐
##교육
청취
금호
##分
##녈
##떕
##벚
##∼6
##이긴
##끉
##ố
##洞
##淋
그럭저럭
##츼
##푋
푤
##濕
성산
##굻
로즈
##头
##乷
해군
질주
Up
대전차
대기
##切
춤
##요소
100
##겡
##탖
##샨
##한겨레
##긡
금융
이어지
##秘
연달
R
##CC
멸망
즉위
전장
직종
##ả
##ォ
##연수
##묾
##뗭
및
##촐
스턴
##빷
##참
##교도소
##oo
##학기
자진
##헀
중첩
##테이크
##吟
##킼
##쾽
재건축
##낙
##沭
인식
##驍
##妻
심포지엄
##동아리
##擂
##稿
##르드
소란
##
스펠
##网
##적십자사
##宛
노려
홉
팔
##늅
같은데
증원
##뵎
울
시체
췰
##문자
35
적절하게
##포인트
##콬
##EST
##荼
##동주민센터
##管
##룶
속옷
반감
닛
##貪
##덌
##邑
##絮
##제조
##御
##廉
##볫
##뿈
##귟
코인
쏜
##폋
##흥
이뤄진
컸
##통합
옵션
##ד
##횗
##RC
##너무
##쿼
바른미래당
##黄
##학
##뉙
##卨
##명
엉덩이
##玻
##부장판사
##턣
떠나
##큩
##舆
횟수
명예교수
##โ
##왰
##븠
농민
크
>
징수
재산
구두
파도
##宪
인한
권한대행
##읔
##괍
##00
##辕
현지
옻
소매
##
herald
##시킨
뚬
작사
##ɾ
##ぬ
##飾
##롮
##堀
##飡
퀠
부회장
##舎
##괌
페트
구글
보안
##漏
싫어
과거
##당해
고정
룰
##턹
##엻
등도
##딳
##눕
##孃
##쩣
어쩌면
검술
##븎
차별
##싼
나섰
각지
##泫
##젼
##해양수산
##っ
##槪
##ya
독재
##홐
##빼
구조물
##븉
##조사
##9.5
##禑
활발
건조
만화
철학
##핱
##.12
쓰여
##嬴
##뺽
강남구
##전화
##~7
##(31)
막바지
##ت
리플렉
##쯱
##渦
##店
##들과의
했었
##댓
##펨
근본
##취소
##쿻
##亲
판매
##16
뭇
##섬
##그레
돼
##테러
공감
성범죄
##栱
준공
##맻
##쳒
##뭥
##틑
체제
##됄
짐
##Τ
##융
던져
##혭
##폌
##넗
##潔
소스
극심한
낮다
##⓶
연다고
##п
##巢
##鵄
##tion
##ㄣ
펫
실점
하도급
음료수
##贖
##켕
##秋
##뤘
##바라
##へ
##넟
##亨
##해보면
간혹
##传
심경
베이징
술
##킐
국가정보원
##욇
##夷
##簪
##덟
##깃
##설명회
##냋
##는데
펑크
##노인
##娄
##뜌
사람
프로토스
섯
##고등학교
시간대
##뇡
체내
##쀋
아파
맨유
위조
아츠
##ት
열쇠
##棣
##避
##체육회
##턔
##퍟
##장학금
##衝
##В
##봅
##%)
##쩜
얼음
참고인
당국
경악
##狄
##痼
##넎
##중독
##읜
##腿
##偶
1300
##梶
##맶
가져다
낯선
##옙
서울대학교
##筍
##ׁ
##쭭
##Re
##스런
제휴
##~5
##닦
##룅
##遼
갈색
##攷
춘천시
##壤
주어진다
##벝
##재정
##홋
##駅
정한
##0000
성관계
고소
##종교
##赵
겐지
종전
전액
광장
##쟬
##俔
##̃
##な
벌어진
총선
큥
벡터
##嬪
##홾
##싹
대담
표준
##민간
후쿠시마
##婉
##喇
##욿
##캑
##단지
우측
행위
##껵
##顛
신뢰도
##당했
스코어
##일지
죽음
##전략
와카
##폂
##긨
##소방서
##벙
##ann
##朶
방해
##Ц
##⇄
##饶
압
##憧
시인
돌아왔
##
##黃
챔피언
##쾟
##壎
##냏
##II
##咨
##자치
목소리
##̇
원인
비자금
인계
##物
##務
##뇙
썼
프리미엄
##穀
##づ
승
##튈
6.
출입구
##쫑
역임
##묀
##礫
##똵
##새
##들의
가결
간호
말아먹
##하르트
접견
##섀
§
##턉
샅
프로리그
뻔한
부사장
한다고
멈
확산
##읙
##oss
##젛
일어날
목격
##붕
##슚
##에요
저질렀
손오공
##오늘
##뱄
##안전
##뼎
수입
첼
##ね
##項
##唄
떱
##ẻ
1959
##TE
##기간
전주시
렜
쌩
##휌
##聴
##콡
##连
##연합
##임을
끊
##증후군
##江
쉥
##ᅄ
##Ư
MS
##부장검사
##얚
No
UC
##ǒ
맷
##房
##さ
지분
##斌
늦어
코믹
##호선
##뙌
##ong
곱
메리
##驃
항공모함
##걥
비례
##퐂
세종문화회관
가령
##ation
김씨
##ྲ
배우
##蟆
카츠
##킆
김형
앳
충북
##웉
이해관계
드러냈
##ㄨ
##(60)
악의
##梯
##怀
쾃
##감
##찬
##볏
##할머니
##저작권자
지문
당시의
##낔
토시
##異
##있
드라이버
검색어
셈
##ም
아닐까
##閉
##os
실탄
##嗣
##아웃
##09
##건담
도널드
루피
입법
##券
##건축
복합
##냍
##종합
출국
##신
##洌
##씊
##뽀
자꾸
##ط
##掎
특검
##퐵
음모
##試
고용노동부
타당성
롯
##닼
예비군
로펌
##li
복원
##わ
1956
##킏
집무실
듀오
##ana
시리즈
목록
##해야한다
##샴
##肩
##감이
##뭼
타르
실용
##퇱
헌신
##
바리
맘
##奘
DC
##힑
게이
콘솔
##엣
##뽞
부추
마이
측정
##쥤
##얍
팥
##am
랖
엣
##쎛
170
##청
##第
텼
##당
##릅
종사
지나가
##)
##녠
##И
##직업
스코틀랜드
유대인
##灘
##빩
##늴
##당할
떠난
중인
##駭
제거
집행유예
탈환
드롭
##https
##阿
훔
##뇰
##侈
##깅
##値
임관
##낏
입금
노동계
##뀝
사로잡
##来
뮤지션
##震
##겆
##截
포털
##리움
##懐
##劍
##MO
##恣
##旋
##僮
쏙
##군요
##婆
##륆
##뷷
##췐
##樸
빈틈
##ase
생명
##β
##輯
##櫃
##壁
##∣
##wiki
##패스
##메
##卦
##에
디지몬
구치소
Un
##Co
무료
##奏
##穿
뼘
##커
내외
빠르고
##鑄
##全
쇼핑
##♪
##계획
##팀
섞
##圈
소수
##(17
멨
곽
##啖
##两
못했던
##D
##辻
##벞
##ard
확정
행사
##공격
##鞍
##용품
경상북도
3~4
종이
##惑
적어도
##往
##(22
토대
##С
##텟
##閈
##怵
숫
벌금
랑
##싏
증축
하반기
엥
삼촌
같아서
##렸으나
##츷
최순실씨
##곁
##邇
만남
윈
거액
“‘
##忉
##궫
##KR
있는데
##학력
아군
리더십
DVD
냉각
맬
퍌
징계
##풀
##⓸
##칪
##󰡔
##강릉
유도
##툰
충분히
약혼
c
수비력
##紙
##瓚
치러진
##静
##ლ
적극
1992
칡
##楸
##뷌
##～
##릾
##믕
##뎅
감각
똥
##녓
##68
##폐
##LO
원망
인체
##儷
##灯
##리에
##品
위해
##翎
##耶
읽
0.9
승마
##骸
##璟
##□
익숙
##닌
추징금
녹색
웨스트
밥
##굽
서해
중부
##圓
##ី
##기계
대우조선해양
##ser
첨부
##瀅
##(32)
##탱크
##주머니
큐
뺑
얽
##핢
##켮
바른
##任
##에겐
아이디어
##단속
드레
직격
감자
##농민
##刮
##랭크
알바
##沾
인정
##대출
##조선
소원
##圄
##戈
##뵃
믿
영남
##왝
##緋
##뮖
##쌌
사카
##竹
'2016
##ㄟ
##밺
없게
##璃
진에어
법
##忘
이른
복제
##總
##딶
##ӟ
상승
##블러
##쾬
경유
항복
##딫
##뭣
##별로는
##눯
도로
##입니다
##71
##쭺
##뾰
병기
##續
목요일
##彛
세월
조직
##愍
##옻
1200
##締
##꼊
상기
있으니까
105
##2.5
디스크
##꽥
##묜
코엑스
##長
##봼
향
##责
##在
##哲
타이거
##圧
황교안
실태
서구
적게
스나이퍼
##꺾
경복궁
##餮
도전
내역
##廣
##뼭
고래
매드
##宇
##關
##Ħ
##퍕
손해
이룬
지명
##庾
##미의
##環
##候
##舂
##쟍
##Մ
청탁
##幢
팟
닌
투자금
##워드
##늇
##꺚
##급식
##姦
##剎
##츣
대안
숀
##였고
##볮
##모노
##츏
##娼
##憙
##特
##服
아름다운
탐정
##모양
##참여
이유로
##즼
##훛
##쬸
팡
##긾
##琿
##믍
##崗
얹
##қ
##뭾
깔끔하게
각국
마냥
장
울트라
현직
##摘
유흥
##왈
여지
##惟
항의
##츬
##룟
행사장
##벎
##수도
전시
##짹
정원
세워진
##갱
##芼
2004
신작
자립
##깨
장전
박영
##캠페인
##汾
##웼
굴러
책
봐주
무승부
##부의
##비와
찾아내
##퇀
관광
##로드
09
오버워치
##킌
잖
서울시교육청
낏
살리
##ook
스크
##馳
속한
##託
루
풀린
음
틀
##浸
##마의
쇼크
간편
10000
맞춰서
##왼
##층
##뜫
##崙
##맞
잣
##翡
##in
##‛
슭
교육청
##供
##孔
변화
콸
##son
##컨
##뚐
##大
##刻
젊
낭
##듄
##獲
##폭
밝혀
극단
법무부
##마이
지하철
##佺
##妲
##伅
##찥
캐릭
트래
녑
퓌
##쪟
사과
##푩
중국인
호수
선배
##푟
특급
없거나
영업
##버
##건지
휄
##璣
끄
듯하다
CF
##쑶
부서
손해배상
##쑒
##원이
##낫
##샬
난민
##遇
##차례
몰살
바가
##이었다고
##귨
요시
##훢
##贊
##痕
##圻
##믆
##츔
##茠
지금은
##원장
##켜
##받은
##渗
##쨰
##센터장
##躅
##남부
면담
##邙
##心
##姨
세팅
##擔
##娜
##신의
##범
##봾
##찹
충족
##흛
강동
##KO
다이어트
(3
##о
##貴
##频
##愛
##捨
##玹
##PE
##艶
##늈
인권
##뭶
##’
##쑖
##읫
##a
크리스마스
##黒
96
육아휴직
##무효
##喉
##95
인지도
##ソ
##추
##戢
해주
##锦
##버리
##꽤
갰
##밴드
##쏽
학술
한정판
##啟
설립
4000
아끼
취약계층
##塔
##戍
##渻
나타날
주택
##ч
제품
패시브
##선수
편입
##握
##ur
##쪳
##倒
##헬
##잘
##싇
##뿊
##쟨
##흡
까닭
##먉
속성
##聶
##퓋
오스트리아
##专
##파이어
##뚠
명절
##츞
쟎
보너스
팍
##슒
낄
##뺓
놈
##우치
##釘
번역
영지
돝
##綢
##하여
##数
채로
잘못된
##댽
##나면
##뙷
##섨
##쩗
##중앙
쉽게
수원시
접한
##뜁
프랑스어
##癡
##烈
##ai
밴
##컖
##(40)
불린다
##믩
럼
##og
##쟀
발견
뀐
러시
문화예술
##릙
트럭
##SA
##及
##뎊
반입
##漂
이사장
접수
아시안
납치
##긊
##'
민폐
##郡
황금
흴
##추천
우
캐나다
엑시즈
활주로
요격
##귴
발전소
끝나
##내리
##골프
##웅
황
##놄
진동
묘사
##꽁
##지청
씁쓸
##DJ
고졸
습득
##하다는
##드루킹
펜션
##뤄
청주
무대
##나라
동아리
컨디션
1977
##Č
##쵷
찍
##蹴
낡
댑
##뜎
##淡
눈동자
붙인
워리어
##乎
지형
##링
팹
##ᅙ
##10
##綿
##겫
빵
겅
##鄲
포스터
이탈리아
2015
##뉊
##縷
##黠
##팔
이리저리
좋다고
쓰러진
나누
##쭠
자사
쿠로
필수
##딯
맞출
전함
만찬
##王
##接
##봊
##껔
##뷗
##as
##僐
##迪
메타
공간
피난
##실험
##해
괴
##unt
럭
##지하철
세션
부산시
클라
관료
##軼
##촒
##ི
우승자
낫
##눎
##row
##鉉
몰아넣
##볭
소홀
##槍
##나이트
기후
##동부
##힔
##eg
##넖
##버린
##뎨
시마
##道
##리더
뺍
사임
실효성
1950
##뺍
##゠
핑
##팕
훌륭한
##쫀
비영리
사형
##핏
브레
신앙
##있게
골든
##징역
유연
·
세미나
##諱
이러한
##볜
##蒲
보령
##겠지
##공무집행방해
##壺
국립공원
드럼
CCTV
##텐
발주
##턥
##펔
##힚
##垓
##가격
##보컬
##타임
##켸
##픖
##刁
##위원회
플랫폼
담겨
##ë
한
##駟
도중
전부
##穡
##딽
앰
##\
관제
##갼
아니야
##큼
##閭
##뻮
##졘
던
즐거운
##롹
##寨
##뷳
##뙎
뮤직비디오
아쉬워
엔드
룀
##눗
##커뮤니케이션
시카고
##旣
##盒
##해지
아냐
##姉
##त
등등
Y
##씘
##軹
팀
별도
##ṣ
##쫟
##ぱ
##蠹
##ro
##국회
코르
초보
##폄
##玲
##峠
프레
호우
급행
##好
##킾
발목
챙겼
##딅
타락
에드워드
시켜
##부상
경비
난무
##앸
##뽌
##頌
##旨
##廩
##霽
##전반
##琬
딜레이
##뜥
##깸
##育
##ァ
##mbn
각
##官
##뼾
페르소나
##녔
##피의자
##쩆
##姈
아이디
다만
##띠
##슏
1981
##事
##세계
##ế
공휴일
0.5
견디
##쪾
##謁
##몬스터
착한
##화를
군의
##뛤
##頫
e
양상
##袴
[unused9]
##핥
##鄒
전경련
그렇지
옮겼
##낒
##기는
해소
버려
##테
##줫
서방
##姿
##특구
##偃
##io
##조절
떠날
##사무소
내다봤
##뼝
만성
##栖
f
장난감
##甁
##韶
##엷
##냇
##shi
##바퀴
##초간
검은
##로사항
##ge
##택
##륭
연령
##ub
##怒
##DA
미치
자막
##ف
##ium
##영장실질심사
##ʧ
##뼀
##졩
만세
네임드
AI
##欌
오로지
츰
또
영유아
헌정
##하다
##동네
##Ě
추가바람
##스타일
짙은
##9.1
메일
##이
세이브
##줘
##정권
클랜
##횑
!
##N
##吸
##됐으며
끌려가
##隨
귀
구속
가방
##쟱
##跳
##해주
##렬
'2015
링
##팿
##ズ
쁑
쉽
직접
끎
주고받
##읖
##斯
##퇸
맡겨
아내
확실
듣
평론가
##힖
##鈇
우호
##牘
위해선
##퓆
##.25
##됇
1966
##졧
##대행
김혜
##사범
맨
옐
쫑
##촤
##뻭
##쎜
다름
##청소년
코드
훑
##였는지
파산
짊
##화의
##駆
##나들목
소모
암살자
변경
염원
##였기
샥
연구실
억
갗
빨
##쵀
##탄핵
##(44)
##蠅
여담
..."
##왕국
왕의
##否
##혍
미얀마
##EM
보일
##益
##昆
##蜷
##艅
발간
도시철도
외모
##祗
##걍
사이타마
##긮
##貘
##06
##楨
##晉
그건
서울고등법원
방
##보다
됩니다
##굞
##옷
지출
청정
##빋
##닃
##콽
솔로
##인데요
##峒
##溱
##쯉
규격
##譜
젓
확진
##벧
##됖
##컜
복수
불렀
실종
##溢
조짐
예술
마침내
썻
어선
##꿍
카트
##呈
##IN
훼손
평택시
##Ἀ
##翔
##ल
[unused95]
##쯺
##∆
##闡
##았
##즃
##郢
##학년도
##จ
##必
##파리
유가족
정해져
##ộ
밝혀진
총알
##兀
격리
IT
##背
##ी
##옐
##퉦
##躑
휨
전송
##咎
##쁍
보여줬
##슌
##lt
##껠
문구
마그
##흇
차림
기분
부천
DP
##하게도
부모의
##요원
벌여
##구속
##❌
엄정
##퍉
##〜
밈
##촛
##^
##雙
그저
뽑아내
##抗
##겿
##생
열리
##휑
##撲
##捷
##대원
꽂
##쏧
##자인
겁니다
##ft
##뚿
##脛
여동생
심각하다
##豐
##并
##ボ
##門
##軟
##특위
##甯
##넍
범죄
좡
갈
가끔씩
##뗿
##澣
열매
##꿹
쌍
알렉산드
##귊
층
높였
##녶
##턵
잌
애국
##啐
시너지
앞뒤
객관적
##겨울
깎
추종
관한
##튪
##띔
##ょ
##다가
##뷎
##횓
##ate
##棋
##廊
##説
##稲
김태
##뷛
##탽
##ḗ
들어왔
##흜
따르
이야기
촉발
요새
헌법재판관
##⇆
##奕
##대학
맞벌이
공짜
##改
##젠
##禿
##뱐
더불
##痹
대처
폭우
솔저
하계
##』
##태양
?!
##iss
그늘
##었으면
##art
browser
##듕
배치
##軒
##愚
##다시피
##赤
##瀣
조정
##꾤
률
XX
##夜
##삕
허가
춘
##ide
##ER
대조
##Φ
##宿
패
흙
##뿢
##舸
##梗
##뒴
기사
##즣
##奚
아이러니
흥분
##ピ
##꺑
##羚
늘어날
##캇
퍼포먼스
##퓘
##빺
##내역
##愾
##曆
들을
반동
샌프란시스코
##鰱
김부겸
##종합운동장
교장
##տ
산간
##뵍
##봶
크라
##ster
##쑿
##jebo
가챠
수상
교육과정
##삾
심하다
정치
##6.0
##悲
##hy
##集
##차피
배수
관계
##뉄
##拍
##계
극
영등포
통화
수능
##뷅
##쳊
##잱
##듊
##뵧
##锷
보상
##Ç
##츧
소방대원
79
보류
##玎
##곔
위쪽
차체
##佗
사법행정
아무래도
비슷하다
##凞
##伴
##쮼
아케이드
##뇐
##연패
##即
득점
##누스
##似
##똱
##손
##猿
어째
캉
##뗾
분노
적어
전주
45
##阮
과도
##일본
##선언
맛있
##솩
##暠
국민연금
##雅
##槥
촛불
##ё
##핌
도로교통법
##4.5
##푸
##핇
##咖
이미
몬
##巻
##음성변조
##굦
##뉍
부부
##B
이민
##뮛
자세히
##성의
##絁
소멸
쌘
호환
액티브
파문
레오
##use
이재명
조선인
1976
##닆
챕
동급
##뢾
트리플
총괄
##맍
굳
##▷
##豊
##偘
스키
##땃
##記
##磬
##膾
[unused35]
##贾
##宮
##랲
##전문가
##랟
##ェ
아바타
##쮣
40
##께
##攘
##詠
젬
언급
##럳
##簿
##།
##늘
낸다
물고기
쿱
##킂
괜
유니크
##퍥
32
NC
종사자
높기
##뙄
##바이
##겋
함량
##cal
시내
##빲
##편
##다든가
##총회
##옿
토니
##돛
견해
넵
##탞
햄
요정
마리가
##평가
저렴한
##뽊
##단체
겼
쾌
얍
##해양
##ing
##怡
추석
왱
마케팅
##इ
##弖
만다
##誑
##딀
##걹
##위해
의존
째
민법
##饅
눌러
##덋
##装
슌
##ი
박상
##컴퍼니
뚜껑
널
줄여서
왕자
고통
##공학부
불필요한
유해
##백화점
알려
##付
##叛
##丕
삽질
마블
##이라도
흔
##慕
구제역
##판
##지난
태그
미나
대구시
##抑
##TV
에밀리
##짓
##이란
##혁신
마쳤
##昏
##賛
##軻
##튗
##陟
##줭
예보
##雒
범
##編
##쟐
##띾
##욕
드리
##주지
##뎌
##꽈
##레드
잦
##적으로는
동남
장시간
캑
라면
복무
##즹
##쯿
주교
##톊
닮
타워
##뷓
성분
두들겨
1964
##왔으나
##햧
바론
##俚
럴
##聃
##즆
핏
##뤥
##쌹
해줄
없었다
##꺄
##夫
샐
주제
원이
훌쩍
##쌘
한쪽
휴식
성차별
감성
법학전문대학원
횟
##꿾
##앙
건수
##ż
##濱
##幸
##貸
##긋
##婚
Ho
원래
그동안
가벼운
##평론가
##켬
나선다
##ี
##Á
대관령
##望
직장
기관총
##틜
##縫
##乌
끝
당원
학과
에코
모금
불륜
응급
K
불꽃
자라
##쬧
##워치
##치카
##구치
##‰
##齎
##ame
##經
##햬
##맦
##엸
잡
##효과
##and
포즈
##평등
##수습
##위반
일부러
##輸
##ő
##爻
##섈
가볍게
##딓
##ef
실시간
##디
환급
##或
##랋
##憶
##짠
##둺
##봣
41
가드
##늌
조처
마라톤
##紺
캐치
새정치민주연합
호전
게임의
##났
친절
##ī
m
재현
리스
##루트
##埴
지식
##沆
##좒
짰
##걂
##뤬
##폛
##꼲
제압
숱
최고기온
##MI
##觸
인
##ure
##수의
##뛬
AC
메르
정밀
##慶
##씵
큠
사법시험
##數
이동하
##롶
##땣
42
##뾙
바뀐
##거지
파괴
##ʔ
칵
la
##匡
##톍
버티
##핓
##밎
우연
##騒
오전
##꿘
##붴
도민
##대교
없기
##욥
##垍
음란물
증대
##솑
##綫
##뚷
##하이
사실상
떵
##앖
스스로
##ᅕ
연계
행렬
##լ
일제
꽥
##윅
##宝
##꿁
##黥
송도
##븿
##벊
2500
##郤
##아니
LH
##膽
##채널
물품
##枕
##츰
##姻
##녙
##攸
##布
##성폭력
줄어들
일제강점기
##햹
##공
감독
##뢀
##犯
##풣
촛
검색
체포
달아난
없으며
민정수석
##거든요
대가
##노스케
##衆
##亟
##棚
실험
##쨋
미스터리
남산
##앂
하우스
때
썬더
##ᅭ
부탁
윅
##醞
##牡
##Ω
##문학
##리지
삼
##돔
태어났
경희대
수립
광주
외국인
##烒
##릦
뒷돈
##뀺
별개
##廚
죄송
육체
##牟
##수준
##톩
##le
##쎙
싸운
##tro
##텈
##앥
##驕
##샄
연결
##IG
##인천
##â
##鷹
##亅
기자
##즵
##瀓
어른
한번에
녓
장점
##羈
##투
##관리공단
##ş
##낿
말레이시아
사건사고
##든지
##폴리
##č
유니폼
학생회
논술
날
##扃
##96
##ा
##폐기물
자연
옛
##障
피하
##塏
##냩
##결과
##▩
빠지
##넱
##쐓
##پ
자격
##맓
##사람
##孟
공장
##龕
##ා
탈세
전산
##뚲
뀔
##ნ
##擦
예능
연기
##畠
듄
먼저
언행
##...
대항
##셱
중반부
(4
##하면
다음
껏
미세
w
##刘
##괝
##ћ
끌려
촙
좋아서
떡밥
##돍
침범
원천
##롂
##溥
##뗘
##꼬리
##掬
국토부
##画
##未
##됅
##샜
속한다
뇌물공여
##䎙
제천
시상식
##는다면
##달
##ไ
렘
##워
##뻲
##대신
##NS
##誅
##휛
##여명의
극중
##휏
##텀
##롓
안다
##礁
##수원
효
밝혀졌
##열
엄격한
##과목
##痛
SC
##칩
브랜드
##뱟
다름없
삼성
##ū
서포터
##櫛
외관
##앏
##弉
##製
##뉓
##분기점
##됬
응답
##樵
국토
전쟁
##到
빳
##2%
독자
##잤
##GE
##泰
##ु
##듅
##경남
##심
달아났
##儒
##謄
##특수
##猫
##頻
무소속
졸업식
##籬
자금
##GM
정치인
엄중
##봙
##ʌ
##줼
##to
##헨
##쒛
몰리
1961
##럶
##잨
여겨지
##츗
##잲
화천
임박
늑
흉기
예비
그렇다
##菱
##є
##쾅
소명
뒤
##즱
이달
치러
질타
##하도록
##잠
##-
##已
슥
##ᄫ
미쳤
행정처분
미드필더
##漢
##RT
##좩
좋습니다
##픠
##맭
박경
##洵
##喩
##재생
##귝
방패
##※
진정
상주
슬롯
##ę
##끎
여야
모자라
바라
##股
##魯
란
지상역
잃
그리하여
도시
##쎍
개시
##哪
광
발라
On
##聽
[unused2]
##ᅣ
황혼
##할까
세상
##ἤ
##면
일선
세종대왕
재차
가중처벌
탬
샛
##light
##돟
막히
##裤
등재
##퓍
크루
##혁
고기
##ウ
##(16
형상
띄워
승자
##았습니다
쌀
##쒀
##시청
챕터
52
비위
##분만
##斛
위기
##콜
##뮙
##娩
##전문
##—
kt
##苔
##甘
##쭊
##룽
##죉
잦은
##쩄
사칭
##困
##冥
##昧
##나무
김
##낾
##蠧
할인
선임
보건당국
졸
##額
원
Gr
##껫
파
돌봄
##기록
##咽
돌아간다
본래
거뒀
##갧
치우
##罗
##紋
##례
##벗
건축물
##剃
못했다
오토바이
블랙리스트
[unused30]
##확인
가톨릭
들통
##읶
##셷
화장실
체류
##谦
##몋
##유지
##베스
##HO
##夭
##煤
이영호
##鵲
접근성
동
##릕
를
##ぽ
코스트
빛
##긹
빌린
##뜗
##팍
##져서
월평균
##攴
##핬
##쑙
##'(
##내용
편의
##結
0.4
똘
##읊
##떇
##믅
유비
원주
당하
재수
##投
##造
##륵
##군수
##皡
##刹
KO
모음
##썹
##93
##her
밸
##侙
걋
외쳤
##庫
##액
##젊
비서관
##늬
UN
##킬
##ɪ
##ј
포크
##들과는
방어
##緞
##쥴
은폐
##薰
협상
##룡
##뢃
##з
휩
##카페
##ish
74
직책
##비스
##폇
텍
##뢱
##프로그램
##믝
은혜
소령
협의
##뿏
##맺
의료비
실체
##공주
##ἱ
##蘋
흑
다치
교통안전
인텔
연맹
감싸
##璧
1999
##퉪
##죴
##어린이집
##www
##局
##處
##(27
라이
따로
김기
##작가
##mb
##최대
늘리
##홥
양형
##띵
##杓
##芚
찬스
이걸
##邯
##윁
##불법
##진
##∧
##삲
##.20
##쿠라
엄마
##舗
##蕨
난입
##뛰
글로벌
미라
##암동
[unused104]
##綬
튤
##건물
##CI
##퇴직
부인
불길
매번
##眇
##5,000
##謇
관여
##법원
##닜
##精
삑
무공
성능
##뀯
봤
##찜
눅
소집
##멉
##뾳
시에
##甚
수돗물
##룔
유동
##艋
##잿
##캘
신호
##테니
##董
##咄
올려놓
##썸
공소시효
야수
교육감
##Ӟ
##궪
##땦
저글링
##늗
##품질
##陬
라그나
나라
##醫
노트북
농산물
독점
##饋
미뤄
열사
##되었다
##필드
##됼
##석이
##힒
##NG
천연
역
일으키
연산
##戴
##밸리
계정
강조
##럈
투구
##뾅
##ゃ
메리트
##절차
##श
뺀
항공편
1.0
##痲
저
##섯
시속
##포털
특이
##狩
##쳥
##의료
컽
헤어진
##띈
워크래프트
조커
##냥
##(49)
##藷
##》(
##კ
##꺵
##cle
##노리
##씌
##霸
##준다
스미스
##릛
경향신문
큐브
일기
##뮎
##왔으며
6
났
##휖
##뉎
##쇼
선보이
##97
##긝
다목적
##레이트
##믂
메달
##랼
##함
장르
##寡
오토
##白
##庭
인구
자매
##錘
통째
겜
뇨
출
##bb
##健
관광객
##븝
##생들
##飴
궤적
##벌레
##菟
왕
##架
도내
##2018
##蒙
##방법
##다르
##현대
되
컴
걷
번복
[unused20]
##잉
애칭
인건비
##자면
뜬
##교수
##웖
##광장
민영
청문회
##ナ
릎
기해
##대사관
이제
##터
사령관
쑤
톄
개방
##띂
##칢
##븴
뉴시스
##MBC
김희
고혈압
눌
판타지
##弾
유
##珥
##칙
조립
##聾
캇
##씗
##앰
##쪕
##적
##롃
아동학대
##친구
옵
##쿠르
##톄
##ale
##업
주간
쥘
##휉
##呑
##텡
청와대
##쁗
##拏
얕
광주시
크림
##븨
칙
##찝
허벅지
궁극기
높았다
##궅
?)
##쎌
##wa
##続
노란색
불투명
##략
##ů
##뾸
이뤄질
끈
소중한
학기
냥
##彅
##패션
이득
신용
비공개
##킓
##姓
증진
##緖
동부
##0.0
##쟊
##댄스
##릚
##築
##실
##潟
##운영
써야
##嫦
##었다
비웃
##메트
##뭸
법안
적절히
##툻
##巫
##훐
##弩
동거
##쮧
##掠
##스테이지
채택
##洽
##믓
##资
##波
##톘
##貿
조현아
여성의
##껸
##9000
##َ
다채로운
재활용
##줎
##小
레드
구축
##햕
빠져나가
##공정거래
메인
잠수
##쨎
##喆
꼬
LG
땜
##VR
##스톱
##а
제대로
##行
##ial
키우
껌
됫
논쟁
모형
##활동
外
##쎼
##챆
##쟝
##뗺
##ap
더
##쓱
##ᄀ
재해
##츹
울리
##릍
##堉
근로
##耉
##tri
##歲
##맢
포항
##H
##이번
뉘
##포
##봷
이하로
을
번식
노바
풂
전해진다
##ӕ
높았
폽
##오전
##꺶
##뜰
##쁜
디자인
##ź
챡
##한국
상표
있음을
겆
경영
업데이트
##↑
현
##지법
염려
##車
2003
와서
##뙫
경기력
##뒈
##작
중지
사립학교
입대
##銳
##쉈
##규제
##ģ
##직원
98
컴백
솜
농성
##凋
위키백과
##뽱
평생
데몬
절실
##rad
##뷇
갤러리
보냈
##巖
올라온
##탢
##=
##麻
가담
##량
##渾
##늦
##澁
##사고
##惻
##穂
사회봉사
파기
##UN
위증
질서
전승
공격속도
먕
##바르
부담
사설
##ъ
##雲
##ម
##꿎
드래곤볼
##غ
##처장
##鳩
셀
##충격
##單
##析
##긂
뇬
##전
돼야
문건
회계
##째로
발행
##쟫
지우
뇌물
##퓩
##븟
워터
I
##남성
많아졌다
##뱅크
연예
꽈
v
##년동안
도와주
##翠
##瑃
##쾹
##露
박정희
이마
##د
정부서울청사
##斑
##ἴ
회삿돈
케이블
##어요
##루수
##나리
비슷하게
##◉
##5.1
순간이동
펍
##전투
##답게
SD
##淨
총독
비로소
##건
##預
##•
나무위키
##뫄
##Ž
##(2015
장례식
##イ
##泊
##쟘
##뒨
##카를
##ճ
##맛
흘
켄
##졛
##돑
##洛
단편
넥
##┬
##➁
##닀
##횞
교차
##穎
##耐
승강장
만난다
이런
조율
해변
##걝
##이었을
##쫗
빈번
##외국인
0.8
농도
##갇
##일보
##왥
##灝
변론
##몹
##粒
삼성그룹
##이거
##ot
낑
포
##꽝
##寯
##穰
##謗
##빗
##휆
##일까
혁
##방해
##เ
##杌
메르스
위헌
썬
두루
블레이드
##(25
##de
##HA
배송
JavaScript
##less
근로기준법
##쟹
##풰
##mor
슬로건
잉글랜드
##每
##간다
##킞
##au
##齒
##홨
##성과
흑인
##PS
##꿕
##쩨
##鉅
##喜
##텗
극한
연탄
##礙
##하루
매장
무관
##(62)
대치
##보호구역
##놓
##준비
Day
##튀
##해왔
##솝
##윷
품종
##지원센터
좋지만
##빔
빌라
##몃
알렉스
##桀
경력
##ᅲ
자신의
##꼎
올린다
##si
뀜
##희
##쭁
##떅
##퓬
##勉
##탘
양승태
##지라
근데
제왕
높아질
##攻
##관광
EBS
##à
##꾩
##소문
아빠
«
한국시리즈
##榊
외야수
##네이션
##鄴
##텤
핼
랫
규
##AS
가입
생기
광주광역시
셤
##옩
##雀
됨
농
##서커
##部
##식이
##늪
##酵
법정
##賦
사건
정우
트윈스
##퐻
##구나
##匣
##볬
##蘊
변질
##ạ
##맩
사야카
##右
##母
소득
##꿑
농협
##명령
##誥
##6.5
후원
최강의
##仿
급속
##賈
설령
##훅
서대문구
##충전
##ם
##낊
김유
##詣
##擧
##신도시
정규시즌
무언가
¢
##싊
데드
댁
##튼
취직
##萱
##梁
##레벨
빙결
##가중처벌
##覇
##帶
##丨
##같
국정감사
역습
때린
##톒
붙잡
Po
##됰
격차
##횘
##늊
##皁
##서부
내세워
##導
환상
놀란
##PR
##갡
불구속
##쓴
특정
잡힌
사업비
##ρ
##[
##隷
##田
댔
자리매김
##懶
중심의
촐
##뮚
##잋
##崔
##뜚
##惡
##0900
덤
못하게
##랙
##씻
##미투
##黍
릿
공감대
##우리나라
관절
##냈
넋
##〖
##弔
천재
##ad
동구
그만큼
모색
##청장
##急
궁금해
언제
##수요
##뇒
비
불과한
##을때
##賜
##국장
관세청
##扒
##ip
괴로워
있나
##개발원
##盞
##늑
일부
##薦
한눈
##측
##兎
폭설
한자
##팜
##닁
##장갑
털
결과물
SBS
##쀨
뿔
##릁
그룹
##수정
##츲
영향력
부동산
개척
확장
##俺
##흰
##NI
##탔
배후
##기사문의
포르투갈
##摭
중동
##대강
##巾
##뚸
일일이
##冨
개입
##over
##뭬
##SNS
##곸
스폰서
##흪
##튧
쌓인
##지로
##濃
##자로
유격수
잘라
##琴
##İ
수시로
떨어져
##伋
내용
##뷂
##득
##촉
쉽다
##駛
##鑴
오프닝
플레이
##뮊
##柑
함장
##級
휭
##踰
조리
점포
있었기
##큟
대대
그쪽
##径
##ど
##꼇
##횚
##버린다
자치
##연승
##ㄙ
몇몇
쮸
##太
##녯
##偏
##廖
거세
##lo
##OM
풀려
##つ
원곡
애초
##緬
마쓰
마법사
돌연
명이
02
위
하필이면
효력
계략
##뀭
##휈
클
어필
##釜
[unused25]
##금리
##추진단
은근히
##副
##감시
##으론
유니버스
##첫
##펊
선포
##彆
접어들
##5
##ハ
뉵
##炒
##이용
긴장감
##췵
줄여
##댷
##支
터보
툠
귀족
##破
##鸞
##鉦
##速
섦
##들을
##뭓
상자
##협회
##소환
##兢
오산
##걸음
##倻
돌아올
게재
##躍
##免
##뢁
##톌
라인하르트
살해
포수
##ἐ
##즕
##シ
##뗤
##◁
##쌨
꺾
##책임
싸워
##66
##漿
##왕후
나눔
개막
##퓇
##횿
##에는
재능
무라
##FI
##뗙
##섟
서울지방경찰청
##퓀
듐
수준의
##죳
##為
동국대
훨씬
재밌
##뺉
##찤
##아가
넘버
영화관
##繁
임시
이어가고
##됧
스위스
주한
##숖
##ning
##헛
넓게
##퍾
그랜드
놀라운
홋카이도
##쩥
##햙
##츠카
##뇥
설득
인원
내놓
##比
쉽지
셴
##경력
자비
##갩
건강관리
##줚
가진다
##로써
##판정
##바운드
1978
전형
북상
생명체
맺
##뀔
역전
레버
##仪
##퉺
##홉
##부로
##湊
##므로
##君
##돼서
쓰러지
불안
느낀다
##뤽
혈관
##伐
##웨
인맥
##엘
곤충
##換
##뿒
##)’
##췰
포착
##꼁
##wikireport
##음식
##매체
##檄
##棘
##詰
찝
도와
##홼
핵심
할
##뷽
##횏
##ह
쭉
##사회복지공동
##厳
마르
##속
탈
만인
##섞
전적
독립
총장
벼
대공
##贍
아키라
##ο
벙
##蒔
초반부
튠
안양
##禧
마린
기소의견
##동물
##娶
##樓
##ق
잰
아침
법원행정처
촉진
힐
그리고
일종의
##耽
탐색
살인죄
##응답
들려
##떉
##힛
##뜧
##꾬
개발자
무한도전
##끋
##킙
##杰
##베리
##达
애플리케이션
중학생
좆
##舺
훔쳐
##獸
태어난
##쇘
##嚮
##ion
##쯽
쉭
어릴
떠났
시신
##않
조직원
##毅
##皮
해방
서울경찰청
##U
##예정
안타
##ይ
##하며
##쬠
문재인
순천시
##媼
##세종
##á
격렬
##顧
##행복
충
##개입
##溵
##부와
##지만
##婦
진화
관통
##1.0
##丶
##晙
##나고
##학부모
충돌
##틘
##좔
훼
해설
륌
수록
S
##늁
##消
들어갈
##꼬
##튂
##늹
##교통
협의회
읓
계통
##十
##연구소
잔디
##기의
제임스
##공급
롭
##넸
재배포
##틂
##흟
아주
만만치
##◎
##佩
##퉀
사망
##祠
빗물
##ὁ
수호
당첨번호
수직
##叫
##宰
안철수
껀
들린다
##ᄴ
##廝
##벵
##샡
악마
##驢
바탕
##묟
##****
뜩
##가지
장학
##奔
##장군
초록색
##毘
첫째
가축
##叅
##(2012
##토가
##泄
동원
실무
##분석
##쓾
1996
##め
과정
여자
[unused3]
특성
햏
대해
##04
축복
인천항
III
##ᆪ
72
루트
화제
내각
##휔
##파업
##셌
##鋒
##墟
##膠
##競
합친
##풯
##넫
##ེ
진입
##줜
##eep
##秩
먄
##샇
DJ
움직여
##픯
오른팔
##루가
##갯
속도
맥도날드
##톆
##션
##_1
##LI
##흠
쪘
댓
##인증
##盪
신중
중국
콴
##잏
##悼
##IA
없었고
##왕
##볯
##철
##쟧
받아들일
휴대전화
##玗
대중교통
생활비
갑옷
##划
탐사
##겍
고시
##도지사
##bu
스카우트
##풖
##블레이드
비슷한
##倩
반성
##墨
없
##볼
##과학원
기념식
##쁕
##矯
t
##z
##憂
##븐
##吳
##럻
##뷹
늘
##弗
부분
단행본
만점
##볆
관점
##개월간
##킎
##me
순찰
냅
병사
##助
##顒
양손
튑
소방서
문신
영
##대로
##퓔
##붑
##බ
##떎
##졟
멕시코
##옒
##養
##뚞
##나마
##인터뷰
##씸
21
##아들
목걸이
긴급
##회초
여우
##種
반경
##tic
##었는데
표현
##뷲
##ὺ
강도
거주지
가정폭력
장기간
##г
한두
매출액
##혱
##弄
##대책본부
##학년
##繼
공항
##껽
육성
오버
노란
##끀
빼내
##ie
##뾺
수용
공백
##匙
##乶
##葳
##賣
바깥
##ち
##펗
레인저
##ぇ
온천
균열
고구려
'2018
##(41)
##仟
뀌
나빠
##保
소방차
##プ
플랜
##듏
레스토랑
재장전
그래서인지
##숮
날아오
##쯰
##桟
남원
##윺
나
##閨
2014
##孛
여수시
##楔
규모
##꿀
##기환송
멘
가혹
##咬
##숏
국가대표팀
감형
블랙
##脫
##变
##斧
##잷
햅
##偽
##븑
##자키
##뻷
##턬
무섭다
##瀟
IN
##督
노부
##苻
##쓀
##툢
녀석들
막말
##쾈
추구
소규모
##ner
##劑
쩡
[unused37]
##뺐
##罡
보였
학교법인
##松
36
##們
##울산
##▼
##舌
##뿂
##질문
위주의
##萼
##o
한국노총
##띦
##b
##崛
낵
##세이
동쪽
##瑜
요원
헤드
##豫
딘
가중
있어도
##ng
##꿻
열혈
##휴
예비후보
110
##奸
투자
노동조합
##γ
##갓
##에게서
바꿀
##犁
##Į
##뽢
##지지
##‚
게
##모씨
##뾮
##恢
쌕
##젯
청장
##느냐
##ն
없었는데
##영훈
##able
##짵
##袈
##瓊
어디
혼돈
##总
##國
##엡
##사용자
##사령부
이어서
넌
##소득
##시스
##',
##right
##
주류
##첺
##献
##였으며
깊은
##鍼
##껐
숯
체불
화성시
화합
##眾
상환
##쟩
중후반
##탶
##ᅂ
##セ
##툐
##鶴
외치
최종
##춰
험
##꾹
교토
##和
##翻
아니며
발송
##쵝
계약서
알렉
##우먼
##슋
##壓
##鏶
##몂
##콥
##튬
우르
##툡
##랁
YTN
장남
##듒
열심히
##瀷
독거노인
##예산
이젠
##놦
##찫
아나
하락
##ම
##sk
##지정
##깰
##ig
##Μ
드디어
텅
##미와
##곪
[unused13]
##栓
##兰
##盆
##焉
않던
행진
멸종위기
##술
##뢸
장난
비트코인
SS
##뙏
##衢
드러났
##굇
##괵
##쒑
서울남부지검
고성군
법관
랜덤
목동
##몬
##자는
##뿅
##肪
##강간
##ɕ
박사
##ᆭ
뭔지
##蔚
이후의
훔친
어제
##텍스
##火
##팙
##箇
##뙺
##‬
정점
##錞
유래
##丞
짚
##畋
즐겨
##돆
##보조
##ca
##욹
해수부
##겠
삼성전자
##싲
유로
##班
타결
등장인물
##운송
##ary
##义
똑똑
##레스
##*
##玉
##텊
do
소형
종료
월간
##뀊
##쁴
품질
된다고
넓
##т
##겯
##뢋
까
##밆
##栍
헉
##而
##蹄
##쫏
웹
##頎
쳰
##钦
##는걸
압권
쿈
##Ō
밀착
융
##웹
##ɔ
##参
##쩠
##録
없었기
못했지만
##쿱
##뫼
##退
##뗵
마츠
##적으로
##翟
##孵
##볓
##자료
##숙
상대방
##떌
페루
##凶
##릩
##釉
자택
##듰
##妹
##ச
##no
비례대표
생태
##色
긱
##뮗
OST
##д
##븡
거울
인권위
##어있는
##臨
##斂
##횟
맑
##宗
##앝
##伊
오피스텔
용의자
##뭇
둥
헤이
##そ
##괸
넘겨진
##駝
면세점
##풫
이재
◇
##뿆
##勵
아이콘
여성
##覆
##통일
메탈
##绥
##햺
광물
깥
임명
##稜
용의
##왟
보여주
서해안
##헬기
5·18
대학원생
사립
가을
##쟺
##뮈
넘길
##뒿
##출입
##飜
카더라
##褘
##즍
##2)
직권
호텔
height
원고
##É
##窘
##排
이번
서
##뾟
류
##탭
고치
살인
세계의
쑨
극우
##뽶
풍
##왞
##柬
몫
##웜
##්
리더
##씑
접
연
프리큐어
뱟
처럼
흡
##죖
자
위성
풍부한
##ガ
##man
폭발물
쓰
강해지
##행동
1600
##왦
##임
##榮
대해선
##檢
도와준
##73
합헌
중대
##培
개별
소아
##跏
##仮
셸
##左
One
##련
다뤄
##쨉
##41
야마토
불가능하다
##쵲
인연
##魏
##姚
##ᆯ
숩
##쩃
##땜
쌔
기울
##준희
##어져
내면
신뢰
이사회
한진그룹
##電
disabled
##랗
##充
##곬
호남
메디
##蛇
##봴
북극
분배
##覓
##꿊
##私
바로
##綎
##̄
##폈
##해줘야
##遐
##덊
들은
자발
##莽
사측
##癩
##앒
##잼
여겨진다
종
##젖
이겨
##읷
##마는
##묇
##옇
췌
##톅
##몘
헹
##볝
##쀾
##잪
상태이상
늦은
급격히
##썁
##̻
##컐
집
##仙
코난
허
꺽
##約
리그
##수당
한국어
그쳤
##絲
##附
은평구
##誉
##徽
컬렉션
##뷰
성명서
그릇
지킬
화려한
스크린
##컨벤션
##엑스포
##積
##려면
다르
##ح
##倜
##曽
##§
##口
##려다
##레이드
##⊙
##暻
스마트폰
증언
##이면
##桑
##錥
h
대전
##board
##리스트
##‘
##テ
도둑
##궑
##쁑
##13
심정
##곂
하프
formula
##ǝ
(2017
용도
##떟
쿄코
##뭵
##큄
150
들어오
민주주의
촬
##殳
튬
때려
##ử
빠르게
##외
너머
##줬
##쾦
##임대주택
##쬑
미국인
그러
##릭
격려
플레이오프
##쿁
마물
##樣
##삼거리
##⿰
##볠
실업
씰
##쉿
준비
##라지
빔
##娃
챨
##깎
판다
유일
##熱
##祺
나간
아프
##晩
##円
그렇다고
세계대전
후지
홧
우회
##int
##딕
##洮
##루스
##옾
##뾲
휠체어
##칳
##끯
##70
이상한
##뉣
남측
감옥
일방
##폴
피할
##역사
제목
그간
##ᅨ
주방
##50
##쏸
##獨
##캢
몹
자치단체
가난
##놔
##딾
##킕
##팗
열린
##鉄
##큠
##杼
##ስ
##0.5
##펬
##紘
간다
유머
##험
##(46)
자정
##入
##۞
금고
깃발
##胚
구역
##琵
##더라도
##...'
##蠻
##뉕
빠르다
등이
칠
##杜
##引
##Ŋ
금품
##’(
##瑟
어빌리티
##준
##é
된다
##뜓
##큥
##녀
개학
##熊
에레
태워
서울아산병원
##꾲
on
파열
에이
은
##뿁
우주
##사업자
Ar
##쓰지
Ex
무덤
둠
##예
내년도
##횐
나온
##渭
##껙
##췌
##치가
##흄
##蒐
##즟
##ง
##앶
껭
달린
##戦
##兮
##魔
전세계
##AI
##⟪
동남아
시리아
##깾
가득한
진전
##回
##丽
판단
##에서
젋
경쟁
심지어
##겠다는
##ぴ
공격
##뿖
##뿟
GB
##계약
##라든가
처벌
##佶
두개
중고차
질책
##給
서울신문
##횥
많아
##잺
유명
해치
##묊
##쟮
##밃
##펩
감찰
##럏
웨이브
##뀁
운반
##였으니
박수
생방송
##진다
지체
였
창고
##技
##펈
전통시장
##准
##勃
##펕
##コ
##傭
##퉹
##하겠다
##pi
타이탄
##涬
##학과
꿀
##疑
##선택
##両
##분간
펐
저그
##徑
##샆
렁
끌어내
##뾻
보증
돌아가
##慊
있긴
자본
치아
낭비
자아
릴레이
##지휘
한국인
##SC
##雇
kg
##샛
스티브
경제학
와
힘들어
참석자
##ن
##%
##sc
묑
인권침해
부산
부두
##潮
##黨
심사
스탯
##띨
딥
##쎈
##앛
바나나
the
부천시
레
##ctor
##넠
점
조형물
중구
##약
##뵏
##謹
##趾
사이즈
헤르
##뎃
정화
##떴
##인데다
바디
서초동
##라곤
##뺟
##쓥
##꼱
재미
##¢
##ล
오오
##봅니다
##惘
##S
순
##姊
##ᄇ
##뀹
##적이다
휠
##만
##사실
##갰
방영
##넡
매진
##챜
##獅
벰
실드
기조
교과
개막식
##績
##레인
소식
##К
후보자
##ὥ
##媯
화면
##蔬
##粵
##視
##諏
##桃
##쓔
##젰
힘
##능
한유총
대
##태평양
##닉스
##윙
빕
##救
무마
연속
##쁾
ma
##零
##潭
##뻐
교
앉
시청자
스타
##씓
시뮬레이션
##맣
##報
##쿲
##경제
U
##ᅸ
공사장
환산
##롸
멀쩡
하차
렉
##il
##愜
##좕
##퉸
##깻
1987
##予
##ᵿ
해고
##쑈
물량
닻
퇴진
재회
##淮
##뢌
##쐫
##달러
##烽
##믈
작화
켐
해운대
불신
##뎍
무려
##코리아
##흿
##7
##만한
지휘
##燭
##ech
##솚
##늋
겠
발생
##ae
Su
##대륙
닿
##누
##놃
재직
##뒲
##걘
##명의
##擁
##뜵
틍
##別
김주
##뇛
쉑
알선
벌인
##輛
##」
##짔
##공동체
독성
뜀
트윈
##揤
쇽
대표팀
구출
80%
법학
##例
조양호
죤
##욾
##ick
##해버린다
사내
##윱
남기
##累
##べ
##ine
##훕
##洧
##놴
##큘
양호
가출
포스코
편리
대부
명령
죽
##麝
##뷝
##츨
소유자
##地
##펆
##ی
##뇤
##氈
욘
충분한
##稔
탁
##业
함수
##綝
밝혀져
데리
육상
9
##寛
##ب
##擣
꼿
할로윈
##센터
##梔
숨겨진
네팔
##쨾
##되는
골드
아라
u
##ho
버스
일본군
##ར
라틴어
##계층
##亦
우병우
##실천
생활
##違
하이라이트
##L
##쫘
1980
##隊
외의
님
테마곡
##態
차명
##SBS
[unused7]
##조차
##τ
##꾁
##대법원
억대
##혁신도시
있고
##엹
##痒
진영
챰
##涙
괭
##굌
##쵖
##삒
시야
##稙
조달
##심리
순차
뿌려
##비치
퀜
##菖
##枡
##퍷
##앎
반박
##예요
##하다고
##襴
##뱌
##憍
대왕
귑
##
En
그해
##簧
##랐
##공동
얼굴
##ins
##件
##평화
##잊
##경비
##膜
##벛
##시
공동대표
##전대
뛸
##뜨려
##츫
##名
7000
##인방
기탁
민사
세번째
##警
외부
홍천
##툾
주관
되게
##미술관
##闇
##회말
축소
##濁
##奇
##ach
지녔
##녕
봬
요인
초능력
재편
--
##ギ
사용가능
육아
보호막
##갻
눈길
##뉪
연애
##字
##池
##백
막장
Try
##커피
##ter
##딱
##날씨
좋
[unused6]
빼앗
##丿
펼칠
##ㄉ
##52
##쇤
130
갖춘
##꾦
1.
##껝
헬스
##乗
##프레
##붇
##마력
퇴사
##苾
##綸
##뻢
##핍
##노미야
##컼
##뙮
플라
##糜
미묘한
과거사
[unused40]
자랑
##醜
##莞
잠시
##내
트윗
깜
떨어뜨리
##있고
##葺
틉
나기
##부문
소화기
##옵
관악구
실종자
사악한
##kg
고작
##볤
##긴
파이널
##박람회
보좌
[unused16]
어렸을
들
##塼
##塡
SKT
##尾
덜
##燧
비극
치
##짤
선보
예방
##문
##셈
짹
보험
사무실
##상이
##毛
격추
##愹
추억
##償
##綠
##诰
Gu
상경
앙
승패
위탁
##삽
##읽
##멱
쓰레기
##(14
농촌
##돝
##졫
##쉥
##빨
##띲
진지하게
빌보드
##덜
##퀵
##鑑
갬
뎬
아니었다
##訶
KTX
##響
최저기온
찌른
우울
##렇
##幇
바이에른
##een
시청
콘서트
놀라
일반인
##樭
확실하게
##퐺
뮐
위원
##쁢
달래
##산림
재생
##Ζ
##ink
##ễ
북방
권
##구
##쎋
##巔
완공
##챗
##耳
약화
##휞
##駒
피해자
내려온
##銅
##컽
##up
##주가
##지르
돌려주
크기
탐
이혼
##슬롯
##빐
##샩
내려졌
내려
##楢
##鼓
쿳
##죠
##웋
변해
##가구
##h
##줕
##쨌
##앧
##병원
렀
단정
트릭
##챨
##噴
소비
##邕
##桜
C
##질서
##湿
1979
##覺
##笛
빼돌려
81
##承
상대의
명나라
##뎡
##~12
릴리
친구
장소
##圏
##퀧
##읪
##뗪
선수단
두번
총괄회장
##is
##경기장
어렵게
##놆
##24
##붫
##ბ
##켈
뉜
##뷄
##珠
##(4
##보훈
##炮
##ty
소생
##ヂ
##위권
간의
도장
실수
[unused17]
##至
##학적
올라갔
##棟
실력
##訪
##컩
##퉄
##殮
##kr
볼트
##罐
##掾
##뒻
##운동
투기
성향
될까
통산
##愷
##협
##렝
감염자
주변의
수감
##盈
##그린
게이머
##쬼
##요리
조현
##ff
블루
평가
##ᄚ
##蝦
어딘가
##덬
0.0
뭐
닌자
##휬
##넛
호기심
##뮜
헬멧
재학생
##럭
##옴
##턐
##午
##선의
테라
##곷
기원전
##잡이
무죄
CC
아버지
##UR
기지
##阳
껍
##穗
보인다
정무
면접
##쁐
##錫
남쪽
##פ
##玀
임종헌
##자연
##Ῥ
##읨
폭염
있을
##令
##)'
##훤
##肺
##여름
##憚
##연구센터
주거
ch
##긪
피닉스
##리안
##괰
##뮩
여고생
##횵
상봉
##耕
부각
##홰
##ton
야기
##사가
접속
##찗
##툭
빰
속여
##발언
사도
##산업단지
별도의
사퇴
라이트
소련
##灑
##彈
강등
컨셉
히메
##뼂
3.1
##쥔
아쉬움
##파티
##전담
½
##冉
접촉
##줍
##쭐
폭풍
##낄
성실
정리
이재용
##燐
##뗍
##⟫
##峨
##명이
##땄
##110
주도
파크
##녿
##졉
돌아간
##憺
##郝
##톔
##짼
##춧
##겊
##遣
뎐
어렵
##轍
##軀
##쉭
##眞
##ヒ
##楪
창문
찾
##나눔
==========
##뮠
##놽
##쑴
##⊂
혐오
##終
##앐
##라면
##샾
귀엽
##설정
무게
##릇
과천
빌려
동대문
##곈
둣
리얼
원정
##日
유효
산하기관
##끌
##뚬
이틀
유성
##강전
샌
위생
컨설팅
##한꺼번에
##크로스
##煦
##장의
##珌
##ress
##숀
##딌
##屑
##醮
##珍
##弁
##Я
##DO
##Ÿ
##픕
##ㄧ
##ow
##분의
##八
##萌
열대야
없었지만
퀴즈
##패치
색상
##덼
##差
##쳿
##접수
##쓸
지혜
##휴가
##뾘
##DD
먀
있어
##nc
##껥
##카드
선행
##있으며
##苦
1955
앵커
##谿
##彔
##2015
##燼
##띿
숲
##칷
보일러
성숙
안겨
박탈
##産
해커
소방관
력
##뉆
##봢
##7.5
무한
##榥
##檮
##훗
리콜
##稀
뉴질랜드
건전한
##쵛
초창기
화재
##馥
추위
##확보
시비
##니어
##꽉
##주의
##∼4
##으면서
##믄
운전면허
##뗮
##帖
급감
##05
##웸
참
##테라
##撮
##MB
##EF
##딈
##쪮
지인
특별검사팀
학자
학내
##億
##墾
##艸
쉼
##빻
철원
굄
##쪢
마구
뺏
##드린
##썼
##74
귀경
특히나
부착
##猓
소울
##심의
모조리
참조
##쎇
##뱆
##დ
혼동
##密
##碎
##찵
하마
##吠
중소
낫다
##孚
##ज
칸
다들
지하수
스승
##斥
##age
##붽
고민
신도시
맴
##떻
아쉽게
##鶏
##廢
##색이
##稶
##枫
사학
##얿
##穢
얼마나
진료비
##.03
##넪
'
##았을
서울구치소
##딍
##吴
캐논
##삘
내리
유령
계승
##권의
##옪
괴물
##년
뿜
##미네
##嘲
벤츠
앴
폐
서둘러
보이스
##槿
##塾
쐈
##어졌
릇
##광역시
##방위
##鮒
외국
##왕의
##무리
##倭
##琉
드문
##뱉
##뽁
왕비
##치의
행안부
##邰
테크
##밖에
##로서는
##갖
##솙
##얘
[unused89]
##마스터
추기경
##쾰
미녀
##栗
##믾
##顕
선호
##₫
##岷
지표
##진흥
##氐
##겈
##穠
저소득층
점령
##봿
##완
아즈
격퇴
##챈
입문
않는
##랂
##랈
Mo
##파출소
##뇌물
실현
##왩
지나
##뭹
##ᅯ
희생
##였지만
구해주
##됩
동명
##渋
##뭡
겨
##땯
애매한
##싍
잤
거기
##ǽ
##有
급성
##湘
'2019
##歡
Ro
##홧
손잡이
01
방역
##금액
약탈
##기보다는
##∮
##go
빈소
##현재
##闋
알려지
간섭
##芑
##네스
심어
##根
색깔
베테랑
##畛
색
모텔
선보인
인천
획득
##㦕
W
날린다
##예술
치솟
##브로
##瓢
건데요
고양
전체
##걵
##快
꼽히
##MG
##拜
뤼
##称
##敦
덟
##農
##寓
##덍
##ඔ
##쎝
##&
##불능
##젧
DNA
##지오
첼시
다중
##꾼
성우
##抛
본부장
##碾
행태
##OECD
슈
##하고는
방제
##(33)
이후
열정
작은
못해
##魚
##繫
##∠
##우수
##슈타인
##湾
##업자
어린
##居
예정
익
퀑
##뺙
##循
##輔
##해서
동양
지향
##俳
##樑
##뽝
거칠
##젝
냉장고
깬
##㮨
업무방해
##히토
##붓
##둣
##폭력
워크숍
##강화
##咸
##시험
##샊
##스카
##땆
동창
##補
속출
##수록
##盟
참전용사
##벒
표
꿋
홍보대사
브라
##洑
표절
##iz
듦
당초
##肋
##롑
##밈
앞
넛
세대
차라리
##盃
BPM
##레
##苗
세부
호흡
텀
##쀆
모종의
350
##Θ
##변
##墳
평창
##~19
##켰
묵념
텨
##婢
철수
##세의
##Ĺ
##퇅
##驤
마신
만루
걸린
##뾜
##습니다
1974
##풥
트랜스
순환
동향
##푈
퍙
##뻾
##쑰
##
##굔
있냐
##訥
##트
시나리오
##헗
##쬰
##특검
평상시
후퇴
전후
##쎓
추측
##五
##黔
흡수
복역
##게시판
빅
##퀴
##휧
후원금
##認
##뷡
##誤
##폿
##经
(2016
##贄
##街
##냞
##歷
##믹스
##ぢ
##枹
스카이
##좨
본능
##眩
봉쇄
##였습니다
##떋
미궁
최저
손가락
당연한
##進
##漣
가습기살균제
회장
##명도
##뉦
문제
가문
##傳
[unused52]
##妍
서울시장
곧
내뿜
##敵
서열
아미
##葉
총회
뛰어나다
##넊
##猩
##む
##쑻
길게
##퓉
##렎
##曙
##淇
##놐
##佚
##마약
곳
##れ
##飼
드로우
개체
츨
결승
천천히
##덎
##샭
##湧
국비
##햱
선
강간
##inal
##팒
##소방
##戊
##彊
##천사
체인지
눈물
패치
전투기
##云
##쮜
##족
암매장
##姑
##禍
##뽩
##랰
##郎
닝
##ị
##翕
##卓
털어놓
보정
##옼
[unused46]
##벤
올리
##힠
뮤지컬
##업소
엘
##埠
##位
찜
MB
##良
산업
##뮴
##옸
스캔들
스티븐
##휸
##벌
변호인단
##싕
##는데도
미사
##仰
Da
가져온
옹호
구직자
##봸
##☏
충전
##백만
혓
아이템
걸까
##긐
지속시간
미술
##蠾
격
템플
##芙
##테이
##주년
제치
##Ð
점심시간
##턼
##(10
탄창
뺌
##늤
##갉
##ể
##
집착
##鵑
뻥
진급
결코
##븹
##履
##醢
닢
##Š
뿌
##맷
##냐는
응답자
##뼋
##ɶ
루이스
##뒽
##긍
복장
납입
서초구
##둬
##堊
교란
##dr
건네
##.18
원룸
##별로
##콠
##糊
실정
##아침
##霓
##哉
##쫈
##선
현장
일관
##園
##맾
##(59)
##꿡
인류
##럊
가량
##緑
##鄢
마리
##좋
운항
##럯
1919
정식
왓
65
##밽
##涼
##뷃
부모
600
##연맹
##Հ
##뻄
##쑽
N
##돨
##と
제작사
쌤
##Π
가설
벽화
환경단체
사실관계
아이언
##児
필립
우세
##å
##돒
벗어난
시국선언
##쵵
##됐
교회
##_
##넼
스마트
##늄
##꿇
##시의회
##공연
##ŏ
##槌
꿎
##錚
선처
2020
92
##췬
##곽
##妥
##핑
##閩
확립
##머신
플레
##왮
##이치
##s
##芯
##떆
텃
미르
##훨
##י
##양이
##훍
##쬭
¦
성평등
성취
240
##왱
부족
보조금
블랙박스
읗
##瘍
반납
07
내셔널
뉼
##TO
##보이
##과장
내의
##発
##집단
##琳
##즤
##몔
##沔
헙
많은
히어로
~
최적화
공무원
##偰
##괏
##貓
샘
##퉧
##비로
##무
맛
##炯
쭐
짐승
##키스
요구
퀴
##늶
국장
서울
##간의
SK
자격증
##ᅢ
사범
##뿍
##쭅
##바람
공통점
##吐
##√
##중앙회
##ever
##荊
##औ
퍼지
##呪
##퐴
##덕
##쵘
질투
가깝게
##콩
무기징역
주석
에어
신전
슛
##◇
[unused79]
레이더
##였다는
안전한
##수사
서산
다투
죄다
##om
이집트
##깗
구성
##−
램프
진흙
기사제보
##hi
가끔
##졷
##Ś
##윸
##싑
##爺
##ō
깅
##伯
최상급
##챝
탸
##뺚
차장
##昚
비롯하여
최고위원
##를
쳇
##к
##釐
카라
##沅
##유통
##도박
시라
사운드
일찍
##곮
##오토
남성
요소
##쇺
##芽
##殴
##チ
구미
##SE
조금만
can
도봉구
출마
##무기
웰
##EN
실려
##띱
적
제일
##대응
##~20
##신경
산림
##프로젝트
##그리
##’,
##쀠
반면
##弛
상인
서강대
꽉
##역이
##안전처
##畔
매각
버텨
##听
뜯
##즎
휙
º
##밪
갤럭시
황당한
고시원
##ㄅ
무차별
##민족
##낙태죄
리버풀
면허
##ந
영토
##at
겨울철
##綯
##譓
첨단
##羯
##몄
박모
“(
##ỗ
상향
##뱡
#
좋을
1900
##부족
##아나
##찐
있다는
힛
##柩
##뙇
시사
##빛
##븻
##튌
키보드
##뀅
때문
올라왔
##구청장
##겼
##±
##裂
[unused41]
##오버
##수와
1951
녕
##뇅
##殖
##싶
쯔
##筒
떨어진다
##스와
##랎
김정은
##譽
##재산
##쪓
##챚
캐스터
##ョ
뷜
##뿥
##較
타케
스킬
95
de
##셩
##붚
형평
##쳠
##ris
##쎉
NPC
악당
타임
##긫
##공공기관
##쿩
##亢
##ator
##000
##듋
##ს
만족
##뜴
##뷱
##챌
축적
##垂
##묽
##파워
일반
내게
환
##幾
뒷
보람
##涑
틔
##沢
##남
숨지
크고
희
심하게
국군
##뻳
지원금
##反
##윾
사죄
##戾
잘
##謙
##썰
BMW
##旭
퍼스트
미친
##ร
occurred
##헑
건축
운전
랏
##債
##仲
##뢳
밭
연금
끊임없이
우연히
##사우루스
좋아하는
시내버스
##麯
존치
토론회
시연
주의
1941
측
웡
##顾
##패
##뷟
##재활
커녕
취소
##83
##ag
소실
휘하
##쵒
##샵
##쿨
##8.1
푄
칩
##픽
홍보
##Д
##팝
적군
##淩
발효
아티스트
평점
말투
##노동자
형사합의
##옛
모았
2017121
몽
##墉
##껃
##坤
성
혈통
참모
##케
마나
##세월호
##〕
##Ă
##짨
##꽹
머무르
가슴
##챸
평일
##닝
##했
굼
태클
쿠
##캣
뗄
##퉲
##min
퐝
##ric
##트레
##영구
##査
##希
탰
##釦
##뻼
내려진
##입학
##캬
학교폭력
저출산
구분
##塽
##淳
##퐁
##고교
##사와
##슠
##윴
##오후
##귻
브
큔
규제
성경
www
##라기
눔
##ς
##놁
동참
##시킬
##CN
##寿
쟨
##북
벱
##資
MP
##튘
##휲
왕국
이걸로
모두가
사업주
##륛
##너
##龢
##瑋
미미
딴
##實
등과
##壊
##샯
귀찮
##갥
##팰
##䛬
##只
##怪
대원
히어로즈
##야말로
##म
##뢓
200
##도서관
##屈
##თ
식량
##인가
의학
##깞
##肆
##収
##건강
##媛
##税
p
뎅
##얗
많은데
##디스
##芭
##닷
몰라도
갖춰
##荳
##라디오
##장관
섰다
능력자
##舉
도깨비
쇠
##島
찐
##덪
##짘
신곡
##扬
제정
##ث
멋진
해
##퀸
##43
면제
깨끗
##칫
##㙫
##으니
47
##륂
##簃
금지
##킝
짓
##琠
엘리
밀려
##晟
나무
##TI
##붋
〈
뉸
##선거
치료제
무혐의
전락
##화운동
시술
##訴
##휯
##숝
##尒
##恺
##Л
##풬
##(18
##은
##호
츙
##Ü
##뺣
테
##BE
조현병
##고속
##깭
##치료
전투력
##Ж
여학생
##왁
더러운
쎄
##뾕
##쫐
노릇
##游
거대
##}
다음달
##괴
##틩
##政
##헣
##머리
##퓄
갈리
앝
법무
##베트남
-
소독
##建
LP
##쌲
##ant
정황
##標
1·2
##囑
##메이커
##램
항공
깨끗한
실린
##관리법
##€
1975
##手
부산광역시
햇빛
전직
차단
##害
변신
##ù
##獐
리드
힝
##죱
승소
##컍
##व
징역형
##휝
##殼
페이스북
##겐
댜
삘
i
18
가르
##체험
##링크
빻
##逞
##기념관
##솔
##쬔
##콫
백화점
라인업
##seoul
##켑
##삑
##福
##浅
##형
푁
##毋
문체부
##竊
##硬
성기사
일가
중간중간
붙여
언덕
##崎
##자원
뾰
결함
##陽
##받았
##開
괴롭히
##ྣ
특활비
아픈
##네트워크
##긞
##쪄
##杢
##히트
##維
##뗰
##豕
뻬
경향
##긏
꽁
##OW
거창
##활
##周
쨈
일베
##蜡
##서
##껍
04
##방송
전방위
##张
##嬀
겨냥
##耆
##渙
##꼽
아이스
##彌
##퀛
##쮢
##풟
상성
##힏
구하
망명
용납
##풞
##튝
##복구
##피
##`
##新
룅
주한미군
##장애
##凰
##.26
법칙
제보
##시대
##ケ
##껦
##隱
위원회
유학생
##巳
##헿
쳉
연타
##퐋
착공
반환
에디션
##얭
견
##붗
샷
과목
##뻔
##븳
##æ
##統
떠오른
##엯
영혼
##沁
##禾
뱌
광화문광장
##ᅁ
사료
##ue
##幌
접대
믄
##緝
유기
마른
퇴출
파멸
##쳗
안되는
##婿
##경북
##폤
출몰
무방하다
##탗
수색
##バ
##64
##뉈
새마을
##vo
어렵다고
라디오
##攢
##tal
슘
Ma
##뭱
젔
##쵙
##(38)
##냊
무거운
##훝
##卜
##鷲
##껕
천둥
딩
동두천
##獒
췄
옛날
앤드
챦
뻔
##盎
##로부터
##貽
##히메
BJ
아오
##禎
##턮
잽
강점
기념행사
가
트로피
##정책관
불어
조준
##勲
##봍
##uch
##신문
##윲
엔진
##უ
법리
느리
##¬
##眭
건강검진
##閻
##퍠
캄보디아
##볙
##μ
##篠
기도
수성구
확실히
##軫
##붝
어려울
##끙
배제
직속
##ldm
충청북도
악기
##陋
##구름
쏠
실패
##젦
쿡
이같은
##픅
##노
tvN
서울광장
##닑
##사장
##与
##47
##릥
##謡
##죈
뵙
##퍵
해결
##ẓ
##직무
46
뜷
시절의
통로
##앱
춍
쓰러뜨리
##ุ
기장군
##숫
##턩
높아
##리온
같아
외
##즄
##KBS
싶을
##ཙ
##胞
공습
##하자면
##뼙
##itch
퇴장
##门
안희정
##택시
노가다
##デ
##볍
넘겨받
아수라
##뷆
##륇
##鑛
##ons
##뺸
건강
칼리
##̈
지지율
##퐿
##we
정동
##샣
##재난
##內
메뉴
##제의
##倂
##성
봐
##진행
##슣
##뜑
그루
번개
출혈
##껒
##疹
##륙
##문제
##횢
##첹
형사
꿩
##냔
유닛
추행
##글로벌
안전사고
민간
랴
한국의
엎
엄
##慢
같지만
한때
##주간
##ぶ
##놋
##반응
청주시
##캭
##본다
##붰
##슙
룸
##죰
##的
##주심
##굴
##클라
정당한
##어있다
복잡
##our
앞바다
##뀎
##세요
광역
##몪
인제
찬양
##쟭
수정
##즰
배운
비유
의한
주점
높이
##俶
##հ
잡아먹
##땈
##旺
해서
##札
##셔서
##眷
##왳
대놓
생명력
기능
##효율
##었
오히려
##쵤
40%
##쳏
지지
후속
##쌤
##비선실세
##둗
우주선
##獵
##줸
##裨
##待
떨어졌
##껺
시키
##ʃ
##떳
젱
☎
##灵
고개
초래
##칠
노리
발탁
윌
##햾
##얾
##桴
박살내
##瑢
천사
##Ρ
[unused71]
분수대
##冤
##뎁
##頼
밀접
##时
싫다
챙기
##蚩
##해야
새겨진
나옵니다
군인
폰
고스란히
##렺
최초
아머
탐구
고전
가스
##힉
BGM
입맛
비밀번호
##沂
개명
묵
어업
##蟾
##선관위
##歴
똑
##케어
##으로는
##具
##ne
##文
##만화
##岩
##쳉
선전
조지
##포토뉴스
구조
활성
멈추
리틀
##rd
##컺
##햴
남자친구
##1.5%
##8%
38
놔두
##岺
헌법소원
##퍼센트
##꺗
횃
360
알파
염증
##프트
##久
##뷭
벌레
고난
##뻻
##序
##旱
##硅
##寢
##亞
##ե
##웟
##،
어린이집
##폭탄
##鍾
##톜
쥴
##頸
양주
##眈
블로그
##்
##젵
##좀
##슍
##鄠
##륀
##沃
창원시
결전
##砥
불량
불분명
##하신
예쁘
타이틀
빌려주
##자유
레인보우
##ţ
##셋
##榴
##띊
##Æ
##ん
실세
보험료
##쮀
##뿄
##니스트
해산
높여
여전
##SI
샌드
##안전부
##研
암호
카드
인터뷰
동문
부패
소환조사
뜨
##콪
무지개
조명
##林
강력
##遵
만
튼튼
##..."
원대
##아있
환각
##軆
##熠
캣
##世
##뷀
이미지
##레이
힘들었
본사
멘붕
##깔
놓인
감소
없습니다
투척
##34
##쳘
##쩝
##笠
펼쳤
##堅
훨
수익금
##暖
어렵다는
덕분
##洼
##招
당나라
##혀
##湣
모여
##恍
모션
##㴐
##~1
##심의위원회
##弋
##ご
##銘
##씐
##낎
##阻
팬덤
레이저
##뷵
##쮡
성추행
##巩
##쬽
비디오
##什
##펇
##常
솃
##쒸
덧
##察
##㾐
##뙾
##먺
불가
##튥
영동
##꺿
##씝
##컧
##번지
##AM
넸
같이
PC
##몾
##퐉
미세먼지
##씅
##洁
단종
보내
##ж
스탈린
##기아차
항구
얉
##.3
등록금
99
여러분
##꺘
네트워크
군산
라
관행
눈
##펠
##、
팬텀
##연구원
##치사
역사교과서
##倡
##뜤
##AL
음식점
##Δ
일자
버전
##!
아울러
##으면
골프
##浿
##油
전기차
##읚
불거졌
##쬜
촘
등급
호평
##ㄒ
학급
##캠퍼스
정부세종청사
##해달
##뽃
##뱜
전선
##푅
재계약
##빌리
##프라
##悍
##楞
##렆
##대금
변
앵
지워
공교롭게도
##췩
##퓱
정관용
##ture
##í
윤리
##서류
##仞
##붤
레전드
곯
외출
황사
협력업체
노
쟀
육군
보스전
##ệ
럿
책임자
##思
벙커
모리
##칽
##廼
트위치
사유
여행객
##移
시공
##소장
##정보
오염
박살
##수가
##こ
일행
몰래
##敍
##ớ
##쌩
조선
애니
##翼
##인터넷
##燾
##퓎
토마스
륵
##2.1
##긺
##帙
##쒜
생길
공세
거점
##蒸
1944
##末
##턱
[unused15]
깔
##噫
##계열
##위의
홱
##毌
##ise
##땠
##邵
##발생
##롱
##꾠
당부
##IO
##曇
##囹
##营
##기지
캔
##사전
귿
꿉
##순위
##릅니다
##Z
##쥖
##꿿
컨
섈
##쭥
##홡
이곳
공사현장
마족
##봘
켑
에리
녠
##쪗
##앉
◆
영화제
##뙰
##廳
맏
유영
송환
##俙
29
##愁
##恵
##뽟
##01
환영
행각
코스
손바닥
##蝨
시의원
옮겨져
##웝
##瑕
##씦
##늡
##900
##쌿
##퀭
##칵
[UNK]
##隶
##Ö
킬러
안보
상륙
##합동
##투스
도의회
##凡
##龔
##孜
##아키
샜
##륜
##횩
##빌
##챵
##ᅱ
63
##협약
##바위
##귾
세르비아
##폣
형식
¨
##鼎
##従
분위기
파일
높은
##鄧
쑵
##튅
테이프
잠정
불거지
한화
통행료
##햶
보복
듬
영천
##ǔ
##뛖
예산
곪
##苞
작위
조종
##爲
##糞
##어
##먕
극대
##ų
풍선
##彰
##게
##행진
##정보통신
##뿑
##민주
##듆
승점
흘려
왜냐하면
원전
##茷
텔레비전
조언
공판준비기일
##且
GS
발인
챔
##볡
##놵
##又
##炬
조국
선도
긍
리가
조희팔
##采
암컷
공동
##TRA
적을
##뿞
제국군
##县
킁
##ET
##뭴
##팏
##쑬
##复
른
하급
최우수상
##削
김선
##팘
코스프레
##嬅
베이
썹
##뿃
잇따르
민족
헌병
미사일
상한
##뎠
##뀰
##타워
랸
시원
##煖
##식물
닷
##뜯
##猛
##쎞
##躁
도시재생
##엔
꼼수
앨범
##ኤ
##몆
##ac
##ans
짯
찌질
##수능
##form
양
##븗
도박
##뗲
##림
##뺗
##여대
LV
##뇞
HD
투약
##라니
제어
허위
뙈
여직원
##筠
##편이
##찯
50
상위
##滝
가구
##으로부터
태양광
##경찰
##洒
그만
##트랙
##뤃
##감염
공표
대법원
##僚
미야
##낍
나뉜다
워커
##밠
쉰
아프리카
##尋
당대
있듯이
##볻
##튁
주최
배추
##訖
막상
애니메이션
가려
직통
둘러보
##및
계단
##船
##紐
##매장
##갫
크리티컬
##얶
꼐
뚫
데빌
##.9
##원의
##퇘
낙태
##Þ
##괼
북한군
제자
노동시장
##횦
충실히
##or
##락
##暴
마비
##薛
##▪
##뮫
##讚
무더기
##尤
##즑
##ش
##授
##뛱
추가
##뾒
##ì
쐐
##천만원
##滯
##酇
잴
##屛
##위안부
케이블카
폈
못하면
전망
##···
##이었으나
##蕩
##없다
크로
##해놓
짬
추락
76
##朔
##시키
임신
통장
방언
##걓
##들로부터
We
##奮
##ᅌ
##쯴
##ž
딧
##Ш
미션
먹
반발
내년
##駘
교사
##프로
##농협
##화재
##梓
##윳
##횠
기호
##懸
영장실질심사
힘든
##딙
EZ
눕
저수지
있죠
굉장히
한파
##듯하다
##여부
핬
##낢
반영
강원도
루시
##베르트
뫼
활약
##婁
##퓸
전북
있었던
##뵤
##굼
##酺
##琶
##藥
냉
##뙥
한마디
##슦
막차
원료
##령
##殿
제조사
##샏
최신
딤
효율
##노총
확
프
승격
##구멍
##滉
클릭
핫
진상조사
##녑
괵
##井
겯
##枾
많으며
참여
강철
##정비
기갑
본다면
##bi
##흮
대상자
엔젤
##끄
토우
##윐
##튕
서머
임팩트
충격파
##생명
##퓰
매월
##ắ
대만
흐름
##륁
퇴임
##癎
##ㄥ
원형
MAX
##规
##꿶
메트로
노부나가
강화
##음악
##HD
##.19
##쟰
신경
##揷
사연
연설
##卿
##벴
##륨
##廂
하위
고립
슐
삭
##늍
##데스
##乍
##ر
스파
##영국
폭격기
##캆
걸어서
##멜
많다
##對
짼
##晷
##스톨
##蓉
##칶
씽
##牲
갑
##가부
##土
##째
Di
##퉾
##獺
##58
용서
##취
끗
산림청
##쏞
부채
##볐
##却
##怍
##西
개구리
##랅
##골
##렴
툰
혐
##남녀
저항
##펼
농업
같았다
되찾
구상
##(1
##땡
##현직
##어야
##柱
그냥
##傲
더빙
새해
##ran
##깺
##루타
##PI
##佳
##시즌
홍콩
##癒
임상
##쓋
##쭋
뻗
##尊
##戸
무렵
기용
마술
기뻐
##聊
캪
##토리
왜곡
##紮
##az
##귭
##자리
##항목
##겇
적당히
##훠
##峻
##분
##칬
##⊻
##鄱
##頭
관람객
관중
히가시
##떢
휴먼
##빚
##訊
중앙대
##ِ
있다
조합
##턻
대검
쓰인다
료
ATK
##捐
절감
비롯한
##뗅
태
퀼
모욕
넝
##뗽
##호가
제독
##戇
##쎄
의뢰
최근
##홦
##교육청
##蔲
근무
여권
##浴
##θ
00
##냟
치마
깜짝
rights
##뇗
남학생
##물
Lv
##蜆
냇
##그러나
덕수궁
##恚
##여원
##뢯
##햼
훗날
##조차도
##26
##暊
보라색
##蛛
됙
##茉
콧
##箭
건강보험
##損
엄청난
##쐺
쪽
산
말기
##荻
##뷑
##샫
##숲
##算
##竿
스포일러
근원
##뵉
##盲
##회의실
야심
죽였
##볈
##於
##折
##尻
지역경제
##踐
##뇧
흘러
##컓
##햢
##碗
##ark
##평창
##𐰆
##鞮
##型
##挹
##계의
붑
##쑺
##id
##.05
51
미드
##괬
잘못
첸
##퉁
##제주
##넰
절
##춘
##뺏
##버드
##酬
##시간
##畯
##문재인
##특별위원회
##餠
마스크
연구
##覧
##뺇
##벱
뗑
##바
불안감
쟁점
##椎
컴뱃
표방
##室
##읧
##럇
##없
180
짜
방심
혼혈
##듃
첨
##春
화해
##ि
최소한
명성
##엃
##笑
##1.5
##淸
퍼져
##뤫
##惱
##φ
##願
부합
신발
##泌
조조
CG
##少
##cm
훌륭
##権
장병
##쑐
##섦
##기획관
##壹
플래그
##평
어두운
국제사회
[unused56]
##堿
##천명
##엑
준수
닦
억울
##숌
나은
##옳
##벟
##Q
##限
가로
칭찬
탈락
##워크
야마
##퀀
##쐤
사면
액수
##ト
##籍
선보였
##시아
##ビ
0.6
1.2
##潘
##뼃
##비율
체포영장
눼
##뉐
무단전재
##3.2
렌즈
감정
##脅
공화국
##스펙
특수부대
##菔
##ὰ
##貝
##ess
##웤
##밗
##시절
날려
신빙성
조상
먹여
기내
##丁
##얽
##NA
##⟨
##當
주식회사
##뺕
##11
##諶
##땇
##謝
##沟
##둾
영화
##듇
##늫
##짭
핸드
뗍
##쾄
##ight
산지
##뛮
제외
인도네시아
##ㄊ
##드립
##푛
외압
##늚
##겅
##푱
##좢
##처럼
24
##챇
##ain
##廈
해저
이용자
##ME
##ヘ
북부
##干
##켙
##♓
프로야구
나와
##륑
발현
불릴
##분류
##×
##보라
##킨
발걸음
##嗇
##陰
싶었다
변명
리본
나설
##艀
##꾥
##했다고
FW
##ッ
##妄
##오의
이뤄
##棐
땟
##荷
##묫
숙
섀도우
##슳
연고지
##사업단
찿
승진
##버려서
Th
##멤버
자리
발의
겐
코멘트
##嶲
달리
비롯된
진
합리
상태
액
##뛝
쒔
##縉
발매
##恪
기존의
##경희
##뎔
높지
##night
##擎
##체의
##쌡
##侍
##쩟
언론사
or
##步
##⊲
[unused53]
##숨
조치
착
다카
1968
커져
##模
##쇴
##욧
##터스
##栴
남짓
었
##gu
o
##슉
비율
##사
##리
##忍
네이버
##会
##節
미끄러
##쨕
[unused55]
##돵
##앓
첵
##囚
상대
##。
##.02
##茫
##du
아무리
##곙
##탑
##ถ
##姬
해요
예언
탑승
##국내
봐도
##泮
중앙정부
확충
챔피언스
항목
##帛
##쓶
##뿌
셔
회수
데이비드
##琪
##뷥
MA
##納
##뢴
뷸
##Y
국세청
생중계
##퐊
##楽
##葦
합니다
##答
##庄
##พ
##寒
「
##쓽
##떽
##호흡
##퓈
어긋나
인하
##禰
##꼈
김기춘
선원
심각하게
##𐱃
1943
잔류
##중소기업
시가
보건
##宫
편견
##단
##胡
##蘆
##蹋
VIP
##图
##AF
##뛓
##엄마
초보자
##됲
##尿
[unused103]
##祜
##들로
가공
##리오
##겠느냐
##똥
많았
##인
기침
##ᵻ
##ᅀ
##語
쌓
##帳
있었는데
교도소
거쳐
##暹
##뜨
##촺
##교차로
없다
##绝
+
##〗
재정
##칱
컬러
##린다
##성이
##그러
##鎔
로고
##素
박정
오늘
예방접종
로비
이렇다
##茯
EU
##퓃
##馨
##븰
##햖
##咒
##버트
##恤
##땻
에스
디아블로
##唎
##卽
##겸
기증
##Ż
회원국
##塩
##猗
##兴
##부분
##膏
공립
##貰
##血
밴드
##홀딩스
##覈
##は
##넬
##뿓
취급
토마토
##테르
댓글
한국전력
##堧
##휰
##퐯
##釈
##낈
율
뗬
만일
##짾
연이
##긯
##に
##ْ
##葩
탐지
띵
소외계층
##딴
성남시
##횰
##얺
사법부
##柒
##뛗
##으로만
##黜
##遠
##무대
##찌
수단
##ma
##80
마계
##스럽다
논문
##芋
##나
압박
빠졌
##끒
##遍
##푖
##부품
어린아이
캠핑
##穴
블
DS
##잙
##IS
##측은
##퉙
주민
##뚵
유명하다
##뾗
La
##姜
등의
##츳
##핤
##屿
괜찮
덕
##멛
##봰
##풤
##바야시
병행
##Ş
명확히
##蛤
시민단체
##빵
펭
##랍
회고록
학대
있기
##뽭
##∼20
##세포
무더위
##勖
##젬
##載
##뭽
##여자
##타카
##읎
##ť
##浩
##홮
##纓
##委
##힇
##쇔
##增
북한
##벲
상점
##∼3
동작
신인
무작정
컨텐츠
맞붙
##9
죗
##이지만
아사히
##챳
토끼
##태
##朽
##섭
##操
연다
##屹
거인
안심
최하위
##爪
##뜬
전두환
부장판사
뛰어난
##ل
##정동
##죔
비록
일어났
데려가
연수
프라이
최
정류장
소니
##뜹
##侮
##뮉
0.1
##소녀
##錦
가요
냉정
##制
##防
다룬다
##럲
시절
스테이지
해준다
##쇡
##맇
##빙
##↗
신고
집안
서북
##쯸
죽이
장례
##妊
##茴
##뛞
##ẽ
##え
##졸업
전면
55
다케
발명
##邢
##醇
##뢵
##1)
갇
늘어나
##깱
따
##전남
존재
진상규명
##들과
##順
##リ
##쾺
##則
##仍
##关
##綾
청렴
##학원
##箏
타인
저하
##좐
##미션
지방선거
##햄
중순
도색
서울시청
##盾
##竣
진격
##d
##醒
##汐
옥상
들어올
[unused99]
불응
##버스터미널
##롁
##盡
연구위원
##箴
##紡
##눰
지사
##연수원
##뜂
##ᆞ
##뮑
우정
##게이트
##쑥
##뤭
땐
##마저
이렇게
득표
##믻
##箍
##復
##뮻
이정
##81
##홙
##뜟
##嵬
##恭
소양
##쥼
높지만
##曳
##楮
금
##55
##籩
축구
##뽄
##구역
##마르
##넴
It
##컑
##쾁
##의원
##注
명단
##韻
##퐽
##믑
캤
씨의
주시
기여
##旦
##걽
##넜
쿼
진학
##얏
##분쟁
##all
농구
높아서
취하
강경
준결승
티
##瞳
##饕
##殺
다루
##즾
Al
##ː
헬
모두
OS
##剽
바이
##섐
발휘
##→
......
##뎇
배임
##硃
##번
##느라
##연의
높아진다
##셑
.
##라이
##개인
센서
##쏟
##ul
##주로
흠좀무
##먝
##뻉
##걋
동해
##쪜
개조
##대가
##姸
##흒
데스
##舟
독립운동
##찿
갠
도움
##뇕
##輩
겍
##О
있는지
##盂
조사단
##웰
심장
##藻
57
내일
##톎
##틆
##й
##햽
##쏰
##듯
##회장
벚꽃
##긇
도쿄
G
##부담금
대거
저소득
멸
맨체스터
방식의
##휪
삥
##되
##다닌다
##뒷
##च
##qui
##申
믈
환자
##伍
<
설비
삵
셋
발판
##턫
견제
##庵
##液
공
##惛
띠
##協
##誠
##竦
##쓒
##이어서
##천억
생겨난
##마케팅
##푓
##降
왼손
##椅
##Ү
집회
##몎
온갖
칼럼
##쓰레기
오프라인
왠지
##뼄
##이후
##넺
실어
##话
##另
상
##즈마
##瘟
밟
##턪
##윚
##嵋
##딪
귀환
생전
##욏
며느리
밝혀진다
##얬
##sion
장려
본체
탁월한
##설
##뚀
꼽힌다
##(47)
##夏
쭝
해야
있겠지만
##핹
##따
##춤
##諰
##諮
센스
##nn
##琢
##햓
지장
##꼺
패러디
솁
##ê
##掌
##磯
##셺
미루
CO
##연령
##뮝
##윌
심문
##뜻
동화
##t
제안
##弼
##憩
##絶
사용자
잠재력
##悌
동굴
##좻
합성
##蔓
##哭
##걲
##퓏
스카
##돇
##暢
##탈삼진
서양
전국의
##역학
##꺙
어느
사원
제약
삼진
읒
렇
배신
1998
중랑구
정례
곤
##쎘
##(9
대목
##지방경찰청
모이
재사용
##천만
##毬
##뮏
콘
##ぃ
##堪
##ort
켁
영광
울릉도
##簡
상호
오리지널
##熔
##ष
##圭
짠
토벌
농장
##일간
##힜
뚤
##ᄍ
코토
##변호사
주택가
##ס
[unused81]
건
주식
##타이
다음날
지낸
##揖
추정
위치
500
##찍
##쩴
입수
##걶
문자
깍
서귀포시
검찰총장
하청업체
##攵
##찡
모양의
고용
##쓿
개량
##┼
##后
¶
##T
##竇
##즧
##璜
HP
##욣
##Ў
##껜
매력
##肸
##ʒ
##녜
레이
낌
줄줄이
출항
##独
##윰
셜
조씨
##엾
##작은
미숙
##읇
##垈
##쓆
없던
##넯
이순신
##疸
##쯍
##세기
##여행
##ב
##벉
##慌
##融
밝힐
##暑
Lo
종류
용역
국악
뒀
발레
고장
from
나름
##喬
##团
장성
##왐
언니
조폭
##魂
##화물
##부처
##대한민국
대회의실에서
##5·18
물
##靴
##늽
평생교육
##23
스타크래프트
##굥
길
탈퇴
양방향
##쯳
##宁
##崑
##쳰
##들이
##­
##뱀
모니터
그래
보다는
##俭
분
##鴛
안드레
램
##샦
툼
##놨
향후
##무스
있음
##ጽ
미스
##赴
##븕
##葛
##鍵
재수사
##사단
웬만한
##뼇
##琓
##쌍
탤
##namu
##∨
행자부
##溤
겟
##뮍
##아의
##ר
##스쿨
##요금
##궁
시각
드러내
만렙
샾
손쉽게
##역
##깕
##귿
그랬
톨
##궨
##쟤
##늷
##푸드
조교
이래
포획
보석
##귄
쿠데타
테란
믹
돌입
검사
##쐔
신지
##冈
##漁
##뀩
##轑
##엛
##스테
##篩
싣
##筆
##은행
##郁
##방문
##랓
조용히
이듬해
빠
참가자
##투표
##턠
##퓳
##상한
마도카
##暇
이수
출현
##쯟
숑
폭탄
##ᅷ
##뚥
##置
##鮑
떫
##늲
셨
##휋
밀양
태권도
##슎
##得
##비밀
헨리
펼친다
##발전소
##變
뷘
##息
##椴
##་
##켦
##窟
환호
억지로
##胯
겋
콜센터
구급차
##이동
##顥
##톏
1990
##鈞
##麒
홀
국적
##픨
##쒗
AR
##15
##MC
##歳
##毗
싶었
##뙅
##뷻
®
다르게
##겭
대형
후보
##使
##状
정수
##博
##泯
삯
출입국
##OT
야구장
##츤
##녬
##東
##퇵
##횧
##ス
씸
##∝
랜
##뙶
민첩
##ade
##좂
처방
소설
돕
부총리
퀄
##묄
블라
가져
##ec
팜
블럭
그것
함대
##한데
나흘
##膂
가운데
1984
##황제
##지점
Korea
##News
측근
태안
##設
바쁘
##휃
##무역
##PA
만지
##em
##퐇
혼
아가씨
##勒
기금
##沙
나폴레옹
인명피해
공허
마시
##테일
##흽
빠진
US
##타로
부상자
줍
##萩
##愿
##플라
##귰
학생과
일치
싸운다
##큭
공업
제조업체
시군
횰
##퉡
##뗱
##ʻ
소리
##고요
##잰
파르
데이터
변수
##헌법
##갸
##뽕
##읦
##쿤
##뎋
##리아
##뼨
##꿛
사천
##랩
##隣
올라간
##듸
신세계
절정
##CH
봇
있게
##瑬
2.0
##鰌
결과
##ini
##즂
드러나
에
30
기억
##讓
##欚
##祐
##럮
##を
##뤯
##藐
##撈
##ˊ
튄
도심
##궿
##됐으나
##화장실
##궷
##삔
납부
##웈
##푕
2013
##묵
##컵
편성
전파
체질
##벼
##贵
상단
공문
##巷
저장
양식
일컫
##춫
##雌
##ID
단위
##릓
##te
쿌
##用
##孤
##강사
구멍
##뭍
머리카락
##स
##로운
##곰
##껷
##∙
##뭺
산악
##ver
여론
##EA
현대중공업
스피
스팀
##殯
기획재정부
소상공인
특별히
모래
지역구
텍사스
##욤
보도
##곹
정도
숨겨
##쇠
##權
##ㄩ
같은
##魅
##ell
##힂
벅
실
##멥
라돈
최대한
정통
##포토
원딜
##켱
단축
##漕
예전
##줘야
##요구
삼각
석
결의대회
##원에
##앚
검
##일차
쉘
##콟
##협상
##術
##桁
##芪
##학생
##Ř
##긘
##謠
##퐎
##댆
##ท
민주당
##훈장
##아지
유우
##킒
##he
##芳
##炭
악
성동구
##蚊
##뺁
##어버린
퍼
##動
버스터
뵀
##영장
홍수
##肱
##ind
##祇
##빤
##진흥원
##불교
##목적
유의
개봉
걔
##곗
기피
##삐
조합원
택배
세트
우크라
##컗
##즞
##준혁
동안
##44
##힝
##원
##딬
##￼
실내
정기
훈
시간
##壞
대의원
##ツ
승용차
레이스
##꿨
##塵
복용
뜬다
동포
##욚
##扶
##胝
이것
보통
통역
##츭
산출
##귈
중독
##억원대
##峴
##셒
##탄
[unused96]
심리학
##위가
##ace
창단
카리스마
1500
##턺
##쩮
##牢
미만
각각
세균
##꿼
틴
##鄆
춉
##뭐
##忙
##턴
##ῖ
##帯
97
각성
##즳
썰
해적
정해
##컮
##貳
세월호
##왨
##瞞
덥
##최근
##v
숏
역학조사
##‣
17
##이기
##オ
그런지
##香
##14
##嶺
##튃
##횙
잠적
데미지
무색
##膳
##팚
##객
꿈
그리
##VI
##ds
##텐데
이탈
##澎
##욺
##嗚
##벳
라이트닝
대표이사
국산
##厓
불러
##瓦
높일
베어스
보인
##쟿
검은색
랬
중증
인재
이익
창의
복도
##일만
##낶
정찰
정모
##븯
##竭
##ײ
##ジ
##퓽
##대책
##싸움
##衣
사회관계망서비스
깸
렌터카
##施
다수의
피터
리버스
##汚
##蕭
##昌
##厅
400
발병
씨앗
이어질
있겠다
##禪
##傘
섰
##릜
켜
##산동
##俄
양재
##(37)
##긼
큭
##変
##ء
인사
##km
##믤
##었어요
맡
##宥
##눿
편집
##뒦
낚시
##글
##祭
언젠가
합법
단체
##주민
동계
##橘
##獻
##조
뉴스
##덅
##풍
##냚
건넨
##쐏
##장학재단
##ESS
##鬪
##유럽
##ᄉ
##쎎
##ose
당선인
##얌
그때
##澤
##꾡
##뢰
퍄
관람
##뚼
##核
##쵼
교대
##종의
##쾋
my
##시리즈
##sh
기부
적대
##버스
소닉
펼치
준우승
졸업
버틸
##鱗
##欣
하단
##꽃
##喧
##羽
##뜣
남해군
설명
변호
##犀
전공
##었다고
##기까지
구슬
##뀸
##다리
장탄수
##區
##룰
THE
##〔
온다
고려
##柴
형사처벌
##경보
##레이터
##꿔
##씚
##졌
##듯이
##쳣
##刺
사탕
기계
유골
말리
특기
##爀
##匠
##蔡
##GA
##년만
##냜
쥔
##鎮
##법상
##胆
##보인다
##양은
주변
##着
렙
##稷
##ï
처
파견
외국어
돌
##쭝
베를린
##퇊
##춽
##낉
벤
권력
##삼성
##生
##跆
좋고
나눈
##(2013
##聰
##鏃
##쮭
##지면
피곤
##魴
가지
미
##率
##맵
아나운서
조작
깝
##監
##웠
##쮮
##紂
여당
##윹
##뫠
뉴욕
##創
##夔
며
개연
닐
##헹
사라지
##믋
##曉
있을까
묵인
데뷔
여전히
##솛
##恒
##뒧
##↦
##
##넔
##제로
..)
기다리
부재
시민
##贸
국민
고가
##嘐
##팡
입힌다
##醍
##瓔
##LS
##筺
##카스
공주
읃
##η
##레인저
##駄
오랜
사용시
##죕
##관
##곱
##낞
천주교
##젭
##IE
##皺
enable
##쿡
대폭
통증
##馗
삼척
##지
공존
식약처
전작
낮아
##鵬
음주
역할
콘텐츠
##뗩
##피안타
논의
쁘
##쿖
##퇦
목포
발령
##기본
미성년자
전라북도
고인
이란
지갑
횬
##퉈
승리
이정미
꿘
들어온다
##뉅
##특산물
일환
김성근
찾아와
##沼
형태의
닭
구속영장
록맨
너무
##雨
##祝
##漳
##즖
브로
스탭
창녕
조선시대
발족
##賃
##卒
좌
##엥
톰
##堯
배경
##죵
열
##이런
##馹
88
##形
##쒝
벧
##쐴
JTBC
##õ
##禄
##DS
##헜
##幼
인턴기자
누적
불이익을
##抱
연구소
##나와
##面
##위생
85
돌연변이
##쯷
위키
##뛴
다니엘
##탐
왕족
##귲
##결혼
##寵
##除
##즒
http
재건
##콀
##큉
##담
##돚
꼴
##뎎
생선
항공사
영원
##뿝
##뇜
##瀹
##綱
가동
찬
##업체
통해
있으며
숨
평범
##팥
페이스
##莖
실은
##롭게
##공간
##쟲
팽팽
중심
##껹
##碁
##힐
##뾾
##戱
엘리자베스
##曄
##괭
##匪
##퉮
이루어져
##땋
주말
##缸
##이다
##뷁
##畢
##쒰
##魁
##노조
볘
펏
##輕
엄연히
목재
##퉻
닯
##뷬
네오
##짧
##伽
##享
판시
꾸며
##수업
49
성립
##碑
##♋
##滋
##乞
##여
##뿔
##煌
##榧
##괄
watching
##那
##텂
김영삼
##피해
초록
##河
##港
##하
재즈
##가
마키
이자
##PM
김창
쌀쌀
##캡
##ew
##쵽
##뎐
친분
놀이
##툷
질환
##鏡
아서
##隘
##勢
뿌리
##渼
드러난다
##티브
화폐
필터
##칑
##계좌
##돦
##깹
##돓
날짜
##넶
넘어섰
##MHz
##wo
초당
편찬
##緘
이슈
작동
##첌
테니
당일
##헌
약하다
##싿
##뺖
##м
전국
매니저
##욃
##볶
품
시위대
##Â
##햔
올바른
##庇
전통
##엨
##熺
##稗
민선
강력하게
투표
세이
##소프트
1945
##쟢
Girl
##목
##늿
##珹
Sh
##소드
마스코트
뛴
위한
##ே
무너져
##먯
각종
일곱
##斷
##읠
툽
##뜼
##샙
##촥
##으로써
##팉
##조직
##鶻
미소
##業
별로
##잆
대행
늪
프로듀스
##ᅮ
##モ
##뾧
##楕
##졞
랠
##상공회의소
##踵
병역
##점수
비방
##긠
오류
##쐟
일람
##톽
소총
##낺
##뇖
##orn
파업
##瓣
여부
사체
이뤄지는
##瞑
##륮
##뎬
직
##냅
대청
##橢
##戎
##권이
과자
두뇌
##ũ
##룀
##턍
"(
##퓐
##셨
##기관
##晚
유독
천하
포위
##검
축구선수
##폁
여겨
학교
유착
이용객
대성
Ne
'2017
##ό
줄어든다
##υ
##몁
##晴
라스트
##아서
달아나
##br
##합
리타
불확실
##聖
##국제
##벸
##공단
취한
##甫
히로시
보입니다
##丈
##체력
69
삐
##대학원
##뽵
##별
츈
즐길
쓰인
토르
더해
##늕
##AT
##犬
그려
저감
한복
##撑
등장
##곲
있도록
관련자
파주
삽
똑같
##덧
##릠
##바닥
##US
##정상회담
##곶
##루루
쑈
##탟
장애물
##战
##送
##羅
김영
##교실
서류
##들도
지자체
볼
최영
##낁
##쵓
##2.0
나오
##볥
##從
##潞
분양
##늣
##几
##니스
##대사
##.1
체온
저택
##쪍
##뇓
##인구
사이버
##肯
##정은
중학교
점유
##륩
##이랑
##뫘
##Ñ
##燒
##han
##煉
##원자력
##紹
##펭
2012
줘야
##꿝
##잵
이끄
##뺼
##타가
##끠
##선이
##닷컴
도로공사
보충
##홚
엔트리
수산물
##모든
산사태
##체계
##읏
##巽
파워
나루토
검사장
##암
##뽨
건립
응모
##핶
##뽮
특색
상실
뮤
생긴다
펙
?"
유공자
##荒
##임대
개신교
##얙
##ქ
존속
대북
갈등
##δ
틋
##層
거둔
박원순
##담당
##들리
##턡
들어간
문학
1972
##航
##댾
##냵
##
GO
##猶
칭
승강기
낮게
상상
##wer
##Ꙟ
부딪히
국무총리
췬
##秕
지능
드랍
##깉
##戡
##捄
##챍
##轄
##1
분량
##줏
##휨
##统
##전차
##.16
문화
##◀
원의
있더라도
##긚
##空
##긽
포인트
##褓
콰
피규어
##뭉
페리
##共
##톉
##舍
[unused26]
물론
##기만
##핣
##앁
##伸
##鎬
핑크
##책
##ľ
돼서
본명
##垕
##틋
##오른쪽
굴리
##혶
##懿
##쬥
##mp
##솃
##क
##면서도
##딤
김경
소프트
도서관
브레이브
조금
움직임
##찣
##쎐
가뭄
끌
##솤
선거
##헳
생성
국방부
##餘
형법
##뼏
상부
##깟
찔
##È
##튙
퉈
줄
출제
시흥
##보
##인듯
##潛
빌리
##냙
##린
##젇
##당국
##코스트
또다른
딜러
신체
##휤
##錄
##禱
##밍
##소설
대법관
##퍭
##옹
있었
정반대
##봉
##얠
##쪨
수위
##GB
##수급
##㤚
벽돌
로마
서울중앙지법
구로구
취업자
##섶
##궭
금요일
##컲
##茅
인용
##翬
딕
불가능한
##嫡
한국여성
김성
##컰
중형
선사
##ら
아니고
##떙
##구치소
##았는데
##丫
AS
마루
구성원
##이자
##보육
##뜾
도달
##일
##診
넹
공군
앏
##햜
싶다면
호칭
##緻
미리
출근
##닶
양천구
아래
별명
핀
##낸다
##아있다
##牒
설악산
##49
혁명
휴게소
##岱
이래저래
...
##뚭
##側
협
##杆
##릃
텝
남동구
we
빛나
##쟄
룻
패스
일으켰
##푐
발사
##넲
##쪖
##한테
처치
##콤
##보호법
사생활
##하늘
권위
##넾
##駿
엇갈
부
##성훈
융합
김상
법규
즈음
점점
##궸
##당시
##징계
##旗
엘레
##〉
페어
##怠
##쏾
##孫
##停
탄핵
##리즘
##켠
가깝다
##뼉
투신
나눌
##즜
##기금
댈
비핵화
##ā
태백
##粗
예매
섭취
##럽
다스
껑
##押
##洸
##緜
##職
판문점
##뜲
##렸
마침
아닌데
##녦
폭언
##界
##qua
대중
##н
대표단
##꺠
##狀
##歙
##꼒
워낙
##짰
터뜨리
##師
진료
톳
##彩
##화
##鈺
롯데마트
구직
##(0
##ian
##兄
음성
##न
##膺
포션
##땬
##통신
중앙일보
##뱝
##관리
##(2014
##る
##叩
유리
더블
##보다도
##閣
##신이
국정
##쾤
치열
##ᄆ
프린세스
박재
위안
##ί
##쿸
앨
##40
주범
##시가
##隋
법인
##해줄
##었습니다
##週
목욕
##沐
##창조
##選
들어선
연주
구원
금방
당첨금
##r
매치
##家
##쉑
##曼
##rt
바쁜
##뱁
##믌
##岑
홍성
노조
못하다
랙
신공항
##棒
본인
대부분
섞인
《
your
##כ
##닪
품목
##萍
80
봉인
##Ć
콘크리트
##귳
##濵
배터리
[unused69]
##당하
피서객
차가운
발리
거품
##븸
##델
##ஃ
##놬
##댜
패키지
<S>
##陪
##읤
욕
##트럭
##칼
##꼳
##弥
##궡
##慟
##IT
##쭉
파이
##킅
##032
##辞
##모르
반포
연평균
##귬
##이드
걸쳐
[unused68]
쓱
된다는
은메달
##전공
침
절대평가
타이틀곡
##亜
듭
##혠
##紀
20%
##㴒
k
부검
저작
##仇
##뽆
푯
##쌜
절벽
##莫
근처
이어진
##탦
##다고
가까이
홈
##쨜
##꾐
공판
##퐹
##렒
탄환
##♥
유세
##ヤ
##튫
##껂
##기도
##ἀ
##회담
##某
³
##댁
##뚧
##ꟾ
##ă
##通
##정리
##청탁금지법
셰프
##퐸
서브
가장
##롄
불만
##브레
##冲
허리
##捕
여름방학
##曷
선조
##끕
중국어
가져오
유성구
##职
##寔
##뙈
##퉿
맑고
일본의
##耗
셉
##柄
##ण
특검팀
보강
##治
##훵
##풗
다녔
특
##큿
##88
##쫿
포함
##闍
될
나쁜
##배틀
최강
팻
사격
중요
##됂
버튼
당시
##떑
아이
수비수
##즗
##.28
£
소유
##細
##연료
##麓
##ex
골키퍼
페미니즘
##뫚
##棹
##Ἄ
##才
##衙
탄
##쨍
##묙
##屋
나고야
##暾
##氷
##윔
##듶
##디언
루비
##탠
##砦
살충제
##턳
어쨌든
##誼
##뻇
도시락
일일
##.23
운전자
권유
강의
흥
II
##벅
[unused64]
성폭행
##뗸
##튆
반전
##쟏
##뛩
감면
날카로운
##揚
##성을
##賭
0.2
##菓
제주도
지각
더구나
##경찰관
##쓵
##굳
##먿
지역사회
거제시
도덕
##름
프랜차이즈
##ம
##소
##슨
##컴
##隧
##冀
##뿗
##빟
할머니
##뀿
##閲
##하게
서식
기운
1949
##켚
##花
##벣
##부동산
젖
##ti
바람
##酎
##安
##법관
1.7
##佇
##설비
##꾣
쿰
##뾽
신상
##羊
들이받
포로
마찬가지
급증
##웃
전복
##넓
있으면서
##면접
분이
변하
[MASK]
##쩚
##按
##뽪
생략
행정처
##퉬
당분간
##輦
인양
기업인
아이폰
##76
여객기
##ገ
옘
##쐩
##印
현재의
떤
##뢊
##탬
##姫
수수
##ǎ
##뫧
불가피
##니까
신경쓰
##捺
##퇑
##Γ
##깊
##뭲
##드리
##븢
##ass
한강
공통
받
##LG
##ワ
넘겨
감식
##倹
반드시
사살
##감소
걍
과학기술
##라이브
##幷
영상
입지
야당
원거리
준수한
여러번
헤어
##색
##琫
제기
앨런
##쿺
##연습
##呼
열렸
##性
##홬
빴
뽄
랩
마주
##뎏
재개
##쏬
유입
##»
떨어지
분기
전세
뭍
원산지
간신히
##음을
1947
##어스
##돜
멈춘
##磵
##鄕
##Գ
두번째
절망
##啡
##䃏
김재
행정관
##꺌
##세로
##縝
##┤
##រ
##꼌
그중
귀가
대외
##츮
팅
천안시
##紗
Li
##특별
##腥
##뽥
글자
##등급
##鳥
이뤄지지
열기
있으니
##吝
##攪
##廓
카시
계
시외버스
##긤
##җ
[unused14]
##릝
by
##측정
행
##極
##訓
유죄
##爵
강원
##ʑ
강남
##뺌
##쓹
과열
##샤
탈출
볍
완주
##늉
고쳐
임용
라고
##济
시중
톺
되돌
못한
용사
후쿠
재물
##쯋
없어
##還
재배포금지
##迎
##지수
별자리
##צ
휫
꼭
##錢
건데
##힓
##탷
##환
##즀
##礱
##흘
##쵔
좋게
커
##쐉
##ang
옭
##쎕
차원
##獣
##ポ
물리학
##1%
##리얼
노사정
##堺
포켓몬
you
##嵯
생존
고기압
몃
꼽
문서
##콁
##꼿
##렂
겸
##꺆
##志
##뀐
지능범죄수사대
카카오톡
해임
식중독
##뾴
소중
##읋
교섭
##ã
##봔
##퉳
각별
##op
##坐
툐
##클리
협력
커스텀
토모
##あ
##day
##좘
만약
직결
##騷
##稅
##mi
##慈
##指
##⨼
##여자고등학교
푸르
##튽
##덂
대결
##핲
##쪞
##쟃
##堇
##저항
로또
과실
나뉘
거센
##曺
##훽
##豚
보육
화물
##쯜
벌
노력
쫀
##첬
@
##屍
공속
##롟
##嶢
##에서만
미니
##뉂
어느새
펌프
##증
##召
기반
애
##網
##섥
##괱
룽
스톰
실습
##티나
##絃
##떾
##郭
##笏
##위원장
국정조사
1
##더
##뇽
괼
##뺱
##90
##매우
분해
##듌
##짜
업로드
##ኰ
##ག
##<
##뵈
##辽
##턾
##속보
##엇
광고
##璉
##湖
##음에도
사태
##滄
##뻿
##겹
##플랜
##餓
##렄
김용
##温
##ส
##다른
##핺
##윝
##쀃
##펃
##.27
##도시
요괴
##드래곤
##沫
##渓
##com
아직
##쾮
##cc
현행
##増
##乱
침착
##繪
##카타
공사
##ń
##蠣
##탲
##呂
움직이
##라서
##旲
##逈
게시
산업통상자원부
##꺀
##뉗
없지만
##備
##方
쥐
##촏
##ց
선거운동
##놏
법원
##았고
##꽌
##措
##턊
##턜
역사
##!!!
##즋
##했고
있으므로
2∼3
불출석
##F
##금지
##픞
##笈
##이었기
커서
##璋
유이
##・
빈
파이어
지지자
방사선
담당
##댬
##쌥
임기
##킟
##아직
##뽜
##넢
##纏
적도
좋았다
앍
지난달
소홀히
[unused34]
불구하고
##.01
##햛
##행사
직선
마이너
##跌
##툠
##ic
##.04
##시켜주
##ќ
옳
불법행위
쎈
##닻
##埏
##관계
속이
##쭄
##푭
##뀬
키
신병
##鬱
##집행
##곤
이낙연
아시아경제
##军
##하시
##햋
NHK
that
패전
##遘
##跨
부친
못하도록
##표
##수용
현수막
##뉉
의제
##ki
띄
##珂
몸무게
##渴
제재
미달
적당한
##璽
인터페이스
##빱
데
함부로
석면
대쉬
##粧
방식
엔지니어
##신청
##출산
##〓
##닂
속초시
##퐅
##ू
연령대
##릎
##逵
가족
##砒
밂
이영
##폭풍
##眼
##(35)
##콖
펠
##脹
노동당
##и
##튔
##랄
본관
##ƒ
##뙬
##람
##댓글
##펴
수집
##쑞
폭
프로필
##체인
즉사
##鈔
##까지만
태풍
날리
##꺸
##6%
##개소
고교생
##革
##搗
##푚
##푹
##♣
##몌
##ν
실험실
##誌
디오
##햌
묽
호불호
공소사실
태국
##打
대법
##ኑ
##黑
대법원장
##GR
##쓰
시장
##즓
한국
##지원
엉
##애
욺
##틉
##삠
일으켜
##習
##퍣
##薬
##賓
##凱
궂
##에서는
단서
##즸
청
여섯
추산
욤
꾸려
탔
은하
강습
가두
##準
##疾
##裔
##Me
##옯
전작의
진상
1994
덮
축하
##이닝
독려
##羌
스
어이없
##마음
벌금형
##엱
얇
일주일
장인상
거
##멓
##랇
증
불
접근
철저
버려진
터미널
##尔
##씒
이종
충청남도
##詐
##짬
##楺
비행
##켁
배정
게시글
일러스트
##빸
양육
준다
넘어가
##窪
(.
##湯
##墍
프로그램
##youtube
아테나
쇨
##밟
##://
불과
##농가
##低
##唾
##쩷
##샹
##量
##기가
소프트웨어
##ஷ
##헴
그렇
먹거리
##პ
##뇬
지수
##었으니
도주
##차원
##쪘
##⌀
##긿
##꼂
Ver
난방
복직
##(63)
$
##ḥ
##万
##쬻
비해
##ting
좋았
##~16
누워
팝
확신
던전
##삿
딪
##걈
##스럽
##쫒
지급
##굵
##佷
KOF
고려대학교
##錠
조심
##途
##漫
중복
##의당
##do
톤
##왑
##가족
##쟽
흗
##어머니
민감
화염
##쭙
##ო
수강
##処
여성가족부
##嘯
몌
##둲
##힕
◀
##쑟
##잃
서번트
저축
배분
공직
##沓
학살
##경우
##dd
##볘
##짐
협동
##چ
##쿗
긋
공포
겔
##唱
##ア
##買
##뷼
##援
##관이
##裲
CV
##梳
##澂
##도의회
##규
자란
솟
##簞
##箱
##먙
##생명과학
킴
##나갔
##전시
경로
과잉
국정교과서
돌아갈
에너지
워싱턴
음료
##糓
##릗
런던
##이야기
##뿋
버그
##악
##꿄
햄버거
죈
##흕
팁
##ᄝ
불공정
떪
보여준
##로만
##질환
##튦
##覃
##뒬
##𐰸
##왓
사무관
항소심
안나
##枋
당신
##닿
수료
4.5
##嘴
##ᆬ
최정
##될
##펓
민원
##淚
쏴
웃
##da
##럵
늙
##들에겐
긔
##紅
##ò
##
##失
##碩
##如
미지수
##심이
##财
##ren
몰려
##모스
말다툼
봄
##尚
표정
##훑
비닐
##兼
##시기
##표시
##뻺
##尖
EP
##ř
독
민주노총
23
##阁
라는
일격
##몇
페이즈
기대감
##気
레어
##說
달라진다
##읆
성장
뒤쪽
##뽦
##었고
효과
##혼
아시
임직원
##힍
##一
##톞
욥
국감
아일랜드
##侄
싱글
##보내
7~8
볜
경주
기르
##玟
산정
##냎
##팟
이용해
##돎
쇠퇴
##들은
!!!
##勾
##등의
##sys
##갤
##겠습니까
##숍
##펙
사법
제발
사자
방면
##佛
훈련
##檀
##카쿠
##김
알리
##糙
##퐝
교류
연행
##璥
##❻
고사
##쭸
##誘
##빎
##늖
##릆
아쉽다
뷴
클로
##暨
씹
##촘
릭
##쳌
##漸
퀵
생겨나
소환
##버전
##輓
다가오
##퉇
명의
저렇게
##츶
기준치
##없음
포격
##-1
##청주
##浒
##위
장미
##아스
입양
##풢
빙
##되어
##짞
주지
Black
##붾
부지
싶다
국회의장
##ι
##글러
신도
오픈
##들에게
노하우
##남자
##청구
##댻
소련군
##킈
찰스
##뾐
##컱
##他
##计
##ch
##齋
##뽡
걸린다
형태
##옭
##시죠
##변화
##鵜
##여객터미널
##퉂
##隴
언어
즐거움
##휙
세이버
해양수산부
##탸
입소
굣
함양
큉
##爱
나이
##瑭
##딵
입단
##Ơ
도피
성주군
줄어드
##45
##ers
##샷
의대
##眄
##횣
##ր
##邳
침몰
##헤드
손
##둟
정신질환
크루즈
##렞
##쒟
##씖
##苒
판매량
##꺰
캐
##初
애정
##敷
쾡
##샅
토너먼트
표면
##In
자전거
##최순실
사라질
##엫
주연
##뺛
입주자
##廪
어렵지
용어
혁신
75
##냐며
##≪
##経
##휦
읊
예수
##지킴이
전철
##(2005
##畓
##쑔
##퍡
연구개발
일어난
보낸
##光
화요일
##뵑
##뭄
##된다
##콛
##쑘
##넝
미즈
##덭
##靜
##梧
##原
##馮
##굷
##국립
1946
Tr
뗏
턔
##짪
매일
냉동
##스포츠재단
틑
제도
##귯
도약
##乘
[unused5]
##빖
특례
##і
##한다
##진화
##귐
War
##孖
통일
##烤
부산대
##세력
##ju
많았던
02-398-4441(
##뉔
##안타
깻
##개월
##떚
##빴
##쉣
욜
##쎊
울트라맨
##燽
포장
##돐
##ia
전해
당선
##쑌
호러
비서
##벖
백성
##闘
##쾉
##邸
##굣
오브젝트
신청
##悛
출연
낳
##뉠
##포항
##까지는
##춉
##や
##러시아
트레이드
리믹스
##돌봄
##(57)
김동
##끿
##偷
뜁
##었을
캐스팅
##챟
##쇳
탄생
##琦
##슥
##燃
추방
피해
쓴다
관계기관
페
##깢
##쎫
##쯲
##鐔
##법률
##쟾
##귵
좋아한다
텔레
##恐
교황
안타까운
수사기관
##뷾
구형
##콘서트
##엄
[unused91]
##돡
##洪
##는다고
강림
##뗄
입증
알아보
##힗
##물질
승려
부자
##섫
후배
슉
##렐
##荇
##력
폐업
##적이고
지원자
자원봉사자
꼼꼼히
##률
하와이
호감
##舊
##瓘
##난다
##나카
##띌
##쿳
묻
생김새
##불안
##屄
error
달려
##맧
가로챈
##슀
살펴보
숙소
##♀
익히
##헭
##렜
##蒼
돌려받
콜라보
##륫
##42
##労
##쀑
##民
승선
따왔
##♡
##請
##籤
##م
##般
횔
독도
##陝
##摺
##중학교
인질
날려버리
##験
##높
##竅
돌아온
##됈
##뽴
##鉗
넜
##∑
[unused49]
씬
##뉴스
##쑱
##됸
다르지만
##즛
낱
##atch
챈
아예
거짓말
‘
에디
De
믜
##牛
어젯밤
측이
##苛
##컻
시작
##탉
부숴
##裟
##분야
##섢
##뇑
불과했다
##쉤
흐르
쾨
##虫
##샂
배워
##翮
야
분향소
팸
지팡이
흉악
화장품
##絡
좌파
고의
캴
물리
##유기
윷
##시켰
##체
냈
##帿
##羨
##晥
상수도
괄
년
외전
인턴
##췭
##교육원
쵤
##究
##淺
마트
자체
쩔
##邏
금감원
##정치
휀
##뜠
없지
오크
##雍
##嫄
한번
##우드
CBS
소감
##畜
##枚
##고
##➎
사표
가습기
##玳
여행사
##곖
##힊
정차
올스타
치명
##협회장
세르
부진
##쿄
택시기사
개인정보
보
버닝썬
풍부
##칡
##뢎
##윥
##♧
히로
##챃
##뱇
명중
사전
강사
여의도
남녀
##辣
조례안
##(6
##뮤
한국당
덴
##환경
##뇣
녹음
##踏
거듭
대리인
##앺
##쳙
##놎
##IP
젝
##사인
클럽
##잗
##銑
쟁
##닉
##궝
##쵸
13
##唇
##카이
토리
##에만
싶다고
##秦
Mk
##械
##煙
목격자
##奥
##스크
##陞
만든다
전원
##놈
##뀵
아쿠아
임진왜란
##할수록
커플링
세금
휼
##렃
##뵘
##歐
##컶
##ى
##샌
2011
Love
내정
자기
신념
멧돼지
##횻
##덫
##빞
##V
념
##뱃
##브랜드
이식
튕겨
##중부
##‽
##봯
##하마
##輟
##쯧
원자력
##(29)
##랝
배웠
##똊
교직원
##귽
입
사단
##飮
##竈
##が
업무협약
##霧
The
##쵚
캘리포니아
05
[unused78]
##yo
##知
##봤
이닝
싶다는
##霙
##硡
서남
##읿
##墓
##밻
엉뚱한
지폐
뽑
팬
푼
축
##아도
##儲
##쯶
관우
##▢
동시
응시자
##씞
거론
##머스
##斗
근접전
##闺
##뽯
늡
한타
##穩
##ᄄ
##땢
결투
##슜
암
##뺊
위촉
뱀파이어
기동성
##쵿
##퍫
##~2
##세에
##佖
번갈
##긙
##唯
방과후
##ა
한명
나이프
##핳
##횝
##漱
뚝
##虜
##벘
재조명
##툽
한글
별세
##죌
##扁
흡입
##体
##정도
별
##り
##榜
##노트
##쮫
핍
##뇮
동점
##놇
웨딩
##fer
관통력
공적
##켄
리스트
넷
##终
##皿
##湌
프리미어
##僭
##끓
##꺼
##킗
구청
##垤
##박근혜
포지션
놀이터
##쩡
트루
대한
##팤
##磷
##苏
##烷
아님
##처리
노선
삿
트레
##巴
납
##溯
메모리
AFC
##擺
찾아볼
##ḫ
시행령
##ϊ
담배
내려가
##품
##瑗
##∵
##轎
##허가
아니더라도
소지
##팻
워
젼
못하고
##ou
##發
##라면서
##蚌
##遒
##橋
홍준표
##훓
택시
##떡
[
##ば
##各
##스럽고
34
##ン
혜
##헵
전당
한다면
더욱
##영어
##硈
##시타
##탙
간단한
데이
근로시간
##鏞
##詩
##닭
##폐쇄
##胥
의식
##방어
##湛
##碣
로스앤젤레스
##월드
##가량
##빽
평이
다운
단골
쉽고
70
인쇄
신동빈
##灣
범주
##址
##aw
베스트
##瀨
##샪
##셫
##뤈
휸
##우라
##프
달한다
옷
여포
차기
회사
##겝
읜
##딎
##에너지
아무런
##洲
##시스템
옝
사
잠실
주무
사라진
##遁
##틈
##體
##세상
##由
프리
특별
##헾
##学
##俯
##뜐
다리
##퉵
##븵
지상
##버릴
##肅
본진
협약
##蓼
##n
##ญ
링크
##뎢
##棲
업계
남겼
플
비난
##쯾
온
##뤂
통제
##其
##拒
국경
안된다
내구
칼날
카피
BBC
꿇
##듐
##91
설계
수수한
##菁
##튉
해도
##喀
낡은
##셖
##錐
근거
##규모
##봽
##쳾
##뾹
##蝕
##웷
합병
##싀
##垠
복선
깊
##璇
모레
이글스
##永
##煎
##之
##♂
##벋
##헤이
젊은
##이사장
##큽
##ִ
상관없이
지방자치
##琰
##뇔
##쉔
방문객
##kW
##촉진
##暫
##자금
##겶
##뽑
##Ή
침입
##琡
뤽
##갗
성소수자
##쑨
폭발
Vi
##뚊
안좋
쯧
##炫
##몰
범행
##갘
##퍧
오직
궤
##磁
##엉
##雁
보스턴
##무라
##귱
참작
##사랑
4·3
또다시
밧
사거리
##ay
##讐
##ψ
##ぐ
##譯
##滦
뽀
디스플레이
무서워
태어나
똔
만큼
대단히
쫌
매출
상금
##Ю
안녕
##嘉
오바마
##鈴
중반
##鳳
##廷
시크릿
가해
##츺
##쉠
마찰
##-4
찌
상정
곰
시계
##斄
##濟
촛불집회
농어촌
나간다
##杉
##涿
##퉘
[unused22]
최고의
몸
그리스
경찰청장
잡혀
##편성
하나하나
빌딩
##뜿
##햀
해체
##사법연수원
##(52)
##뜶
mm
##뻬
##권자
##Ƿ
##(2017
##뷔
##용
##絹
(
비추
리포트
##다음
##vi
##꿰
날개
##샼
##迭
##G
없어요
자영업자
##薇
##욂
##ώ
참가
6·25
정착
촉수
##橫
Sa
연대
##럾
##堂
##걳
##둘
##난
##讌
##강제
##瀕
##ἡ
##특성
가라앉
##con
느껴진다
드래프트
##킵
VR
목
##ᅩ
##달라
##결정
엘리트
##노래
##珉
##玫
공룡
##看
있거나
##기사
##陵
##랫
##포트
별점
##닮
멘토
##矛
##级
##簫
##올라
닥터
##복음
##.06
##헥
##딧
##廠
##랑
##ㄐ
##
##텔레콤
포켓몬스터
유엔
##쏘
##赦
공략
0.7
##欽
##屎
##퐰
답
##깚
##읁
올라
남겨
##주차장
헥
##闢
##홪
올려
##圉
충분
##닸
카나
##吻
감수
신원
나선
##떦
털리
##꿌
개념
##成
##ᄐ
##悖
##지역본부
차종
퍼즐
든다
##盖
##뽷
##潽
##ས
입학
필드
잡지
휘발유
##정의
##扼
연제
##뷊
##晧
아마존
##었지만
##홫
##좁
산맥
공동주택
##遺
##衲
##차전
신규
##崧
##IR
번지
트럼프
128
##횤
녤
켈
유나이티드
충남지사
●
##נ
아까
##禕
##瑩
##穆
진보
##낛
친정
##怯
##첡
##宏
##소식
전보
##덯
된다면
털어놨
주의보
##絅
##♠
##ode
##밥
##됀
##眉
##컳
##고서
1.3
##홈런
방송사
황당
##搜
고맙다
초점
##獄
##줍니다
불가능
씀
##屬
##멘
분류일본
다니
##九
##栃
##하지만
사회주의
인물
##졌으며
예멘
##専
##긓
##寺
##栻
##재료
지위
##롫
제공
##詡
##읍
비전
솅
##금융
##翽
##뾞
##ND
##►
##킹
기록물
##ɑ
도적
동호회
##볷
##톱
팠
능력
Δ
##팬
진행중
마피아
##蛋
##쿒
##곟
개성
각자
내부
##よ
##今
##챴
루크
##渥
##잶
##풧
##홍보
그래서
세례
존
##ʿ
다행
##밼
제출
##偕
##뜮
##킊
##力
3.
##전사
##죶
##ɡ
##隙
##站
##투쟁
##핫
계시
##당한다
증인
당연히
당황
뛰어나
팰
##리엘
형량
##뾶
##야만
##嚼
##휊
##랭
일본판
라며
##젴
前
##勝
##셕
##쎚
그렇듯
##툵
##介
##断
##룩
##歯
파밍
##문화재단
##시켜서
1.4
##제국
허락
##쩻
##스터
paper
##띤
피우
##대장
##모습
##定
최장
있었지만
##미사일
##촂
쳤
##姙
검출
##(5
고생
##ա
##칾
동정
쁠
청나라
##쎾
##닧
##뵊
보전
영향
출생
샀
상반기
##焰
##쫴
##꺽
##염
하필
66
##귓
##훔
##우의
##쎅
잭
##た
##눅
##뼈
##汜
검정
병장
반지
굻
##携
여겼
관장
유니
주요
##챕
©
안쓰
캅
##Qu
절친
늴
부평
피의자
유망주
##꼭
그려져
##璘
희망
##쁙
##햎
##û
유리창
¬
즉시
니콜라
##俅
##꾭
##蟻
##엎
##士
##먄
##喫
보이스피싱
##LA
없다며
##扈
##窯
##禮
##受
사업
놘
계열사
아스카
고객
생긴
##탱
딨
있어야
/
팬티
교양
##(
공정
##쭌
##取
인센티브
랐
국내
의자
가이드
국제
##상담
##蕙
복귀
##엔딩
달랐다
##牆
드
##半
##네거리
##퓻
##짴
##ゲ
##카
##子
버렸
##햷
##횄
백
포기
고추
늘어났
남경필
no
히
선택
##쯩
##孝
##모를
간판
##廿
##sa
##옦
섭
##雎
##22
##IC
##뤪
##의료원
KBS
##筮
##퓊
렐
##겠다며
의지
##銭
##鎌
적힌
##현
안습
스컬
##不
자가
##
반격
##진료
본토
##항
한달
##竺
##설계
살인사건
서울중앙지검
주인공
터져
동맹
원심
##蒜
##錡
##↓
이런저런
단단한
담겼
쫙
아마추어
출하
##趣
##합격
바뀌
센터
##협동조합
##娑
##머니
##늆
##脩
##개교
인상
중계
##뺴
##圳
##膨
##滇
[unused58]
##檜
##쌧
##몫
##霊
##이었고
##PC
드러난
##국정원
##欺
쩬
스폰
소재
##휱
is
##천동
video
범죄자
##톐
걸리
##囊
##4.1
##낷
##연합회
##焼
연구결과
편이
##2019
##까지
##으로서의
옮겨
##붪
계획
자본주의
##아다니
모
나와서
지구
Season
서귀포
릅
##mon
죽이기
##솎
##싁
시즌
합동
##ة
##췃
포탈
##7.0
##Λ
##洺
##삯
커버
멧
스프링
##이벤트
##싳
륭
생산
호출
##飯
##q
뺨
##톈
유전
##.11
##등이
호응
##逍
[unused18]
##밹
##徐
##겪
##끆
##bit
북미
전라남도
##饌
##砂
##딛
##FM
##컞
##น
아니었
##汕
##눽
##遊
##쑛
##장터
하나
##관계자
##뵀
계속
영주
백신
롤
##빝
##덩이
##방
##堣
실형
스케줄
삼국지
정글
##섣
##모금회
##볣
##쌋
##써
##연합뉴스
##펲
lv
##맹
140
##鄋
물어보
##지방
유선
##Đ
사제
지니
기재
##坵
##쉢
텐
##뿿
##니다
##뿦
회
빨라
##꺁
##킁
공연장
MVP
샹
중환자실
##졻
61
재등장
여관
탈취
##댔
불복
##스티
##័
##畧
제주공항
##있다
할아버지
##FC
될지
항만
그림
뱀
##칲
##芹
걱정
클래스
맹
많습니다
##飛
##칕
##뎈
헝가리
##뺀
##~
##岾
감염
##롯데월드
##े
##➀
##심판
##FA
직행
##靳
##∗
남
볶
경사
##奭
드라이브
##袗
##闽
##버그
규탄
캡
##덩
점심
##100
##侃
##간
수리
##ock
##澄
인문학
민중
##댑
명확
심화
있었다
##ve
##IM
귀농
녔
프레스센터
최후의
뎌
##(3
져
##퉌
무면허
##칆
##스토
##걸로
##인먼트
##餐
##코어
##琸
저녁
중세
##숞
##웻
##쓮
세종시
190
뚠
영역
##듀
어쩌
##부가
생존자
찻
!!
윕
어려워
쟤
부른
##텩
##썅
##魄
감염병
##鉏
다시
##분기
떼
##멸
###
##짮
사례
##됫
비슷
분할
300
무의미
##슕
회차
한글판
##드
##휢
##컕
정권
출동
도모
중대한
##腕
신한은행
##퀜
간식
얏
##켣
##稽
##rain
X
냄새
##懺
배당
세계관
##뿾
성인
키울
##晦
##뢈
수요
##余
##ung
##찱
요금
엇
##☎
산모
응
댄스
개헌
재활
##~11
널리
##읺
##儁
##闈
박성
정준영
크로스
이틀간
읖
##흔
학
##쉡
이쪽
##所
크래
심사위원
##අ
기적
룔
특강
복사
에그
##섮
##첲
##푯
##玦
당
김광
사라진다
##37
겪
##舶
##俗
##す
##륌
##購
##멠
##絕
##璨
##KA
##인재
##에게
잔뜩
##宸
##윜
##할
만났
중상
가까워
##던
규칙
##VE
##추진
##츱
하늘
청년
독립운동가
##湍
감안
근거리
맟
this
##물품
##두
직전
##肝
##妾
입사
##죿
##厥
##證
농림축산식품부
##슷
##햍
##撒
##갭
##ध
##拳
다르지
##緯
##腔
##그동안
##판매
##ib
##乭
작전
##昩
테러
##덃
오사카
##쉰
##텯
꼍
적시
##ound
떠올리
아닌지
##減
##朋
##휅
##븺
##吉
외교
이성
##포스
올라간다
선발
##정당
\
이상
##⋅
전체의
##者
##쌔
##혾
##복합
마라
덖
##소비자
명중률
##폀
물놀이
##樊
##閥
##슑
##媒
나주
##교류
학점
뀄
얘
현역
개혁
##韋
자이언트
##泪
창원
##레나
##중단
##뻃
##熙
뷰
쭙
##봹
##볪
##ខ
##祖
코어
또한
건설
##2006
돌아갔
홋
출장
##鶉
so
##룻
##砣
주축
어려움
##ً
무난한
##쮬
##뼛
이밖에
역시나
##늎
##闓
##칦
##4441(
딱히
##떱
다룬
비싼
##land
##갈
##콰
##(55)
##공항
식물
진행자
샘플
##♬
##鈿
이승
감지
괜찮다
##諷
산업혁명
음식
체계
##리카
배
##대병원
##広
결단
자회사
떽
매수
##勣
지대
생년월일
##頓
##뮘
##하고
원격
내전
##베르크
줏
없이
대량
동북
800
##네
##뗳
##발전
##袋
##홝
##TR
하수인
기껏
모드
##蔥
##눝
화석
자원봉사
##뙍
놓
##버스터
남양주시
##36
##댯
##공장
행방불명
##이하
##뗡
##評
##쌈
교육부
##많
코코
##格
##ي
빠져
##ゼ
범국민
##墘
##뿉
##纖
인멸
##鹤
##챊
짤
##夾
기간제
사업자
아시아나항공
루카
정씨
『
##滿
##붖
##도록
선별
##뽐
##]
##해도
##다보니
##문화
##파괴
##笹
##쑲
##요시
##縱
##sia
식
직원
##뀆
되풀이
##릉
##瀋
##법인
아키
##꿩
탈북자
##퇴진행동
놨
##讜
##族
##巨
##퉢
##療
##瑚
##朝
##組
##랜
쾀
##뛯
못할
##영웅
##캿
비자
기세
높게
##it
캔슬
개선
##꿉
##네요
##알
##皇
##挙
서울대공원
##諴
1957
##솘
10
안산시
결성
##þ
제국의
##딃
##웡
뺑소니
없다면
아파트
##힟
인게임
##紫
##麚
##뷐
##bs
선거구
##賁
##綜
##뤨
웁
##인들
노량진
##스토어
신나
##퐳
##EX
제작진
##菊
##測
몰
##뷞
##친
엘프
##부작
##苑
나머지
거치
##歿
##죺
39
문양
열대
##했으니
##붊
##박쥐
방학
아쉬운
두산
감축
동행
열악한
##늳
##贈
##働
노회찬
##마치
##緒
##뵜
작중
##⁂
##揆
플러스
파일럿
##푃
##한강공원
##龐
##뙃
##깴
##ῦ
##봒
##프리
속속
##듚
며칠
##구가
##髪
##였을
조롱
##倚
##8000
느낌
서울대병원
중간
##씨의
##列
애용
##駕
##앆
피부
##顚
의무
##腎
##뽤
여교사
##懈
##바이오
##순찰
##씁
##맥스
깠
##상대
시바
※
대마
##臘
##皆
##같이
Mon
##髄
##데요
뜨거운
렬
##즏
##냒
상장
끝날
##領
##筏
##뚯
용암
강수량
##기획
이명박
##쎠
##강
##추진위원회
대변
##늯
웃기
##있어서
입찰
##ル
##份
케어
찬반
올랐
##糺
##촹
##フ
##瓜
##酈
묏
##꺤
##쭆
밝혀지
##隕
없었으나
##모토
인종
선동
##총괄
##蔑
수상한
##휂
촹
구매
집중
정조
순찰차
남긴
##杞
##踊
##呉
순수
##튾
따져
##쾨
##当
##影
##교회
침공
##뜞
법률
본격
추모식
##횽
충남
##라운드
아마도
##펚
Ha
정말로
##블리
찾아온
##뀜
테마
수백
완벽
[unused1]
##투수
텔
로
##찰
##꼄
##뻧
검토
경로당
구조조정
##蟹
##0
##피스
##챐
##풜
[unused85]
쉬운
운영
##涛
##촭
푸
국공립
사회
풰
서울시의회
보훈
##ٌ
##싆
비싸
낢
군
뿅
##퐄
##鰲
Q
시범사업
##믘
내용의
##과학기술
##달리
플라스틱
콩
##撫
##뵆
##渕
##淫
작품
##敢
##内
##ƣ
##윆
##덮
뭬
##泓
An
##편의
##쏓
##1000
##★
##쒖
##39
##뼍
##鯖
##아메리카
##사령관
안락사
헤
주인
##質
약
##쯻
모친
##抽
메이저리그
##쳴
읔
##潝
담임
##倍
##어보면
등극
심
##渤
##黁
##캱
깟
땠
##냡
쌓이
마을
##殤
##파이브
정치자금법
##능력
둘
##潼
##쒈
쉴드
##랴
##멈
##눌
선출
31
##랛
##뙸
동메달
##펝
대학원
##守
[unused60]
##퉃
##貯
##ע
공급
패널티
##56
급하게
##燥
##춥
바라보
기
##왪
깊게
튿
##oll
##밿
##읓
##해보
##쌛
빌미
##딊
##헲
행정부
##aster
뤘
작곡가
##베르
대기업
##ɨ
##년대에
##쒔
##Й
쁨
##揭
##攣
갚
##贤
인적
쨋
##자본
갔
##읭
##에도
있으
Bl
마법
##하세요
##惠
##싴
뛰어넘
##賾
귐
##翰
##(53)
##슓
살펴
철도역
륄
인생
##酒
##枳
##틸
관
의류
##ฟ
화장
파키스탄
##躬
챔프
##渝
##햰
압수
질병관리본부
징역
궁금
수면
대형마트
##듓
##ク
기업
##$
##逃
잊
2030
헤럴드경제
상속
케빈
누출
##ᆴ
##촨
유감
##긵
##냕
##뗨
##성모병원
이라크
##똣
1948
##단장
##젱
##오리
##천여
깨어나
습관
대체로
##풩
애인
##덄
최선
##겼다
##냨
정진
##蕁
행운
##持
위법
67
다이
##壬
Co
##譬
##크의
##텄
##MS
##ỉ
조력자
정확
앞장서
타이밍
##넧
강진
세종대로
##殷
##데
폼
짝
는
전신
바로잡
##궵
대단한
라이언
##충남
##鍪
Me
##傅
갖
골자
##콱
캥
##뙳
협조
##Т
찍힌
##크스
##鵝
보컬
##근로자
독일어
오른쪽
##쩌
우리나라
분석
반란
금속
##양
카즈
##거리
##끟
##範
연세대학교
##恨
##진이
아니라
이건
##漠
##螞
침묵
##노스
##럺
유람선
##경찰서
##궂
넘쳐
##卉
##摠
뱅
##膝
쓰러져
찡
휴일
똣
##覲
##항쟁
두
태아
대접
불안정
##신고
소드
쥬
트위터
##屠
##back
왕복
협약식
##휘
아니다
##柝
참고
##嶋
##쮨
힐러
적고
##哨
의문
대회
##봌
##ո
재발
NL
도루
##line
스테
##毎
##뽇
##应
##奐
##사의
뱄
##밖
##丹
마주치
일종
##쎹
##토론회
왬
재료
아리
##⁎
##통제
##쵨
##rit
##謂
민심
주재
겹
##엔진
##閱
##號
##떐
##弊
##凍
##랠
고위
살린
##뜛
Of
산하
SO
##으려
##溶
##窠
##윋
##르
##辰
##幞
##즲
##텻
음란
모터
##븫
상당히
##堆
##啄
##耒
##鏛
r
SW
##소리
##辛
충당
##(2016
없을
츔
나치
##쾍
##멤
58
체감
이룬다
##닙
##하던
##뿎
##av
직후
약점
그려진
##豪
##려고
야쿠
##라
##환자
##찦
##ci
##씰
챙긴
##텦
##킀
추천
볐
사회부총리
드러낸
뽈
리오
교내
##堤
김성태
경선
월드컵
##듎
전수
160
치안
에릭
##꾕
##爰
간지
##쥬
##ᄈ
##三
BB
##慣
##9%
퉜
##뺆
그녀의
알몸
개그
다큐멘터리
##聚
빅뱅
##租
##ầ
상위항목
들여다보
##坊
탄핵심판
##.21
##㝓
##꿧
##며
##뉘
발부
자세한
##ts
튈
나갔
##횬
##枏
##뜔
관심
##폟
커지
모델링
대지
고속버스
##셍
페르
인사청문회
##3
딱
모바일
P
##彧
최순실
레이드
배트맨
필
##ual
실감
##勇
##뉁
##르트
당직
인천광역시
성형외과
##抵
##狙
우유
##땀
누나
##und
뒤집
##聞
유족
돌아오
약자
조업
##물류
추운
특혜
##憑
감추
경험치
##떈
##本
##濊
옌
##꾫
##射
##려
##냠
##늺
매체
##尉
##ש
##ἄ
250
잎
##OS
##극장
특별법
재량
승차
##曲
##德
김모
무장
폴리
지점
檢
지연
##衛
웝
##愈
##聳
명칭
레인
커뮤니티
##겠죠
##퉛
##議
재범
##.4
##諍
일당
##비
공개
##隆
없었
자백
덩
##수영
근육
엄청
##ή
##季
후손
수확
재질
은닉
##뫛
##뀉
싹
##怖
##쵭
아마
메이저
##俊
제트
##ara
##톝
##싱
목포신항
##ss
##哀
##쵾
근
나쁘
유언
겨우
##叔
왕조
장벽
##로서의
잠입
108
##어서는
##증명서
##了
##뺜
신속히
##쫡
##보통
뒹
##睢
##現
교리
mo
##쥣
##枝
##頡
##훙
신문
##僞
##위험
##쳄
로얄
##음
몸통
##稧
구별
##水
교복
##ー
##떝
##ć
##碌
##핒
VS
파동
##扉
많아서
##뮤직
##淄
교차로
##졌으나
##뵌
##臧
밝은
방향
##혬
누리집
##-2
##햟
국토교통부
##연속
##od
##鹿
##굿
티켓
갤
매매
##蠱
##해진다
##옵니다
##뎀
##플레이
3
상해
양자
더더욱
수원
##댐
##과
##社
열차
완결
여파
듈
독일군
##뙋
##덉
반
##粘
##भ
주문
##涵
붙
##54
예상
성공
##릏
##慾
륏
##뜺
##규칙
##拙
##콘
##館
##駢
오해
##閫
are
##숱
쟝
##專
##생활
##ring
##땧
##겠어
DLC
##跛
##涇
##中
##뒮
##도시공사
##탩
##씬
‘2018
##긖
##밸
드래곤
##첟
읏
##봭
{
밀
회의
##뀮
쏱
붉
##쾔
흠
##픓
유니콘
##웱
##롣
##퀏
트렌드
염
이루어진다
브라운
아동
형제
##둳
게스트
##쾞
##晨
##憲
부른다
믿음
롱
##융합
이륙
##비의
사립유치원
##뿇
##女
주워
##깵
##뺝
##하진
##祥
##x
##퉉
크게
외교관
##片
##쵕
##법
아르헨티나
대해서
휴대용
##멀
이유
건국대
##☉
사육
##공개
##순
##묆
경주시
웨이
##옉
##刷
##괛
합류
롄
균형
##澔
##뾿
##소송
##븼
의사
[unused33]
뭅
##(20
##渫
##←
절대
##줄
##幡
##뿘
##ᄣ
아니라는
놓여
##뙊
국립환경
스트
1953
사방
##ལ
##괞
재판
##서버
##僉
돌격
##턛
##껰
##祿
##볨
##륶
선체
##뀾
눠
##지기
초중반
##DI
##̧
##舛
##景
경직
##씨
자세
##까봐
##됆
##区
##있었다
##갅
상고심
##쬲
춘천
즐겁게
##볧
좁
##뽠
##宜
괴롭
##选
##듗
##澳
##삶
주가
개정안
짦
인천공항
##뿌리
##싸
고수
외침
##브리핑
대위
타이완
1954
##또
젯
헤비
창업
##碍
##金
##풉
조절
##턿
##말
발각
##답
리
사이트
##ike
##펟
##쫊
흔들리
##죻
간간히
##툇
베
친한
후술
펼쳐
##셤
군함
##냦
벌써
인출
##닯
##濫
연합뉴스
##娠
##臼
##祦
##뮕
##봳
##얐
##감정
54
##로서
누
증세
##데이터
##http
##の
##髥
5
그레이트
##■
공천
픽
DMZ
사냥
##랔
##맔
##끈
##전국
스트리트
혜택
##讀
##비서관
피로
예고
크다
엔터테
##죽
##뚜
떠돌
##춍
##믃
로빈
##으러
례
##阗
##뙲
헌
##嵌
부속
##㫆
끼친
##藜
##따라
not
EV
킨
지
새롭게
잼
토론
##━
##ユ
##挾
14
##뗠
장착
멀어
##遜
##테마파크
##몿
송파
사이
##齕
##뾚
##鳧
윰
##놨다
재빨리
원리
##压
##窗
##牧
##庶
##攬
##頹
##연장
##꽱
신설
파이터
좋은
##울
##番
거지
##밴
건물
마감
##ז
##須
##공원
##타운
##햊
##순간
##뺩
##섵
##法
##뗯
##R
##im
야산
##깋
저지르
복지부
##뙂
##무죄
##懌
매직
금리
##va
##被
##靈
드물다
##쓻
##군의
##고속도로
##푡
##쇽
불과하다
회생
서버
돌파
##뭤
드레스
##둏
제물
##化
##넞
##숯
단장
##墜
##┘
쏨
구민
문화재청
##껄
##쩱
폿
##鋼
##훈련
커플
##宅
반기문
##ய
좋겠
봐서
씐
##釋
V
##晶
##뛒
취해
##궆
NBA
부양
##狹
아픔
33
##샐
유물
##‱
##替
인프라
##铺
##.2
##횡
##渚
##Ι
##턲
##쇄
##전선
##지진
"
금전
##강도
##矶
구도
##樞
##蝶
고르
##공직자
결혼
션
s
질
지도
##羹
위안부
##突
생겼
##弱
##낻
##始
##ł
Dream
##域
머리
##춘천
위원장
##쵮
##쳅
##증권
립
##쀼
열린다
##院
잡몹
획기적
안정
현금
##편집
조경
##어낸
##영
##국의
`
##繕
할까
곳곳
##恩
##恆
##牽
##찠
##퐶
안전처
그렇다면
데모
##문화재
아닐
##쇻
부정
눙
##晝
M
근절
##줶
종목
SUV
##논
그야말로
##여야
이산가족
경비원
##킜
89
##섁
##賞
##괒
##즉
최씨
##訌
##뤠
##災
폭행
광산
북측
##芝
##out
##다는
##匄
기초연금
의사소통
없었습니다
담
심판
##陘
침체
##on
사무
##盧
선장
##猇
##헆
킥
##릑
스파크
##臾
김준
더위
##주차
교정
##퓟
##읅
빠질
##풡
악수
##랏
##랸
도착
##쿌
히라
슴
돌려
115
##탤
##긌
##ous
디아
##膿
##迷
철도
##궃
##ime
물결
최악
##즈의
##批
##사이버
알
묠
이동속도
##醯
Hub
##킄
동생
퍅
##계올림픽
등판
채용
##됍
##箋
##ome
소녀
##粲
##픒
##ICE
##蕉
줬
탱
볼거리
##巂
##섒
훤
##皝
전용
환경
적었다
신입
##廃
해역
##鴨
##겵
##ea
천막
##.13
기대
자문
시기
##BO
##作
##ླ
명시
어찌
##룹
##믹
기병
##롕
##메르스
일회용
통보
##얖
노래방
경과
스카웃
##으니까
끝내
있었다고
예쁜
로버트
##凸
##톳
안내문
##몊
적법
##SK
##팃
왕위
클론
##퀆
##멖
사이코
자부심
주세요
이메일
##오르
일시
##상의
##⓷
##행정
##팸
3·1
체인
##갪
##듥
##죨
담화
##뮐
##ひ
##互
넥센
약간의
»
##撤
옮
##隍
조사결과
##60
##리티
##霔
43
푈
국외
##휳
##ina
리버
##滨
##뭿
##았으나
대세
성명
##愉
공모전
아니냐
##ED
히로시마
##盗
부스터
##이라고
식별
##徠
라인전
[unused86]
급식
##罪
금융감독원
##줃
귓
##ater
쳄
##哈
##밋
##巧
휘
계류
고리
##쨈
##눔
##擇
누르
궜
야생
##옗
##iv
FA
흉내
##癌
##ң
##뗢
##.30
##번호
##倉
##調
경계
##큐
##부
##과정
크리스탈
##擲
##도로
##탫
##뙘
이모
##면서
메
키워
차
##뻞
시노
수습기자
다룰
불행
##萬
For
##농구
해석
##足
경호
##운
줘
##喙
남부지방
냐
노출
##宍
##숭
##将
대상
##垝
##月
##보도
##窓
##풨
##사업
##인데다가
턴
쓩
##컴퓨터
집단
뒈
##펅
##즈
##방안
##퉣
뼛
졍
##긑
##ha
##현지시간
##춈
##정지
##언론
이웃
##겠다고
임
##鋸
떻
##학번
##아리
당한
별개의
##蓮
##크래프트
##鴉
##싣
여사
##었으나
##뮓
걸려
무효화
심한
##巌
##인당
##い
숫자
평창군
대신
##ber
##tter
##뢙
운동
머
##ᅥ
조선일보
##证
##야구
##ת
##맃
##떒
1970
안드로이드
미흡
##SL
##옌
디바
츤데레
오리
##א
쉐
벨기에
원피스
##Lv
##57
입국
일어
한다
##ป
브레이크
##튿
가르침
##示
##暁
##체로
##拉
개설
##클
##跡
##潁
##亡
##ON
전염병
이재민
##짫
##藎
##郞
발전
안양시
컨테이너
타이어
##뀨
공격력
##棍
##뛕
##쭈
입술
##ῶ
##塞
##픾
##瞿
통해서
##맀
##ᄏ
##운전
구름
##셨습니다
성실히
##Ξ
##憤
슝
##櫻
##篾
##기업
계약
##歚
##党
건물주
##軛
me
##아있는
##전함
##상태
제시
##ʕ
평
송치
##岏
##억원
배려
##叙
퀄리티
조연
##꾪
##뺘
구간
낮춰
사실
떨
푸른
##보전
날씨
##瘢
라인
엔
4·16
품고
절차
##젗
##조사위원회
##嶽
화물차
##砻
##앹
##朱
##汰
숙박
##裕
암살
##클로
##辺
많았다
##떩
꽹
바퀴
밉
뭉
##듘
##피고인
대검찰청
???
##.24
##u
##市
##퓷
전략
20
[unused39]
[unused36]
정규
고유
앤
##ほ
##畿
##탨
죄질
지뢰
##ň
##磚
팔리
##球
##솅
##겄
##臟
##样
곶
##쳇
소년
휴가철
##엔터테
낙
[unused50]
동경
미소녀
##恕
씩
##됭
##延
##걿
지원
넉넉
##致
##쟙
별칭
헵
수험
짧아
##뇟
아르
##因
았
##熳
##넦
관건
##擴
##縁
##사기
못해서
##뗴
##대비
##쎒
눈치
##학회
##긬
웟
퐁
쿠바
##陜
##버섯
맞춘
##긁
##너스
병력
상사
내릴
기념
로열
전원합의체
##伲
펨
##÷
##ָ
##뀼
테스트
아래쪽
예
##‧
##친다
##包
심각한
우체국
강력하다
기둥
세븐
##구조대
반사
##쀻
##淝
탄압
##부대
난사
공익
승인
##晞
##레어
영서
##遏
##綴
주차장
##젶
노래
##욊
##펯
##莒
##맠
##쪛
롬
뚜렷한
꾹
여럿
##壷
짜증
##ical
마디
##書
달걀
물건
##꾸
##霖
##伝
재미있는
##퀫
막내
##멏
뻤
##盜
함선
##菰
##誰
##溝
영어
##쫻
퓟
장인
##개
커질
##蜂
##턯
##툱
보드
##信
##鐘
##박
##유리
##(48)
끊이
##일반
통한
아크
##﨟
##缺
마크
##경영
##莊
##탕
힌
적절
##았다
##사격
맞서
##3.1
##씟
##뽳
##逝
##桥
##전기
대동
낮아지
##粛
##∼10
연출
##胄
##믺
코
##촙
##큰
##중국
경기장
##냃
경기도
##ヲ
정비
##랚
DD
##芻
##황
##澠
##수술
재판부
<T>
쐬
손님
음원
##굶
##翁
괴수
멘탈
찌르
##셂
오랫동안
##똑
22
창작물
맙
##号
GM
##뿛
¹
##펫
규명
경상
##泳
육박
조회수
##匯
##뻵
##퀟
##ri
##▴
##掛
2.5
##肉
##쯊
##榆
##비트
##뤞
트라이
홈경기
...).
악화
##緣
셍
적지
##챦
##캰
##圖
##뜸
청년층
성당
##鮪
손자
우위
##諦
돌아온다
##긄
##意
디자이너
강렬한
##紆
기생
저자
자유
떨어질
모험
공정위
혼자
벌인다
사정
##배임
과감
낼
버린
다친
##Ch
##내기
##纘
랭킹
##ice
2021
##흖
올해
분포
##폃
쬐
##회관
##댃
터지
##∼
##권력
있었는지
##朕
##ʁ
기관
##竜
##뾛
##깳
가나
##바리
거두
##뇢
##꽅
##披
##ė
자산
##춣
##72
뎨
혀
##텼
##뛥
##雩
입시
대규모
##겱
##曠
직장인
갹
푀
##鍍
##듑
##튛
초월
##어가
임무
단백질
한번도
푠
##楊
소금
##뮥
##訔
##청년
전달
##뒺
##읾
##씡
##덴
펩
##86
같지
##여명
빼돌린
저지른
미수습자
##뱵
All
##봺
##ằ
공산당
##첼
다양
잦아
##들인
##뜷
##담배
OP
##쳑
키타
##넋
이철성
명예
##츂
##잧
##톚
##썾
##人
지원사업
##C
##፡
F
##訃
##넵
##걼
##賀
##된
위로
여객선
개개인
프랑
압류
##ING
##寄
##先
Mi
유포
피해량
##執
인터넷
임금
드물
##멧
##靖
구르
##젔
고스트
인디
친
##감사
기구
##二
##끔
얾
##.10
모순
거야
상급
##慽
##mm
같
페어리
##貌
제한
##지도
테니스
##炤
##lit
##🕶
무용
마약
##송
##강남
##訟
##쀍
##Ӷ
##밷
##掉
##클러스터
##넭
교감
누가
1997
너희
##颜
##欲
쨘
##衽
##햞
##앫
##鰭
뺘
##멌
##你
##해준다
붉은
스펙
양평
체
쓰러졌
##내려
##ю
##寃
##pa
해킹
##몸
2002
적의
쿤
##蜜
##속도
특례법
##厦
##깘
##瑞
##끞
86
궁극
##냉
템
##胱
대륙
##회의
애플
##향
##砖
마코토
##ի
승계
##토스
보물
##染
##으로
세종
##姪
##冊
##》
ª
##봉사
지내
##쒹
##즙
##輝
##갿
##串
##면허
##퉩
늘릴
##伦
처리
정보
더빙판
##특히
##장
취미
##Қ
##儂
Im
##떓
##출연
##し
##세가
##뙧
##IST
레일
##볕
야간
위엄
##隠
##스트로
##케이
없다는
##đ
##座
##隅
주소
행동
##씩
##추가
##я
표류
글
업소
조선민주주의인민공화국
##歌
생산량
의하
##遡
##오
##LC
##ny
드림
##멍
##퉆
##젤
##ath
D
##徳
##純
완전히
##즅
##げ
금속노조
##堰
보행
##단독
보직
##鱉
##아르
공직자
남해안
나이트
버린다
##肖
j
화학물질
가족의
매몰
##빠
##孼
##场
바위
##성도
y
멋대로
뿌린
##cl
##楚
적합
##駙
##코치
플라이
##핿
##濮
##엶
##횸
##辦
오래
중점
총파업
안쪽
##퉎
걲
치료비
##랖
##벏
##吒
##ザ
많아지
##畏
##쟶
고마워
##RA
##埥
##끼리
##烋
질문
민관
람
처음
##쓛
##섬유
고
##談
쪄
##)·
똠
그래도
드러
##ga
##쏴
##짦
플래시
가져가
폴아웃
##邪
횡령
닉네임
##ill
##낵
##LE
##82
##왷
1962
##확률
##큮
김포공항
DPS
뢸
내지
##었는지
##森
피고인
##빿
##거야
##수산
##슞
카풀
##자녀
경
##38
레이디
쏘
##κ
디지털
괸
[unused67]
정말
조계종
##뷧
##...“
##뵗
##뙪
들러
##랻
##퉯
껴
##鵠
긑
##프레임
대비
##ረ
정신과
##紇
윱
젠
쉔
신종
...?
아기
넘
##핟
치른
표출
골절
노동시간
붓
세탁
양산시
완성
부적절한
##颱
##햅
도입
마드리드
동래
##襦
##차량
자칫
##衫
느껴
##왧
삼성동
튀
키스
##毀
##쟸
##슴
##睦
##que
재무
##머
##긔
높아지고
불기소
##뛛
##ĺ
##瀍
Con
##떣
##륊
자존심
##糾
소비자
##崇
##뽧
부품
스타디움
##쓂
##갣
확보
##筑
##ත
사이드
##죹
공채
and
노벨
##慰
##拱
##赫
##뷉
##잡
##祚
##63
굽
##깛
##爛
ED
종식
국제공항
##바다
##볟
##액션
뉴
##庆
보상금
##way
##스틱
##다보면
##콯
죽여
##교사
##츠
싶어
##껩
대하
##ස
[unused4]
보험금
연료
슬픔
본질
##밂
##범죄
티셔츠
##뽎
##寰
##텨
솔
부터
##炡
평화
댕
뷰티
##話
##利
로봇
##엓
##와는
여자친구
[unused59]
##튍
##尙
재검토
##붔
성사
##깐
##ゆ
##셮
유예
##鈕
##둯
##쐬
선고
탑재
##낮
Your
##厲
중력
일체
##AN
##ξ
##蓬
##덢
단말기
걸
웻
##蓋
올린
##ven
##솥
갯
##箔
악몽
##裙
##ē
곁
##챼
YouTube
쾅
##투어
Go
경기북부
일요일
##叟
니
그런
##で
##즫
##灌
##탼
불펜
땃
탐방
##휇
##吹
똑같다
쑹
##遂
220
##휮
##솀
##訣
있어서
##싂
##ロ
SR
바지
##劬
국가인권위원회
##~30
##鸣
전해졌
##配
##菅
떠
##옘
표본
돤
출퇴근
##幣
##얊
석사
노동자
##렌
##樟
##콨
##近
##陀
쟈
사회복지
디버프
서비스
##园
[unused43]
삼성물산
##̆
열흘
보이
##져
##罰
부스
유지
##蘭
불리
싸우
##嵩
국방
##론
##GO
사양
##∘
앞선
##교섭
모스크바
##반대
##폆
하드웨어
##깥
##jo
##홞
##向
##뒾
증가
보라
##총
1983
##ɦ
쳐들
##鋥
##柿
##励
과징금
##삋
##涅
##村
##賰
고성
##ս
짙
히드라
##팠
동전
##忱
##쥹
##맫
분주
##▽
모든
##뾱
##쪐
##歸
##99
##서울시
##軾
##M
진짜
설치
오락실
##便
##하의
##톻
##봮
다행히
##楓
광선
새벽
아니면
##호기
##ᄔ
동아닷컴
##욄
##갌
##로스
나들목
##舘
얭
평범한
##mo
뎃
와일드
유재석
##뇨
렝
##瀾
##芸
프로모션
벋
##у
##횟수
빨리
##왴
##폰
##좍
##땤
올림픽
이석
##쫄
낚
##尸
인터
소방청
##롯데
##쏼
##홭
레이싱
##뚝
##px
가급적
마우스
##지부
덧붙여
조회
1800
##쭘
##侑
높아진
아저씨
##긲
원자
경기
##병기
말씀
##차관
##ւ
##炙
##됨
##유닛
공용
마련
##강력히
##𛀁
통
##禁
좌측
최악의
작성
##그룹
Se
쫄
호
##義
용산
##근
브리핑
##藤
##뀄
##파크
##아들이
행보
##FF
##사유
망
##밫
시민사회
##앜
메신저
처분
##럴
sh
##콕
궁
##삭
업종
##비전
##뻱
##康
##輪
부장검사
##우주
활
##퐍
##麹
##ᆳ
교역
##보건
신성
##뭳
[unused97]
재난안전
출구
##콢
##졐
형성
##성능
##查
사기
태극기
##彭
미키
비치
인지
##寗
##ន
투여
어렵다
톈
##瀆
##드로
출산
접목
##Í
##뷋
##貢
사회공헌
##법과
##UL
##훱
국가
##陳
##显
완벽히
비틀
부당
##퐼
무안
##颖
##춀
총무
세우
표기법
##굝
너프
##ᄃ
쇼
동아일보
마당
##暐
##ជ
##췼
##嚴
##ą
##먁
난이도
##펀드
매
##중
신분증
##‵
과제
신
로그
벗어나
##컅
##럃
##짊
항해
##ั
##忿
##뼁
##
연사력
##한
오후
##皂
가능
체크
##퀼
##The
시스템
깃
백남기
##踪
##錯
매달
##囁
RE
던졌
합작
##棧
시급하다
평양
##유
##홟
##線
##齧
##팷
부수
##해질
##부르크
##鍝
##꿴
##희망
##꾄
미나미
##次
MBC
사우스
꾸미
팼
##捜
##원칙
##읃
옮겨졌
조건
연예계
퓸
사고
##어서
권역
##昶
공유
##덖
##賴
##놉
##謬
##휼
운행
지난
연예인
##味
창조
흘리
좌우
##동
개관
##청와대
죌
##욜
##뽅
##落
##諾
##SP
종결
##뤼
녬
툉
##己
허위사실
논
대학교
##抄
수령
의
이태원
##ゥ
최우수
##戚
go
공공
군부대
화천군
##꺍
줴
##뙩
##悔
윤씨
##겻
##倣
넥슨
##낟
##그래
좨
뵤
똬
##햘
##주의자
##j
##閘
##늏
##費
##전북
##螭
sp
송파구
##뉌
##総
##라이프
체코
##杖
요한
##是
뤄
##교원
##픈
##司
##昉
장비
전담
발달
논란
##돼야
초
##禅
##廟
##Э
##즊
침수
##내륙
그렇습니다
툇
##パ
##냐면
##최저임금
##뉖
##彿
##詒
##소가
휘두르
##尺
##霆
##芥
##벫
##뎟
##竪
자신
아이돌
##쁨
따른
##튢
##흗
견학
비리
##ふ
겨울
시설
만주
##뙦
##顔
곬
스티커
돌리
폭파
##개조
조각
국도
묘
##갑
##ɒ
##砬
임종
올릴
##珩
##湫
##갽
##寮
##oul
주유소
##톡
##리스
##ề
##졶
##땱
##재훈
##느
빤
신기
##溪
##통
##벶
이루
의경
일가족
등록
비하
##즻
##热
##뽏
지정
교체
##쁥
##效
##窮
##놅
##뗗
##塹
##岁
##촌
범인
지방자치단체
못하는
##憐
##필
##낸
##걸
터키
##기념
나타나
패소
##侹
떳
##진영
따라서
##伉
##❍
##뽂
처지
##관은
##默
축사
##빾
##십
무엇
##継
##纍
둔
귀신
찮
##籟
##儿
##훼
##慳
(0
##쌉
새끼
정규직
##脱
얼마
##鄉
대출
##욘
2007
거리
##濤
단원
단검
##쵑
내륙
##昺
##스토리
##캠
밝혔
밸런스
##烙
##혂
##뵙
멍청
그럼
##정이
공정성
##윽
절대로
흥미
##뜙
##胎
##즴
덜미
##옂
##宕
##탯
도미
싱
진정한
감탄
##쏵
욱
##爔
RO
##35
##냂
##30
##븱
##聡
제작
대령
##쭤
옅
##審
##넣
센
무실점
불가피하다
가치관
n
##라가
##普
##붜
##∼7
##ர
##饃
##讖
##璡
##뚁
Z
##거래
씌
예시
보내주
##보안
##쓧
섐
모녀
##怛
##투자
적발
건드리
##퉽
##ka
##CO
##嬢
복부
##럷
##대한
넓은
##믐
점수
노동
KB
##협정
##였던
##낹
작용
여러모로
##one
##帝
없애
##조치
김윤
##邦
##훞
##롼
헌화
들어와서
다툼
UEFA
##抉
디스
적색
끝낸
##況
##곳
불쾌
##냖
##부인
원소
##영역
##単
동기
##仔
##금
##佈
좋지
아닌가
나노
복잡한
섕
##杨
샷건
##육
에버랜드
달라진
모인
IS
콤비
노린
##삳
##나갈
##ㄝ
중앙
안돼
디젤
수뇌부
붙잡혔
##본
##채용
##창호
태우
##쒓
김민
##덩어리
[CLS]
산업은행
서민
여객
##홢
짧
##⊕
##슬
설정
##챤
##坂
##휍
전멸
##鄞
##텔
장기
꼇
산불
따뜻
##襲
68
##礼
##전형
##殻
##𐰪
달라
##쟦
전교조
반려동물
듀
##흣
이전
##인물
##貊
##뒁
##32
AKB
쉴
1958
##噶
##뿸
##쾃
##biz
##쬤
아웃
동성
##쟷
##뉜
##酥
쯩
낮았다
##륄
##裏
##도
경연
빨간색
##씃
원조
##뺄
수술
몰카
##뤐
##m
펜
##뜖
틱
영양
##퍦
##肇
##닠
##참사
무서운
바꿔
##쉽
조우
##솁
##劉
개통
##엲
St
##მ
##인데
대립
께
보급
띤
임산부
##an
##ron
##–
뻑
##垸
컨퍼런스
##깙
##OO
만능
퉁
흔적
##챔
기획
무효
##죷
소재지
##奪
휴가
##靑
윙
##시티
당연하다
등지
##œ
무난하게
억압
재
곳도
##裵
□
미안
지붕
##븶
06
논리
##0.5%
작곡
##았으며
with
##촳
에픽
##掩
네덜란드
영어판
##600
##剩
##∼8
만하다
코치
나타
의료진
토크
화상
##度
혈압
##燿
##端
##運
##삱
##눴
냔
##챂
##급
##댇
스케이트
거미
배구
##把
##쵶
##緡
##我
##汽
덪
##霞
##鞠
##뇦
##鹵
##~)
##虚
##參
내걸
세척
##幟
##똿
##콣
16
##콧
CD
##Ё
과다
##홱
##700
##차별
최초의
##라인
##봲
수수료
##롈
##환경운동연합
세인트
##사키
외교부
옐로
##毓
##証
도출
##었어
##규정
##라이드
2000
##이라
##뱬
##み
##¤
##뽣
##님께서
##ன
죔
##뗑
우편
##쯀
##璠
쭈
##깝
무단
금연
##轩
##(7
수호자
##謀
##부정
##볌
저서
##뙽
함정
[unused21]
##첨
초대
귄
##屯
띰
##긛
##礎
##특정
세
##됎
##高
##몏
##角
##퐐
##𡸇
##꼴
##ᄋ
선진국
##蒯
##헷
극악
60%
##딹
깊어
토
ST
##群
힐링
##넹
##钂
##매치
##78
##껨
##벓
##정
##여개
묘하게
##TC
##稼
상식
##큡
히트
주장
유명한
##髓
##쭨
우승
코믹스
##雉
체험
앞서
동남아시아
##햲
뺐
##뵄
##록
##峯
관객
##되고
퇴직
##و
초등학생
##꿂
##퍌
낀
##라이즈
##飈
이루어지
멤
##리언
##鏻
##쮑
도끼
##題
##Ŝ
##겠습니다
##쫠
##쩼
한데
##賂
##无
##皋
후속작
##좌
##ý
단순히
어리
단계
##殘
탈북
##뺃
##佰
##晊
모모
##劒
누리
단어
##mer
##해경
[unused66]
육
##껚
공모
남북
##濠
##乾
산재
##善
화살
범위
##TS
##죗
##固
##눞
##힃
시각장애
##軌
##컯
모른다
##지와
##판결
##앨
##뀴
##푀
몐
##峰
##씪
슈팅
##ȧ
단독
외상
베이비
캄
##흓
##怤
자제
##酌
##ash
비롯
##下
살아남
Ltd
##娛
##里
##했다
괜찮은
##꺃
##想
개
포항시
##퀠
##겠고
채보
정발
##悪
##↘
##맥
담보
보여
##剡
전년
괜찮아
이뤄지고
##(11
시티
##言
중
##搞
##챠
1952
재벌
##잔
주전
##ph
트랙
상시
##상품
##뛀
삼성서울병원
일족
##挚
##마
##티아
수십
##장치
AV
##멎
자신감
관직
단
함락
시위
##몬드
##쀹
싫어하는
##翹
##表
위해서
##廐
if
##쿈
##吼
##나가
##즈키
##니아
찔러
갸
##楠
듸
철폐
1960
##嵛
##왡
어떻게
알려준다
갭
##ཕ
##凤
##쬐
##실로
다닌다
집합
##앤
##슅
##족의
킹
##冰
동아시아
##얕
다른
##쾇
##콴
##룸
##峙
##켓
53
수차례
살피
꺄
길이
조세
##镇
염색
해금
Bu
##以
##쳐
멥
높아졌다
##500
증명
##뱽
뱃
##승
질병
##돌
쪼개
딜
##즨
##뾼
##햩
##外
##섌
강요
##整
##鄚
##그런
##槃
##벑
활짝
##숑
변태
여론조사
##♭
##鑒
##좠
심심
쫓
책임감
주주
##❹
공인
공원
민주
##य
제기한
##뜜
사드
발표
##몈
##北
지배
##덥
##맮
충청
##式
쫘
##ᅪ
청소년
##위로
##◈
띈
더군다나
에이스
##뎄
##촠
##鳴
##앟
강
##한국당
또래
##넒
터치
벌였
백작
##타
##선발
##믉
##ራ
크레딧
##프록시
##弦
땔
개최
##务
스톤
##란트
##ob
##螢
모토
##봐야
여유
##價
##왵
##꿆
##하나
적은
컨트롤
##慚
##褐
일정
##쮪
##69
Pr
##曾
3.5
##娥
to
##섕
##埋
##밑
##荃
##盌
어르신
##瀿
깔려
##鼐
투입
다쳐
##윤리
오빠
##誨
적재
##땽
틈
쏟
강하다
##윈
##맸
##뤡
있는데요
나갈
사신
##미
##가능
한상균
##릿
엷
##耘
##墮
##宴
##배우
북구
엶
갓
##麴
핌
##ه
생물
##쑾
좇
##Ø
##烹
##쵰
##図
##컔
##옮
##챛
##類
##衾
##팹
##주택
##횛
폐쇄회로
뒤덮
##长
정답
##org
##숩
클리
쉼터
수법
##窺
##쓼
동작구
##牌
##휚
대답
##그라
##ral
##였다
인접
설마
##ru
술자리
##懇
##剣
##茹
##덛
원칙
한창
##las
##~10
해명
##뫤
##렣
##홠
##쒚
##94
84
##직
##삼
분류
##맗
엊
##췸
##됴
##헠
요즘
##웒
##졣
##형사
기묘한
쿨
##쁬
##하였다
##諂
##쉬
##비용
##⊆
재학
##스트
보도자료
##纜
총기
##사거리
##렛
##걮
풀리
##디자인
##깄
##셜
싱크로
생애
##飽
최재
##둡
##앳
##.22
유학
농축
##스텔
##も
##횃
##↔
##ད
##5.5
##곯
양보
##왤
뻘
문명
##廆
있고요
LED
주민센터
긴
조류인플루엔자
##俘
카톡
##곧
수송
계산
##파이
##튱
##า
##마가
수습
##ङ
통치
##th
도구
##풭
##썡
##룬
성남
##무장
구현
협업
##鑫
##여만원
밀양시
##旿
##樺
##왫
##说
##페이지
##검찰
청사
멜
귀여운
동네
유용
##뙹
움
느
브루
##厭
소라
업무
##늭
##이었다
##鹹
##仏
##펀
##ĕ
##:
##青
##て
##마트
시세
##ְ
죄송하다
##제
온라인
진도군
##グ
어린이
뇰
받아들였
카지노
##형사부
##玆
장모
사교육
흐
즈
김진
##·
##勘
이사
목적지
열람
##췄
병합
##쭀
##쥠
꺼내
##퉤
##郴
##랜드
H
##왭
##걾
뚜렷
New
##ข
맞물려
##교과서
##텬
##藍
##니
비즈니스
##Å
신촌
##췍
##虞
서술
##ich
##꼉
어나더
##잭
검찰
췐
##의약품
뻴
서포트
##
##도르
텡
##史
스케일
##98
##團
##쫎
##툝
구입
쏭
고교
광역수사대
##홖
##冒
앞두
##꿅
##콝
##ን
##캄
덫
비대위
*
##늮
굳이
공식
##©
유료
국립
##妖
탈바꿈
곗
##07
##균형발전
애쉬
##腰
##巡
##헸
관세
##珣
륙
##댱
##궉
주로
코우
삽입
##온다
목포시
##擾
##륋
평타
일본인
##end
##„
어떻게든
박
¥
##풙
집어넣
##꼐
##웃음
##윤
##뉩
모양
##动
의정부
추궁
객
경쟁률
괴롭힘
심야
십
복권
동인
##최고
어그
##는데요
##깩
##席
1969
##념
##佔
##故
##홅
##턟
##쎑
##盤
##구간
명문
##굉
살려
##返
터진
바닥
뿡
##傍
##뽋
##쟇
##미래
크리스
##도교육청
##뙱
##閑
##腄
가리
##테스
##Sh
##蓀
##루
##욎
##특보
치료
교수
##쵗
새누리당
##縊
##삣
그걸
##쳶
##튖
뎁
##叢
한가운데
캠페인
##錮
교육
솔직히
이해
쿠키
##岭
##貧
##첾
##체육
##萊
독보
##鞨
인도
##i
##┌
화이트
##젋
##ל
부처
이윤
임의
##부모
##၏
그나마
리뷰
총리
##è
(19
##틊
##혔
겻
##코드
웩
##خ
##TP
##휠
##뷸
##拋
적정
##樹
빨간
##更
##욉
몸싸움
##노동
##학술
있어요
박람회
##賑
공공기관
##경쟁
Star
영등포구
멕
##ה
당할
##시에
공기업
##긴다
외형
전환
##크루
##wn
##주의보
쥣
##ó
관광지
##ᄎ
##기상청
##셀
##属
##掘
뺄
몸매
뿍
뭔가
거꾸로
##Ɛ
녹화
##경험
##발표
##섴
1.8
항상
이내
##물론
##닫
점검
##ence
동아
##起
##몯
실적
##琇
##ñ
2016
좋다
헌재
##씔
수많은
강씨
##俠
못
##ز
##ˇ
비닐하우스
##뒭
짱
사귀
영구
Be
빅토리아
김해
개의
머물
쓸
##礬
##繡
##鄙
##푠
pro
아니게
기력
##극
##去
##클릭
##祕
포터
마왕
헀
조항
##顓
비싸다
##鼠
##기구
하이퍼
##됻
있던
##쑷
##Ἰ
증거인멸
##돋
##刃
##拈
##여서
##璿
##덤
##忻
마리오
L
름
##뵼
##꿵
##ð
##间
##늻
##쎖
##늸
##풮
후반
##爾
##꿲
성적
##쳔
##떏
##납
호위
주위
철회
##쵞
##뫶
가로막
##.7
없음
##运
##壘
쭤
##뎂
##땉
##萃
한해
차이점
6·13
##116
숙련
##Ч
##ŧ
##땔
##斎
5.18
##褒
##쯕
꿍
시대의
뗐
툭
같아요
지경
##좆
오디오
기승
로보
궨
소화
후계자
##兩
불참
의회
##放
##밲
양측
##癖
##배치
##ड
##재
##σ
발음
##稚
##●
업적
소극
##톤
비춰
이론
##앗
[unused19]
##대회
##이었으며
##휣
##様
뜸
##晏
노인
##핯
##큷
1.6
##킖
##공무원
##伎
##물리
##忌
##佉
##농
코레일
##둔
연극
장사
##섿
지켜
루이
힘들게
##ђ
##с
##퍻
결합
##浮
##마켓
##遲
##엵
[unused88]
단속
발
강제
##ᄂ
작년
##클럽
##友
##싉
■
##푔
##페어
석탄
##뀂
##逐
T
##藩
고블린
막힌
참배
##대전
##借
싼
##사드
##脣
##자율
##쨀
있거든요
##ᇌ
##노선
##詔
##카메라
##메이트
밝힌
##뻨
##씜
##좇
##쭻
탱킹
##웠다
##둠
전화
##스키
##璆
갖추
닉
##髦
##殊
##⍁
##충북
##18
##Ğ
##彬
노사
##끁
아니지만
##车
##확
##深
##프랑스
패널
OCG
##쩬
##風
##북부
슈트
##雖
땄
깁
##낝
룹
##연
한미
모를
참여연대
아직도
퐈
700
흐른
##☞
운
맹독
##硫
연동
##팖
!)
유희왕
##넕
20~30
베리
어린이날
##벹
##뗣
[unused87]
##탍
있었습니다
##(13
선두
세계일보
##뷕
##견
볏
##AE
##爆
핸
##DP
긴급체포
##귇
일으킨
달빛
##꼏
뒨
표적
28
##欒
##ŵ
##~18
붙잡힌
##嶪
##윘
사라
##琅
##닢
뛰쳐
욧
##킘
##나간다
##š
##are
역설
##“
##.17
##엿
이마트
##웫
##라도
##뇌
##阜
전자
불려
상황실
상당수
신생아
##採
명목
무사히
현대차
같다고
##瓷
##멝
##짋
산타
돌아
##놊
올라가
##온
##듙
##兒
##슁
루마니아
토큰
끔
손실
##삮
##귙
2006
##외교
카운터
##武
##퉰
##빮
슙
##길
스타일
##겳
다녀
##叶
분열
##덷
술집
##偵
##か
했으나
##辯
##叡
##어올리
##🔑
천문학
정의
상위권
##ra
줄이
휴대
합
##좬
맑은
일으킬
##ier
발발
##짇
찰
이영학
수행
##궛
섄
이슬람
##블록
여름철
미쿠
메시
##箚
##컾
##乂
스토리
나아가
##컟
##厄
##뜦
연쇄
네
이튿날
78
정직
##繚
춰
콕
고용부
테이블
##뢏
완전
##센트
##AP
김종
동대문구
##깒
##amp
##DB
##圃
##po
##귔
마늘
남편
##뼘
##鯨
유력
##冷
##最
##마츠
특수학교
박씨
##지요
##槨
감기
##遯
##淵
##鎰
##痰
##쁧
##.31
##米
##아라
##+
##뿜
##.
##갔
##뚱
##al
높고
##傑
##鯤
##NO
지르
##el
##항만공사
##賻
풍속
펴
##ire
##涉
##ction
시험장
##솟
천장
수류탄
##댕
좋겠습니다
##쥐
##억
패턴
이병
##트라
신데렐라
##旽
##誓
##汁
무릎
##ent
##迅
종로구
Do
공공성
##BC
오징어
##븀
추격
##오스
##폊
대입
교단
평소
##ᄾ
##근무
직무
##졥
식품
극장
##뒸
##미디어
##懋
##옕
공부
출연자
완화
##非
##훡
트라우마
##.08
##ვ
##사이트
##뭦
##파의
지검장
함
유출
##페스
길거리
최고
북쪽
##어있
##4
##葵
챘
##하는
감행
##桶
##均
##美
##꺲
##自
##錍
##ַ
##ô
[unused77]
앱
##揮
##햸
차질
##临
##無
대학
##묑
남성의
##마법
##토르
서울대
##뚣
##믶
##쎗
##វ
##潡
107
##嫌
##빧
제로
##보험료
##섰
밀어내
상처
##섎
##ُ
시도
축산
##넑
##제도
좀비
##륃
투어
z
##생산
변동
##̨
서초
견인
##梵
##~6
뉙
몰락
##傷
공연
##lu
##냀
젊은이
##어진
섀
##최
##띁
##해수욕장
##怜
##灡
살포
##럐
팀장
##터미널
순위
매주
기체
##꿋
##鬼
가맹점
시설물
김홍
##떜
넘긴
##대학교
다하겠다
##살인
##嵂
##쟂
추적
##호텔
##77
##臥
##만을
##泗
##등록
##푘
##汶
탈당
##걻
##팁
일자리
훗
질의
##갢
##힎
돛
##회계
익숙한
통상
원주시
##샠
##이었
전제
##狎
체결
##略
##娘
시범
무선
##툑
##Ҭ
##泠
##hu
##조사단
##컦
##큇
##뗦
제주시
##전쟁
압력
##ぼ
아무튼
△
##시민
7.
##柵
##넻
##죸
##庐
##讒
##命
##육아
정문
정
므
##RE
돌아와
##र
납득
##릐
맥
건의
싱가포르
관련
##폏
습
##楷
에르
##깈
##징
##ύ
위하
데이트
에피소드
##푤
##급여
종교
본부
##梅
##붐
##雄
##蔭
##儺
##荐
##龠
스틸
##믞
##解
##決
##전체
##뭛
풀
점프
##딋
드릴
정작
##ye
넒
##막
액션
##쟻
이름
And
##안정
시상
##藁
##栄
[unused75]
##친화
##囉
맞
##迫
가정
##➤
대체
다녀온
##徒
##똬
퀘
끽
분명히
전수조사
##戀
관측
챗
##졤
##뻶
##퀁
##tra
젤
춤추
##솪
웬
##麏
못했고
##싄
##힌
##뺡
델
마술사
##银
판교
##ゅ
##束
강제추행
##pe
반려견
##휀
##贇
기동전사
##थ
##梟
솽
##แ
캘
지옥
즙
불법
##더라
요양
##먼트
목적
솀
쩨
벌어지
스타워즈
##파이트
##磎
아니기
##떍
스피릿
##퉊
##년간
##庁
##鄄
와인
[unused62]
성수
##어내
대강당에서
##퐲
택
##k
##이던
##쫦
하드
##郃
즉
##雷
##텁
꽝
의해
루머
강서구
오디션
출소
물체
##싫
##떼
##껌
##얔
##롚
파편
##蠶
##자마자
일조
87
룡
위력
##ெ
회복
##슡
##300
소음
##娯
##Α
##JP
##밦
쨉
##粹
##맄
밀집
맣
격파
##ོ
##ol
##鶩
##뭀
혹은
##쓐
르
퀸
##듛
##馣
슈퍼
박근혜
덴마크
세계
##솓
문장
새로운
##轟
이상의
벗
고지
##寅
강원랜드
##먹
익산
가입자
##滁
##钜
차려
용량
대응
고령자
##檣
##├
좐
작업
in
풉
##Ŧ
##뙉
##ά
전격
##疇
##챏
##같은
##껼
한계
##諺
모범
##양식
##岐
다양한
##셸
##病
유아
##뉼
##乡
일상
외곽
약속
##발매
급기야
경찰
##壯
##與
##긷
##ὡ
##淖
##烘
##双
##빈
곡
##턶
##楯
합격
우려
##보병
##냣
##莘
수사단
##끾
##ite
##쫯
##城
사항
##쨘
##이었던
장악
##쿰
##복
##골목
##먼
##횕
##건강증진
##≥
낮
##닺
##索
##痴
떠오르
안동
##뤢
히틀러
내린
숨졌
##방향
##鮎
있었고
##하자
##KT
##ㄚ
별관
##남동
##붹
웤
##汲
##W
##떤
빅데이터
##곺
##뷈
욕심
의해서
##놧
##좝
알려졌
##쵱
##レ
취
학문
이르
##뵋
##햠
모은
진주
##뽿
안전하게
[unused31]
##홈
##뮢
여인
급
##yn
##릢
스태프
뵐
##검사
##리조트
상납
##받
결
##愼
곈
가상화폐
##낓
##兪
##南
##恥
##(28
독서
이른바
##겴
##듈
##阪
여
녀석
##顯
츄
##퀌
##착
##챡
##갛
대우
##銃
##ö
역시
붐
생
##꿱
##지구
버섯
꾸준히
##츻
##斉
##駁
시급
신부
##조원
##파운드
##아야
##芮
칼
##堵
겡
MBN
기절
##귀
##윻
##줥
##성장
##ᄑ
경상남도
주입
##붻
##뛳
##EL
##鴦
파티원
륑
학부
둘러
세운
초상화
##ї
동의
##乖
매우
##駱
##즈카
여자아이
##채
콜
##裡
##开
번호
##퍒
대기시간
붙잡혀
많지만
4
지키
겹쳐
##蕃
##燄
[unused82]
아우
##룁
##妟
##컛
##就
길어
강풍
##실태
##훣
SA
보스
##컿
##纲
전동차
##麥
##ze
기밀
용인
끅
##만달러
위협
적응
##살
##쩍
##혤
나츠
손길
##亂
##19
##紛
그곳
##0%
지났
##뛟
##컘
##슛
가사
##박사
타자
##연금
##쿋
##쑕
##医
일원
숟
##祁
##볩
저질러
##振
##켎
오카
##앇
##譙
안습한
그런데
폐기물
전혀
정유
##柏
나온다
케이스
경제
감시
##튻
##보호
##끅
관리
##棺
##離
##껻
?'
주부
##짝
##적인
##튎
싫
##얫
##텱
##분이
운명
증오
궐
##寶
Copyright
팀원
LTE
##땪
##딏
어려웠다
뭘
##으로도
손꼽
철새
##휎
##체육대회
##扠
##ニ
상의
##스칼
##스러운
##뮔
##교체
부실
싸웠
##AC
##甲
##隄
한반도
감동
홑
##가스
##쮯
##시다
조사
[unused72]
##K
넨
솥
만드
대사
##칹
회원
힘들
압수수색
##올림픽
간호사
##턤
##ラ
##瓮
편곡
금융기관
광화문
##얻
소속
##야
##미나
높아지
##튐
##櫓
OECD
안전관리
##un
##삻
미스터
어깨
체납
##대학생
##硯
신임
잔
##鈀
##로는
##적이지
항공기
##틀
##눼
차선
##뺅
##윕
##단과
##薿
탠
수도
##ɚ
##封
묻혀
사망사고
소주
관문
쳔
띌
##酸
대화
##쏢
##칸
소셜
##병
##虛
뮤직
암시
발길
##銖
뵨
1986
모친상
##(2009
오렌지
##┃
밍
##ᅬ
영입
온몸
##妃
낟
탘
챤
##代
##놌
##繆
##렡
##ў
##늵
답변
SP
실책
바꿨
게다가
반짝
##봐
남용
다수
성씨
##뀱
김명수
##▧
##뻯
인파
##沧
##煥
올렸
##패럴림픽
따뜻한
##맒
오른손
##ś
##釣
##ʾ
도청
##연구
##Ъ
##짖
##으
##傾
##菩
달간
[unused32]
##侧
##器
##뮦
##간부
##뻪
샤
티어
슷
어울리
##刪
쯤
훵
##서비스
일본대사관
힘입
##크가
장애
##크리
결승전
아이스크림
##꺴
앨리스
##祈
##昍
개수
##TL
##쏱
##也
##沒
##뭻
##儀
##뮣
##큣
##ș
굿
자수
##喝
##弧
무리
착각
##瀚
##燈
##漬
##顶
륀
##慘
##귆
##깮
##宋
##鷺
안전성
조종사
귤
##紒
이었다
바르셀로나
고등학생
##욀
자동
##뙀
##토록
잊어
##縣
##卞
##謚
보수단체
크레인
쭌
##됮
순천
##인간
굶
##洋
##빳
찢
##澈
##밶
생일
##넽
##눈
##笙
##툔
##왯
담당자
##마다
##었음에도
이럴
##픝
적다
##感
##만으로도
##타점
##ope
돗
한국도로공사
##낭
##琥
떨어진
##둑
홰
전사
##텝
##쐐
퇀
##풂
##冪
##MA
무사
남북정상회담
##개선
##뮵
##ᅳ
it
##摯
##頔
소요
기믹
##ᆱ
##즺
##促
##시켜야
##ᄼ
먼
##힆
특유
##"...
겸임
해리
뛰
륜
##깯
##諝
늠
지하철역
##峪
뇩
##가미
뼉
##꾯
가게
깨
도서
쇼핑몰
##酷
##만큼
##길이
정예
##으려고
##鏐
회색
이송
##현실
##Б
##탌
해수욕장
##미세먼지
해당
##拂
##熒
제
치명타
##ண
##갊
##遮
준
벌이
위반
서부
##둥이
외계인
희생자
법무법인
119
강좌
응원
청약
##숄
##⁄
숙청
##젤리
상관
점차
##붯
기름
##蘚
침략
##カ
껍질
뜻
AP
##홗
부적절
쇳
##술사
##λ
오르
##姶
가르쳐
릉
출전
펼쳐진다
##∼9
##合
탉
##회원
##컫
##반
##한다는
##냛
##샞
##지난해
##았기
##憫
##AD
홍
##깫
경찰청
##뢇
##라고
매칭
##強
##놰
##き
##쟈
##蔣
대표의
##路
##엪
##형태
##숔
##昻
##雕
지침
##폴리스
와이어
##亮
간부
##덁
##겨
##종
##猪
반응
##깬
##CK
늘어난다
공동체
##RI
##젅
##溟
##덦
##ble
##터널
명
일산
메이
차례
강북구
이스라엘
비트
메이지
##ʼ
##뻠
##pt
물류
##EE
##79
근접
##枰
##ᅦ
##상황실
##諫
월급
##鬚
상대식
##흫
간첩
##川
늘어난
##棄
파주시
신학
없어서
묫
##mg
밀린
##鰒
대여
##炅
메시지
##풠
##페르
##拔
2.
##릔
##검색
##燎
##보상
스위치
공청회
##挑
##װ
입히
홈런
선제
##갚
불로
##아
##퉟
곤란
철저히
##횒
오브
##토론
To
창당
연휴
패밀리
##old
##갨
로리
이른다
기소
스텟
##习
##퉏
뭔
화학
챙겨
##냤
##테크
##겠다
이끈
##독
##忠
##눨
중화인민공화국
##오카
##е
##公
##대통령
있었을
싶지
엘시티
##남북
입주민
##舫
##팩트
섹시
##뱹
##밀리
##芬
##飄
독감
##쥾
##턧
##뱤
의욕
탐험
##早
뒤늦게
소방
##슘
##사업소
##樁
##慄
충무
##()
##柳
##岦
붸
휴업
##报
엽
약물
느끼
(1
쏟아져
##่
국민일보
바랍니다
모니터링
농협중앙회
##밉
##핧
##eb
##쪽
고무
일
##영이
인격
5000
##†
멎
오존
공중
##충
이행
헝
##띡
##왬
##氾
제천시
니시
##똘
##구리
왕실
##윗
##사태
##重
##劣
내주
보증금
됩
개소
수상자
##曦
##궐
최대의
최상위
##3%
필살기
거의
농담
##楼
##려던
##러스
##튠
기존
##삸
##箕
발급
집계
종족
닫
핵
야망
살균제
##讞
코트
##塑
##I
소꿉친구
##펒
꽤
종영
##潤
##蓝
##볢
##擒
방문
힘들다
전재
##틎
##빕
##ム
##畵
랭크
##昝
##식품
슨
##割
##탳
초기
##쵻
학습
대금
##긥
탭
##橈
##슬러
##쉉
##폍
##顎
##ᅅ
기점
앓
##ment
##들보다
낙찰
##炎
탄약
##퉼
##퉜
##鉢
##儉
오케스트라
##霏
##六
보장
##플레
경성
선진
PD
##圍
##츓
##노동조합
텟
##叱
정치자금
##登
##퍄
##掖
규정
다섯
득표율
미혼
##비행
##웁
제작자
##흴
##곃
완
##서는
##騫
일삼
얄
##꺋
##벨트
영장
웍
식용
##믠
##꼦
##했습니다
실제
김경수
투수
##첻
관계자
당뇨병
##虐
짭
##晃
철권
##빍
전과
많지
켰
##낋
대개
##ấ
벗겨
##um
유행
##지원단
##븅
##삥
밎
##붉
##예비
때리
골프장
##寸
##튨
##기준
##뽫
##脾
벨트
##台
좀더
독일
##PO
##❸
크롬
연장
벽
위자료
경매
##공업
##應
##ə
짐작
##澍
삭감
##욯
##涌
##쟆
##개국
염두
헛
##¿
##쐇
##쑮
문법
##劭
##기
##鰈
##都
##
3.0
편지
뒴
##샧
##豎
##尽
스텔스
놉
##鐵
##구장
어마어마한
고등
헐
엘리베이터
##鷗
신사
##27
##들처럼
막강
보조
방송국
눈앞
계절
##잍
단풍
지속
km
##무사
##셔
액체
##구의
##61
##丘
요코하마
물질
덞
##상황
꾐
수가
집결
##쟅
약칭
##斐
육지
##더스
##교육지원청
##거래소
##毁
보건의료
##.15
농작물
큇
##밳
정확히
##연구회
##net
치매
##○
##꺳
캐릭터
##冠
##봵
시험
##봋
##쐈
간담회
##탪
목숨
##撥
##햚
##넁
게시물
##层
##閔
##Ú
임대
##剿
##맘
##詳
##ar
기본계획
##祬
타
##심사
##...‘
신형
##지않
##c
[unused98]
##뾵
삭제
##灤
있음에도
빠른
##릒
59
%
##잕
##oh
이주
바뀔
##는다
자율
##스킬
##뙵
##코
##鳶
##청사
77
##쭇
^
##課
쉈
교환
컵
##창원
##́
[unused29]
##춝
##공작
싶은
##부산
안전
▷
왼쪽
d
##공학
문의
##拝
##뜀
보건복지부
누리과정
##པ
##없이
##졈
남양주
g
간주
##읩
##穫
까지
##고자
상고
됸
중징계
##스럽게
##뫋
유저
##菑
##昱
##満
##册
몇번
##럱
##󰡕
월요일
소변
양양
##샃
##뙭
##죾
이어졌
진출
스파이
귈
퇼
##주자
##팊
##負
생후
##尹
부정적
##맯
엿
##뉃
##롯
##町
지금
##스틴
##薯
인천국제공항
##틀리
##즥
듯한
##면적
상습
강아지
##ger
갱
##~4
까다롭
##g
지목
##렙
##급히
##인사
##籌
##戮
¾
##6
문제점
챔피언스리그
##躡
##곡
##в
과일
##ward
##8
##옜
대미지
##旬
##衡
##컈
밞
##校
##ტ
##▶
##~8
탯
##沿
든
##er
&
##親
##파이터
당사자
##엽
##튩
퇴치
##亥
박영수
##쇬
아바
##대책위
등
부위
입주
##회복
##운전자
##뮭
Part
차이
##父
##쨥
흥행
##유원지
켠
건가요
알코올
##솒
걱
검진
##펏
물러나
##와의
웽
##소재
##깿
실존
배틀
##ut
거제
##瑎
##리어
##棉
언론
울산시
##퉍
##瘦
##詁
##핃
##乐
##킍
##ax
##茨
##경전철
##実
##(58)
확대
뱅가드
##꼃
사찰
##(43)
김승
##어민주당
##대책위원회
서울메트로
메카닉
호랑이
셔틀
##스가
##둉
##듖
##힙
##IB
[unused27]
브로커
하얀
대충
##쮩
##玩
##돹
##플
올
##겠냐
##드레
##욗
고령화
##訾
맹활약
테오
##셨어요
##수단
헌터
##사무
찹
##BB
##12
##땮
##깍
안개
사랑
동일
##嫂
진주시
##옅
##씣
비판
##─
##믜
##싥
묶
##肌
##勤
##ペ
구청장
##햿
##顏
짢
씻
ID
##끑
##泉
##窩
##ank
대자보
##성향
##搬
낯
수원지법
넘어선
##쟁
유네스코
해골
##행위
##댸
스노우
##述
##프가
넘겼
##氏
항성
참여자
##뢍
Man
##움
행정자치부
##거나
출간
##드가
답답
##꿸
태블릿
##駐
##陂
이길
##act
멍
우산
비해서
##ぞ
##습
##襪
##ग
생리
##했으나
##뉒
##炳
넘어갈
##횔
행적
뮴
고려대
##스팅
##壟
##좞
##엺
##좸
흣
칼라
##探
Cha
##∕
##di
[unused70]
##묻
특화
##滸
너무나
##瀯
##2.5%
서명
##侶
온도
##旅
##딲
나타난
##군사
재난
##
##탣
포르
##인지
##쐰
##鴻
부여
##92
##昕
##뇎
어둠
##퍿
문항
##벨
##서야
핵무기
##핾
정상
껸
SF
##이냐
##튜
겁
뒬
##벇
##〃
10%
##쑜
남자
##널
현재
##撃
축제
##歃
##디스크
##칻
##킇
##렢
##ヴ
묄
##포드
사투리
##縮
맥주
##명과
체중
후쿠오카
한편
##나쁨
##re
##긧
##添
##뎉
스포츠
뱡
##危
##恬
##멑
##천억원
##정신
기온
##숴
##썐
틀린
이끌
연인
##똠
##아빠
넉
빌
고양시
Team
막아내
아야
##뻙
##멬
긷
##쑤
##긎
##퐆
고발
##빡
[unused102]
아카
##O
진도
절단
##캐릭터
##if
설
특수능력
카메라
얌
트레이너
##치와
##국제공항
엮
많고
##笨
안티
##泥
##疎
##E
##浣
샵
옥시
##공격력
##dia
찟
##쪪
유산
##뽉
머물렀
첩보
들어와
##얹
##ხ
조
치킨
벚
옹
창작
##推
그린
띄우
주사위
이상인
##쿙
정보공개
트리
##.09
##ȟ
##뿧
신속
##珞
##յ
##퉠
국민청원
##̟
##じ
##까지도
##춳
##구속기소
##存
유난히
적자
tr
##逆
##쾡
##욅
인사말
정복
##맪
명예훼손
##工
##쭃
##보수
프랑스
##頒
가졌
##끝
##만원
욕구
Ch
##톋
##컷
##것
##琮
##붸
동반
##旃
부하
##휁
##真
##불
##시위
##트리
##ov
##챙
##홒
##虢
묘지
##雞
오랜만
지켜야
##殉
##آ
##′
##慧
모른
##雪
촤
##ˈ
##츝
##돠
배출가스
##대기
쌓여
##상자
##秉
##鰥
약한
##悅
기종
##劳
껄
휘두른
##槎
폭력
##풐
양산
##广
덧붙였
##재단
좋겠다
소동
만들어진
캠
선택지
욕망
낸
##떔
##햦
부산진구
건설사
얻어맞
[PAD]
임대료
##툥
학계
##릖
##磐
##쏨
##쟯
인공
##중공업
##4000
##휩
##糧
##삷
양의
햘
##읒
##ive
##烟
황제
수수께끼
반대편
케
주목
##;
##휭
##麵
기회
##끺
##쑹
캡슐
##‪
##찔
##웩
##졔
##告
작
지금의
캠퍼스
##亘
걸친
청산
목사
독특한
천국
창출
##泂
1991
큄
##凉
##녹
빽
##퉨
금강산
##딘
##岬
계신
양쪽
셋째
##구로
##엋
아줌마
계좌
##벜
##리스크
1~2
##조건
##껓
없었던
야외
뢰
첫
##꽫
홀로
##븜
교재
##章
##수입
멀티
##푳
뢴
##올
알려진
##top
땡
##펁
거친
##뻘
##꽂
##브리
##킴
##毒
되돌려
대통령
터
오른다
##체제
##虹
다소
루나
##ӷ
모티브
##뺵
##ᅵ
내놨
부사관
##醴
##낚
##彦
##珊
##꺅
##岳
놋
상품
##弐
##돤
##첷
##자재
##연대
1971
참전
누군가
재앙
##뜡
개막전
간단히
##ᅫ
##낆
성직자
유승민
뛰어들
##놶
##칺
##ド
페르시아
차트
꼬마
##Έ
방화
알린
판정
##タ
##들한테
##瑱
##더라면
노원구
##▒
##䅅
수출
때로는
##板
##ま
문무일
한참
##|
좀
##et
##콘텐츠
도배
##売
##꿺
##쮠
의원
편하다
##뗼
어떠한
##립
##蠑
be
##첱
##줒
##wi
[unused28]
명품
의료기기
##먈
##No
##护
123
추진
##씕
하천
##激
##耀
##꼆
취재진
병실
진압
안건
##먀
##珖
의약품
앞둔
##砕
궃
##床
##舞
펀
##趺
스페셜
##킰
용병
RPG
##ta
##铁
##綻
##إ
##縛
##追
##횀
표명
경위
우라
##튮
##鞏
김무성
어뢰
##튊
##団
##사관학교
녹
##冬
##탈
혼잡
##敗
##滎
금메달
##경기
##된다는
##宙
퓨
##석
처형
한정
채워
경영진
##보증
롯데그룹
레이블
##팞
##삡
한국경제
과장
카카오
##펞
끼워
##뻰
##즿
##깓
##사례
##민의
##랬
##햏
어려웠
캬
##운수
##효
##특정범죄
두려워
바이러스
##혐오
배리어
조문
##누리
출입문
넘어갔
코스튬
##긳
김현
김모씨
가해자
##읟
##版
##뾊
그렇지만
드론
##혐의
##닏
##지사
##蓍
인삼
##찧
광산구
왼
단지
신동
##라스
##ק
##걱
##로우
##잝
설문조사
하루카
추세
##천원
##甸
##랃
##쀛
##炘
TV
딛
94
시원한
##항공
##疊
##겠지만
휘둘러
약국
##홑
던지
##껑
방한
##홈쇼핑
적절한
up
##싅
##맜
##盱
돔
무겁다
##剋
##(50)
##29
##경기도
##츈
보좌관
##썪
##徹
삶
서울교통공사
합계
##劦
##복지
##선생
##せ
행성
얼어붙
##ว
전임
##었기
부적
이놈
희대의
##神
##w
##軸
왐
##鞫
##닛
##핪
##뼜
정성
##茂
천
라운드
##ّ
##ㄍ
##퉝
##優
한겨레
방안
무척
##2014
##형제
##壇
인명
##쩢
##έ
재배
은밀
연습생
판례
##쒎
쩍
##건의
##豆
##嶠
웹툰
##듦
##부키
튕
##宵
##걷
##라이트
##쬗
##통계
##塘
##맬
##캌
맥스
a
##驛
문헌
면
##醐
##모리
송금
##随
he
정석
##승환
유력한
제조업
친박
##포르
##ᆲ
한다는
이념
##쟎
##东
##학부
##뭅
출시
계수
Time
##Ӕ
주포
##주세요
##営
,
캡틴
##셰
수영장
대구광역시
같습니다
이승만
놀
##꾧
언
##蔔
이중
##스퀘어
##
퇴
소유주
##瑀
##러
스트라이커
##뎆
빚
##입
턱
##’...
필리핀
옥
거래
남지
##렷
##왠
##ג
사마
##된다고
##초교
##驚
##넿
##祉
##段
##맞이
농사
##쮦
본편
##ness
말라
##淪
##挻
##었던
Le
훙
##딷
켓
##햇
##慎
##程
전날
##坮
##彫
##퍩
90
##코프
##矗
##꺈
국회
아직까지
껐
에드
씼
##어지
##싎
성벽
넓어
##腦
내뱉
##톨
마산
##上
뜰
쨌
30%
##현장
##붂
강행
운송
of
##뭏
펑
컹
##뒫
구
##툹
튜
과태료
야생동물
토요일
##주기
##햤
##°
발대식
##400
##髻
##뤻
##광주
상담
FC
##삹
##앀
높
##튋
##펣
퍈
##펛
웸
##넏
##ꡋ
##咲
##02
##罷
##햨
첫차
##작업
##웓
##
◎
경유차
##ç
##碓
스님
쾰
##샑
실버
기습
극히
##閤
지켜주
오가
주
##脆
##誾
##惜
##학교
채널
##췯
##녤
##조각
사막
대로
##구급대
##ф
##쏚
##ᄁ
수영
올라갈
##ᄅ
해제
##독립
차량의
계급
달
구경
싸
단절
춥
##敾
##ک
##닄
##顴
내밀
##玄
##과학
게시판
찾아오
##힣
##믙
커맨드
##120
웅
##텉
코끼리
##가운데
##假
손녀
수염
##蘇
##찼
[unused23]
##뛸
교실
##핰
02-398-4409
##59
표시
##連
##뽈
##禊
##짢
하나님
그래픽
위의
파란
##逾
전설의
무능
돠
수비
##휄
##납니다
##뢨
위상
µ
##休
##만이
연구팀
##에선
1930
최소
쑥
가리킨다
##쓩
힘들고
검거
##ү
[unused76]
##多
인테리어
##꿈
##륏
##뚤
##놘
##戛
##彙
##埁
##쑳
##관련
구리
엑
초콜릿
홈페이지
##岔
##닳
##았다고
착륙
롼
청계천
##脂
##鸿
##线
앎
부산경찰청
김장
##이라는
여배우
##쉎
##◦
아니
##ུ
반도체
충격
라이프
주둔
##쵹
된
##떖
##畫
##ᅔ
갱신
##덀
피아노
##許
얀
##틔
##峡
마이클
백제
##暦
##지자체
##?
##대구
##탵
##슬리
마음껏
Sp
##絵
##쉐
##홣
##慨
##年
셧
##겮
##라든지
올라오
##퇴
국가대표
##퐾
##ྗ
느낄
##宣
전화번호
세력
상징
##묘
##스톤
##캼
혼란
라이벌
##ე
##87
기사단
##저널
##匱
##랆
기타
어째서
##음료
잇달
합쳐
Str
나중
##신호
넬
##종이
좌석
##問
심폐소생술
꿰
##캉
##燦
##맡
##솜
샨
남부
##괶
##der
##ㄓ
##HP
##퐀
엄밀히
있는
##륾
있을지
##(30)
요건
##埃
레온
##兆
##뻡
단점
##피아
##밞
##긦
##닥
왑
##ᐧ
##33
##쭵
##ャ
##뷒
최우선
##듭
##수석
##ᅎ
##배
성접대
##앑
##裸
120
학위
아스
##絳
##롰
##랕
##여건
##퉭
##뉑
그렇기
##ּ
##실점
왔
방어력
보육교사
##붺
##恋
##84
대학수학능력시험
센트럴
대학병원
##Û
##蹠
##륅
녜
##椒
##饉
부친상
썽
##観
명분
##밝
##嬌
위함
순식간
바라본
##뼢
##ud
##寇
##勑
아카데미
##쑵
##ᅐ
많게
##하지
인천시
##肢
##ʈ
##잌
##뽬
선언
조지아
서쪽
##중인
인성
포트
주먹
##₩
##뤤
##삇
##낼
##
##흼
웠
##ix
[unused61]
##ヨ
##ik
##幹
##≒
##콦
##헼
Copyrights
숨기
퉤
##습니까
##켤
##谢
딸
##삦
밤사이
##离
##ΐ
##댄
##뿕
##PD
도망가
뱉
##등
##兗
##엀
##국립공원
##教
##횎
##츠키
##戟
촬영
##듔
##騅
선착순
아리아
##뒯
##策
문
성북구
##엠
##경주
##丸
##슊
##擊
성별
폭격
바이오
##牙
불허
녘
저주
감사
##ᅴ
남대문
줌
성격
부르
##曰
##ט
##세트
쾍
2008
##ys
##១
##뻩
영장심사
스마일
균
##처벌
##맏
##끽
##마저도
보건소
##슿
##띭
보고서
마인드
##그래픽
##沈
무작위
##鹽
##아래
나의
##뾏
뚜
##演
##구청
##포럼
사업장
##織
그치
분대
원활
켬
##埔
##윞
GSL
강하게
들여
연도
##월
##늃
전투
윤
양심
2017
파리
유사한
웨
##འ
##艾
명소
시드
##app
##홀
##멕
요청
##≤
##한다면
죽일
##ן
##愧
##(12
##逑
최종보스
##威
뭣
##합창단
##),
##탧
##귺
##쓚
##昇
손상
돌고래
좁아
##봉사단
##첶
##그림
녀
##瘀
##禽
##ᅡ
##이므로
##醓
전시회
##뉏
각오
스트레스
이전의
달성
망치
카타
##ờ
익명
##묏
##禹
재미있
##鉛
##孺
기독교
##鬐
NH
즘
##못
겄
선관위
이어갈
##사상
특조위
불평등
##영화제
##대에
물대포
##산역
옆
##쟜
Per
##视
로드
폴란드
##並
뭄
##옖
##총장
스즈키
##헙
##《
추모
##住
##同
##대표
##뜽
##동음이의어
##륈
##가정
##발
##짯
56
핑계
지나치게
사소한
전역
##П
##묘지
##하기
달러
난다
홈플러스
크리
##瑠
##ICT
##둇
##룄
##촟
##澐
바꾸
##츥
원문
[unused10]
햣
##로프
##땥
##뛋
##공유
Na
##沸
64
##欄
##톖
##굡
##ᄊ
##佾
본
##鶯
##餅
사정거리
##(2008
##껶
##뼬
상세
잠겨
##햑
##다
레벨
##파트
김수
메가
3000
##열차
##카라
##溜
##稠
##귑
도망
##堡
##는게
##樽
마녀
##믿
##킋
큰
##ity
귁
★
vs
##源
##璞
##闌
##托
##부장
페이
현대
롸
신장
##댈
접종
##寂
##줘서
빠르
##정화
늉
##합의
##留
##뜳
환승
자사고
26
##含
##삺
##카가
##盥
지도자
[unused38]
##땫
##긕
##쫌
그만두
##音
##뺋
대국민
##応
##츄
##듳
서울중앙지방법원
##(56)
미카
민간인
리처드
##시네마
##觚
여수
##
관해
기다려
##lor
##하라
##뉮
싶어서
공헌
사망자
##범위
취득
UB
##兜
##건설
스킨
##눾
우익
##ぎ
단식
##兵
##떗
##뀻
강력한
산학협력
(2015
##暎
덴노
##➊
##緩
##电
##개정
모델
쌰
##헝
##甄
##축
스텝
##판의
책상
##샘
##麗
##섄
##댠
##垢
꽜
남한
##릧
##曖
소송
부유
##뿚
##뮨
##욌
##마리가
##樫
}
##僻
사물
##밌
커졌다
알레
##対
##칿
##뙼
##CS
트
비교
##霜
엑스
모임
##븽
##柔
투
##꺂
##뺎
##뭔
레알
##슐
##.5
##절
##啓
##이었지만
고문
##성은
EX
##섳
비주얼
이례
##으며
혈
##옍
##煩
##BA
##齡
##悰
##뤧
시집
분쇄
##灼
##덇
##털
Car
부산항
무슬림
알려주
##邾
국정원장
렵
띔
사전차단
##빌딩
##契
##杵
##븷
##裁
##팓
##퍬
밤
##자전거
##꺷
빌드
##易
##밬
##⇒
넘겨주
##oon
##쥿
셰
##寤
모집
리치
##벆
##觴
##거의
종점
잠수함
##煬
상하
##껴
방송
허나
##뻴
폭로
고충
조류
##메이
##쩕
##役
광복절
계란
##쬪
##딜
5~6
이
베이스
##ํ
맡긴
##전용
##ed
공산
##쿚
##크라
##퀄
불이익
산다
##쭎
장면
##荏
예외
##徂
합격자
몰랐
##겟
개성공단
##お
##ọ
식의
쌉
##횖
##왲
없는데
##鑲
##輿
철
##드라마
땋
##翊
##됩니다
넘겨졌
##20
##升
##쒕
넣
비타민
퓐
##딥
로스쿨
쳐다보
올드
##.14
##사건
##3.3%
필요
##奎
##歇
2005
수컷
##뀈
##撝
##縄
유형
##叉
활동
여긴
##律
##빰
##ŭ
정의당
##ذ
실전
##번의
수상작
##뗧
키워드
랍
모은다
저지
가득
미수
휴
쿨타임
##지검
씨
##뗐
로스
##궈
재개발
##쾎
윈도우
러시아
해결책
신의
##止
##墩
##랒
##호르몬
##読
지진
##幽
흄
SM
##른다
이기
농가
물의
상업
##緊
##툶
##劇
##煜
##귶
##랊
##乃
##떞
공범
특권
##ὤ
##Ο
속초
##춋
##소통
##dy
서서히
있으나
##우가
##Ӏ
들리
##烏
##奉
##유키
당연
조속히
##콚
만나
포탄
##뗀
##럩
단일
뽕
재판장
##症
영문
##축구
뒷받침
오스트레일리아
##댤
##룥
나올
##կ
##ah
##ņ
야스
롯데백화점
교통사고
##أ
##餉
##ist
##諭
##э
간단하게
##ü
##梨
복
정체
##括
##蠟
##뇩
##해졌
##꾑
##이지
##해버렸
##ba
고조
팔려
##4%
##符
##濾
검찰청
##聲
##뮟
결말
##活
스피어
##歎
볼넷
착수
##昊
부활
##끮
##Ḥ
##숸
러
##뛫
##會
##낌
##袍
학원
태도
##┐
통계청
소나무
##실장
실망
##취업
있다고
이뤄지
##ぷ
##릟
##냆
윔
##깼
퍼레이드
##艇
라이브
##拯
기동
##珪
##뜱
##핡
프로젝트
²
##로이드
##~9
바닷물
##뼅
첫날
따라잡
김포
후회
##았지만
##단의
싶으면
쫓겨
잗
##학급
##求
##뗬
##먠
뗀
일화
##켯
##侯
##暉
##믽
##쓘
##쫪
##봬
다이아몬드
##떄
##홤
백업
파티
성질
##修
탱커
##挐
##됊
##襟
##쬩
에미
뵘
비공식
기자회견
##巒
##트론
맸
##陣
##省
##津
##츾
##툉
##粉
변함
많이
뷔
세종병원
혹시
유튜버
##立
##즐
##罕
##▮
대장
추출
##्
선수
압축
##蜘
##위치
##澶
##보트
##타르
출산율
##쓺
글씨
##튺
##욱
쌈
##ན
악성
##귁
##沖
패터슨
##場
##泣
기동력
##巹
뤠
##툺
##朴
##읻
고령
##부담
##臏
구울
##戶
##뗉
##點
##둥
##컝
##팩
##뾔
##범행
##朗
넴
##썌
##픙
##개의
##跋
요
##휡
됴
인민
본다
치유
조희연
##千
##룷
함께
##뀳
깽
##찟
성주
선로
##ε
##目
무기
##버닝썬
##뷏
##폼
##하드
##潰
##만명
##桂
##더라고요
난리
##늠
##마냥
##햳
샬
##으므로
##燮
37
CS
파생
##줓
##쵳
##禯
##藕
발굴
다운로드
##뻫
목표
##튡
잇
뇌
##늼
##遞
##퍼스
##톼
##릘
##쨤
훠
쉿
##秀
가수
##좋은
신청자
##뇏
##센
고발장
빡
[unused92]
##쉴
발동
공지
캐시
##醬
##臺
가르치
직위
##띳
##틹
##聘
##斜
즐기
##쫍
대선
##꺨
##耭
너무나도
##ヶ
##ẋ
##ling
##悶
##톛
##젹
##쟳
한몫
오메가
무상급식
##릪
똑같이
지름
행복
##의약품안전처
내성
##롌
##甑
“
##ც
섹
자처
##대리
##뉀
##荀
장관
##퓨
공성
##뗻
강릉시
##狗
태종
##뿙
슬라이드
##크
##桐
스파이더맨
충성
##粮
##5.0
붉은색
페이지
##Χ
##廬
##늱
변호인
말
기술력
##민주당
총재
미츠
##어로
##卑
##잸
어지간한
##倫
##뻸
##햡
##滌
##서도
디즈니
늘려
##々
##ory
##慵
##깪
##燕
90%
##材
##竟
밋
모두발언
출판
상류
##明
##끵
##냭
##꺹
설명회
##회사
교과서
##쮤
##척
##썘
섬유
##쉘
카미
##켭
##뽰
정면
##벰
##薆
##안
걸로
##업계
##淑
##ı
표지
평창동
##狐
##듉
적립
브라질
##릴
지적도
대사관
12
##쓷
다문화
##濬
##P
##슾
상공
##鋭
복지
##뙤
시골
부장
시즈
굵은
##체가
