<unk>	0
<s>	0
</s>	0
▁.	-3.42082
의	-4.30986
을	-4.43344
에	-4.55775
이	-4.57382
▁	-4.6585
는	-4.68831
,	-4.79178
가	-4.80115
를	-4.81499
은	-5.04927
)	-5.12516
도	-5.17879
로	-5.2843
고	-5.32979
일	-5.37025
에서	-5.41666
(	-5.44785
과	-5.45374
한	-5.53624
▁있다	-5.55577
으로	-5.59747
년	-5.61766
▁이	-5.63301
▁수	-5.67137
인	-5.6797
와	-5.73003
▁1	-5.86986
▁2	-6.01464
지	-6.05662
하는	-6.08598
기	-6.089
월	-6.08984
다	-6.10113
"	-6.1703
만	-6.18636
'	-6.19131
▁3	-6.20774
▁"	-6.21134
해	-6.2209
▁'	-6.22095
▁한	-6.22266
하고	-6.22938
▁등	-6.24791
시	-6.30143
·	-6.32161
할	-6.39955
▁있는	-6.40483
▁전	-6.42968
대	-6.43323
▁그	-6.45147
.	-6.46142
서	-6.46738
자	-6.46936
나	-6.50625
▁4	-6.52911
했다	-6.55349
이다	-6.57399
에게	-6.62008
▁5	-6.62087
며	-6.63674
▁(	-6.63928
▁“	-6.64743
”	-6.66624
▁‘	-6.68061
▁중	-6.71746
’	-6.72386
면	-6.79049
사	-6.79633
수	-6.80113
▁10	-6.81058
▁한다	-6.82789
▁것으로	-6.83637
명	-6.85741
리	-6.88435
게	-6.88809
▁6	-6.89393
된	-6.90913
▁서울	-6.92329
장	-6.94812
성	-6.95053
까지	-6.95071
한다	-6.95124
동	-6.963
화	-7.00503
라	-7.00971
▁제	-7.00999
어	-7.01824
진	-7.02868
스	-7.02908
상	-7.02986
▁7	-7.03726
▁것	-7.03901
주	-7.04208
부	-7.04727
개	-7.06602
들이	-7.07149
▁대한	-7.07355
▁안	-7.07386
▁A	-7.08952
▁위해	-7.08988
▁때문에	-7.09057
하게	-7.09994
▁8	-7.10017
▁더	-7.10063
차	-7.14795
▁때	-7.14905
회	-7.16896
적	-7.17454
제	-7.18288
야	-7.18602
▁후	-7.19855
원	-7.19896
▁9	-7.20198
▁및	-7.20476
선	-7.22733
전	-7.25238
▁시	-7.2533
미	-7.27561
▁다른	-7.28302
▁함께	-7.28602
정	-7.28776
2	-7.29642
에서는	-7.30737
비	-7.30894
세	-7.31248
▁했다	-7.31549
▁김	-7.32256
우	-7.32372
소	-7.34695
▁이후	-7.34846
▁같은	-7.351
▁?	-7.35372
아	-7.35506
에는	-7.35588
이나	-7.35746
▁오	-7.36235
천	-7.37293
호	-7.37449
하지	-7.37701
산	-7.37733
▁밝혔다	-7.38675
1	-7.39209
▁하는	-7.39366
▁12	-7.39464
하기	-7.4004
▁내	-7.40233
구	-7.40931
▁하지만	-7.4154
신	-7.41781
▁오후	-7.41999
▁할	-7.42194
▁지난	-7.4281
▁다	-7.43199
▁!	-7.43216
치	-7.43292
▁경우	-7.43847
▁11	-7.44533
▁된다	-7.44619
▁신	-7.45089
▁두	-7.45233
▁정	-7.45352
라고	-7.45394
조	-7.45482
▁고	-7.45604
오	-7.45644
▁가	-7.45727
여	-7.46296
▁20	-7.46413
용	-7.46698
이라고	-7.49226
마	-7.49687
▁유	-7.50194
라는	-7.50596
▁사	-7.51176
분	-7.51496
하여	-7.52362
위	-7.5261
▁하고	-7.52675
▁또	-7.5273
▁통해	-7.53867
중	-7.54525
▁오전	-7.54642
니	-7.5477
면서	-7.54949
...	-7.5497
드	-7.55009
형	-7.55047
트	-7.55381
군	-7.56069
▁뒤	-7.56155
적인	-7.56343
▁대	-7.56343
보	-7.56996
▁것이	-7.57144
식	-7.58143
타	-7.58388
▁박	-7.58557
던	-7.59824
▁등을	-7.60162
▁원	-7.60548
들	-7.60767
▁그리고	-7.60993
▁주	-7.61266
요	-7.61678
▁없다	-7.6186
▁비	-7.62156
▁가장	-7.62347
▁말했다	-7.62502
당	-7.63129
▁한국	-7.63165
모	-7.64048
하며	-7.64419
노	-7.65427
▁일	-7.65468
영	-7.65792
경	-7.66057
▁30	-7.6615
하	-7.66464
▁아	-7.66824
무	-7.67737
▁잘	-7.67749
보다	-7.68135
▁미	-7.68142
관	-7.69094
▁지	-7.6913
단	-7.69472
▁것을	-7.69602
▁해	-7.69865
▁모두	-7.70013
▁당시	-7.70202
부터	-7.70419
▁따라	-7.7169
▁대해	-7.72184
▁없는	-7.72201
▁모	-7.72453
▁위한	-7.73958
▁...	-7.74426
들은	-7.74716
유	-7.75067
▁것은	-7.75719
되는	-7.75872
공	-7.75896
3	-7.75986
▁것이다	-7.7684
▁말	-7.76963
▁조	-7.77055
하면	-7.77806
계	-7.78273
연	-7.78475
▁마	-7.78595
▁구	-7.78716
▁15	-7.78755
지만	-7.79188
▁하	-7.79214
▁서	-7.79923
▁강	-7.80461
▁다시	-7.80902
실	-7.81594
재	-7.82165
▁B	-7.82224
m	-7.82275
들을	-7.8242
▁관련	-7.82555
▁이상	-7.82686
권	-7.82908
급	-7.83372
문	-7.83387
현	-7.83532
석	-7.8363
▁성	-7.8383
▁나	-7.83883
안	-7.84062
▁부	-7.84219
▁큰	-7.84317
건	-7.8434
토	-7.85449
국	-7.85557
적으로	-7.85614
▁자	-7.86075
▁이날	-7.86079
역	-7.86907
파	-7.87121
()	-7.88004
▁무	-7.88341
▁게	-7.88973
이라는	-7.89023
번	-7.89272
된다	-7.89393
포	-7.89575
▁장	-7.90129
민	-7.90385
▁도	-7.90871
병	-7.9097
▁총	-7.91691
▁이런	-7.91877
▁세	-7.92027
해야	-7.92306
데	-7.93318
▁많은	-7.93518
하였다	-7.9365
되었다	-7.93707
▁많이	-7.93764
▁19	-7.94336
-	-7.94539
종	-7.94785
즈	-7.95171
▁또한	-7.95194
▁그러나	-7.95435
억	-7.95774
해서	-7.95904
▁모든	-7.95964
방	-7.96019
되어	-7.9604
▁양	-7.96124
하면서	-7.96496
코	-7.96649
▁열린	-7.97029
히	-7.97059
물	-7.97167
▁따르면	-7.97252
▁18	-7.97346
강	-7.97407
▁현재	-7.97826
▁건	-7.98179
▁기	-7.98242
거	-7.98775
르	-7.9887
들의	-7.99041
▁자신의	-8.00124
법	-8.00376
바	-8.00582
레	-8.00622
초	-8.00641
▁피	-8.0117
▁바	-8.01546
▁부산	-8.02381
내	-8.02449
▁16	-8.02514
4	-8.02749
루	-8.02813
배	-8.03333
양	-8.03402
▁13	-8.03472
▁지난해	-8.03656
▁있었다	-8.03916
▁보	-8.03944
▁일본	-8.04027
▁초	-8.04408
▁소	-8.0487
▁볼	-8.0543
▁불	-8.05542
러	-8.05926
▁14	-8.06296
하다	-8.06401
▁아니라	-8.06543
▁타	-8.0665
프	-8.0668
▁못	-8.06782
교	-8.0683
▁결국	-8.06866
▁반	-8.07094
▁단	-8.07122
▁알	-8.07471
▁받고	-8.07508
됐다	-8.07613
청	-8.07944
▁이어	-8.08069
점	-8.08081
▁이번	-8.08169
크	-8.08266
▁특히	-8.08453
질	-8.08498
▁보고	-8.08804
씨	-8.09099
▁보면	-8.09221
▁약	-8.09468
에도	-8.09591
▁어	-8.09662
s	-8.09959
카	-8.10023
▁지역	-8.10131
▁첫	-8.10282
씨는	-8.10327
운	-8.10445
금	-8.10597
처럼	-8.10769
▁데	-8.10834
란	-8.11068
▁된	-8.11073
]	-8.11311
발	-8.11362
네	-8.11443
▁0	-8.1146
▁있습니다	-8.11805
▁노	-8.12144
간	-8.12145
▁17	-8.12495
는데	-8.12542
될	-8.13103
린	-8.13392
▁않고	-8.1361
▁되었다	-8.13999
키	-8.14043
학	-8.14328
▁사실	-8.14354
시간	-8.14682
~	-8.15165
▁동	-8.15203
▁다만	-8.15307
▁리	-8.15649
>	-8.15708
살	-8.1581
▁우	-8.16173
▁진	-8.16449
저	-8.16543
▁공격	-8.17183
▁않은	-8.17281
▁게임	-8.17443
▁S	-8.17681
▁정도	-8.17704
▁경찰	-8.17759
생	-8.18034
명이	-8.18106
▁C	-8.18172
▁등의	-8.18218
승	-8.18453
▁선	-8.18614
▁남	-8.18737
▁[	-8.1901
▁저	-8.19435
터	-8.19616
▁해당	-8.19644
▁공	-8.19755
▁차	-8.20147
▁혐의로	-8.20285
▁연	-8.20371
엔	-8.20411
▁여성	-8.20717
거나	-8.20941
반	-8.21511
입니다	-8.21776
▁카	-8.21907
▁동안	-8.2215
5	-8.222
디	-8.22301
▁100	-8.22555
▁추가	-8.22648
▁미국	-8.22724
심	-8.22856
태	-8.23016
그	-8.23381
▁지원	-8.23571
▁최	-8.24176
되고	-8.24782
였다	-8.24883
▁날	-8.24918
▁25	-8.25306
▁스	-8.25354
A	-8.25581
준	-8.25737
▁경기	-8.26408
했던	-8.26444
▁2016	-8.26481
피	-8.26507
▁상	-8.26641
▁사용	-8.26696
▁일부	-8.26826
▁간	-8.26948
돼	-8.27181
▁2017	-8.27183
▁달	-8.27259
▁그는	-8.27779
창	-8.27867
▁매우	-8.27947
▁재	-8.2804
체	-8.28048
▁거	-8.28275
▁물론	-8.28441
▁될	-8.28691
▁명	-8.28946
D	-8.29313
남	-8.29339
온	-8.29383
이었다	-8.29455
▁개	-8.29483
후	-8.2983
희	-8.2984
티	-8.30708
▁가운데	-8.30738
▁조사	-8.30753
이며	-8.30925
▁올해	-8.31347
▁50	-8.31415
▁전국	-8.319
했습니다	-8.31948
▁호	-8.32121
두	-8.3225
▁본	-8.32475
▁문	-8.32884
했고	-8.32887
철	-8.32935
림	-8.32936
▁2015	-8.3379
▁결과	-8.34078
▁물	-8.34255
▁배	-8.34284
▁영	-8.34581
▁경찰은	-8.34581
감	-8.34748
판	-8.34791
▁국가	-8.34798
▁교육	-8.34899
▁직접	-8.35261
▁이를	-8.35466
▁코	-8.35781
▁바로	-8.35895
▁않는	-8.35925
▁역시	-8.36285
려	-8.36352
▁아닌	-8.36473
▁방	-8.36697
▁군	-8.36785
▁21	-8.36823
에서도	-8.37051
▁있으며	-8.37177
▁걸	-8.37301
▁편	-8.37675
▁없이	-8.37736
▁줄	-8.38232
▁수사	-8.38264
행	-8.3846
▁중국	-8.39002
▁좋은	-8.39195
▁보인다	-8.39256
▁학교	-8.39356
▁위	-8.39458
B	-8.39494
▁되는	-8.39774
▁운영	-8.39824
▁계속	-8.39866
▁세계	-8.40046
▁최근	-8.40071
길	-8.40084
박	-8.40179
▁적	-8.40333
▁사건	-8.40626
▁백	-8.40808
직	-8.40825
▁대통령	-8.40857
▁M	-8.40899
▁이에	-8.40901
▁22	-8.41019
등	-8.41281
집	-8.41322
▁관계자는	-8.41391
▁24	-8.41474
▁분류	-8.41649
▁각	-8.41668
더	-8.41869
6	-8.41894
속	-8.42066
▁포	-8.42242
▁하나	-8.42346
▁외	-8.42452
▁파	-8.42919
층	-8.4315
▁채	-8.43174
▁번	-8.43184
복	-8.43416
▁시작	-8.43657
▁있을	-8.43685
통	-8.4402
만원	-8.44147
▁경	-8.44193
▁받은	-8.44692
탄	-8.44729
▁산	-8.44767
▁있어	-8.44995
▁있고	-8.452
랑	-8.45265
작	-8.45789
▁등이	-8.45913
명을	-8.46302
▁거의	-8.46399
=	-8.46568
▁않았다	-8.467
이라	-8.46784
▁23	-8.47074
브	-8.47437
▁다음	-8.4757
▁로	-8.47582
▁시즌	-8.47765
력	-8.47789
▁높은	-8.47885
▁역	-8.48088
▁발	-8.48344
▁<	-8.48362
기를	-8.48381
▁여러	-8.48548
▁만	-8.48578
▁40	-8.48581
었다	-8.48603
▁피해	-8.48759
▁2014	-8.4938
▁모습을	-8.49581
▁대표	-8.49671
▁우리	-8.49806
▁있는데	-8.50101
▁같이	-8.50208
임	-8.50211
츠	-8.50464
C	-8.50526
),	-8.50538
약	-8.50639
류	-8.50726
▁검찰	-8.50971
▁사고	-8.52136
편	-8.52198
▁영화	-8.52256
▁속	-8.52697
져	-8.52917
▁매	-8.52928
▁않는다	-8.52958
곡	-8.53025
▁▲	-8.53189
▁그런	-8.53265
기도	-8.53281
설	-8.53457
▁난	-8.53516
▁일반	-8.53567
▁치	-8.53644
메	-8.53677
P	-8.5396
▁있던	-8.5403
근	-8.54043
▁듯	-8.54285
▁인	-8.54297
▁당	-8.5462
▁수도	-8.54728
▁D	-8.54772
▁진행	-8.54793
쿠	-8.54834
y	-8.54856
S	-8.54987
▁F	-8.55129
인데	-8.55215
▁손	-8.55743
출	-8.55936
t	-8.56129
지는	-8.56302
T	-8.56615
열	-8.56917
▁오늘	-8.56988
▁입	-8.57002
▁최대	-8.57022
▁국내	-8.57056
30	-8.5732
년에	-8.57331
▁문제	-8.57877
M	-8.57942
▁분	-8.58029
▁강화	-8.58047
▁28	-8.58269
▁달리	-8.58317
K	-8.58859
백	-8.58894
▁점	-8.59092
▁있지만	-8.59402
▁한편	-8.59484
▁화	-8.59547
▁심	-8.59694
▁K	-8.59775
▁27	-8.59907
광	-8.59956
▁여	-8.59976
▁~	-8.60006
▁대학	-8.60196
▁-	-8.60219
▁개발	-8.60345
▁라	-8.60354
▁26	-8.60466
▁황	-8.60482
▁이미	-8.60574
래	-8.60631
▁토	-8.60885
▁정부	-8.60915
으며	-8.60962
▁경기도	-8.60985
▁온	-8.61001
10	-8.61031
난	-8.61163
들에게	-8.61377
G	-8.61731
령	-8.61749
▁G	-8.61773
왕	-8.61801
/	-8.61856
7	-8.61861
▁임	-8.61936
▁금지	-8.62009
▁인해	-8.62053
20	-8.62108
예	-8.62162
되지	-8.62165
▁대신	-8.62178
▁시간	-8.62179
했다고	-8.6232
▁있다고	-8.62397
증	-8.62427
▁어떤	-8.6243
량	-8.6266
▁앞서	-8.62782
매	-8.62888
불	-8.62891
▁기술	-8.62958
▁다양한	-8.63046
▁좀	-8.63094
하던	-8.63452
하자	-8.63476
▁새	-8.63511
▁많다	-8.63661
▁가지고	-8.63832
덕	-8.64172
씨가	-8.64173
▁현	-8.6426
L	-8.64368
음	-8.64371
:	-8.6461
▁것도	-8.64651
▁:	-8.64671
에선	-8.64679
▁송	-8.64739
▁그런데	-8.64791
▁네	-8.64854
▁시리즈	-8.65021
▁팀	-8.6513
환	-8.65277
▁P	-8.65346
일부터	-8.65494
버	-8.65565
항	-8.65675
▁받아	-8.65778
봉	-8.65895
▁하지	-8.65919
▁2013	-8.65999
▁정도로	-8.66315
론	-8.66601
각	-8.66681
▁사람이	-8.66718
절	-8.66981
▁T	-8.67353
▁또는	-8.67384
▁있다는	-8.67764
▁예	-8.67825
▁윤	-8.67841
했지만	-8.67843
▁등장	-8.67994
▁결정	-8.68286
▁오는	-8.68576
▁연구	-8.68633
▁크게	-8.68636
▁활동	-8.68806
서울	-8.6891
대로	-8.68959
▁그냥	-8.69001
▁들어	-8.69235
▁삼	-8.69273
▁생각	-8.69443
▁제대로	-8.69461
평	-8.6951
▁너무	-8.69625
▁아니다	-8.69676
▁혐의	-8.69746
▁안전	-8.69832
▁공개	-8.69938
순	-8.70025
▁캐릭터	-8.70157
▁...)	-8.70231
▁하다	-8.70542
▁사업	-8.70719
일까지	-8.7077
▁방송	-8.71008
테	-8.71022
▁이동	-8.71347
목	-8.71438
▁등에	-8.7146
교육	-8.71596
▁기자	-8.71626
락	-8.71666
하지만	-8.71758
▁천	-8.71882
▁광주	-8.71929
▁사회	-8.72009
▁사망	-8.72251
▁열	-8.7234
하거나	-8.72582
사업	-8.72671
▁R	-8.72696
▁29	-8.72789
색	-8.72854
지역	-8.73165
▁그대로	-8.73298
스트	-8.73345
▁국제	-8.73351
▁H	-8.73364
▁허	-8.73541
▁소속	-8.73603
▁혐의를	-8.73693
▁발생	-8.73694
▁있도록	-8.73735
다가	-8.73763
▁금	-8.73773
▁width	-8.73893
▁기준	-8.73896
▁예정이다	-8.74392
▁스킬	-8.7449
별	-8.74941
너	-8.74983
8	-8.74996
km	-8.75126
들과	-8.75158
▁자기	-8.75341
범	-8.75355
▁실	-8.7541
▁위반	-8.75653
▁아이	-8.75676
▁▶	-8.7568
외	-8.75737
▁이렇게	-8.75928
▁=	-8.76047
▁증가	-8.76277
▁앞	-8.7631
▁씨는	-8.76789
투	-8.76939
▁처음	-8.76977
▁키	-8.77426
▁같다	-8.77612
▁살	-8.77783
▁등으로	-8.77864
▁패	-8.7793
▁관리	-8.78003
달	-8.78134
본	-8.78232
▁건물	-8.78268
습니다	-8.78276
말	-8.78284
▁국민	-8.78359
▁씨	-8.78732
▁문서	-8.78825
▁되어	-8.78846
▁때문이다	-8.79115
▁차량	-8.7913
▁의해	-8.79429
센터	-8.79518
▁도시	-8.79579
▁마지막	-8.79642
▁주요	-8.79657
▁받았다	-8.79684
▁기록	-8.79691
입	-8.79876
▁하루	-8.79883
▁대구	-8.79939
함	-8.80023
▁자신이	-8.8009
▁새로운	-8.80321
▁상당히	-8.80373
▁인천	-8.80628
장을	-8.80659
▁상대로	-8.80935
▁문화	-8.81
▁경우가	-8.81296
김	-8.81327
▁그의	-8.81337
▁몇	-8.81399
개월	-8.81503
변	-8.81559
▁2012	-8.81745
▁31	-8.81971
시설	-8.82003
▁만들어	-8.82038
▁만큼	-8.82068
업	-8.82077
▁레	-8.82105
족	-8.82207
▁불법	-8.82209
이지만	-8.82374
표	-8.82701
▁E	-8.82989
▁홍	-8.83005
▁소환	-8.83207
▁이름	-8.83368
▁변	-8.83568
▁추진	-8.83683
▁각각	-8.83877
자가	-8.83957
11	-8.8431
9	-8.84315
▁교수	-8.84418
결	-8.84444
F	-8.84507
▁길	-8.84522
▁이는	-8.8456
▁기본	-8.84724
규	-8.84761
▁문제가	-8.84839
▁대부분	-8.84849
처	-8.84874
▁이용	-8.84932
▁카드	-8.85136
든	-8.85316
▁왕	-8.85325
이라며	-8.85355
▁청와대	-8.85614
▁나온다	-8.8577
▁없어	-8.8601
c	-8.86047
하기도	-8.86085
▁나온	-8.86116
년부터	-8.86166
로부터	-8.86219
▁평가	-8.86297
▁사람	-8.86467
▁실제로	-8.86564
▁앞에서	-8.86637
▁과정에서	-8.86841
합니다	-8.86968
학교	-8.86975
▁어느	-8.87008
▁일이	-8.87025
▁지금	-8.87466
▁영상	-8.87475
▁즉	-8.87547
▁확인	-8.87826
때	-8.87876
문화	-8.87924
릴	-8.88003
▁정보	-8.88462
▁눈	-8.88553
▁구속	-8.88697
뉴스	-8.88778
▁이야기	-8.88819
▁애	-8.88919
E	-8.89191
연합뉴스	-8.89301
▁전체	-8.89566
▁어떻게	-8.89646
R	-8.89651
▁친	-8.89718
▁버스	-8.89838
▁최고	-8.89844
관리	-8.89879
▁청	-8.89955
독	-8.90039
▁나오는	-8.90123
▁발표	-8.90143
▁사이	-8.90171
격	-8.90178
▁먼저	-8.90231
▁대한민국	-8.90269
커	-8.90366
▁최종	-8.90439
▁말을	-8.90665
▁기업	-8.90732
▁용	-8.90932
▁지난달	-8.9132
▁국	-8.91324
채	-8.9136
위원회	-8.91478
▁대전	-8.91491
er	-8.9154
▁갈	-8.91678
▁판매	-8.91813
▁세월호	-8.91815
명의	-8.91823
▁집	-8.91839
추	-8.9198
▁설명했다	-8.92132
▁이들은	-8.92291
▁설치	-8.92362
울	-8.92417
▁낮	-8.92873
으면	-8.92917
▁피해자	-8.92932
▁검찰은	-8.92955
년간	-8.92959
베	-8.93036
팀	-8.93113
▁c	-8.93139
송	-8.93198
50	-8.9349
∼	-8.93683
▁하면	-8.937
퍼	-8.93851
▁왜	-8.9386
▁대상으로	-8.93923
▁생산	-8.93928
▁계획	-8.94079
날	-8.94091
▁전투	-8.94312
▁징역	-8.94368
▁팔	-8.94432
이자	-8.94472
▁W	-8.946
▁서울시	-8.94606
▁들	-8.94733
▁범죄	-8.94763
▁야	-8.94927
▁제작	-8.94945
▁주로	-8.95008
▁알고	-8.95054
▁존재	-8.95079
암	-8.95091
▁구조	-8.95295
▁60	-8.95332
하기로	-8.95627
▁제공	-8.95802
▁요	-8.95907
▁법	-8.96062
▁올	-8.9616
총	-8.96215
▁반대	-8.96287
▁경제	-8.96364
▁받는	-8.96425
▁국회	-8.96562
▁만에	-8.96649
갈	-8.9685
▁비해	-8.96884
긴	-8.97186
▁그래서	-8.97227
▁서로	-8.97233
▁감	-8.9726
▁중앙	-8.97324
▁참	-8.9736
훈	-8.97374
막	-8.97436
▁2018	-8.97462
▁순	-8.97466
▁되고	-8.97495
립	-8.97655
품	-8.9769
▁상황	-8.97755
▁만든	-8.97811
e	-8.97839
업체	-8.98083
워	-8.98177
▁경찰에	-8.9827
▁현장	-8.98296
▁확대	-8.98298
▁병	-8.98434
▁개선	-8.98486
▁별	-8.98516
▁공식	-8.98666
▁조성	-8.98781
악	-8.98838
숙	-8.98935
▁베	-8.98964
▁요구	-8.99109
주의	-8.99269
▁권	-8.99316
▁가능하다	-8.99491
▁여자	-8.99565
▁있기	-8.99641
▁시민	-8.99719
망	-8.99741
▁무기	-8.99783
▁실제	-8.99862
▁종	-8.99871
북	-8.99901
▁알려졌다	-8.99949
▁제주	-8.99964
▁평균	-9.00144
기관	-9.00294
▁2011	-9.00323
▁생활	-9.00367
▁교	-9.00395
이고	-9.00431
링	-9.00441
시장	-9.0046
▁레벨	-9.00549
▁이유로	-9.00615
패	-9.00686
했으며	-9.00729
옥	-9.00795
▁자주	-9.01026
▁됐다	-9.01272
▁관한	-9.01659
줄	-9.01758
님	-9.01976
▁개인	-9.02015
했을	-9.02065
▁전문	-9.02356
▁찾아	-9.0239
▁북	-9.02479
▁유지	-9.0254
술	-9.02564
▁L	-9.02577
▁주민	-9.02609
▁가능성이	-9.02745
▁상대	-9.02766
▁돌	-9.02885
글	-9.02992
하는데	-9.03084
곳	-9.03124
▁학생	-9.03128
▁적용	-9.0318
▁도입	-9.03224
g	-9.03357
▁없었다	-9.03369
▁적이	-9.03428
▁해도	-9.0343
▁대상	-9.03482
▁않아	-9.03496
쳐	-9.03519
▁인정	-9.03553
▁않다	-9.03681
▁오히려	-9.03697
였던	-9.0377
▁박근혜	-9.03791
▁가진	-9.03836
▁성공	-9.03984
검	-9.03985
억원	-9.04071
▁선수	-9.04078
▁가지	-9.04151
N	-9.04162
렸다	-9.04175
▁주변	-9.04245
▁광	-9.04303
▁2010	-9.04456
장이	-9.04545
▁참여	-9.04571
▁경남	-9.04664
향	-9.04759
▁상태	-9.04837
▁사실상	-9.04996
▁설	-9.05069
o	-9.052
▁라고	-9.05296
담	-9.05388
▁아직	-9.057
졌다	-9.05721
▁대응	-9.05759
▁더욱	-9.05772
▁회복	-9.05798
▁화재	-9.05924
X	-9.06077
월부터	-9.06087
▁정책	-9.06136
애	-9.06153
▁마을	-9.06312
견	-9.06431
기가	-9.06456
▁인사	-9.06722
▁일단	-9.06819
지원	-9.06931
mm	-9.07032
▁시행	-9.07187
▁과거	-9.07237
성을	-9.07368
▁인근	-9.07413
▁있어서	-9.07444
▁설명	-9.07758
▁병원	-9.07833
풍	-9.07984
O	-9.08029
▁조직	-9.08096
▁딸	-9.08146
▁선택	-9.08255
▁벌	-9.08393
▁변호사	-9.08501
▁남자	-9.08578
▁그렇게	-9.08624
▁추	-9.08666
▁아파트	-9.08675
▁집중	-9.08957
▁개최	-9.09032
▁쓰	-9.09042
▁좋다	-9.0908
탈	-9.0911
▁뿐	-9.09126
▁풀	-9.0919
마다	-9.09256
▁역사	-9.09325
▁행사	-9.0951
병원	-9.09536
볼	-9.09552
▁의원	-9.0965
▁사실을	-9.09661
▁필요	-9.09685
▁있게	-9.09726
▁처리	-9.09823
▁하며	-9.09875
▁O	-9.10001
▁때문	-9.10156
▁민	-9.10241
▁못한	-9.10496
▁주인공	-9.1052
u	-9.10555
i	-9.10558
▁목	-9.1057
▁건설	-9.10792
겠다	-9.10874
▁가능	-9.10908
▁북한	-9.10969
n	-9.11032
▁이전	-9.1105
렌	-9.11081
대학	-9.11287
▁신고	-9.11338
친	-9.1137
▁계획이다	-9.1139
충	-9.11406
▁청년	-9.11487
▁마법	-9.11501
손	-9.11736
▁변경	-9.1178
▁남성	-9.11786
H	-9.11838
▁준비	-9.11852
▁전부	-9.11897
▁투	-9.11899
거리	-9.11945
▁보통	-9.12132
▁이러한	-9.12163
▁해외	-9.12172
▁막	-9.12206
▁각종	-9.12231
씨의	-9.12256
▁기간	-9.12288
지를	-9.12371
▁뉴스	-9.12456
▁관	-9.12478
▁원래	-9.12532
산업	-9.12627
라며	-9.12691
찬	-9.12753
▁특별	-9.12808
▁평	-9.1287
▁나왔다	-9.12901
▁감소	-9.13111
하라	-9.13138
▁기관	-9.13157
학년	-9.13187
▁필요한	-9.13292
▁사진	-9.13392
▁플레이	-9.13428
▁비슷한	-9.13532
▁식	-9.13595
▁전혀	-9.13702
▁검사	-9.13918
▁몬스터	-9.14029
▁가족	-9.14054
40	-9.1409
▁기존	-9.14133
▁특수	-9.1418
d	-9.14209
▁전쟁	-9.14253
ing	-9.14351
맨	-9.14391
▁참고로	-9.14485
익	-9.14508
V	-9.1457
▁승리	-9.14803
12	-9.14834
▁아이템	-9.14898
▁인터넷	-9.14933
되면서	-9.14963
▁보는	-9.14971
19	-9.15108
▁독	-9.15108
있는	-9.15152
l	-9.15177
▁70	-9.15226
▁인간	-9.15421
자는	-9.15579
블	-9.15671
▁통	-9.15766
년대	-9.15828
스타	-9.15841
▁동시에	-9.15883
▁의혹	-9.15956
▁망	-9.15958
▁중인	-9.15998
▁피해를	-9.16252
▁단체	-9.16271
들도	-9.16352
▁현대	-9.16404
▁구성	-9.16411
인지	-9.16453
▁판	-9.16589
▁해서	-9.16745
▁창	-9.16902
죠	-9.16921
▁해결	-9.16928
▁지방	-9.16945
▁힘	-9.17006
▁출신	-9.17062
▁정말	-9.172
▁설정	-9.17264
▁공동	-9.17369
▁표현	-9.17576
a	-9.17607
▁인물	-9.17626
▁나가	-9.17637
▁따른	-9.17669
합	-9.17677
씨를	-9.17682
al	-9.17712
▁준	-9.17865
▁직원	-9.17899
▁사람들이	-9.17917
▁발견	-9.181
필	-9.18221
▁검	-9.18341
W	-9.18449
기로	-9.18478
▁프로그램	-9.18633
씩	-9.18671
U	-9.1872
단체	-9.18805
▁밤	-9.18805
안전	-9.18896
걸	-9.18954
▁공격력	-9.18979
기업	-9.19016
▁분석	-9.19113
장은	-9.19158
라도	-9.19163
▁행정	-9.19236
▁삼성	-9.19306
▁지급	-9.19366
▁선거	-9.19413
ᆞ	-9.19827
▁선발	-9.19834
▁효과	-9.19844
▁영향을	-9.1992
▁때는	-9.20308
▁조금	-9.20426
취	-9.20453
▁제한	-9.20453
▁전남	-9.20527
▁성장	-9.20533
▁영국	-9.20613
대학교	-9.20686
▁철	-9.20707
위를	-9.20739
▁스스로	-9.20747
ar	-9.20756
▁판단	-9.20913
▁I	-9.20927
▁해야	-9.20945
▁아들	-9.20972
▁음악	-9.21006
료	-9.21214
한다는	-9.21313
▁N	-9.21364
▁도로	-9.21456
한다고	-9.21461
했는데	-9.21479
까	-9.21547
▁회사	-9.21582
▁못하고	-9.21641
▁두고	-9.21652
버스	-9.2168
▁시도	-9.21686
▁둘	-9.21704
▁배우	-9.21783
▁예상	-9.218
▁X	-9.21896
▁돈을	-9.22126
윤	-9.22226
▁쓸	-9.22274
▁이제	-9.22287
▁시절	-9.22315
성이	-9.22336
도록	-9.2234
녀	-9.22411
자를	-9.22458
▁와	-9.22507
했다는	-9.22553
▁파괴	-9.2256
▁이들	-9.22762
▁상위	-9.22774
▁역할을	-9.22783
▁앞으로	-9.22789
▁몸	-9.22864
경기	-9.22995
▁시험	-9.23044
▁경북	-9.23046
▁못했다	-9.23051
▁환경	-9.23138
름	-9.23152
▁돈	-9.23168
▁탄	-9.2332
▁버	-9.23436
록	-9.23439
지도	-9.23447
하도록	-9.23465
▁제품	-9.2348
▁2000	-9.23505
했으나	-9.23529
▁위치	-9.23563
▁the	-9.23607
15	-9.23722
촌	-9.23727
언	-9.23836
▁메	-9.23919
▁번째	-9.23955
새	-9.23964
되면	-9.24008
▁200	-9.24041
공사	-9.24092
▁중단	-9.24145
▁게다가	-9.24201
션	-9.24211
케	-9.24305
▁방어	-9.24531
▁곡	-9.24613
▁지정	-9.24664
슨	-9.24704
▁정치	-9.24784
▁씨가	-9.24864
▁타고	-9.24868
황	-9.24971
기에	-9.24972
▁미세먼지	-9.25018
▁회장	-9.25025
▁근무	-9.25076
▁라는	-9.25105
▁J	-9.2512
k	-9.25166
r	-9.25198
▁조선	-9.25337
▁따	-9.25417
리아	-9.25456
▁암	-9.25513
▁이때	-9.25513
▁출연	-9.25619
▁리그	-9.25656
▁예정	-9.25691
▁항목	-9.2591
▁선정	-9.26037
▁기사	-9.26067
권을	-9.26175
▁아예	-9.26191
▁생	-9.26236
▁방문	-9.26338
명으로	-9.26372
▁특	-9.26382
▁◇	-9.2642
귀	-9.26421
▁작은	-9.26482
축	-9.2657
f	-9.26582
▁보호	-9.26589
▁거쳐	-9.26722
있다	-9.26772
▁섬	-9.26835
▁시간이	-9.26902
년생	-9.27014
책	-9.27022
으로부터	-9.27235
기는	-9.27235
▁포함	-9.27402
Y	-9.27431
▁전했다	-9.27449
▁친구	-9.27457
분께	-9.27509
▁메르스	-9.27532
▁없고	-9.27538
▁자유	-9.27543
▁상승	-9.27586
▁일을	-9.27587
주는	-9.27662
100	-9.27697
▁폭	-9.277
와의	-9.27726
▁직	-9.27763
명은	-9.27834
▁하는데	-9.27947
▁여전히	-9.28024
▁맞아	-9.28099
▁받을	-9.28106
▁루	-9.28148
▁업체	-9.28168
▁노력	-9.28189
▁반면	-9.28328
▁보내	-9.28341
▁서비스	-9.28347
▁들고	-9.28485
▁V	-9.28525
▁전에	-9.28718
▁질	-9.28755
▁△	-9.28766
사를	-9.28779
▁글	-9.28873
▁처	-9.28954
▁강원	-9.29025
▁발생한	-9.29107
▁공무원	-9.2913
▁가능한	-9.29261
▁따라서	-9.29408
▁되	-9.29458
턴	-9.29461
▁완전히	-9.2962
60	-9.29626
▁만들	-9.29838
▁급	-9.29929
▁밀	-9.29945
돌	-9.29967
▁아니	-9.30036
▁쉽게	-9.30041
▁법률	-9.30132
▁차단	-9.30179
▁형사	-9.30241
룡	-9.303
▁봉	-9.30328
례	-9.30346
▁독일	-9.30464
80	-9.30464
▁《	-9.30484
골	-9.30554
▁내부	-9.30555
▁좋아	-9.30596
or	-9.30608
▁발전	-9.30669
▁선고	-9.30759
▁작품	-9.30798
개의	-9.308
▁혹은	-9.30834
▁부분	-9.30869
▁힘을	-9.3089
▁기준으로	-9.30894
▁업무	-9.30978
이었던	-9.30997
▁지구	-9.31005
▁중요한	-9.3103
▁버전	-9.31171
한국	-9.31178
▁사기	-9.31215
올	-9.3135
삼	-9.31491
▁프로	-9.31573
▁있었던	-9.31693
h	-9.31715
▁U	-9.31807
▁갖고	-9.31906
▁장관	-9.31978
▁중구	-9.31997
▁울산	-9.32009
p	-9.32106
▁그래도	-9.32175
▁대형	-9.32224
플	-9.32225
▁입장	-9.32275
▁맞	-9.32281
▁마련	-9.32452
빈	-9.32485
▁치료	-9.32599
시켜	-9.32663
▁악	-9.32671
▁주는	-9.32949
▁일정	-9.32952
▁만나	-9.33067
페	-9.33357
▁of	-9.33357
▁가정	-9.33432
▁대회	-9.33573
로서	-9.33612
▁스타	-9.33681
▁환자	-9.33685
▁디	-9.33771
▁변화	-9.33906
▁쓰는	-9.33921
▁히	-9.33943
▁후보	-9.33987
▁신청	-9.33999
▁대해서는	-9.34094
▁측은	-9.34196
▁종로구	-9.34257
▁활용	-9.34299
▁조사를	-9.34351
▁귀	-9.34388
다는	-9.3442
▁건강	-9.34464
▁쿠	-9.34506
▁탈	-9.34542
▁사랑	-9.34624
▁했지만	-9.3464
▁시설	-9.34651
▁채용	-9.34766
▁넘어	-9.34849
▁관련해	-9.3486
▁이름을	-9.34888
in	-9.34909
▁운행	-9.34918
▁체험	-9.34943
▁행동	-9.3498
▁미래	-9.35015
사가	-9.35148
이란	-9.35205
▁형	-9.35368
▁주장했다	-9.3537
▁우려	-9.354
포토	-9.35485
▁유닛	-9.35493
▁결혼	-9.35647
▁않을	-9.3566
▁발매	-9.35889
았다	-9.35913
▁체력	-9.3595
▁담당	-9.3611
▁태	-9.36115
▁2009	-9.36183
슈	-9.362
25	-9.36236
객	-9.36281
▁운동	-9.36302
▁기능	-9.36423
▁이유	-9.36436
▁대비	-9.3646
▁KBS	-9.36506
같은	-9.36651
▁참가	-9.36755
▁80	-9.36787
벌	-9.37007
년까지	-9.37104
▁노래	-9.37146
en	-9.37173
▁감독	-9.37205
▁특정	-9.37242
▁논란	-9.37333
▁전북	-9.37333
른	-9.3737
▁자신을	-9.37422
▁누	-9.37597
▁산업	-9.3764
▁보스	-9.37648
완	-9.37668
기술	-9.37711
▁한다는	-9.37802
▁내려	-9.37834
번째	-9.37852
▁홍보	-9.37978
▁예방	-9.38014
▁관계	-9.38026
▁굉장히	-9.38098
▁경우도	-9.38184
▁책	-9.38234
▁시스템	-9.38289
▁향	-9.38309
▁프랑스	-9.38324
▁이하	-9.38346
▁이벤트	-9.38447
▁교통	-9.38451
▁재판부는	-9.38629
홍	-9.38727
누	-9.38764
▁이용해	-9.38783
▁배치	-9.38816
극	-9.38873
▁노선	-9.38922
▁드라마	-9.38955
▁어려운	-9.39008
▁기념	-9.39051
조사	-9.39136
▁풍	-9.39142
대회	-9.39286
▁회	-9.39287
읍	-9.39296
▁사용하는	-9.39298
▁제도	-9.393
하겠다	-9.39373
▁중이다	-9.39446
▁자체	-9.39499
▁진출	-9.39533
70	-9.39538
▁설립	-9.39599
▁커	-9.39671
▁사람은	-9.39744
▁직업	-9.39758
▁나타났다	-9.39778
대를	-9.39814
▁과	-9.39825
▁보도	-9.39897
▁투자	-9.39914
▁상황에서	-9.40043
TV	-9.40063
▁순간	-9.40161
▁점을	-9.40176
▁문제는	-9.40208
an	-9.40243
13	-9.40311
16	-9.40313
▁잘못	-9.40324
▁처벌	-9.40345
▁되면	-9.40636
▁우선	-9.40649
▁2008	-9.40712
사회	-9.40812
▁작업	-9.40838
▁주장	-9.4084
이기도	-9.40911
▁위해서	-9.40962
ed	-9.41059
▁중심으로	-9.41071
18	-9.41095
▁폭발	-9.41152
▁자체가	-9.41181
진다	-9.41215
▁말이	-9.41221
택	-9.41273
만원을	-9.41369
▁가격	-9.41395
▁가는	-9.41439
▁승	-9.41527
▁울	-9.41572
▁외국인	-9.41697
▁교사	-9.41717
혜	-9.41743
▁하기	-9.41746
▁이상의	-9.41748
▁500	-9.41794
▁러시아	-9.41798
▁논의	-9.41815
학과	-9.41936
▁꽤	-9.41953
▁수준	-9.42062
14	-9.42117
▁..	-9.42161
▁나서	-9.42231
환경	-9.42235
▁나머지	-9.42319
정보	-9.42328
▁애니메이션	-9.42369
슬	-9.42411
cm	-9.42422
리는	-9.42489
팅	-9.42525
▁취업	-9.42595
수가	-9.42601
균	-9.42622
(1	-9.42631
▁부인	-9.42647
자의	-9.42704
▁골	-9.42723
▁내용을	-9.42775
17	-9.42797
▁경찰이	-9.42862
▁자연	-9.42941
▁아주	-9.42989
▁영어	-9.42991
호선	-9.43044
▁불러	-9.43046
▁함	-9.43073
▁폭행	-9.43111
▁확보	-9.43159
▁높다	-9.43213
▁테	-9.43246
▁사건을	-9.43339
액	-9.43341
》	-9.43382
▁성우	-9.4344
▁요청	-9.43447
다고	-9.43469
▁인구	-9.43542
▁온라인	-9.43635
▁장비	-9.43677
▁보이는	-9.43711
▁나와	-9.43713
▁강한	-9.4376
▁밝혔습니다	-9.43811
▁집회	-9.43949
▁인한	-9.44106
▁지나	-9.44122
▁대통령이	-9.44137
▁안에	-9.44144
▁의미	-9.44206
밀	-9.44256
만큼	-9.44351
▁기대	-9.44373
보다는	-9.44441
없이	-9.44483
▁참조	-9.44503
▁극	-9.44508
▁석	-9.44559
▁열고	-9.44572
▁접	-9.44583
I	-9.44751
21	-9.44757
▁계	-9.44789
▁시기	-9.44818
▁유럽	-9.44864
23	-9.4487
▁핵심	-9.44988
냐	-9.45028
회의	-9.45034
▁촬영	-9.45058
▁부족	-9.45118
력을	-9.45298
▁스토리	-9.45314
▁난이도	-9.45379
▁여기서	-9.45422
▁플레이어	-9.45434
▁공연	-9.45446
▁출석	-9.45518
▁의심	-9.45523
▁니	-9.45565
▁폐	-9.4563
▁되지	-9.45638
▁청구	-9.45725
▁고용	-9.45874
▁전환	-9.45929
▁무단	-9.45934
▁심지어	-9.46078
▁연기	-9.46102
▁기억	-9.46113
▁보장	-9.4612
▁한번	-9.46242
▁티	-9.46297
▁소개	-9.46324
으나	-9.46337
▁지적	-9.46344
▁멤버	-9.46374
섭	-9.46397
▁축구	-9.46414
시키는	-9.46421
▁범행	-9.46444
▁분야	-9.46455
정부	-9.46465
▁확정	-9.4653
듯	-9.46609
공원	-9.46626
▁나는	-9.46643
라면	-9.46658
▁◆	-9.46773
▁잔	-9.4678
서를	-9.4684
▁모습	-9.46942
▁내가	-9.46963
조차	-9.47073
▁지속	-9.47177
▁상황이	-9.47187
척	-9.4733
▁덕분에	-9.47335
분류	-9.47359
낸	-9.47442
단계	-9.47444
▁사장	-9.47557
▁성격	-9.47589
▁검토	-9.47591
▁통합	-9.47652
헌	-9.47715
▁만드는	-9.47739
▁하자	-9.47792
▁들어가	-9.478
▁드	-9.47831
▁문제를	-9.47867
▁정부가	-9.47881
▁능력	-9.47904
▁청소년	-9.4792
궁	-9.4802
▁고려	-9.48026
경찰	-9.48038
▁300	-9.48072
련	-9.48074
▁꽃	-9.48133
▁나라	-9.48287
▁언론	-9.48346
▁보기	-9.48407
▁아버지	-9.48505
율	-9.48651
▁아래	-9.4872
▁앨범	-9.48911
자로	-9.48981
갑	-9.49018
▁복	-9.49032
▁마무리	-9.4907
▁빈	-9.4909
되기	-9.49115
▁조정	-9.49162
on	-9.49162
▁훨씬	-9.49263
35	-9.4927
폐	-9.49332
▁낮은	-9.49449
착	-9.4945
0	-9.49475
▁대화	-9.49554
▁그리	-9.49654
▁비롯한	-9.49659
▁의사	-9.49679
일에	-9.49727
le	-9.49728
협	-9.4979
▁디자인	-9.49791
염	-9.49804
▁투입	-9.49832
▁모델	-9.49833
▁규모	-9.49884
▁데뷔	-9.4989
▁항	-9.49905
▁재판	-9.49907
대가	-9.49981
▁시장	-9.50292
지고	-9.50309
▁위험	-9.5032
▁1000	-9.50322
▁문재인	-9.50375
▁합니다	-9.50392
▁동물	-9.50394
몬	-9.50425
존	-9.50464
되며	-9.50648
▁끝	-9.50699
수사	-9.50785
▁합	-9.50836
24	-9.50892
정책	-9.50906
▁지하	-9.50983
th	-9.51101
▁의료	-9.51197
x	-9.51199
스의	-9.51324
곤	-9.51342
알	-9.5138
▁인상	-9.51409
▁페	-9.51428
▁밖에	-9.5147
▁강력한	-9.51495
st	-9.51529
▁이유는	-9.51554
돈	-9.51594
도로	-9.51602
▁35	-9.51668
머	-9.51779
▁슈퍼	-9.51779
▁전용	-9.51834
참	-9.51858
▁전기	-9.51879
한테	-9.52001
▁훈련	-9.52028
됐습니다	-9.52074
▁발사	-9.5216
▁재배포	-9.52193
쉬	-9.52261
.3	-9.52266
▁불구하고	-9.52324
▁계약	-9.52369
▁돼	-9.5241
▁감사	-9.52477
▁너	-9.52493
폭	-9.52516
▁처음으로	-9.52533
▁것에	-9.52543
린다	-9.52658
▁사이에	-9.52674
과의	-9.52761
▁그나마	-9.52801
사진	-9.52821
협회	-9.53001
스터	-9.53031
세대	-9.53045
▁규정	-9.53097
▁조작	-9.53417
▁구축	-9.53428
▁보니	-9.5351
▁시대	-9.53546
▁받는다	-9.53567
운동	-9.53608
▁등장하는	-9.53691
▁통과	-9.53702
▁우리나라	-9.5371
▁낸	-9.53761
압	-9.53775
▁유명	-9.53799
칭	-9.53817
▁체	-9.53831
▁어린이	-9.5384
▁아침	-9.53951
▁앞두고	-9.54036
▁축제	-9.5404
▁전달	-9.5414
칠	-9.54196
▁없다는	-9.54247
▁사회적	-9.54256
▁근	-9.54285
▁취소	-9.54297
▁합의	-9.54305
▁자세한	-9.54332
▁실패	-9.54333
점을	-9.54396
▁레이	-9.54397
▁사실이	-9.54424
것	-9.54529
▁마찬가지로	-9.54599
▁시작했다	-9.5463
▁작성	-9.54675
▁위치한	-9.54783
▁결	-9.54838
▁2007	-9.5492
방송	-9.55022
▁논란이	-9.5515
▁대통령의	-9.5515
▁노동	-9.55161
▁피의자	-9.55191
경제	-9.55207
32	-9.55213
▁개정	-9.55301
▁영웅	-9.55311
세기	-9.55594
▁쓴	-9.55737
겨	-9.55793
▁사과	-9.5581
▁엘	-9.55932
▁류	-9.55935
흥	-9.55946
▁사용할	-9.55971
▁강조했다	-9.55979
▁것과	-9.5599
그룹	-9.56025
▁대체	-9.5604
▁아동	-9.56084
▁없다고	-9.56091
▁등장인물	-9.56123
▁원을	-9.56248
▁발언	-9.5626
▁정확한	-9.56385
▁실시	-9.5639
▁걸쳐	-9.56423
먹	-9.56435
▁장애인	-9.56444
▁새벽	-9.56449
▁관광	-9.56543
▁진화	-9.56561
▁뭐	-9.56676
▁먹	-9.5683
▁당연히	-9.56832
▁그동안	-9.56836
▁잠	-9.56841
▁시간을	-9.56894
▁속성	-9.56908
▁우승	-9.56921
스가	-9.56966
▁하였다	-9.57053
▁격	-9.57106
마을	-9.57116
▁담	-9.57123
▁발동	-9.57259
▁터	-9.57292
혼	-9.57327
▁나이	-9.57407
▁평화	-9.57435
침	-9.57439
▁이와	-9.57586
▁독립	-9.57652
려고	-9.57745
▁점검	-9.5775
▁참고	-9.57795
밖에	-9.57823
쪽	-9.57865
▁강원도	-9.5799
▁민간	-9.58014
▁샤	-9.58064
▁괴	-9.58086
▁하면서	-9.58147
▁팬	-9.58195
▁대법원	-9.58213
▁자동차	-9.58251
▁오브	-9.58342
re	-9.58381
화에서	-9.58414
년에는	-9.58486
▁못하는	-9.58526
월까지	-9.5853
▁파악	-9.58539
▁패배	-9.58578
으로서	-9.58773
▁답	-9.58791
▁언급	-9.58807
▁한다고	-9.5886
▁내용	-9.58862
개발	-9.58877
▁차례	-9.58966
과는	-9.58999
▁낙	-9.59102
사건	-9.59172
▁예산	-9.59217
▁직후	-9.59397
▁연속	-9.59402
26	-9.59436
▁붙	-9.5949
▁환	-9.59504
▁것이라고	-9.59505
▁대책	-9.59506
▁공공	-9.59563
▁받지	-9.59689
▁걱정	-9.59766
▁그룹	-9.59787
▁롯데	-9.59814
▁활동을	-9.5994
레벨	-9.59946
▁가수	-9.59951
▁교체	-9.60023
니까	-9.60055
▁비판	-9.60124
왔다	-9.60126
겠습니다	-9.60226
▁긴급	-9.6025
▁초기	-9.60295
▁책임	-9.60306
▁폐지	-9.60326
▁부대	-9.60351
▁갑자기	-9.6038
▁머리	-9.6039
▁봄	-9.60399
▁위에	-9.60454
▁말한다	-9.60533
▁전문가	-9.60539
축제	-9.60607
▁공급	-9.60674
킹	-9.60706
혀	-9.60886
b	-9.60972
▁수사를	-9.61026
사고	-9.61043
▁등은	-9.61051
▁헤	-9.61062
▁겸	-9.61093
이기	-9.61116
▁일자리	-9.61131
▁슈	-9.6114
▁절대	-9.6119
▁90	-9.61212
▁명이	-9.61232
▁소리	-9.6125
가지	-9.61288
기간	-9.61294
런	-9.61301
상을	-9.61318
▁충북	-9.61318
▁필	-9.6133
▁확산	-9.61382
▁앞에	-9.61503
▁현실	-9.61527
▁인터뷰	-9.61567
▁연장	-9.61615
나라	-9.61713
▁노인	-9.6189
▁듣고	-9.61918
▁작	-9.61923
▁만화	-9.61946
욱	-9.62012
▁제외한	-9.62033
▁까	-9.62062
▁법원	-9.62083
▁음	-9.62111
▁제출	-9.62167
▁집단	-9.62214
▁충남	-9.6222
▁Δ	-9.62267
엘	-9.62322
▁씨의	-9.62332
▁보였다	-9.62494
받은	-9.6255
▁내년	-9.62706
력이	-9.62755
▁가입	-9.62816
▁경우는	-9.62835
▁거부	-9.62872
▁모습이	-9.62917
▁우주	-9.62927
춘	-9.62935
▁엄청난	-9.63031
▁조합	-9.63328
본부	-9.63356
▁절	-9.63443
▁TV	-9.63446
▁모드	-9.63456
▁올림픽	-9.6353
▁없을	-9.63555
죄	-9.63571
▁교수는	-9.63595
▁조치	-9.63667
▁필요하다	-9.63696
게임	-9.63724
▁공사	-9.63728
▁/	-9.63779
▁후에	-9.63785
수를	-9.63797
▁꿈	-9.63811
▁표시	-9.63842
▁에너지	-9.63911
▁수정	-9.63951
▁획득	-9.63957
▁자리	-9.64021
.2	-9.64023
경찰서는	-9.6406
▁지진	-9.64104
라인	-9.64147
▁행	-9.6418
었고	-9.64217
습	-9.64378
▁취급	-9.6439
▁중에	-9.64391
us	-9.64455
200	-9.64502
▁엄	-9.64561
효	-9.64761
▁The	-9.64791
▁명칭	-9.64851
▁구매	-9.6492
시킨	-9.64931
▁활약	-9.64974
▁동료	-9.64999
리스	-9.65002
하다가	-9.65002
▁종합	-9.65015
▁농	-9.65022
비를	-9.6506
▁사는	-9.65093
▁상태에서	-9.65128
▁연결	-9.65239
▁것처럼	-9.65253
하나	-9.65291
▁곳이	-9.65292
.4	-9.6533
▁반드시	-9.6538
▁상황을	-9.65433
재단	-9.65598
톤	-9.65603
캐	-9.65638
▁운전	-9.6564
▁완	-9.65708
▁나무	-9.65759
▁구속영장	-9.65852
▁이야기를	-9.65858
(19	-9.65908
22	-9.65916
▁등록	-9.66004
▁..)	-9.66054
▁거리	-9.66077
▁위협	-9.6609
▁칼	-9.66121
▁SNS	-9.66151
et	-9.66167
▁철도	-9.66174
▁자료	-9.66176
되	-9.66236
▁강제	-9.66266
el	-9.66271
▁경우에는	-9.66321
개를	-9.66349
▁인식	-9.66385
뿐	-9.66402
샤	-9.66441
▁하이	-9.66494
▁불이	-9.6655
▁전날	-9.66556
▁수행	-9.66605
월에	-9.66631
측	-9.66648
▁곳	-9.66655
▁주소	-9.66682
▁기획	-9.66706
▁땅	-9.66755
활동	-9.66787
▁면	-9.66808
▁부정	-9.66895
▁앵커	-9.6691
특	-9.66929
▁수가	-9.66939
▁지지	-9.66989
탑	-9.67028
▁혼	-9.67031
▁지하철	-9.67049
at	-9.6714
▁협력	-9.67153
▁감염	-9.67227
▁왔다	-9.6723
▁희망	-9.6725
▁의원은	-9.67251
▁진짜	-9.67265
▁외부	-9.67268
▁맵	-9.67272
29	-9.67287
▁만약	-9.67304
▁얘기	-9.67355
우리	-9.67371
▁적은	-9.67481
▁정보를	-9.67496
같이	-9.67519
▁종료	-9.67528
▁검찰에	-9.67541
와는	-9.67639
하였고	-9.67729
90	-9.6773
z	-9.67739
▁존	-9.67755
▁대기	-9.67768
.7	-9.67786
▁이게	-9.67799
▁크기	-9.68021
▁출	-9.68038
주년	-9.68041
▁노조	-9.68068
▁기타	-9.68087
▁쇼	-9.68089
▁그가	-9.68103
▁드래곤	-9.68106
▁광고	-9.68112
▁없	-9.68168
▁사람을	-9.68271
▁증	-9.68353
J	-9.68544
종합	-9.6864
▁맨	-9.68672
▁결과를	-9.68674
시민	-9.68679
되었고	-9.68722
었던	-9.68746
▁편이다	-9.68769
농	-9.68798
관계	-9.68825
▁학	-9.68836
▁떠	-9.68838
에게는	-9.68854
▁긴	-9.68865
(2	-9.68895
▁프로젝트	-9.69048
전을	-9.69153
칸	-9.69167
▁정신	-9.69349
▁가까운	-9.69506
▁않으면	-9.69512
▁기소된	-9.69522
▁정리	-9.69526
이라면	-9.6955
제를	-9.69607
▁혼자	-9.69653
▁표	-9.69707
평가	-9.6971
▁새로	-9.69753
500	-9.69804
▁프리	-9.69889
▁아니고	-9.69945
▁출시	-9.6995
▁...).	-9.6996
▁2006	-9.69969
▁45	-9.69971
▁원작	-9.69979
▁소설	-9.70019
▁덧붙였다	-9.70021
▁운	-9.70032
▁측	-9.70102
▁경영	-9.70146
▁속도	-9.70228
▁접근	-9.7026
▁의혹을	-9.70284
▁둔	-9.70293
▁거래	-9.70323
com	-9.70373
▁s	-9.70377
▁데미지	-9.70407
▁정부는	-9.70415
육	-9.70434
▁공격을	-9.70455
▁늘	-9.70487
행사	-9.70519
▁옥	-9.7057
▁있지	-9.70642
▁숙	-9.70649
▁살인	-9.70661
▁전자	-9.70706
하려	-9.7071
▁32	-9.70783
%)	-9.70806
▁잡	-9.70898
▁써	-9.70942
군의	-9.70952
▁꼭	-9.70981
▁중심	-9.71071
▁아군	-9.71106
▁제기	-9.71121
▁국회의원	-9.7115
▁정부의	-9.7116
▁흑	-9.7117
함을	-9.71189
씨에게	-9.71198
▁사례	-9.71254
▁지금까지	-9.71321
▁뒷	-9.71394
▁취	-9.71414
▁끝에	-9.71424
장에서	-9.71492
▁홈페이지	-9.71561
▁나올	-9.71565
▁MBC	-9.71566
▁전시	-9.71574
▁퍼	-9.71587
▁여기에	-9.7173
▁의견을	-9.71735
▁제거	-9.71778
부산	-9.71898
▁법무부	-9.71995
국민	-9.7209
▁대사	-9.72113
씨와	-9.72129
최	-9.72143
좌	-9.72163
▁어렵다	-9.72184
▁?)	-9.72223
▁오르	-9.7224
un	-9.72252
▁성과	-9.72323
▁좋지	-9.72395
▁택시	-9.7249
혈	-9.72513
벨	-9.72543
▁마음	-9.72602
들에	-9.72618
▁경쟁	-9.72637
▁재판에	-9.72652
▁술	-9.72659
▁엄마	-9.7271
고등학교	-9.72727
▁방침이다	-9.72831
▁부여	-9.72835
으	-9.72884
▁비상	-9.7289
화를	-9.72891
리그	-9.7304
▁바람	-9.73105
▁마스터	-9.73134
▁전통	-9.7315
5%	-9.73198
▁방향	-9.73204
▁기자회견을	-9.73206
▁추천	-9.73217
▁시민들이	-9.73317
▁단계	-9.73317
▁죽	-9.73392
▁곧	-9.73509
스러운	-9.7356
▁고민	-9.73564
얼	-9.73594
▁총장	-9.73598
딩	-9.73605
감을	-9.73636
▁수도권	-9.73759
▁열어	-9.73927
스를	-9.73974
▁명의	-9.73986
▁내용이	-9.73996
은행	-9.7405
▁숨진	-9.74177
▁따로	-9.74235
▁무단전재	-9.74235
▁사건이	-9.74278
48	-9.74317
해도	-9.74469
▁준다	-9.74487
▁궁	-9.74537
혁	-9.74541
▁아이돌	-9.74563
▁수밖에	-9.74583
▁인권	-9.74591
▁인도	-9.74699
▁반복	-9.74735
레이	-9.74736
▁관련된	-9.74776
▁의한	-9.74821
▁지적했다	-9.74832
▁소재	-9.74853
▁찾은	-9.74859
▁허용	-9.74886
▁방면	-9.74887
치는	-9.74922
▁전해졌다	-9.74993
▁특검	-9.75142
▁임금	-9.75272
▁달성	-9.75287
▁크다	-9.75289
▁포함한	-9.75298
▁남편	-9.75306
▁종류	-9.75315
▁보상	-9.75339
▁뉴	-9.75372
▁진입	-9.75423
▁놀	-9.75423
▁다음과	-9.75431
▁33	-9.7548
▁역대	-9.75524
▁구간	-9.75554
카드	-9.75585
▁했던	-9.75614
▁무슨	-9.75632
▁(.	-9.75634
탁	-9.75654
먼	-9.75793
▁단속	-9.75851
▁놓고	-9.75898
▁떠나	-9.75906
우스	-9.7592
▁대부분의	-9.75992
하려는	-9.75996
▁넘는	-9.7605
▁일본의	-9.76086
▁약간	-9.76113
▁있으면	-9.76277
▁인기	-9.76323
셔	-9.7638
▁주택	-9.76411
▁에피소드	-9.76415
▁반영	-9.76438
회사	-9.76441
▁학생들이	-9.76449
▁파워	-9.76467
쇼	-9.76472
▁육	-9.76496
랄	-9.76535
▁입장을	-9.76558
▁통한	-9.76577
▁추가로	-9.766
▁이름이	-9.76635
▁색	-9.7664
▁◀	-9.76659
▁수입	-9.76659
▁졸업	-9.76792
27	-9.76864
▁성적	-9.76896
억원을	-9.76924
▁주문	-9.76955
▁항상	-9.76975
.1	-9.77016
▁어린	-9.77055
전에서	-9.77141
▁접수	-9.77157
▁아내	-9.7717
▁하늘	-9.77223
별로	-9.77266
▁도움을	-9.77279
도시	-9.77361
임을	-9.77482
복지	-9.77488
▁본인	-9.77489
공격	-9.77499
▁부담	-9.77552
식을	-9.77559
▁■	-9.77583
▁맞는	-9.77783
벽	-9.778
▁부모	-9.77831
▁빠른	-9.77857
움	-9.77874
대는	-9.77888
▁특성	-9.77946
▁불구속	-9.77977
▁전화	-9.78041
▁달라	-9.78064
▁금융	-9.78067
▁진술	-9.78085
▁투표	-9.78094
▁입학	-9.781
▁2005	-9.78121
▁댓글	-9.78147
마리	-9.78202
▁스포츠	-9.78258
▁기자가	-9.78353
니아	-9.78358
es	-9.78377
▁SK	-9.7843
▁참석	-9.78445
▁매년	-9.78507
▁관계자	-9.78526
▁보다	-9.78535
▁서초구	-9.78539
ur	-9.78668
▁제일	-9.78755
▁절반	-9.78837
▁해군	-9.78856
▁드러났다	-9.78865
▁기소	-9.78881
사의	-9.78885
▁부활	-9.78894
틀	-9.78952
▁점수	-9.78998
▁유리	-9.79001
▁기계	-9.7901
▁쓰고	-9.79028
▁의무	-9.79105
▁근로자	-9.79108
▁알아	-9.79138
▁클리어	-9.79143
▁대한민국의	-9.79216
▁수능	-9.79321
▁때까지	-9.79414
▁출전	-9.79479
▁자리를	-9.79488
▁검찰이	-9.79497
▁돌아가	-9.79546
▁얼마나	-9.79572
▁압수수색	-9.79617
28	-9.79677
▁위기	-9.79719
▁있다면	-9.7977
▁뇌	-9.79804
▁정상	-9.79816
생활	-9.79835
국가	-9.79854
▁대해서	-9.79878
▁동생	-9.79892
▁깨	-9.79964
▁미리	-9.79986
클	-9.80036
.6	-9.80041
▁주말	-9.80073
▁충분히	-9.80214
▁나타나	-9.80233
▁어제	-9.80237
▁국립	-9.80306
연구	-9.80338
▁달려	-9.80366
it	-9.80402
▁잡아	-9.8044
▁효과를	-9.80455
▁더불어	-9.80462
▁여기	-9.80484
▁잠시	-9.80496
▁도움이	-9.80539
▁우수	-9.80549
▁충돌	-9.80556
싱	-9.80597
31	-9.80603
리가	-9.80618
▁있으나	-9.80668
▁범	-9.80733
▁빨리	-9.8076
▁내용은	-9.80784
사는	-9.8082
▁얼굴	-9.80825
▁보수	-9.80893
▁신체	-9.80906
▁정도의	-9.80913
▁차이가	-9.80921
▁소방	-9.80924
▁부산시	-9.80957
is	-9.80958
률	-9.81026
ad	-9.81045
00	-9.81049
▁행복	-9.81064
▁통제	-9.81123
▁고소	-9.81164
▁바다	-9.8117
▁번역	-9.81191
45	-9.81235
▁오래	-9.81267
분쯤	-9.81286
▁소송	-9.81347
지방	-9.81352
▁표기	-9.81357
▁체포	-9.81381
▁교육부	-9.81418
▁사고가	-9.81422
▁상태로	-9.81497
▁유명한	-9.81554
몰	-9.81607
▁삭제	-9.81624
(3	-9.81658
▁비밀	-9.81687
▁컴퓨터	-9.81699
▁길이	-9.81702
렬	-9.81715
▁엔진	-9.81754
▁조사하고	-9.81762
자와	-9.81773
▁회원	-9.81805
▁전재	-9.81822
쓰	-9.8185
▁수상	-9.81851
▁이해	-9.81857
▁장기	-9.81883
위원	-9.8192
▁차지	-9.81946
물을	-9.81958
시험	-9.81994
▁태풍	-9.82015
▁하게	-9.82053
▁휴	-9.8208
여성	-9.82083
▁!!	-9.82149
큐	-9.82231
▁공중	-9.82253
▁복지	-9.82376
세를	-9.82412
▁다소	-9.82447
▁지자체	-9.82463
▁더불어민주당	-9.82488
▁고발	-9.82515
▁수원	-9.82558
▁앞둔	-9.82565
▁쪽	-9.82571
냈다	-9.82595
▁여행	-9.82669
차례	-9.82673
▁얼마	-9.82693
▁활성화	-9.8272
▁많아	-9.82756
▁염	-9.82757
▁전면	-9.82787
▁★	-9.82818
ro	-9.82887
▁재정	-9.83071
▁않게	-9.8308
겠다고	-9.83215
▁m	-9.83216
▁트	-9.83228
▁경험	-9.83266
▁입고	-9.8331
▁비롯해	-9.83337
▁설계	-9.83337
했	-9.83433
▁목록	-9.83443
▁자살	-9.8351
▁목표	-9.83631
▁아무	-9.83646
팔	-9.8367
▁참사	-9.83782
▁완성	-9.83849
학생	-9.83885
▁장착	-9.8389
▁정작	-9.83917
행정	-9.83952
▁블랙	-9.84025
▁생존	-9.84026
▁최초로	-9.84094
▁손을	-9.84111
▁비용	-9.8413
빙	-9.84148
문을	-9.84195
릭	-9.84202
▁범위	-9.84323
▁작가	-9.84355
▁적을	-9.84374
▁아니면	-9.84378
▁일대	-9.84406
▁겨울	-9.84472
▁군사	-9.8449
▁사용자가	-9.84526
▁마리	-9.84631
▁역할	-9.84745
주기	-9.84745
▁초반	-9.84746
시켰다	-9.8482
▁배경	-9.8483
나무	-9.84842
시킬	-9.84869
▁어머니	-9.84885
▁크	-9.85014
▁씨를	-9.85043
▁뜻	-9.85122
▁이달	-9.85197
▁그를	-9.85229
▁주제로	-9.85249
▁물리	-9.85266
▁여름	-9.85294
▁필요가	-9.85403
연합	-9.85404
▁내에서	-9.85414
▁콜	-9.85443
범죄	-9.85456
지구	-9.85492
▁지역에	-9.85525
▁등장한다	-9.85525
▁아마	-9.85528
▁주고	-9.85552
▁옛	-9.85625
▁연출	-9.85709
▁판결	-9.85752
.9	-9.85802
군은	-9.85807
▁반발	-9.85825
▁내일	-9.85899
잡	-9.85908
▁Z	-9.85944
▁미국의	-9.86009
스는	-9.86032
으니	-9.86053
▁효과가	-9.86091
▁연계	-9.8619
▁선언	-9.86204
람	-9.86317
▁알려져	-9.86331
▁쉬	-9.86338
▁주의	-9.86355
▁창업	-9.86396
찰	-9.8644
▁안내	-9.86511
▁출발	-9.86514
▁비교	-9.86531
▁무장	-9.8657
▁()	-9.86577
▁방식으로	-9.86605
▁남은	-9.86619
▁사업을	-9.86621
▁알게	-9.86675
▁케	-9.86694
▁a	-9.86724
과학	-9.86745
▁증거	-9.86756
▁마음을	-9.86763
▁서울시는	-9.86834
▁완료	-9.86846
센	-9.86911
▁제안	-9.86919
▁받	-9.86937
준다	-9.8696
▁야구	-9.86971
콘	-9.86988
시키고	-9.87002
▁있으니	-9.87048
▁바람에	-9.87068
문제	-9.87073
▁방영	-9.87089
▁150	-9.87096
▁얻을	-9.87212
▁현재는	-9.8722
▁공항	-9.87234
▁능력을	-9.87238
000	-9.87302
등급	-9.87417
▁포인트	-9.8742
▁정식	-9.87526
사와	-9.87566
▁제시	-9.87588
굴	-9.87598
▁나오	-9.8767
▁식으로	-9.8767
▁추정	-9.87681
▁34	-9.87692
IP	-9.87718
▁부분이	-9.87723
▁미션	-9.87741
▁제외	-9.87756
▁남북	-9.87766
▁많았다	-9.8777
▁했는데	-9.87889
폰	-9.87919
▁유통	-9.88066
▁예를	-9.88068
대표	-9.88071
▁등에서	-9.88093
▁김씨는	-9.88099
께	-9.88183
▁프	-9.88233
▁정당	-9.88258
ic	-9.88291
▁사상	-9.88325
▁보여	-9.88362
▁과학	-9.88457
▁형태	-9.88539
▁최고의	-9.88613
▁한정	-9.88672
▁폭력	-9.88688
이면	-9.88752
▁육군	-9.88777
▁내리	-9.88819
▁여담으로	-9.88884
▁고등학교	-9.88994
▁성폭력	-9.89035
▁분위기	-9.89056
▁모집	-9.89081
낼	-9.89085
▁도착	-9.8911
▁싱글	-9.89255
▁지도	-9.89267
▁노동자	-9.89301
보호	-9.89307
▁복귀	-9.89318
▁나중에	-9.89328
트리	-9.89336
▁중요	-9.89371
▁제주도	-9.89414
▁있었고	-9.89417
▁SBS	-9.89436
▁못해	-9.89451
▁이건	-9.89504
kg	-9.89525
랜드	-9.89542
▁그림	-9.89592
서비스	-9.89595
딜	-9.89608
원이	-9.89657
▁사전	-9.89676
▁수술	-9.89687
이므로	-9.89702
▁아시아	-9.89706
▁임명	-9.8971
▁엔딩	-9.89797
▁과정	-9.89816
ra	-9.89893
▁2004	-9.89901
▁공포	-9.89909
▁조건	-9.89967
34	-9.90059
▁관심을	-9.90066
시부터	-9.90126
▁여부를	-9.90136
▁해제	-9.90159
▁사태	-9.90162
▁말고	-9.9017
▁살해	-9.90311
▁핵	-9.90339
07	-9.90393
검사	-9.90419
▁워	-9.90432
▁이미지	-9.90438
▁다르다	-9.90466
▁통일	-9.90494
▁비가	-9.9059
▁법정	-9.90593
▁검거	-9.90636
교통	-9.90637
▁추모	-9.90664
w	-9.9077
▁생명	-9.90781
튼	-9.90817
▁글을	-9.90844
▁했습니다	-9.90874
들어	-9.90902
▁별로	-9.90903
킨	-9.91158
▁가면	-9.91203
▁열차	-9.91209
▁부회장	-9.91216
▁뽑	-9.91253
▁때마다	-9.91277
릿	-9.91279
▁존재한다	-9.91301
연구원	-9.91308
▁라이	-9.91314
▁FC	-9.91321
이라도	-9.9137
▁도전	-9.91404
▁탈출	-9.91432
▁구분	-9.9146
▁강조	-9.9146
▁적극	-9.91463
36	-9.91469
▁해석	-9.9148
▁떨어진	-9.91504
▁36	-9.91545
▁신규	-9.9155
제도	-9.91551
▁이사장	-9.91578
▁방해	-9.91599
▁캐	-9.91652
▁높이	-9.9175
▁제국	-9.91759
레스	-9.91771
▁올려	-9.9179
▁지상	-9.91796
▁메인	-9.91821
▁여의도	-9.91831
관광	-9.91837
▁f	-9.91903
▁공간	-9.91916
▁맞춰	-9.91953
▁방안을	-9.92
▁뒤에	-9.92028
▁벌금	-9.9204
▁in	-9.92076
▁알려진	-9.92091
▁평소	-9.92093
▁자녀	-9.92095
▁만들기	-9.92106
장으로	-9.92111
▁상담	-9.92126
야마	-9.92155
▁보이	-9.92166
됩니다	-9.92214
엽	-9.92223
니다	-9.92233
▁무려	-9.92251
자들이	-9.92305
▁초등학교	-9.92368
▁부탁	-9.9237
징	-9.92402
▁소모	-9.92438
kr	-9.92453
75	-9.92461
▁빠르게	-9.92474
▁칸	-9.92491
▁행위	-9.92564
▁쓰레기	-9.9259
▁탄핵	-9.92712
▁결론	-9.92713
▁특징	-9.92795
만명	-9.92857
리를	-9.92863
군이	-9.92934
부장	-9.92944
▁개편	-9.92961
대상	-9.92973
▁기부	-9.92983
▁도심	-9.93042
▁걸어	-9.93096
▁중간	-9.93114
▁나오고	-9.93114
▁LG	-9.93124
▁방법	-9.93157
▁최순실	-9.9316
▁패턴	-9.93248
ri	-9.93303
▁어디	-9.93403
▁떨어져	-9.93416
▁모양	-9.93432
▁열리는	-9.9349
지가	-9.93491
더라도	-9.93527
▁동일	-9.93534
▁지휘	-9.9355
▁부상	-9.93575
▁카페	-9.93595
www	-9.93625
▁브	-9.93658
▁예술	-9.93664
하려고	-9.93755
▁브랜드	-9.93763
▁영업	-9.93765
co	-9.93776
나는	-9.93824
▁운전자	-9.93856
▁투수	-9.93888
논	-9.93901
▁세력	-9.93926
▁힘든	-9.93946
▁상당한	-9.93967
▁다르게	-9.94
세계	-9.94019
▁덱	-9.94049
▁살아	-9.94068
▁포항	-9.94155
55	-9.94189
▁못한다	-9.94217
▁공장	-9.9422
협의회	-9.94228
▁분리	-9.94251
퇴	-9.94271
▁집행	-9.94338
▁신설	-9.94343
▁이용한	-9.94349
▁나눠	-9.94384
▁촉구	-9.94412
▁집에	-9.94476
▁묘사	-9.94568
버린	-9.94585
▁유치원	-9.94591
..."	-9.94607
▁소득	-9.94607
▁성인	-9.94634
▁김영	-9.94655
09	-9.9467
보고	-9.94678
없는	-9.94692
쯤	-9.94783
▁작중	-9.94814
99	-9.94816
▁노출	-9.94941
▁강남구	-9.94995
33	-9.95002
웅	-9.95012
힐	-9.95093
▁착용	-9.95128
▁회의	-9.95163
▁군대	-9.95183
▁월드	-9.95183
계획	-9.95195
37	-9.95291
▁숲	-9.95328
▁나섰다	-9.95365
▁머	-9.95423
▁형성	-9.95455
교사	-9.95472
▁했고	-9.95539
행위	-9.95549
상태	-9.95581
묘	-9.95587
▁항공	-9.9562
▁이름은	-9.95642
▁합동	-9.95652
▁성추행	-9.95681
원을	-9.95681
하겠다고	-9.95712
▁박사	-9.95719
▁슬	-9.95774
라운드	-9.95827
▁변신	-9.95848
▁마치	-9.95852
꽃	-9.95854
▁Lv	-9.95871
연대	-9.95978
▁임시	-9.96018
▁하나로	-9.96021
▁계열	-9.96054
▁가끔	-9.96107
받아	-9.96108
▁의견	-9.96115
▁양성	-9.96131
▁남아	-9.96147
▁모아	-9.96147
▁사람의	-9.96166
01	-9.9618
▁본인이	-9.96251
▁인증	-9.96275
기준	-9.96302
▁위원장	-9.96307
▁글로벌	-9.96316
▁가져	-9.96392
▁이탈리아	-9.96397
▁해소	-9.964
▁탑	-9.96499
▁대규모	-9.96524
▁로마	-9.96538
38	-9.96547
▁불가능	-9.96627
▁요리	-9.96683
이번	-9.96717
▁숨	-9.9681
▁유일한	-9.9683
▁구입	-9.9685
▁지원을	-9.96861
▁수색	-9.96886
▁이른바	-9.96951
▁없지만	-9.97048
▁마약	-9.97052
▁지시	-9.97056
차량	-9.97117
▁있었지만	-9.97148
▁참석한	-9.9717
▁작년	-9.9718
▁지배	-9.97263
라이	-9.97266
죽	-9.9733
량이	-9.97336
보험	-9.97342
▁언어	-9.97378
▁수출	-9.97382
▁케이	-9.97408
▁맥	-9.97408
▁사이트	-9.97412
값	-9.97441
▁먹고	-9.97446
어서	-9.97479
▁타입	-9.97509
응	-9.97606
드는	-9.97616
▁38	-9.97629
▁공유	-9.97638
▁적발	-9.97649
금을	-9.97655
▁수석	-9.97675
잔	-9.9771
지로	-9.97774
▁위로	-9.97844
▁여부	-9.97849
▁푸	-9.97931
▁점점	-9.97941
▁추락	-9.97967
▁외에도	-9.98009
▁비리	-9.98107
▁사진을	-9.98124
▁치료를	-9.98126
시즌	-9.98147
간다	-9.98237
어요	-9.98242
▁발생했다	-9.98244
빛	-9.98268
되었으며	-9.98324
▁대피	-9.98334
▁자원	-9.9836
구조	-9.98415
▁대선	-9.98419
▁경찰관	-9.98442
▁최초	-9.98447
▁받게	-9.9848
단지	-9.98486
▁센터	-9.98498
▁유도	-9.98511
▁서울대	-9.98632
▁소녀	-9.98646
했기	-9.98651
위는	-9.9871
오는	-9.98731
▁고객	-9.98745
발전	-9.98769
노조	-9.98827
▁기체	-9.98827
아이	-9.98909
▁다이	-9.98929
▁탑승	-9.98938
▁선물	-9.98945
▁곳에	-9.98986
▁하여	-9.98987
▁수많은	-9.9902
맞	-9.99129
였고	-9.99135
▁정권	-9.99136
▁전략	-9.9916
홀	-9.99184
▁공모	-9.99222
▁분노	-9.99267
▁가구	-9.99281
성과	-9.99356
▁지금은	-9.99381
가량	-9.99471
▁현지	-9.99503
▁대표적인	-9.99518
둔	-9.99521
▁책임을	-9.99548
▁속에서	-9.99577
▁시점	-9.99615
▁저항	-9.99623
국제	-9.99631
▁보이고	-9.99682
▁순위	-9.9971
▁점에서	-9.99744
▁그린	-9.99769
▁있었는데	-9.99948
▁우리가	-9.99951
▁눈에	-9.99975
08	-10
▁도중	-10.0003
▁허위	-10.0005
▁음식	-10.0008
더니	-10.001
▁일행	-10.0011
▁원인	-10.0012
▁놓	-10.0015
▁꺼	-10.0016
▁개념	-10.002
▁가까이	-10.0027
▁재산	-10.0033
▁HP	-10.0041
기록	-10.0042
▁전개	-10.0048
▁접촉	-10.0052
▁문을	-10.0054
▁딜	-10.0056
▁클럽	-10.0062
▁무대	-10.0073
▁x	-10.0073
▁유치	-10.0079
▁검은	-10.008
▁최소	-10.0086
▁포기	-10.009
▁되기	-10.0094
▁수록	-10.0094
▁수용	-10.0097
허	-10.0099
▁사유	-10.0099
▁나오지	-10.0099
▁개통	-10.01
소리	-10.0101
자리	-10.0114
▁죽은	-10.0118
▁전사	-10.0118
▁남부	-10.0119
▁좋아하는	-10.0121
▁있	-10.0128
휴	-10.0133
사항	-10.0135
▁저녁	-10.0136
▁바탕으로	-10.0138
▁종교	-10.014
▁등급	-10.0151
▁했으나	-10.0152
▁어린이집	-10.0154
대전	-10.0154
▁상당	-10.0155
끼	-10.0157
▁녹	-10.0159
▁사람들은	-10.0159
▁서울중앙지법	-10.016
화가	-10.0162
시대	-10.0164
▁탓에	-10.0164
▁전차	-10.0173
▁지역에서	-10.0186
연구소	-10.0195
▁생긴	-10.0196
기사	-10.0197
▁자유한국당	-10.0198
▁했다고	-10.0204
▁한국의	-10.0206
▁도쿄	-10.0213
▁후반	-10.0213
',	-10.0214
▁끝내	-10.0216
▁그러면서	-10.0218
치고	-10.0219
▁딱	-10.0226
▁점이	-10.0228
▁덕	-10.0231
▁세상	-10.0233
▁가서	-10.0235
원은	-10.0243
▁할머니	-10.0246
▁징계	-10.0247
▁스테이지	-10.025
▁빼	-10.0252
▁대표는	-10.0254
▁경찰청	-10.0254
▁시작한	-10.0255
▁확장	-10.0258
▁추적	-10.0264
▁위해서는	-10.0266
▁일어나	-10.0273
▁탈락	-10.0275
▁바꿔	-10.0276
▁빠져	-10.0276
치를	-10.0285
이니	-10.0285
▁공부	-10.0288
▁운영하는	-10.0288
회장	-10.029
▁애초에	-10.0291
전에	-10.0294
▁좌	-10.0295
▁적극적으로	-10.0296
▁모르는	-10.0303
처리	-10.0306
▁젊은	-10.0308
재판	-10.031
▁이름으로	-10.031
▁장소	-10.0314
Z	-10.0315
위원장	-10.0316
▁모른다	-10.0324
▁대통령은	-10.0325
▁높	-10.0325
당한	-10.0328
▁황제	-10.0332
▁vs	-10.0332
▁환경부	-10.0335
▁자동	-10.0337
▁말에	-10.0338
▁주인	-10.0344
▁끊	-10.0344
젠	-10.0348
▁체결	-10.0352
(4	-10.0355
으면서	-10.0355
▁발굴	-10.0356
▁to	-10.0357
▁정의	-10.0362
▁관심이	-10.0364
▁질문에	-10.0365
▁굴	-10.037
▁현장에서	-10.0371
▁테러	-10.0372
65	-10.0374
▁옮겨	-10.0375
▁무료	-10.0377
카와	-10.0379
▁이들이	-10.038
▁협박	-10.0386
▁2002	-10.0386
▁않도록	-10.0391
▁향해	-10.04
▁효	-10.04
힌	-10.0402
▁베트남	-10.0409
일에는	-10.0416
▁열린다	-10.0422
▁웃	-10.0429
▁지사	-10.0429
▁배틀	-10.0432
세요	-10.0432
▁그때	-10.0434
▁육성	-10.044
훈련	-10.0442
탕	-10.0445
▁끼	-10.0447
▁사람들	-10.0449
▁문제로	-10.045
▁옆	-10.0452
하다는	-10.0457
교육청	-10.0459
시킨다	-10.046
▁필수	-10.046
▁철거	-10.046
건설	-10.0467
▁사용한	-10.0467
▁심리	-10.0471
마저	-10.0473
▁실험	-10.0475
▁사용한다	-10.0477
.8	-10.048
▁유출	-10.048
▁학원	-10.0482
▁기본적으로	-10.0487
▁비난	-10.0488
▁작업을	-10.049
풀	-10.0491
닝	-10.0491
빌	-10.0495
▁시전	-10.0496
스와	-10.0498
▁연합뉴스	-10.0509
▁강남	-10.0516
▁지역의	-10.0519
(5	-10.052
운영	-10.0521
▁싶은	-10.0529
▁직장	-10.0537
▁찾는	-10.0537
▁출생	-10.0537
▁기초	-10.054
▁건담	-10.0542
▁최저임금	-10.0545
▁옷	-10.0551
▁신경	-10.0551
해진	-10.0552
▁제목	-10.0553
용으로	-10.0556
▁만들었다	-10.0559
▁올라	-10.0563
▁단지	-10.0564
▁연휴	-10.0565
▁정확히	-10.0572
공간	-10.0574
▁되는데	-10.0574
하였으며	-10.0584
▁입은	-10.0587
▁싸우	-10.0589
▁외국	-10.0592
▁화면	-10.0593
▁비행	-10.06
▁제조	-10.0602
▁차관	-10.0603
대의	-10.0605
▁취지	-10.0605
대교	-10.0605
섬	-10.0607
▁서울중앙지검	-10.0607
▁원하는	-10.0609
▁악마	-10.061
▁운용	-10.0611
▁청주	-10.0617
▁향상	-10.0619
▁속에	-10.062
밥	-10.0621
엄	-10.0623
▁인력	-10.0623
▁37	-10.0624
▁고정	-10.0626
05	-10.0629
▁파견	-10.063
▁피해가	-10.063
▁모여	-10.0631
▁몰	-10.0633
▁로봇	-10.0634
득	-10.0643
비가	-10.0643
▁반응	-10.0646
▁다리	-10.0649
▁편성	-10.0651
시아	-10.0656
▁개방	-10.066
▁전주	-10.0663
▁김씨	-10.0664
텐	-10.0665
▁성폭행	-10.0672
▁종족	-10.0674
▁강릉	-10.0686
▁밝힌	-10.0692
▁협의	-10.0697
▁시각	-10.0709
▁현금	-10.0713
▁있는지	-10.0715
▁사고로	-10.072
▁추석	-10.0728
하겠다는	-10.0735
▁유일하게	-10.0735
인이	-10.0738
▁몸을	-10.074
▁이웃	-10.0742
▁시는	-10.0745
▁이걸	-10.0755
자원	-10.0759
▁이기	-10.0766
▁증언	-10.0767
▁매일	-10.0768
시스템	-10.077
▁고속도로	-10.0772
▁물건	-10.0777
노동	-10.078
콜	-10.0784
▁본래	-10.0785
▁▷	-10.0789
공단	-10.0792
id	-10.0792
일본	-10.0795
▁봐도	-10.0796
▁전원	-10.0798
44	-10.0798
▁경계	-10.0802
▁올리	-10.0813
▁겁니다	-10.0823
선을	-10.0823
▁이적	-10.0826
▁한국인	-10.0834
▁지식	-10.0837
▁것이라는	-10.0843
▁스타일	-10.0845
▁등장한	-10.0847
▁패치	-10.085
점이	-10.0853
▁장면	-10.0857
▁영역	-10.0858
▁중에서	-10.0863
▁2019	-10.0866
▁애니	-10.087
능력	-10.0873
▁각성	-10.0877
▁수십	-10.0877
동안	-10.0879
▁월드컵	-10.0884
▁그걸	-10.0885
롱	-10.0886
▁2003	-10.0889
▁만난	-10.0895
▁홈	-10.0902
▁가게	-10.0912
칙	-10.0921
▁근접	-10.0922
트를	-10.0925
▁입원	-10.0927
▁미사일	-10.0928
▁맛	-10.0931
▁생각해	-10.0934
▁팬들	-10.0934
에게서	-10.0934
▁Q	-10.0939
▁말하는	-10.0943
▁조사됐다	-10.0947
▁의뢰	-10.0949
▁120	-10.0951
겠다는	-10.0951
▁Y	-10.0951
안을	-10.0954
▁주민들	-10.0957
▁정비	-10.0959
▁벽	-10.0962
다면	-10.0963
▁당일	-10.0967
▁활	-10.0975
▁출범	-10.0981
▁벨	-10.0986
▁무조건	-10.0987
▁동영상	-10.0992
협력	-10.0992
▁2.	-10.0995
▁다크	-10.0996
▁찬	-10.0998
▁수는	-10.1002
▁대중	-10.1003
▁게임을	-10.1006
▁빛	-10.1007
▁현재까지	-10.1008
시티	-10.1011
되자	-10.1014
▁확인됐다	-10.1015
▁없기	-10.1017
▁그야말로	-10.1019
▁사격	-10.1019
▁광화문	-10.102
▁없음	-10.102
▁당장	-10.1022
▁부부	-10.1023
전쟁	-10.1024
▁훼손	-10.1026
솔	-10.1033
▁아무리	-10.1039
▁척	-10.1041
납	-10.1044
▁불리는	-10.1045
선거	-10.1045
▁은행	-10.1046
사랑	-10.1048
법을	-10.1051
▁수업	-10.1055
▁뿐만	-10.1058
▁바란다	-10.1058
IC	-10.1059
▁마친	-10.106
▁응원	-10.1061
▁당선	-10.1062
▁전망	-10.1071
신고	-10.1076
▁국정원	-10.1079
▁가슴	-10.1083
▁뜨	-10.1084
▁얼	-10.1087
▁사이에서	-10.109
▁AI	-10.1092
▁65	-10.1097
▁힘들다	-10.1098
답	-10.1101
▁스마트폰	-10.1104
39	-10.1106
수록	-10.111
트로	-10.1112
하다고	-10.1114
▁위안부	-10.1114
▁제정	-10.1114
▁확인할	-10.1115
▁PC	-10.1117
초등학교	-10.1121
갔다	-10.1123
▁눈이	-10.1124
▁피부	-10.1124
▁폭염	-10.1124
▁보이지	-10.1125
▁드러나	-10.1126
▁건축	-10.113
▁등과	-10.1133
▁주도	-10.1133
▁승객	-10.1134
▁건립	-10.1139
▁몇몇	-10.1139
▁끌어	-10.1139
지지	-10.114
▁없어서	-10.1141
▁소년	-10.1142
▁위의	-10.1143
서는	-10.1147
어야	-10.1148
▁던전	-10.1149
▁링크	-10.1149
▁간부	-10.1151
▁은퇴	-10.1153
▁허가	-10.1162
시에	-10.1171
▁축	-10.1172
▁상황에	-10.1173
조선	-10.1182
▁업	-10.1182
47	-10.1182
▁내린	-10.1183
▁헌법	-10.1183
▁김모	-10.1183
대책	-10.1188
▁평가를	-10.1189
▁새누리당	-10.119
▁공주	-10.119
욕	-10.1192
세가	-10.1194
하라고	-10.1201
▁심각한	-10.1204
▁주력	-10.1211
▁달러	-10.1213
▁올라가	-10.1216
▁의원이	-10.1227
전문	-10.1229
짓	-10.1237
받는	-10.1237
▁w	-10.1239
칼	-10.1243
▁전직	-10.1244
▁언	-10.125
▁대학생	-10.125
▁발표했다	-10.1251
▁혁신	-10.1252
▁다수	-10.1254
▁길을	-10.1254
▁의식	-10.1255
▁꾸준히	-10.126
개혁	-10.126
쳤다	-10.1265
▁쳐	-10.1267
▁약속	-10.1274
▁않지만	-10.1275
경찰서	-10.1279
▁and	-10.1279
▁향후	-10.128
뉴	-10.1282
▁기록했다	-10.1282
▁북부	-10.1288
▁유저	-10.1289
버리는	-10.1289
▁방안	-10.129
▁개입	-10.1291
▁행진	-10.1291
400	-10.1294
틴	-10.1295
▁광역	-10.1296
▁솔	-10.1298
▁지속적으로	-10.1298
▁한반도	-10.1299
▁의도	-10.1306
▁블루	-10.1307
▁부르	-10.1308
▁호텔	-10.131
▁반대로	-10.1312
학원	-10.1313
▁방식	-10.1314
▁학부모	-10.1318
▁상대방	-10.1319
▁보험	-10.132
느냐	-10.132
▁캠페인	-10.1322
▁빙	-10.1324
▁최대한	-10.1326
원으로	-10.1329
므로	-10.134
04	-10.1342
▁취임	-10.1345
~20	-10.1346
▁부르는	-10.135
있	-10.135
▁합격	-10.1353
▁자신	-10.1357
었습니다	-10.1359
▁400	-10.1363
▁가스	-10.1367
▁승용차	-10.1369
▁No	-10.137
▁그녀의	-10.137
▁통신	-10.1371
▁이유가	-10.1372
세트	-10.1377
▁대체로	-10.1378
▁보급	-10.1382
까지는	-10.1383
▁이들의	-10.1386
▁보여준다	-10.1388
▁목적으로	-10.1388
▁잡고	-10.1394
때문에	-10.1397
▁응	-10.14
▁파티	-10.1401
▁거기에	-10.1402
▁뇌물	-10.1403
십	-10.1403
▁카메라	-10.1405
▁주제	-10.1407
의료	-10.1408
▁수립	-10.1409
천만	-10.1411
▁집행유예	-10.1413
적이고	-10.1422
밍	-10.1424
▁희생	-10.1424
▁종종	-10.1425
▁대학교	-10.1425
▁상품	-10.1428
이던	-10.143
▁동의	-10.143
뿐만	-10.1438
▁최초의	-10.1438
▁싶다	-10.144
컵	-10.1442
▁미만	-10.1448
▁뛰어난	-10.1451
300	-10.1453
▁대장	-10.1466
▁죽어	-10.1466
음을	-10.1467
▁커뮤니티	-10.147
▁개혁	-10.147
▁고대	-10.1471
▁보아	-10.1471
▁라인	-10.1473
▁보조	-10.1474
버렸다	-10.1475
▁내용의	-10.1476
▁워낙	-10.1481
▁의지	-10.1486
▁들여	-10.1489
▁세대	-10.1492
▁능력이	-10.1495
프로	-10.15
▁&	-10.1501
버린다	-10.1503
▁교통사고	-10.1503
59	-10.1505
▁아르	-10.1505
▁계산	-10.1506
▁작전	-10.151
놓고	-10.1515
었지만	-10.1516
▁형태로	-10.1518
▁완전	-10.1519
▁남성이	-10.1523
▁수비	-10.1526
▁무시	-10.1528
▁기각	-10.1531
▁규제	-10.1533
▁끝난	-10.1543
▁사무실	-10.1549
▁산불	-10.155
ir	-10.1559
▁토론	-10.156
▁세트	-10.1561
▁일은	-10.1561
▁방지	-10.1562
▁비교적	-10.1567
▁횡령	-10.1567
▁하던	-10.1575
장의	-10.1577
▁선박	-10.1577
▁타이	-10.1578
▁사실은	-10.1579
▁감정	-10.1579
▁넣어	-10.1579
▁퀘스트	-10.1579
▁타격	-10.158
▁싸	-10.1582
▁앤	-10.1584
한다면	-10.1586
수도	-10.159
명과	-10.159
▁누가	-10.1592
▁목숨을	-10.1593
롭	-10.1596
▁쌍	-10.1597
46	-10.1599
었는데	-10.1605
▁보안	-10.1605
주고	-10.1606
▁장면이	-10.1612
가족	-10.1612
▁본사	-10.1615
▁중학교	-10.1615
스케	-10.1622
▁삼성전자	-10.1623
▁근데	-10.1627
▁냈다	-10.1627
▁기반	-10.1631
▁안정	-10.1645
혹	-10.1647
제가	-10.1648
▁기존의	-10.1648
▁신문	-10.1652
▁틀	-10.1653
▁55	-10.1653
▁프레	-10.1654
▁품	-10.1655
▁헬	-10.1657
as	-10.1657
▁경기에서	-10.1658
감독	-10.1659
▁만들어진	-10.1665
▁복수	-10.1666
▁상징	-10.167
▁실력	-10.167
▁명령	-10.1672
▁>	-10.1673
기구	-10.1676
▁에어	-10.1677
ha	-10.1677
▁연주	-10.1679
▁차별	-10.1679
▁있었	-10.1682
▁(19	-10.1683
▁민원	-10.1683
컬	-10.1685
려는	-10.1692
지법	-10.1694
▁때도	-10.1701
▁소통	-10.1702
장과	-10.1704
▁채널	-10.1705
▁해상	-10.1708
▁필드	-10.1709
▁기회를	-10.1713
▁만한	-10.1717
▁즉시	-10.1732
▁수치	-10.1732
맥	-10.1733
첩	-10.1735
▁셈	-10.1736
▁이후로	-10.1738
▁연재	-10.174
▁알려	-10.1741
▁기술을	-10.1746
▁이사	-10.1746
▁곳에서	-10.1749
▁초반에	-10.1749
▁엔	-10.1752
▁당한	-10.1753
▁포지션	-10.1753
하니	-10.1756
머리	-10.1757
▁않았	-10.1759
▁턴	-10.1763
▁바이	-10.1765
▁성능	-10.1769
▁대법관	-10.1772
▁되었고	-10.1778
am	-10.1782
▁119	-10.1782
룸	-10.1783
스크	-10.1783
"...	-10.1786
▁formula	-10.1786
56	-10.1788
06	-10.179
▁부장판사	-10.1791
킬	-10.1793
겠지만	-10.18
▁42	-10.1801
장에	-10.1803
▁않기	-10.1803
▁장애	-10.1807
▁방침	-10.1808
▁후보자	-10.181
▁그리스	-10.181
▁b	-10.1816
데이	-10.1816
몽	-10.1817
▁업데이트	-10.1821
▁포함해	-10.1826
▁바이러스	-10.1826
▁외에	-10.1828
▁밥	-10.1831
▁사건의	-10.1834
▁리더	-10.1839
지라	-10.1839
▁생각하면	-10.1839
▁퇴	-10.1843
▁자료를	-10.1847
▁p	-10.1847
괴	-10.1848
▁안에서	-10.1849
▁부지	-10.185
▁호소	-10.1851
▁방어력	-10.1852
▁처분	-10.1853
라서	-10.1853
▁부문	-10.1856
▁병원으로	-10.1857
▁해양	-10.1858
릉	-10.186
따	-10.1861
ol	-10.1861
▁상대적으로	-10.1861
▁범행을	-10.1866
▁내렸다	-10.1866
▁굳이	-10.1877
il	-10.1878
▁생물	-10.1879
▁가사	-10.1885
▁초대	-10.1885
▁싶어	-10.1887
▁만들고	-10.1895
▁원장	-10.1895
부터는	-10.19
▁죄	-10.19
▁충	-10.1902
포인트	-10.1906
일간	-10.1913
▁화장실	-10.1915
▁정치적	-10.1918
49	-10.1921
▁찍	-10.1924
▁침해	-10.1927
째	-10.1927
▁경주	-10.1943
▁민주노총	-10.1943
▁반응을	-10.1944
▁39	-10.1946
▁합류	-10.1948
▁뭔가	-10.195
벤	-10.195
푸	-10.1951
▁마나	-10.1951
88	-10.1952
▁부과	-10.1956
▁전망이다	-10.1959
▁칠	-10.196
수는	-10.196
all	-10.196
▁일제	-10.1964
▁전력	-10.1973
▁얼음	-10.1974
▁부동산	-10.1974
▁대법원장	-10.1985
▁압박	-10.1985
▁대해서도	-10.1985
타로	-10.1986
부가	-10.1987
▁홀	-10.199
하므로	-10.1992
부는	-10.1993
▁불과	-10.1999
▁경고	-10.2002
능	-10.201
▁원칙	-10.2013
▁생각이	-10.2013
▁소비	-10.2015
▁CCTV	-10.2019
장관	-10.202
ch	-10.2023
항공	-10.2026
▁소비자	-10.203
▁숫자	-10.203
핑	-10.2031
여명이	-10.2031
들로	-10.2035
▁현상	-10.2039
▁폐쇄	-10.2041
▁내고	-10.2044
▁켄	-10.2044
기와	-10.2045
펜	-10.2048
98	-10.2048
▁마이	-10.2053
▁돌아	-10.2054
▁전설	-10.2056
▁이전에	-10.2057
▁휘	-10.2064
▁후원	-10.2067
▁대출	-10.2071
속도	-10.2073
▁자전거	-10.2076
해졌다	-10.2084
▁쉽지	-10.2085
▁자체는	-10.2085
▁소유	-10.2086
▁혼란	-10.2087
잠	-10.2094
▁생각한다	-10.2095
▁표준	-10.2095
닉	-10.2095
▁피고인	-10.2102
▁보관	-10.2105
▁같	-10.2105
▁기자회견	-10.2111
▁듯한	-10.2112
▁업그레이드	-10.2115
지검	-10.2116
▁창원	-10.2117
헤	-10.2118
▁총리	-10.2124
실에서	-10.2127
▁일상	-10.2128
▁기여	-10.2129
im	-10.2135
▁미니	-10.2138
▁묘	-10.2139
리에	-10.214
▁먹는	-10.2142
▁한계	-10.2145
▁인생	-10.2148
▁빅	-10.2149
▁수리	-10.2152
▁유족	-10.2154
▁민족	-10.2155
▁붕괴	-10.2156
치기	-10.2165
▁츠	-10.2169
▁밴드	-10.2172
개국	-10.2172
▁전작	-10.2172
43	-10.2176
▁발표한	-10.2178
▁권리	-10.2179
▁시위	-10.218
▁도주	-10.2182
▁빚	-10.2185
아파트	-10.2199
95	-10.2204
▁에이	-10.2205
▁고려해	-10.2214
학년도	-10.2216
▁한국어	-10.2218
03	-10.2219
▁계획을	-10.2221
▁편집	-10.2224
▁한강	-10.2224
사키	-10.2225
▁논	-10.2226
▁정황	-10.2231
▁인수	-10.2232
▁디지털	-10.2233
상황	-10.2237
▁짓	-10.2238
효과	-10.224
▁함정	-10.2243
▁단순히	-10.2246
딘	-10.2248
v	-10.2249
▁75	-10.2249
▁유형	-10.2249
▁짜	-10.2249
▁덜	-10.225
▁일본군	-10.2252
▁인기를	-10.2252
▁주변에	-10.2253
▁태양	-10.2253
▁사거리	-10.2258
▁강력	-10.2259
▁서부	-10.2259
▁그래	-10.226
▁뛰어	-10.2264
▁포켓몬	-10.2264
에만	-10.2269
▁뿌리	-10.227
▁체계	-10.2273
▁들었다	-10.2273
상의	-10.2277
▁2001	-10.2277
감이	-10.2279
▁전공	-10.2279
받고	-10.228
▁이것	-10.2283
▁아는	-10.2285
▁라디오	-10.2285
▁대처	-10.2289
_	-10.2289
▁이유를	-10.2291
▁재료	-10.2296
▁왼쪽	-10.2297
▁측정	-10.2298
▁진행된다	-10.2302
▁정기	-10.2308
공무원	-10.2308
▁관심	-10.2309
▁스페인	-10.2309
무라	-10.2312
▁무리	-10.2314
했는지	-10.2314
85	-10.2316
▁맡은	-10.2317
버리	-10.2318
계약	-10.2321
▁아니지만	-10.2327
▁주차	-10.2331
▁의외로	-10.2332
▁생성	-10.2337
▁무게	-10.2338
57	-10.2345
▁듯하다	-10.2346
▁시청	-10.2347
▁하나의	-10.235
▁시신	-10.2356
케이	-10.2357
▁넘	-10.2361
▁회장은	-10.2363
▁벗어나	-10.2363
▁예상된다	-10.2365
▁48	-10.2366
▁항의	-10.2366
▁방향으로	-10.2371
▁시작된	-10.2372
▁인천시	-10.2379
▁지명	-10.2385
▁능력치	-10.2388
▁대답	-10.2392
하려면	-10.2398
▁프로그램을	-10.2398
▁신고를	-10.2399
피해	-10.2399
▁구성된	-10.2401
▁불리	-10.2402
활	-10.2402
인권	-10.2402
▁국방부	-10.241
▁판사	-10.2413
시마	-10.2414
보는	-10.2417
▁불안	-10.2419
지에	-10.2419
공장	-10.2419
▁이명박	-10.2425
▁소송을	-10.2427
▁과정을	-10.2432
함으로써	-10.2433
▁고양이	-10.2434
텍	-10.2437
▁고향	-10.2441
사로	-10.2441
64	-10.2442
▁가량	-10.2444
소를	-10.2444
원의	-10.2446
위에	-10.2452
구역	-10.2454
▁단어	-10.2454
▁동부	-10.2455
▁카드를	-10.2462
▁생각을	-10.2462
(20	-10.2466
▁카이	-10.2467
▁이혼	-10.2467
▁챔피언	-10.2472
▁담긴	-10.2474
됐고	-10.2474
드라	-10.2475
▁외모	-10.2475
부대	-10.2479
▁문제점	-10.248
▁입건	-10.2481
▁재난	-10.2483
▁점프	-10.2484
▁중요하다	-10.2484
▁과제	-10.2488
▁간다	-10.249
위로	-10.2492
▁방문해	-10.2492
앙	-10.2494
▁분명	-10.2498
▁번호	-10.25
▁린	-10.2502
▁나선	-10.2505
77	-10.2506
▁돌려	-10.2507
▁살고	-10.2509
▁교회	-10.2513
▁김종	-10.2514
▁교류	-10.2518
▁참여한	-10.2519
▁학대	-10.252
▁원인을	-10.2527
▁좀비	-10.2529
▁레드	-10.2531
▁서버	-10.2533
)'	-10.2533
시까지	-10.2534
▁성매매	-10.2535
▁연합	-10.2535
치료	-10.2536
▁유기	-10.2543
▁공감	-10.2545
▁사망자	-10.2549
▁주최	-10.255
금융	-10.255
체험	-10.2563
보면	-10.2565
▁협상	-10.2566
▁그게	-10.2569
▁이상이	-10.2571
되기도	-10.2575
▁체제	-10.2577
의원	-10.2578
▁띄	-10.2579
02	-10.2582
▁삶	-10.2583
▁물질	-10.2584
66	-10.2584
웨이	-10.2585
빵	-10.2587
▁국민의	-10.259
업자	-10.259
▁발견된	-10.2593
▁토대로	-10.2595
▁직무	-10.2598
▁휴대전화	-10.26
▁강하게	-10.2601
▁담은	-10.2602
▁무죄	-10.2604
▁공원	-10.2606
정도	-10.2615
덴	-10.2618
느	-10.2619
▁아무런	-10.2622
주택	-10.2625
▁재단	-10.2628
▁수사에	-10.2629
▁강요	-10.2631
▁저지	-10.2631
사무소	-10.2632
▁자리에	-10.2632
▁43	-10.2636
▁의하면	-10.2638
▁동원	-10.264
▁영상을	-10.2641
▁h	-10.2649
▁미군	-10.265
▁김정	-10.2651
▁대로	-10.2652
▁오른쪽	-10.2656
답게	-10.2657
▁점은	-10.266
▁막기	-10.2662
▁실행	-10.2666
선수	-10.2667
▁거주	-10.2668
▁코스	-10.2668
▁희	-10.2669
보니	-10.267
▁가동	-10.2672
▁배출	-10.2676
▁보너스	-10.2679
부분	-10.2682
▁한글	-10.2682
륜	-10.2684
▁관측	-10.2688
▁대결	-10.2688
▁선생님	-10.269
▁감시	-10.2693
구를	-10.2694
▁서술	-10.2695
여명	-10.2696
69	-10.2701
▁소장	-10.2701
▁경기를	-10.2705
▁통보	-10.2707
대에	-10.2709
▁제가	-10.2709
눈	-10.271
▁KT	-10.2712
소득	-10.2712
▁언제	-10.2714
▁누구	-10.2715
▁선수들	-10.2717
▁중소기업	-10.2722
▁제외하면	-10.2724
▁요구하는	-10.2728
▁시작으로	-10.2728
▁부서	-10.273
여서	-10.2732
리고	-10.2733
▁넘게	-10.2738
▁근거	-10.2739
단은	-10.274
▁의견이	-10.2741
롤	-10.275
▁의혹이	-10.2751
닥	-10.2755
▁행사를	-10.276
▁트위터	-10.2761
상담	-10.2764
▁당했다	-10.2765
념	-10.2769
▁앙	-10.2771
명에	-10.2774
▁보낸	-10.2776
▁고위	-10.2777
▁든	-10.2777
내는	-10.2779
영화	-10.2779
CC	-10.278
▁자금	-10.2785
▁성우는	-10.2788
67	-10.2788
비아	-10.2791
▁법적	-10.2792
▁수준의	-10.2792
▁짧은	-10.2793
▁판단했다	-10.2801
▁요금	-10.2802
▁뒤로	-10.2805
▁서비스를	-10.281
회를	-10.281
▁뉴욕	-10.2811
▁얻어	-10.2814
멸	-10.2818
▁펼쳐	-10.2821
▁선고했다	-10.2824
▁때부터	-10.2827
▁제보	-10.2828
▁지켜	-10.283
모토	-10.2838
▁조종	-10.2841
▁1990	-10.2841
▁집에서	-10.2842
▁왕국	-10.2842
네요	-10.2843
▁읽	-10.2848
▁몰래	-10.2851
and	-10.2855
▁혈	-10.2856
▁음반	-10.2858
▁루트	-10.286
정치	-10.2861
▁뜻을	-10.2861
▁라이브	-10.2862
조직	-10.2866
89	-10.2866
▁것입니다	-10.2869
자인	-10.2869
▁예측	-10.2872
▁고교	-10.2876
럼	-10.2881
▁꾸	-10.2881
▁경비	-10.2881
▁시리즈의	-10.2887
▁서구	-10.2888
▁아프리카	-10.2897
▁죽음	-10.2899
te	-10.2904
이었고	-10.2907
▁그러니까	-10.2911
▁클	-10.2914
▁주차장	-10.2915
▁도박	-10.2918
렛	-10.2919
청소년	-10.2923
53	-10.2924
1%	-10.2925
86	-10.2925
▁동기	-10.2926
▁열심히	-10.2927
부를	-10.293
▁대폭	-10.2931
▁상태다	-10.2931
▁장관이	-10.2938
▁연습	-10.2939
▁충격	-10.2942
▁장갑	-10.2942
▁소련	-10.2945
오늘	-10.2946
▁3.	-10.2949
겼다	-10.2951
ow	-10.2953
▁아울러	-10.2956
▁자리에서	-10.2956
▁맞은	-10.2958
▁갈등	-10.296
▁요시	-10.2962
였지만	-10.2964
▁가을	-10.2974
58	-10.2974
▁수준으로	-10.2976
▁지닌	-10.2976
▁타카	-10.2976
투자	-10.2979
▁확률	-10.298
장치	-10.2981
se	-10.2982
접	-10.2984
▁사법	-10.2985
▁명예	-10.2986
▁있어야	-10.2991
단이	-10.2994
▁헌법재판소	-10.2995
▁맹	-10.3003
비용	-10.301
▁북구	-10.3011
▁공군	-10.3014
▁폴	-10.3022
▁맞이	-10.3024
▁셀	-10.3026
▁흡수	-10.3027
행동	-10.3029
▁규모의	-10.303
시쯤	-10.3034
▁격리	-10.3035
영상	-10.3035
▁특별한	-10.3037
▁41	-10.3038
▁한때	-10.3038
▁파업	-10.3038
▁꼬	-10.3041
▁시작한다	-10.3042
랜	-10.3046
였	-10.3047
공항	-10.3048
본부장	-10.3049
▁사고를	-10.3053
▁동해	-10.3054
▁떨	-10.3055
▁특유의	-10.3056
교수	-10.3057
▁진실	-10.3058
▁지점	-10.306
▁마치고	-10.3061
▁킹	-10.3066
51	-10.3067
▁센	-10.3076
▁영장	-10.3077
0%	-10.308
▁올린	-10.3081
'...	-10.3082
▁수집	-10.3082
&	-10.3083
▁5·18	-10.3087
▁되면서	-10.3087
▁김성	-10.3089
▁덮	-10.309
ly	-10.3091
▁가해자	-10.3095
▁비슷	-10.3096
▁형식	-10.3099
▁심사	-10.3099
셀	-10.3101
▁조기	-10.3105
▁춘천	-10.3106
▁St	-10.3112
▁52	-10.3113
▁돌파	-10.3117
▁동네	-10.3117
▁대상이	-10.3119
▁부분은	-10.312
▁개설	-10.3121
▁선임	-10.3121
지게	-10.3124
▁막아	-10.3124
▁방법을	-10.3126
▁개조	-10.3129
▁정규	-10.313
▁한화	-10.3134
41	-10.3141
▁t	-10.3146
▁이곳	-10.3146
명에게	-10.3148
▁밝혀	-10.3148
78	-10.315
▁44	-10.3151
짜리	-10.3151
무기	-10.316
▁해체	-10.3167
▁환자가	-10.3169
▁이모	-10.317
800	-10.317
▁Re	-10.3171
탐	-10.3179
빠	-10.3188
▁머리를	-10.3188
1)	-10.3191
트라	-10.3193
▁거절	-10.3194
것이	-10.3196
▁받기	-10.3197
▁회피	-10.3198
▁시민단체	-10.3199
▁당부했다	-10.3201
▁견	-10.3201
▁발음	-10.3202
국장	-10.3202
치가	-10.3202
▁본인의	-10.3206
)’	-10.3206
친다	-10.3207
▁집안	-10.321
▁여성이	-10.3213
▁업무를	-10.3216
(6	-10.3218
까요	-10.3219
▁들어서	-10.3223
▁데미지를	-10.3224
▁이중	-10.3224
▁많	-10.3228
▁경찰과	-10.3229
▁않았고	-10.3233
▁화력	-10.3239
▁의문	-10.324
▁영하	-10.3247
적이	-10.3248
▁일반적인	-10.3252
96	-10.3253
▁점차	-10.3253
▁십	-10.3254
▁끝까지	-10.3256
▁총선	-10.3256
렉	-10.3258
▁골드	-10.3259
▁부족한	-10.3261
▁옵션	-10.3262
졌고	-10.3262
업무	-10.3262
▁임신	-10.3263
▁이것은	-10.3266
▁와서	-10.3268
▁대표가	-10.3271
▁들어오	-10.3273
▁맞고	-10.3275
▁일반적으로	-10.3275
▁콘	-10.3276
▁발령	-10.3282
ie	-10.3283
▁아빠	-10.3285
이닝	-10.3287
▁예비	-10.3293
▁음주	-10.3294
▁가득	-10.3294
▁별세	-10.33
▁주거	-10.3304
▁음성	-10.3305
▁해당하는	-10.3306
42	-10.3307
기지	-10.3316
▁입구	-10.3317
▁형제	-10.3318
예술	-10.3318
시께	-10.332
▁앱	-10.332
▁보유	-10.3321
▁추측	-10.3323
▁곳은	-10.3323
▁아키	-10.3323
▁있었으나	-10.3325
▁끌고	-10.3333
검찰	-10.3334
▁통해서	-10.3337
8%	-10.3339
▁떨어지는	-10.334
▁눈을	-10.3342
차로	-10.335
▁EX	-10.3351
▁특성상	-10.3353
▁설치된	-10.3353
▁문자	-10.3353
광주	-10.3358
▁창출	-10.336
▁손에	-10.3363
▁헬기	-10.3364
97	-10.3367
▁힘이	-10.337
▁오랜	-10.3371
▁오리	-10.3375
핀	-10.3376
▁민주당	-10.3378
▁의장	-10.3379
해왔다	-10.3382
▁네이버	-10.3385
▁직원들	-10.3389
현장	-10.339
듯이	-10.3395
▁그것	-10.3401
▁식당	-10.3403
둘	-10.3404
▁어려워	-10.3407
하러	-10.3408
▁산하	-10.3412
▁그저	-10.3412
▁생각하는	-10.3415
▁복구	-10.3416
▁성향	-10.3418
▁승인	-10.342
▁환영	-10.3422
▁학습	-10.3424
▁우려가	-10.3428
▁자랑	-10.3432
▁법인	-10.3447
▁교육을	-10.3448
op	-10.3451
▁쉬운	-10.3452
▁판정	-10.3452
군을	-10.3454
베이	-10.3462
▁강도	-10.3464
▁점령	-10.3467
▁재개	-10.347
뢰	-10.347
▁세종	-10.3472
▁빌	-10.3472
▁부른다	-10.3472
▁조치를	-10.3474
▁다행히	-10.3474
▁아이를	-10.3477
▁내에	-10.3477
▁심의	-10.3479
▁심장	-10.3481
▁가치	-10.3482
▁수학	-10.3485
받았다	-10.3486
▁연간	-10.3486
▁마법사	-10.3488
▁줄어들	-10.3492
▁더블	-10.3495
ation	-10.3496
52	-10.3496
68	-10.3497
▁보여주는	-10.3501
▁이행	-10.3501
짐	-10.3502
현재	-10.3503
▁시내	-10.3505
▁걸려	-10.3506
▁현장에	-10.3508
▁관광객	-10.3511
▁붉은	-10.3514
▁인기가	-10.3518
▁나눔	-10.3518
▁유엔	-10.3522
▁!)	-10.3529
▁원정	-10.3532
▁시내버스	-10.3535
▁빠진	-10.3536
ut	-10.3537
▁위에서	-10.3537
▁박원순	-10.3539
▁장관은	-10.3544
▁항공기	-10.3548
함에	-10.3548
됐던	-10.3549
체계	-10.355
켓	-10.3556
▁마음이	-10.3559
▁물을	-10.3562
▁화염	-10.3565
▁검색	-10.3565
▁영향	-10.3568
계의	-10.3569
중앙	-10.357
제품	-10.3574
▁비정규직	-10.3578
▁세상을	-10.3582
▁관련한	-10.3584
72	-10.3584
▁이야기가	-10.3585
79	-10.3586
▁치고	-10.3586
장애인	-10.3586
▁이것이	-10.3588
▁쓴다	-10.3589
54	-10.359
→	-10.3591
74	-10.3591
면서도	-10.3591
▁탄생	-10.3591
▁다니	-10.3591
▁개그	-10.3591
ER	-10.3592
지기	-10.3592
▁실종	-10.3598
렁	-10.3599
▁민주	-10.3599
600	-10.3605
만이	-10.3606
▁변호사는	-10.3607
▁스트레스	-10.3608
76	-10.3608
▁두번째	-10.3608
▁곧바로	-10.361
▁오해	-10.3614
▁모습으로	-10.3617
+	-10.3619
사람	-10.362
▁밀려	-10.3627
▁추정된다	-10.3628
▁동구	-10.3631
▁꼽	-10.3632
▁인재	-10.3635
났다	-10.3638
로운	-10.3639
▁46	-10.3641
▁발휘	-10.3643
토리	-10.3644
▁말았다	-10.3647
받	-10.3651
▁본다	-10.3654
▁작동	-10.3656
▁결과가	-10.3656
▁정원	-10.366
▁많고	-10.3666
▁1999	-10.3666
▁조각	-10.3667
거래	-10.3667
▁식품	-10.3668
▁한국에서	-10.3669
▁매장	-10.3671
▁코드	-10.3674
해주는	-10.3677
▁관할	-10.3684
▁소수	-10.3686
학회	-10.3687
▁챙긴	-10.3689
▁내지	-10.3691
민주	-10.3691
▁d	-10.3691
▁노후	-10.3693
▁장치	-10.3693
▁침	-10.3693
▁문건	-10.3695
▁마찬가지	-10.3701
▁흔히	-10.3702
해주	-10.3703
▁만족	-10.3705
▁멤버들	-10.3705
삭	-10.3706
널	-10.3713
▁겨우	-10.3715
관을	-10.3715
▁해안	-10.3719
▁풀어	-10.372
▁늘어	-10.3721
▁계기로	-10.3723
▁콩	-10.3724
▁좋	-10.3728
▁셈이다	-10.3732
▁차량을	-10.3734
컨	-10.3735
▁아름다운	-10.3735
▁당신	-10.3738
▁고급	-10.3738
▁시장은	-10.3739
▁3000	-10.3741
▁거대한	-10.3743
제로	-10.3744
▁타이틀	-10.3744
기획	-10.3747
▁건너	-10.3754
타임	-10.3766
미터	-10.3768
▁범인	-10.3771
px	-10.3773
▁납치	-10.3775
▁답변	-10.3775
▁청소	-10.3777
▁황금	-10.3778
▁g	-10.3779
▁영혼	-10.3782
이었지만	-10.3783
▁진단	-10.3785
▁바랍니다	-10.3785
멘	-10.3787
환자	-10.3787
▁농업	-10.3791
▁냉	-10.3791
▁경위	-10.3793
▁봉인	-10.3795
▁상태가	-10.3795
놓은	-10.3797
▁확실히	-10.3798
▁찬성	-10.3802
▁데이터	-10.3803
▁사퇴	-10.3803
▁이라는	-10.3805
▁인류	-10.381
▁됩니다	-10.382
넷	-10.382
▁컨셉	-10.3822
▁차량이	-10.3828
구청장	-10.383
▁전역	-10.3832
▁대기업	-10.3832
단의	-10.3835
▁쪽으로	-10.3835
▁재생	-10.3837
▁거치	-10.3839
▁이론	-10.3839
맛	-10.3839
바이	-10.3839
▁공기	-10.3843
▁몰려	-10.3844
▁1996	-10.3846
▁행성	-10.3848
오리	-10.385
▁착	-10.3852
▁없애	-10.3856
▁이번에	-10.3858
▁멀리	-10.3859
▁금액	-10.3861
▁뿐이다	-10.3862
▁유튜브	-10.3862
해온	-10.3863
▁우리는	-10.3875
타운	-10.3875
대구	-10.3876
▁옆에	-10.3876
▁했	-10.3878
2%	-10.3882
▁직전	-10.3885
▁일어난	-10.3888
▁오리지널	-10.3891
▁1980	-10.3891
▁인원	-10.3892
▁입수	-10.3894
▁In	-10.39
▁바닥	-10.3901
la	-10.3906
▁들어간	-10.3908
▁갑	-10.3914
▁실현	-10.3916
단을	-10.3916
84	-10.3916
▁선생	-10.3917
▁자신에게	-10.3917
▁요즘	-10.3923
▁의미가	-10.3924
▁방치	-10.3926
um	-10.3928
▁고유	-10.3931
▁자세	-10.3933
▁거듭	-10.3935
▁사이버	-10.3937
▁관계를	-10.3937
활동을	-10.394
▁주목	-10.3944
73	-10.3947
만으로	-10.3948
▁잠깐	-10.3955
스키	-10.3955
사기	-10.3957
▁교과서	-10.3961
▁없게	-10.3964
▁밖으로	-10.3966
▁만든다	-10.3966
▁목소리를	-10.3968
▁세워	-10.3968
신청	-10.3968
▁말씀	-10.3969
라스	-10.3973
▁득점	-10.3975
는지	-10.3976
ell	-10.3977
▁항소심	-10.3979
▁목적	-10.3986
▁1998	-10.3988
이어서	-10.3988
▁믿	-10.3988
▁오픈	-10.3989
▁붙여	-10.399
▁트럼프	-10.3991
▁나름	-10.3992
▁이내	-10.3993
▁파일	-10.3996
▁그럴	-10.3998
장애	-10.3999
선이	-10.4
▁다니는	-10.4003
에게도	-10.4005
▁진행한다	-10.4006
▁낮아	-10.4006
▁47	-10.4007
트가	-10.4007
▁극복	-10.4008
▁할인	-10.4008
▁정착	-10.4009
▁부분을	-10.4013
▁펜	-10.4014
▁저격	-10.4016
철도	-10.4021
▁발인	-10.4023
▁5000	-10.4024
▁보여주	-10.4028
▁폭로	-10.4032
▁픽	-10.4033
▁찾기	-10.4034
▁방법으로	-10.4035
▁영입	-10.4039
▁들어가는	-10.4044
섰	-10.4044
▁모바일	-10.4049
▁대다수	-10.4052
▁싸움	-10.4054
▁작용	-10.4055
장비	-10.4058
▁통상	-10.4058
63	-10.4059
▁공략	-10.4061
▁권고	-10.4062
▁사람도	-10.4062
▁제압	-10.4063
심에서	-10.4065
스티	-10.4067
▁증명	-10.407
▁목소리	-10.4073
▁도내	-10.4074
식품	-10.4075
원장	-10.4082
당시	-10.4085
랭	-10.4089
▁본선	-10.4089
▁주지	-10.409
▁커피	-10.409
ia	-10.4095
▁구단	-10.4098
▁명단	-10.4098
▁김현정	-10.4098
▁시점에서	-10.4099
▁입주	-10.41
이치	-10.41
▁진료	-10.4101
▁바뀌었다	-10.4102
▁김동	-10.4104
▁팀의	-10.4106
▁수요	-10.4107
▁병력	-10.4108
스킬	-10.4108
▁본격적으로	-10.4108
률이	-10.411
▁것인지	-10.411
셨	-10.4113
작업	-10.4114
역사	-10.4115
▁술을	-10.4116
▁장군	-10.4122
▁지연	-10.4127
▁출근	-10.4128
도서관	-10.4128
▁기지	-10.413
닌	-10.4131
속성	-10.4133
▁전반	-10.4134
▁평범한	-10.4139
▁넘어가	-10.4144
▁정지	-10.4145
카이	-10.4147
동의	-10.4151
▁출산	-10.4152
▁광주시	-10.4152
ot	-10.4152
▁봐	-10.4157
▁블	-10.4158
웠다	-10.4161
▁해경	-10.4166
ay	-10.4167
▁걸로	-10.4168
▁일러스트	-10.4171
자료	-10.4171
▁들어갔다	-10.4174
니스	-10.4176
▁히트	-10.4177
(7	-10.4178
Q	-10.4184
▁타임	-10.4185
▁없었던	-10.419
▁사냥	-10.419
▁소리를	-10.4192
만을	-10.4192
▁열었다	-10.4194
으로써	-10.4197
경영	-10.4197
방향	-10.4197
▁그렇지	-10.4199
▁장점	-10.42
▁말한	-10.42
▁이씨는	-10.4205
▁부품	-10.421
▁중반	-10.4214
▁콘서트	-10.4214
▁못할	-10.4214
신문	-10.4215
였는데	-10.4215
▁맡고	-10.4216
▁쓰지	-10.4221
▁경제적	-10.4223
천만원	-10.4226
▁얼굴을	-10.4232
▁작곡	-10.4233
구나	-10.4235
▁죽을	-10.4235
▁능	-10.4235
▁보완	-10.4236
▁공공기관	-10.4238
역에서	-10.4238
▁아니냐는	-10.4244
▁방법이	-10.4247
▁승진	-10.425
li	-10.4263
▁부실	-10.4263
임에도	-10.4263
미가	-10.4264
▁마지막으로	-10.4269
▁저는	-10.4271
정신	-10.4272
62	-10.4273
▁행동을	-10.4273
▁깊은	-10.4275
이드	-10.4278
핵	-10.4281
▁모임	-10.4283
▁요구했다	-10.4285
중학교	-10.4285
▁이후에	-10.4286
▁참석해	-10.4289
식이	-10.4293
▁주기	-10.4295
▁회수	-10.4299
메이	-10.43
총장	-10.4302
▁고통	-10.4302
▁출마	-10.4303
▁장르	-10.4304
됐지만	-10.4306
▁차원에서	-10.4308
관이	-10.4308
▁그러	-10.4311
공연	-10.4314
▁경찰의	-10.4317
사실	-10.4322
▁무한	-10.4325
▁가짜	-10.4326
▁잇	-10.4327
▁해주	-10.4331
▁갖춘	-10.4338
▁쓰기	-10.4338
가스	-10.4339
▁밑	-10.434
▁최강	-10.435
▁측이	-10.435
▁면적	-10.4351
▁이래	-10.4354
▁사람들의	-10.4354
▁별명	-10.4357
대와	-10.4358
▁도망	-10.4358
우는	-10.4361
개가	-10.4361
▁마사	-10.4367
▁1997	-10.4369
▁Co	-10.4369
▁저지른	-10.4369
▁취재진	-10.437
법인	-10.437
94	-10.4371
▁권력	-10.4371
▁아직도	-10.4372
▁사안	-10.4373
▁사진은	-10.4374
하긴	-10.4375
평화	-10.4382
5000	-10.4382
▁코너	-10.4385
▁개의	-10.4385
▁아무래도	-10.4386
쌍	-10.4387
으므로	-10.439
▁버프	-10.4392
▁불편	-10.4393
▁임무	-10.4394
▁화물	-10.4395
▁뛰	-10.4399
▁발언을	-10.44
놀이	-10.4401
확	-10.4402
▁대미지	-10.4405
▁n	-10.4405
▁내내	-10.4406
찌	-10.4406
▁저장	-10.4412
기의	-10.4412
▁손해배상	-10.4413
월에는	-10.4413
▁you	-10.4416
만한	-10.4418
▁역량	-10.442
▁맡았다	-10.4421
▁음주운전	-10.4426
부의	-10.4426
▁양산	-10.4427
▁동일한	-10.4428
맹	-10.443
▁적의	-10.4432
▁경유	-10.4433
▁보고서	-10.4434
▁지원하는	-10.4437
▁콤보	-10.4437
▁찾아가	-10.4438
중인	-10.4438
▁조사에서	-10.4439
줘	-10.4441
▁기회	-10.4444
▁설득	-10.4445
▁생겼다	-10.4446
▁미디어	-10.4447
▁손님	-10.4449
▁힘들	-10.4449
▁브라질	-10.4452
▁재판부	-10.4454
▁선출	-10.4454
▁취득	-10.446
▁캐나다	-10.4462
▁습격	-10.4463
▁불꽃	-10.4467
▁발생하는	-10.4467
700	-10.447
간의	-10.4473
▁나쁜	-10.4478
▁뒤를	-10.448
▁회장이	-10.4482
▁이재	-10.4483
인천	-10.4487
드리	-10.4488
▁덤	-10.449
▁관계자들이	-10.4491
▁일원	-10.4492
화된	-10.4494
▁밟	-10.45
▁보컬	-10.4502
▁임대	-10.4504
▁상황이다	-10.4504
▁대한항공	-10.4506
▁브리핑	-10.4509
교회	-10.4512
거든요	-10.4517
▁김태	-10.4519
.11	-10.452
▁사건은	-10.4521
▁유행	-10.4532
▁사건에	-10.4535
lo	-10.4539
자에게	-10.4539
둥	-10.4541
▁그것을	-10.4544
▁사람들을	-10.455
▁최씨	-10.455
▁누군가	-10.4551
▁와중에	-10.4552
▁몰아	-10.4553
주민	-10.4553
▁채택	-10.4554
▁실천	-10.4555
▁남녀	-10.4557
▁유포	-10.4558
▁하락	-10.4558
▁트리	-10.4559
▁보도합니다	-10.4561
세이	-10.4565
▁인형	-10.4566
물이	-10.4566
▁붙어	-10.4568
▁메이	-10.4568
▁승강장	-10.4569
▁액	-10.4574
어가	-10.4577
▁질병	-10.4579
▁신분	-10.4582
.10	-10.4583
▁이성	-10.4584
▁착수	-10.4584
▁값	-10.4587
▁단순	-10.4587
▁제로	-10.4589
통신	-10.459
▁사용자	-10.459
▁여론	-10.4591
▁봤다	-10.4592
▁전담	-10.4592
’,	-10.4593
▁악화	-10.4596
▁상처	-10.4603
▁흥	-10.4609
져서	-10.4613
▁주위	-10.4614
▁촛불	-10.4616
▁얻은	-10.4619
▁가능성	-10.462
ul	-10.4621
▁정규직	-10.4621
▁초과	-10.4623
▁꽤나	-10.4623
▁일종의	-10.4624
전자	-10.4626
▁날씨	-10.4632
ent	-10.4632
▁느낌	-10.4634
▁됐	-10.4635
▁요소	-10.4637
▁갓	-10.4637
▁필리핀	-10.4639
▁쌓	-10.4642
▁체력이	-10.4643
봐	-10.4643
▁대공	-10.4644
▁있었다고	-10.4646
▁주관	-10.4647
코리아	-10.4649
▁모자	-10.4651
▁건조	-10.4655
▁충전	-10.4656
▁입증	-10.4661
▁벌이고	-10.4665
조치	-10.4668
시키기	-10.4668
▁예외	-10.4671
▁올렸다	-10.4678
▁폭탄	-10.4679
▁그만큼	-10.468
▁동맹	-10.4681
▁심판	-10.4683
▁가능성도	-10.4683
밭	-10.4685
려면	-10.4685
▁확률로	-10.4688
박근혜	-10.4688
▁질문	-10.4688
▁경력	-10.4689
윈	-10.4689
▁늘었다	-10.4693
▁처음에는	-10.4693
▁남구	-10.4694
▁돈이	-10.4697
과정	-10.4705
▁여성의	-10.4707
▁태도	-10.4708
▁예고	-10.471
▁트랙	-10.4713
▁씨와	-10.4719
▁유해	-10.4721
▁서울특별시	-10.4721
▁수준이	-10.4722
낸다	-10.4723
▁구체적인	-10.4724
▁복원	-10.4729
▁팀이	-10.4731
▁국내에서	-10.4732
▁견제	-10.4733
투표	-10.4733
낙	-10.4738
아동	-10.4738
os	-10.4738
▁개봉	-10.4745
▁코치	-10.4746
▁분들	-10.4753
.12	-10.4762
천여	-10.4763
▁꺼내	-10.4765
~19	-10.4767
▁신분으로	-10.4767
▁외교	-10.4769
▁이슈	-10.477
▁교환	-10.477
흐	-10.4772
▁유사	-10.4774
▁밀리	-10.4774
▁or	-10.4776
▁규탄	-10.4779
▁군인	-10.4785
톡	-10.479
해진다	-10.4791
▁본격	-10.4793
▁곳으로	-10.4793
▁이송	-10.4795
▁아기	-10.4801
▁경위를	-10.4806
▁지인	-10.4807
▁일본어	-10.4807
▁지적이	-10.4808
▁벌어진	-10.4809
단독	-10.4816
▁털	-10.4816
▁탑재	-10.4819
▁발견됐다	-10.482
▁면접	-10.4821
▁배제	-10.4823
▁단독	-10.4827
▁난민	-10.4828
▁근처	-10.4831
▁어쩔	-10.4831
▁영향으로	-10.4831
▁파리	-10.4836
▁시나리오	-10.484
)·	-10.485
▁단축	-10.485
티어	-10.485
▁출입	-10.4852
앤	-10.4859
▁자신은	-10.4862
▁오른	-10.4863
자들은	-10.4868
▁자격	-10.4868
▁49	-10.487
▁규명	-10.4871
▁불을	-10.4873
▁어느정도	-10.4874
심을	-10.4875
▁그들의	-10.488
드를	-10.4881
▁통계	-10.4881
▁체육	-10.4882
정지	-10.4884
▁내놓	-10.4885
▁목소리가	-10.4888
▁누구나	-10.4888
▁농가	-10.489
▁괴물	-10.4891
▁계약을	-10.4893
▁자택	-10.4894
과장	-10.4894
▁투쟁	-10.4897
▁존재하는	-10.4898
▁상상	-10.4898
▁확	-10.4901
71	-10.4904
텔	-10.4906
▁맡	-10.4908
▁공개된	-10.4909
되었던	-10.4914
▁교장	-10.4915
▁쏘	-10.4916
대통령	-10.492
박물관	-10.492
▁이틀	-10.4921
▁신호	-10.4923
▁딱히	-10.4925
▁오오	-10.4926
▁흘러	-10.4929
자마자	-10.4931
▁응답	-10.4932
촉	-10.4936
였으나	-10.4937
▁꼴	-10.4937
▁시민들	-10.4939
▁이용할	-10.4942
▁크고	-10.4949
팀장	-10.4949
▁미친	-10.4952
▁목표로	-10.4952
▁기상청은	-10.4954
짜	-10.4954
▁대부분이	-10.4955
▁올랐다	-10.4956
▁맞추	-10.4958
▁눈물	-10.496
▁on	-10.4962
▁아닌가	-10.4963
중국	-10.4965
자들	-10.4965
▁고문	-10.4967
법원	-10.4968
년도	-10.4969
스카	-10.4969
▁태극기	-10.497
▁600	-10.4971
고속도로	-10.4973
▁통화	-10.4976
▁그렇다고	-10.4977
▁진정	-10.4978
▁재판을	-10.498
틱	-10.4981
▁맞다	-10.4983
▁것이었다	-10.4983
▁개막	-10.4984
▁닫	-10.4985
델	-10.4988
▁욕	-10.4989
왼쪽	-10.4991
▁알리	-10.4991
자금	-10.4995
보건	-10.4995
정을	-10.4996
▁상향	-10.5001
▁소지	-10.5003
업계	-10.5004
▁게이트	-10.5009
결과	-10.5009
▁아카	-10.5009
▁전후	-10.5009
적이다	-10.5011
▁세이	-10.502
밤	-10.502
▁상반기	-10.5022
졌습니다	-10.5024
▁하다가	-10.5026
냥	-10.5026
▁지위	-10.5027
▁속도가	-10.5029
▁포착	-10.5031
▁학생들은	-10.5032
ive	-10.5035
▁확진	-10.5035
▁발달	-10.5036
럴	-10.5044
▁날아	-10.5044
분야	-10.5044
▁학생들의	-10.5046
받을	-10.5049
▁원거리	-10.505
쳤	-10.5053
▁용어	-10.5056
▁등이다	-10.5059
▁개장	-10.5063
룩	-10.5063
▁되며	-10.5064
▁엄청나게	-10.5067
▁썼다	-10.5067
▁절차를	-10.5068
▁상당의	-10.507
였습니다	-10.5071
▁홀로	-10.5072
▁증상	-10.5076
음악	-10.5077
▁엄청	-10.5079
▁이주	-10.5079
조정	-10.5082
▁졸	-10.5082
▁다섯	-10.5084
▁불가능하다	-10.5085
사에	-10.5086
▁신뢰	-10.5086
▁이후에는	-10.5091
▁그녀는	-10.5092
▁하더라도	-10.5097
▁인천공항	-10.5101
▁했다는	-10.5105
▁대화를	-10.5109
▁컨트롤	-10.5109
▁돌입	-10.5113
▁페이스북	-10.5113
▁가문	-10.5117
2000	-10.5124
▁완화	-10.5125
ine	-10.5128
▁닭	-10.5135
▁약점	-10.5136
▁연방	-10.5136
하면서도	-10.5144
▁계정	-10.5144
▁어려움을	-10.5146
ag	-10.5148
꾼	-10.5148
▁아라	-10.5151
드의	-10.5154
▁기온이	-10.5155
▁시기에	-10.5158
비는	-10.5158
▁수원시	-10.516
▁최선을	-10.5161
j	-10.5162
▁교육청	-10.5163
▁당초	-10.5163
냐고	-10.5164
프트	-10.5164
▁이어지는	-10.5164
다리	-10.5166
▁참가한	-10.5167
na	-10.5169
▁대만	-10.517
▁봐야	-10.517
▁서해	-10.517
▁생일	-10.5171
하시	-10.5172
대장	-10.5172
▁절차	-10.5174
▁시범	-10.5181
▁갔	-10.5184
▁국적	-10.5185
▁개정안	-10.5185
는데요	-10.5188
뒤	-10.5189
▁보건복지부	-10.519
▁시청자	-10.5191
량을	-10.5192
▁벌인	-10.5193
'(	-10.5194
▁찍어	-10.5194
▁기재	-10.5195
▁클래스	-10.5195
’(	-10.5196
▁제공하는	-10.5198
▁영향력	-10.52
▁열렸다	-10.5201
▁병사	-10.5204
AR	-10.5207
▁말해	-10.5208
▁e	-10.521
▁주식	-10.5211
▁1995	-10.5212
로서의	-10.5219
▁운항	-10.5221
▁마음에	-10.5222
▁명절	-10.5227
▁별다른	-10.5228
ce	-10.523
▁심한	-10.5231
▁엠	-10.5237
▁쥬	-10.5238
▁합쳐	-10.524
▁홍콩	-10.5241
▁곽	-10.5241
▁모험	-10.5242
▁녀석	-10.5243
▁힐	-10.5244
▁잇따라	-10.5247
▁콘텐츠	-10.5248
▁있으므로	-10.525
ill	-10.5254
▁야간	-10.5256
▁선배	-10.5259
▁AP	-10.5261
▁광장	-10.5262
ter	-10.5264
▁아리	-10.5264
▁날개	-10.5265
▁선체	-10.5267
▁몽	-10.527
▁일본에서	-10.527
▁즉각	-10.5272
%	-10.5273
▁구역	-10.5274
▁드러내	-10.5274
음에도	-10.5275
▁질환	-10.5277
▁했을	-10.5277
▁생활을	-10.5278
▁논문	-10.5281
▁이루	-10.5281
▁거기다	-10.5283
드가	-10.5286
4%	-10.529
넬	-10.5293
▁아니었다	-10.5294
▁출장	-10.5294
▁다르	-10.5297
▁is	-10.5299
플레이	-10.5301
▁로드	-10.5306
지사	-10.5309
▁성희롱	-10.5309
▁나이트	-10.5309
▁진영	-10.5311
▁적도	-10.5313
▁나갈	-10.5313
▁팩	-10.5314
▁스마트	-10.5315
▁쥐	-10.5316
▁희생자	-10.5316
에겐	-10.5317
93	-10.532
어로	-10.532
83	-10.5327
▁처음부터	-10.5332
▁유입	-10.5333
▁빗	-10.5333
▁정도가	-10.5335
표를	-10.5339
실장	-10.534
하고자	-10.5344
자들의	-10.5347
▁임기	-10.5351
▁말도	-10.5355
▁살해한	-10.5356
▁사례가	-10.5357
▁특혜	-10.5359
전이	-10.536
ate	-10.5361
▁암살	-10.5362
▁성범죄	-10.5364
▁집을	-10.5365
▁부분에	-10.5366
ig	-10.5373
율이	-10.5378
▁부하	-10.5381
▁갔다	-10.5381
82	-10.5381
지않	-10.5382
▁마크	-10.5382
▁부모님	-10.5387
▁단점	-10.5387
▁연금	-10.5388
▁도서관	-10.5389
수당	-10.5392
▁바꾸	-10.5392
▁확인하고	-10.5394
▁배상	-10.5395
하라는	-10.5395
건으로	-10.5395
▁인간의	-10.5397
▁사정	-10.5399
▁에스	-10.5399
▁적에게	-10.5401
▁언니	-10.5401
▁징	-10.5403
▁조심	-10.5404
젤	-10.5404
▁56	-10.5404
▁측면	-10.5404
방식	-10.5406
어를	-10.5408
▁검증	-10.5409
▁초청	-10.5411
▁차장	-10.5411
수로	-10.5413
▁기원	-10.5415
츠키	-10.5417
▁축하	-10.542
▁가능성을	-10.5421
▁대상자	-10.5422
▁레어	-10.5423
▁위하여	-10.5426
▁전화를	-10.5427
되었으나	-10.543
▁서브	-10.5432
호가	-10.5433
▁진보	-10.5435
었	-10.5437
▁대량	-10.5437
▁보병	-10.5441
▁과연	-10.5442
빨	-10.5444
▁뻔	-10.5446
뜨	-10.5446
또	-10.5449
▁계속해서	-10.5449
다니	-10.5449
▁복합	-10.545
캠퍼스	-10.5455
진흥	-10.5455
▁추가된	-10.5458
▁현황	-10.5458
피스	-10.546
▁연대	-10.546
▁예전	-10.5463
▁전술	-10.5463
▁현행	-10.5463
87	-10.5466
▁발행	-10.5467
ant	-10.5468
▁마련된	-10.5468
▁흔들	-10.5472
즈의	-10.5475
▁약한	-10.5478
ex	-10.5481
가구	-10.5482
예방	-10.5482
팬	-10.5483
▁녹음	-10.5486
▁쓰이는	-10.549
ry	-10.5491
루스	-10.5492
▁51	-10.5497
잉	-10.5498
▁보석	-10.5499
▁촉구했다	-10.5501
▁유발	-10.5503
▁개별	-10.5504
▁벤	-10.5506
▁큐	-10.5506
one	-10.5507
▁교수가	-10.5509
데다	-10.551
▁식물	-10.5513
▁없으며	-10.5514
▁하겠다	-10.5515
▁역전	-10.5518
▁단일	-10.552
▁불명	-10.5521
▁끌	-10.5522
▁둘째	-10.5522
▁예선	-10.5526
▁살려	-10.5529
심사	-10.5531
명이다	-10.5532
마루	-10.5532
▁전까지	-10.5532
▁De	-10.5535
▁64	-10.5535
▁매출	-10.5535
▁왔	-10.5538
▁가야	-10.5539
▁마르	-10.554
▁말이다	-10.5541
세의	-10.5542
▁진행된	-10.5544
▁소식을	-10.5545
▁겪	-10.5547
▁갖	-10.5547
청년	-10.5548
▁에이스	-10.5549
갤	-10.555
▁갤러리	-10.5553
짝	-10.5556
▁높아	-10.5557
▁돌리	-10.556
91	-10.556
▁용의자	-10.5564
모씨	-10.5564
▁낼	-10.5566
▁도구	-10.5571
▁축소	-10.5572
▁적지	-10.5577
자동차	-10.5577
부에	-10.5577
▁구현	-10.5579
겁	-10.5581
▁않는다는	-10.5583
▁못하게	-10.5585
▁결심	-10.5587
▁배신	-10.5587
▁횟수	-10.5588
싸	-10.5588
▁중에서도	-10.5588
‘	-10.5589
▁장난	-10.559
앞	-10.559
▁사항	-10.5593
▁김현	-10.5599
▁배달	-10.5599
▁추정되는	-10.56
▁엘리	-10.5602
페이	-10.5603
▁여러분	-10.5604
61	-10.5606
물질	-10.5608
▁하나가	-10.561
▁택	-10.5611
▁상대가	-10.5612
▁쿨	-10.5613
센터에서	-10.5614
▁실무	-10.5614
▁났다	-10.5615
▁당사자	-10.5615
▁종이	-10.5615
2017	-10.5618
▁무엇보다	-10.5618
▁달하는	-10.5618
렐	-10.5619
▁인터뷰에서	-10.5628
이었으나	-10.5629
버릴	-10.5634
권에서	-10.5635
▁주민들이	-10.5642
▁동쪽	-10.5642
▁결정을	-10.5645
▁록	-10.5648
▁칭	-10.5651
▁좋겠다	-10.5652
▁판정을	-10.5652
▁크리	-10.5653
▁거두	-10.5653
▁청원	-10.5654
▁집회를	-10.5657
▁근로	-10.5658
▁전파	-10.5659
▁봉사	-10.566
군에	-10.5663
리안	-10.5669
▁전부터	-10.5672
▁임원	-10.5674
▁대책을	-10.5675
리어	-10.5675
▁해설	-10.5677
▁서쪽	-10.5684
▁멸망	-10.5685
▁입을	-10.5686
▁그만	-10.5687
▁다음날	-10.5688
▁1.5	-10.5688
제주	-10.5688
▁데리고	-10.5689
▁고용노동부	-10.5694
▁닿	-10.5695
질환	-10.5696
▁당황	-10.5698
▁철회	-10.5699
▁관람	-10.5699
▁최악의	-10.5707
▁가려	-10.5708
▁마시	-10.5709
사단	-10.571
▁해고	-10.5711
▁씨에게	-10.5713
달라고	-10.5715
▁온갖	-10.5715
▁유키	-10.5718
청장	-10.5719
▁그러면	-10.572
▁장수	-10.5722
▁본인은	-10.5725
▁VS	-10.5728
ho	-10.573
하였으나	-10.573
뇌	-10.5732
▁수습	-10.5732
▁떨어지	-10.5732
▁판결을	-10.5735
▁그것도	-10.5736
성은	-10.5736
▁행위를	-10.5737
▁대륙	-10.5737
▁청탁	-10.5738
▁사무	-10.5751
▁지옥	-10.5752
▁아웃	-10.5752
▁참가자	-10.5753
▁먹어	-10.5754
권이	-10.5754
▁사용해	-10.5756
▁보험료	-10.5757
▁듀얼	-10.576
▁목격	-10.5761
▁정치인	-10.5763
▁차를	-10.5766
▁총기	-10.5768
▁눈치	-10.5769
수원	-10.577
▁삶을	-10.5774
▁법관	-10.5775
2018	-10.5776
바람	-10.5779
▁250	-10.578
▁밝혀졌다	-10.5785
▁높게	-10.5788
AT	-10.5788
▁사람에게	-10.5789
버리고	-10.5792
▁기념식	-10.5797
▁협약	-10.5802
위원회는	-10.5804
▁몸에	-10.5804
ap	-10.5805
▁대구시	-10.5807
▁촛불집회	-10.5809
▁중부	-10.5809
회에	-10.5809
▁요인	-10.5811
시키	-10.5813
럭	-10.5814
▁물품	-10.5815
▁발부	-10.5815
▁메가	-10.5816
▁재직	-10.5817
▁가리	-10.5819
▁드론	-10.5822
7%	-10.5823
▁돌진	-10.5824
▁사망한	-10.5827
중에	-10.5829
▁테마	-10.5833
▁레이저	-10.5834
▁널리	-10.5834
▁급증	-10.5837
체를	-10.5838
▁란	-10.5844
▁동아리	-10.5846
▁결승	-10.5846
관은	-10.5849
▁인양	-10.5849
▁핀	-10.5849
▁부진	-10.5849
▁패러디	-10.585
▁비행기	-10.5851
로스	-10.5851
건강	-10.5852
▁전무	-10.5854
▁수백	-10.5858
▁과목	-10.5859
▁쌀	-10.5862
TA	-10.5864
▁경찰서	-10.5867
▁차이	-10.5867
▁훔친	-10.5868
로우	-10.587
▁저주	-10.5871
인사	-10.5873
▁180	-10.5874
▁놈	-10.5874
가능	-10.5875
▁신임	-10.5876
▁송파구	-10.5881
▁5.	-10.5881
▁JTBC	-10.5884
▁회원들이	-10.5884
▁녹색	-10.5887
▁협조	-10.5888
▁부위	-10.5889
꾸	-10.589
▁크로	-10.5892
기능	-10.5893
▁막을	-10.5895
▁4.	-10.5896
▁등등	-10.5899
▁하기도	-10.5902
▁말라	-10.5905
이라서	-10.5905
▁토지	-10.5905
▁상호	-10.5907
▁명을	-10.5909
▁만다	-10.591
▁지어	-10.591
고용	-10.5913
▁나아가	-10.5915
▁혁명	-10.5916
▁추산	-10.5917
▁이후에도	-10.5922
이지	-10.5923
샷	-10.5924
▁의미를	-10.5926
▁보건	-10.5926
▁어깨	-10.593
▁위원	-10.5931
▁꺾	-10.5933
러스	-10.5935
시켰	-10.5939
▁히로인	-10.5939
▁정책을	-10.5941
age	-10.5948
▁오염	-10.5948
▁수여	-10.595
갔	-10.5952
.5	-10.5956
▁끝나	-10.5956
▁조항	-10.5957
▁북미	-10.5964
법에	-10.5966
띠	-10.5966
다운	-10.5968
▁포스	-10.5968
▁오류	-10.597
▁재미	-10.5974
콤	-10.5975
▁옮기	-10.5977
경남	-10.598
으려	-10.598
점검	-10.5982
▁간의	-10.5984
▁스테	-10.5988
▁탓	-10.5989
▁잘못된	-10.599
▁모르	-10.5993
▁조절	-10.5993
▁동시	-10.5997
▁SP	-10.6
못	-10.6004
놈	-10.6006
▁때려	-10.6007
▁거대	-10.6008
▁53	-10.601
▁일주일	-10.601
▁동반	-10.6013
▁연인	-10.6013
▁늘어나	-10.6014
92	-10.6014
냈	-10.6015
▁아무도	-10.6024
▁접속	-10.6029
▁터지	-10.6034
▁이정	-10.6034
▁걸린	-10.6035
연금	-10.6036
▁대리	-10.6037
▁답했다	-10.6039
▁그것이	-10.604
▁뼈	-10.6041
연맹	-10.6041
▁1994	-10.6042
대한	-10.6044
▁몸이	-10.6048
▁강제로	-10.6049
▁새롭게	-10.6049
판을	-10.6053
▁법원은	-10.6055
▁원내대표	-10.6055
▁헌	-10.606
▁km	-10.6062
▁매력	-10.6064
om	-10.6066
▁다운	-10.6069
▁하거나	-10.6072
▁않았지만	-10.6073
▁태어난	-10.6073
ong	-10.6074
▁먹을	-10.6075
▁승리를	-10.6078
법이	-10.6079
언론	-10.6079
▁자기가	-10.6081
파크	-10.6083
닐	-10.6086
▁잃은	-10.6088
어도	-10.6088
▁살짝	-10.6089
▁유가족	-10.609
분의	-10.6091
▁반성	-10.6092
▁기독교	-10.6097
▁특기	-10.6098
▁액션	-10.6099
▁일부러	-10.6102
▁이용하는	-10.6104
▁관계가	-10.6104
▁생각하고	-10.6109
▁취재	-10.6109
▁인지	-10.6111
▁되자	-10.6111
▁벗	-10.6112
판매	-10.6112
▁공화국	-10.6115
(8	-10.6116
늘	-10.612
▁대놓고	-10.6121
▁여러가지	-10.6121
▁산림	-10.6122
▁차지했다	-10.6124
▁맞서	-10.6126
▁캐릭터가	-10.6128
원에서	-10.6129
▁1.	-10.6135
관련	-10.6137
▁시인	-10.614
ang	-10.614
킷	-10.6141
▁용역	-10.6142
주를	-10.6143
▁일당	-10.6144
▁교실	-10.6146
▁소요	-10.6147
▁소방당국은	-10.6147
▁기록을	-10.6148
▁시스템을	-10.6151
즐	-10.6151
https	-10.6152
겼	-10.6152
프리	-10.6153
▁카운터	-10.6154
▁익	-10.6154
▁참여하는	-10.6156
▁않았던	-10.6157
▁국정	-10.6157
▁비중이	-10.6157
▁닥터	-10.6159
수의	-10.616
▁시체	-10.6161
▁귀국	-10.6167
▁적절한	-10.6167
▁난다	-10.617
땅	-10.6172
▁창조	-10.6172
▁두산	-10.6172
스포츠	-10.6176
▁국무총리	-10.6181
▁방패	-10.6182
6%	-10.6184
차피	-10.6187
▁진정한	-10.6188
▁셋	-10.6189
▁시티	-10.6189
▁넘기	-10.619
▁전해	-10.619
▁진술을	-10.6193
▁기상청	-10.6194
▁잭	-10.6197
▁안팎	-10.6203
▁최소한	-10.6203
▁주먹	-10.6206
▁2020	-10.6208
▁맞지	-10.6209
▁중간에	-10.6209
▁농장	-10.621
▁재능	-10.6214
▁해방	-10.6215
▁않으며	-10.6215
이긴	-10.6217
▁당시에는	-10.6217
계열	-10.6217
▁보인	-10.6219
내기	-10.6221
▁입국	-10.6223
3%	-10.6224
2)	-10.6226
인들이	-10.6226
▁매달	-10.6226
▁롤	-10.6228
▁공익	-10.6229
▁보존	-10.6234
81	-10.6235
조건	-10.6236
켄	-10.6238
▁기소됐다	-10.624
당했다	-10.6241
▁않아도	-10.6242
▁목사	-10.6242
동에	-10.6242
▁위력	-10.6243
▁쏟아	-10.6244
▁공작	-10.6244
▁안된다	-10.6247
▁지방자치단체	-10.6247
▁식사	-10.6249
▁있었기	-10.6252
▁원고	-10.6254
▁사람들에게	-10.6255
▁들어간다	-10.626
▁날려	-10.626
▁it	-10.6262
피해자	-10.6262
층에	-10.6262
▁차원	-10.6265
▁원래는	-10.6266
▁대우	-10.6267
▁다음달	-10.6267
▁지켜보	-10.6267
▁먹이	-10.6269
▁소멸	-10.6269
▁국민연금	-10.6269
▁공판	-10.6271
▁학과	-10.6273
▁친구들	-10.6275
▁쿨타임	-10.6276
▁빠	-10.6276
▁하나인	-10.6276
로써	-10.6279
▁여동생	-10.6284
▁이상한	-10.6284
▁비록	-10.6284
▁화학	-10.6285
▁베이	-10.6286
프로그램	-10.6289
템	-10.6289
리의	-10.629
직을	-10.629
▁업계	-10.6294
▁캐릭터들	-10.6295
▁응급	-10.6296
위가	-10.6296
▁곤	-10.6297
▁아이디어	-10.6298
▁빌려	-10.6301
▁없습니다	-10.6305
▁구형	-10.6309
▁헌재	-10.6312
▁클로	-10.6312
▁놀라	-10.6313
▁가졌다	-10.6313
▁Ch	-10.6316
▁후에는	-10.6316
▁병원에서	-10.6321
▁노트	-10.6327
▁단위	-10.6328
지면서	-10.633
▁지원한다	-10.633
▁Sh	-10.6331
▁데스	-10.6332
▁댄스	-10.6332
▁주장을	-10.6336
▁뚫	-10.6336
터미널	-10.634
▁상관	-10.6341
시스	-10.6342
▁소형	-10.6346
▁솔로	-10.6348
▁노사	-10.6348
▁학교에	-10.6349
용품	-10.635
▁공정	-10.6351
줬다	-10.6351
▁앉아	-10.6352
▁전체적으로	-10.6354
▁폐기	-10.6355
▁아니라고	-10.636
▁할아버지	-10.6365
▁된다는	-10.6367
▁지역을	-10.6373
복을	-10.6374
▁조사한	-10.6375
▁않아서	-10.6378
주년을	-10.6381
숲	-10.6382
▁살아남	-10.6382
▁자체를	-10.6384
▁가드	-10.6385
메르스	-10.6386
▁낚시	-10.6387
▁조금씩	-10.6394
탱	-10.6394
▁과장	-10.6395
▁원전	-10.6395
▁이제는	-10.6396
▁되찾	-10.6396
▁논리	-10.6398
▁페이	-10.64
▁위기에	-10.6401
▁아이들	-10.6402
▁보냈다	-10.6405
▁찾	-10.6406
사법	-10.6408
▁가로	-10.6409
▁말할	-10.6411
였으며	-10.6411
▁교육감	-10.6412
제는	-10.6413
▁보지	-10.6414
▁현재의	-10.6414
▁정체	-10.6416
▁먼	-10.6416
▁강사	-10.6416
해달라	-10.6423
▁들이받	-10.6423
▁평창	-10.6424
였기	-10.6424
▁이거	-10.6425
해지는	-10.6428
렸	-10.6428
▁58	-10.6434
돼야	-10.6435
▁99	-10.6437
▁기상	-10.6439
▁것이라	-10.6441
▁출동	-10.6443
▁운영하고	-10.6443
겐	-10.6443
▁진행했다	-10.6446
▁공약	-10.6446
▁위장	-10.6448
▁흡연	-10.6449
붙	-10.645
타이	-10.645
▁사드	-10.6451
▁확률이	-10.6451
▁면허	-10.6452
났	-10.6455
▁해명	-10.6457
▁폰	-10.6457
▁서류	-10.6458
▁회전	-10.6459
▁배포	-10.6459
▁매체	-10.6459
▁대통령과	-10.646
ge	-10.6468
지마	-10.6468
▁서울역	-10.647
▁간담회	-10.6472
▁극장판	-10.6473
▁팀을	-10.6477
▁자식	-10.6479
▁현직	-10.6479
구가	-10.6481
▁생기	-10.6481
ers	-10.6482
▁회장의	-10.6482
▁없으면	-10.6483
▁오버	-10.6489
▁지역은	-10.6489
▁어선	-10.649
▁킬	-10.6491
마이	-10.6492
▁던져	-10.6494
▁융합	-10.6495
IN	-10.6496
▁진행하고	-10.6496
▁울산시	-10.6496
개로	-10.6498
상으로	-10.6498
품을	-10.6499
▁중에는	-10.65
▁로켓	-10.65
끼리	-10.6504
번호	-10.6505
▁54	-10.6506
지방경찰청	-10.6506
럽	-10.6508
▁고생	-10.6508
▁상자	-10.6509
ist	-10.6513
▁부착	-10.6517
▁묵	-10.6517
▁소식	-10.6517
▁85	-10.6518
▁떼	-10.6522
▁금품을	-10.6525
▁힘들어	-10.6525
▁과태료	-10.6527
퀴	-10.6528
집회	-10.653
▁창원시	-10.653
▁결정했다	-10.653
▁옷을	-10.653
▁하나를	-10.6531
▁안되는	-10.6531
▁변호인	-10.6533
▁매주	-10.6533
▁지금도	-10.6535
▁이다	-10.6537
▁제품을	-10.6538
▁넓은	-10.6538
▁세부	-10.654
▁승부	-10.654
▁0.5	-10.6541
(18	-10.6541
상품	-10.6542
▁대가로	-10.6542
▁꿈을	-10.6544
듬	-10.6546
곳에	-10.6548
▁뒤늦게	-10.6553
트의	-10.6553
ack	-10.6554
▁세운	-10.6556
내고	-10.6556
▁넣	-10.6558
▁앉	-10.656
▁버티	-10.656
략	-10.656
▁오프닝	-10.656
▁`	-10.6562
▁성남시	-10.6564
▁진로	-10.6564
집행	-10.6569
법상	-10.6569
휘	-10.6569
▁학생들	-10.6572
점으로	-10.6579
▁넓	-10.6583
▁수송	-10.6585
`	-10.6585
▁부터	-10.6585
▁거짓	-10.6586
▁기름	-10.6587
▁판사는	-10.6587
▁틈	-10.659
▁토론회	-10.6591
▁용병	-10.6591
딸	-10.6596
▁케이스	-10.6597
▁트럭	-10.6602
▁썼	-10.6603
▁격려	-10.6606
▁사이의	-10.6606
▁잊	-10.6608
▁이쪽	-10.6609
▁네트워크	-10.6611
전형	-10.6613
리와	-10.6616
▁침몰	-10.6618
▁편의점	-10.6618
▁최저	-10.6618
▁빵	-10.6618
분이	-10.6619
▁형태의	-10.6623
▁대립	-10.6623
ard	-10.6623
▁돼지	-10.6623
〉	-10.6625
▁적어	-10.6626
혁신	-10.6627
to	-10.6629
▁여왕	-10.6631
▁호주	-10.6631
었으나	-10.6631
▁주연	-10.6633
▁평택	-10.6634
▁느낌이	-10.6635
▁던지	-10.6636
▁때에는	-10.6637
되는데	-10.6638
세로	-10.6639
▁내는	-10.6639
▁데이	-10.664
▁얘기를	-10.664
▁오토	-10.6643
지면	-10.6644
▁수익	-10.6646
▁(0	-10.665
지원센터	-10.6653
틸	-10.6659
▁(1	-10.6663
▁문의	-10.6665
▁하반기	-10.667
▁버그	-10.6672
▁아니었	-10.6675
▁게임이	-10.6678
▁서울시장	-10.668
예산	-10.6685
리스트	-10.6686
절차	-10.6686
▁급식	-10.6688
▁잡지	-10.6691
▁가방	-10.6694
▁MP	-10.6696
▁김상	-10.6699
▁플	-10.6701
▁혐오	-10.6702
스코	-10.6702
▁조사할	-10.6702
▁직원들이	-10.6703
아웃	-10.6707
시가	-10.6709
깃	-10.6712
▁변형	-10.6715
▁가족들	-10.6718
▁쉽다	-10.6719
스로	-10.672
▁히어로	-10.6726
주차	-10.6728
▁무역	-10.673
est	-10.6731
▁참전	-10.6731
▁계승	-10.6731
▁데다	-10.6733
▁법안	-10.6735
든지	-10.6738
▁입지	-10.674
팩	-10.6741
▁군단	-10.6744
▁합성	-10.6745
소송	-10.6746
▁모두가	-10.6747
▁간호사	-10.6748
▁담배	-10.6748
▁원인이	-10.6748
▁순서	-10.6749
▁인용	-10.6751
▁만남	-10.6752
드로	-10.6753
▁제공한다	-10.6754
▁빠지	-10.6755
▁평양	-10.6755
▁용산	-10.6756
픽	-10.6756
▁남긴	-10.6756
▁운명	-10.6762
주가	-10.6764
화에서는	-10.6764
모드	-10.6766
▁비슷하다	-10.6767
▁카톡	-10.6769
▁밸런스	-10.6769
▁멀	-10.677
달라	-10.677
되거나	-10.6771
▁알바	-10.6774
됐으며	-10.6774
▁흉	-10.6778
▁연극	-10.6779
▁족	-10.678
▁클라	-10.6782
▁끈	-10.6784
▁로비	-10.6784
자키	-10.6784
▁본관	-10.6784
라이트	-10.6786
▁연관	-10.6786
이든	-10.6787
쇄	-10.6788
▁연령	-10.6788
▁친환경	-10.6789
인지라	-10.6791
분을	-10.6792
▁북한의	-10.6792
방어	-10.6793
▁피해자들	-10.6796
▁증가했다	-10.6797
▁스피드	-10.6799
법은	-10.6801
▁57	-10.6801
▁대안	-10.6804
▁김용	-10.6805
테이	-10.6805
▁입력	-10.6805
동물	-10.6808
해져	-10.6812
▁처분을	-10.6812
원에	-10.6814
▁원의	-10.6816
▁독자	-10.6816
▁연예인	-10.6817
▁드리	-10.6818
▁남겨	-10.682
리오	-10.6821
▁사건으로	-10.6826
▁맡아	-10.6827
여행	-10.6828
▁합병	-10.6829
▁수차례	-10.6829
▁국민의당	-10.6831
▁군산	-10.6834
지금	-10.6835
조원	-10.6836
롬	-10.6838
▁방송을	-10.6838
▁똑같은	-10.6838
▁촉구하는	-10.6838
▁챙겨	-10.6838
신이	-10.6845
-1	-10.6845
▁기분	-10.6846
터널	-10.6853
▁정밀	-10.6855
▁연애	-10.6856
▁생겨	-10.6857
▁현장을	-10.6859
학자	-10.6861
▁거죠	-10.6862
▁연락	-10.6862
▁쓰면	-10.6864
▁분량	-10.6864
▁밀어	-10.6871
혔다	-10.6877
AL	-10.6878
▁노력을	-10.6878
▁그녀를	-10.6878
▁현역	-10.6879
▁59	-10.6879
▁저희	-10.688
▁텐	-10.688
▁왜곡	-10.6885
▁의결	-10.6885
▁선수가	-10.6886
▁무사	-10.6889
▁민주주의	-10.6889
덱	-10.6889
▁활용해	-10.6891
▁싫어	-10.6893
▁도와주	-10.6894
스럽게	-10.6896
▁지나치게	-10.6896
▁일반인	-10.6897
▁각자	-10.6899
▁66	-10.6899
실을	-10.6899
▁반응이	-10.69
▁네덜란드	-10.69
▁성격이	-10.6901
▁지도자	-10.6901
▁플랫폼	-10.6903
이었는데	-10.6905
▁패션	-10.6907
리지	-10.691
▁거야	-10.6911
▁국토교통부	-10.6912
▁살균제	-10.6912
보다도	-10.6913
▁의사를	-10.6914
▁MBN	-10.6917
재산	-10.6921
▁초등학생	-10.6922
▁필살기	-10.6924
(10	-10.6924
▁관계자들	-10.6924
▁랜	-10.6927
▁구멍	-10.6927
▁유죄	-10.6928
▁랭크	-10.6928
▁후속	-10.6928
“	-10.6929
▁대가	-10.6929
▁동참	-10.6929
▁공방	-10.693
▁인연	-10.6934
▁디스	-10.6935
▁갈수록	-10.6938
▁하니	-10.6939
팀이	-10.6942
전략	-10.6944
▁자치	-10.6947
▁이상으로	-10.6951
▁사용하면	-10.6953
달러	-10.6954
대응	-10.6955
건의	-10.6959
포럼	-10.6961
TS	-10.6964
열차	-10.6964
▁갚	-10.6966
▁이슬람	-10.6971
▁남쪽	-10.6971
▁나의	-10.6971
▁강연	-10.6972
▁실제로는	-10.6972
르는	-10.6974
▁무효	-10.6974
▁진압	-10.6976
▁세계관	-10.6976
▁유전자	-10.6978
▁철저히	-10.6978
랐	-10.6983
der	-10.6986
▁신청을	-10.6988
▁타이밍	-10.6991
줬	-10.6991
▁깔	-10.6992
▁벌였다	-10.6993
▁시간에	-10.6994
▁본편	-10.6994
다보니	-10.6995
▁아니냐	-10.6996
▁짐	-10.6997
▁아버지가	-10.6998
분기	-10.6998
▁가격이	-10.6999
▁책을	-10.7
마법	-10.7
AM	-10.7001
▁피해자가	-10.7002
▁맞춤형	-10.7003
▁사업장	-10.7005
버전	-10.7005
▁〈	-10.7005
▁복지부	-10.7005
ON	-10.701
▁가고	-10.7011
▁숨졌다	-10.7011
컷	-10.7012
▁크리스	-10.7015
난다	-10.7015
▁물어	-10.7018
호를	-10.7018
▁빼앗	-10.7019
▁청사	-10.7021
양이	-10.7022
▁들어갈	-10.7023
▁중국인	-10.7024
쥬	-10.7024
▁맺	-10.7027
AN	-10.7028
▁계단	-10.7029
곳을	-10.7029
▁아이가	-10.703
잖아	-10.703
▁대원	-10.703
되었는데	-10.7037
▁학술	-10.7038
▁측에	-10.7038
▁용인	-10.7039
전국	-10.7039
군과	-10.704
등을	-10.7041
▁성립	-10.7044
▁표정	-10.7045
▁기반으로	-10.7046
▁비율이	-10.7046
▁구속기소	-10.7049
▁이르는	-10.7052
▁순식간에	-10.7053
▁죠	-10.7053
▁02	-10.7057
사이	-10.7058
▁학생이	-10.7061
▁노래를	-10.7062
▁아우	-10.7063
▁발생할	-10.7063
▁도발	-10.7063
▁마력	-10.7065
▁아스	-10.7066
▁본격적	-10.7067
비스	-10.7068
▁맞게	-10.707
▁정도는	-10.7072
▁등도	-10.7075
▁일찍	-10.7076
아가	-10.7076
▁멀티	-10.7077
▁단순한	-10.7078
▁주장하는	-10.7078
▁행사는	-10.7079
▁화살	-10.708
▁아이들이	-10.7081
▁찾을	-10.7082
▁상대를	-10.7085
▁선포	-10.7085
▁잡기	-10.7086
▁스킬을	-10.7086
▁크로스	-10.7086
인데요	-10.7088
사에서	-10.7088
▁중독	-10.709
▁배려	-10.7091
▁이라고	-10.7092
▁적응	-10.7097
▁인공	-10.7098
라가	-10.7098
미국	-10.71
▁권한	-10.7101
개선	-10.7102
▁문학	-10.7105
▁시간대	-10.7105
시간이	-10.7108
▁즐길	-10.7112
짱	-10.7116
▁정신적	-10.7116
▁무릎	-10.7116
▁쓰인다	-10.7117
▁결성	-10.7117
진이	-10.7118
▁룰	-10.712
▁카즈	-10.7122
ne	-10.7122
▁올라오	-10.7123
▁얻는	-10.7125
▁습득	-10.7129
▁감독이	-10.7129
▁손상	-10.7131
▁배우자	-10.7132
ta	-10.7133
▁홈런	-10.7135
▁소울	-10.7136
▁예약	-10.7136
▁서대문구	-10.7139
▁기술이	-10.714
▁용산구	-10.7144
▁민간인	-10.7152
▁곳곳에	-10.7152
고속	-10.7156
▁둘이	-10.7159
됨	-10.7163
▁그럼	-10.7165
▁An	-10.7166
사령부	-10.7166
선의	-10.7166
▁보물	-10.7167
피아	-10.7168
▁CJ	-10.7168
▁기절	-10.7172
▁등장했다	-10.7175
노동자	-10.7177
▁위험한	-10.7179
부모	-10.7183
쟁	-10.7184
▁게임의	-10.7186
룬	-10.7189
하기에	-10.719
패를	-10.7191
▁이것을	-10.7192
▁상대의	-10.7192
보단	-10.7193
국의	-10.7194
ue	-10.7195
▁계급	-10.7196
▁우수한	-10.72
놓	-10.7201
재정	-10.7203
▁달린	-10.7204
▁스펙	-10.7204
▁트레	-10.7205
단장	-10.7208
▁납품	-10.721
▁혜	-10.721
▁복장	-10.7211
▁이영	-10.7211
▁불가	-10.7212
▁Me	-10.7212
▁조준	-10.7214
▁세우	-10.7215
▁스트	-10.722
▁자율	-10.7223
차전	-10.7227
▁미술	-10.7227
▁법원행정처	-10.7228
▁막장	-10.7229
▁가시	-10.7229
▁바르	-10.7229
몸	-10.7231
▁치매	-10.7233
▁농성	-10.7235
학기	-10.7235
▁부상을	-10.7238
▁요청했다	-10.724
▁신라	-10.7245
▁72	-10.7245
▁회계	-10.7245
전차	-10.7246
▁마주	-10.7247
▁해금	-10.7247
▁그다지	-10.7248
▁그럼에도	-10.7252
해양	-10.7253
▁교황	-10.7254
골을	-10.7256
▁아오	-10.7256
▁부근	-10.7258
▁북쪽	-10.7259
▁1500	-10.726
▁또다시	-10.7261
호기	-10.7264
▁귀가	-10.7265
▁소음	-10.7266
▁거라고	-10.727
리온	-10.727
▁de	-10.727
급여	-10.7272
▁푸른	-10.7272
▁데미지가	-10.7274
▁소화	-10.7276
모리	-10.7277
청사	-10.7278
▁말로	-10.728
▁웹	-10.7282
▁안습	-10.7282
▁오빠	-10.7282
▁안전한	-10.7287
▁유래	-10.729
▁주인공이	-10.729
그리	-10.7292
▁보며	-10.7292
▁병원에	-10.7294
▁그런지	-10.7296
▁혼자서	-10.7296
▁주장이	-10.7298
생물	-10.73
회관	-10.7303
▁입시	-10.7305
▁재현	-10.7308
▁링	-10.7308
식으로	-10.7309
▁겪고	-10.7309
▁근처에	-10.7309
▁탁	-10.7313
▁800	-10.7314
었을	-10.7315
▁파이터	-10.7315
▁경로	-10.7317
월드	-10.7317
nd	-10.7318
▁보여준	-10.7318
▁상업	-10.7318
왔던	-10.7318
석을	-10.7319
에너지	-10.7319
감사	-10.7319
이야	-10.732
▁적어도	-10.732
조합	-10.732
0000	-10.732
했었다	-10.732
▁온도	-10.7325
▁손실	-10.7329
▁랜덤	-10.7329
제한	-10.7331
모델	-10.7331
▁말은	-10.7331
▁담아	-10.7331
겠	-10.7332
▁관통	-10.7332
▁일으킨	-10.7333
▁거점	-10.7333
▁제작진	-10.7334
▁무기를	-10.7336
이하	-10.7337
▁분위기를	-10.7339
▁중계	-10.7341
▁분양	-10.7341
▁둘러	-10.7344
생명	-10.7346
▁누적	-10.7346
▁장식	-10.735
▁유우	-10.7351
▁이름의	-10.7357
▁고인	-10.7357
▁김재	-10.7357
인당	-10.7358
▁과정에	-10.7358
▁신화	-10.7358
▁성남	-10.7362
▁현상이	-10.7362
▁하드	-10.7363
▁의회	-10.7363
▁실수	-10.7364
▁땐	-10.7367
인터뷰	-10.7367
▁명목으로	-10.7367
▁계좌	-10.7368
▁분쟁	-10.7369
▁크리스마스	-10.737
▁발효	-10.7372
▁어찌	-10.7372
▁개시	-10.7374
▁드디어	-10.7374
▁뽑아	-10.7374
▁혐의도	-10.7376
▁신성	-10.7376
세월호	-10.738
브라	-10.7382
▁치유	-10.7382
멜	-10.7383
만여	-10.7383
▁고속	-10.7383
회에서	-10.7386
▁캠프	-10.7386
▁거론	-10.7387
▁나오는데	-10.7389
▁교육부는	-10.739
▁받았	-10.7391
▁것이고	-10.7392
작전	-10.7393
▁고전	-10.7397
▁굳	-10.7399
▁사쿠라	-10.7399
▁초월	-10.74
등록	-10.74
▁검사를	-10.7401
▁해적	-10.7401
지와	-10.7403
체가	-10.7404
성장	-10.7405
됐다고	-10.7408
▁비하면	-10.7411
▁근육	-10.7412
▁세종시	-10.7412
▁보입니다	-10.7414
▁소리가	-10.7414
폭력	-10.7415
▁학살	-10.7417
▁이어지고	-10.7419
▁구청	-10.7426
▁작중에서	-10.7427
▁깊이	-10.7428
▁전신	-10.7429
▁문명	-10.7433
BC	-10.7433
▁가르	-10.7435
▁면담	-10.7435
▁자신과	-10.7435
소방	-10.7436
▁보육	-10.7437
▁블로그	-10.7439
직원	-10.744
▁기습	-10.7442
▁처벌을	-10.7442
▁부작용	-10.7443
▁상처를	-10.7444
▁1988	-10.7445
▁평생	-10.7446
음이	-10.7446
▁아무것도	-10.7448
▁업무협약	-10.7448
제보	-10.745
▁사후	-10.7453
ment	-10.7454
▁방역	-10.7454
▁협	-10.7455
▁법원이	-10.7455
▁밝	-10.7456
폴	-10.7457
클럽	-10.746
▁for	-10.7461
▁무죄를	-10.7464
▁방법은	-10.7468
질을	-10.7469
▁도는	-10.7471
성의	-10.7475
펠	-10.7476
▁조명	-10.7476
털	-10.7477
▁엑스	-10.7477
년만에	-10.7477
▁첫번째	-10.7478
최순실	-10.7478
▁떡	-10.748
▁쫓아	-10.748
졸	-10.7482
▁말까지	-10.7483
▁실내	-10.7488
▁중이던	-10.7489
즘	-10.749
역을	-10.749
▁강의	-10.7493
▁넘겨	-10.7496
▁느낄	-10.7501
▁도달	-10.7502
타를	-10.7503
▁바라	-10.7505
▁세금	-10.7511
소방서	-10.7512
▁영등포구	-10.7512
▁병역	-10.7513
구간	-10.7513
함이	-10.7514
▁코리아	-10.7514
▁어둠	-10.7516
심은	-10.7516
▁독도	-10.7517
▁고백	-10.7519
문학	-10.7519
▁치르	-10.752
셋	-10.7521
▁집으로	-10.7524
▁1992	-10.7526
▁아들이	-10.7529
▁수준을	-10.7531
▁커버	-10.7532
잖아요	-10.7532
▁선호	-10.7535
▁1970	-10.7535
체제	-10.7538
▁수준이다	-10.754
▁사용하고	-10.754
▁유명하다	-10.7542
▁110	-10.7543
▁바뀌	-10.7544
▁상가	-10.7545
▁사용하지	-10.7545
베르	-10.7548
▁스카이	-10.7549
▁때문인지	-10.7551
삼성	-10.7552
▁올라온	-10.7553
▁상주	-10.7554
너스	-10.7554
▁최고기온	-10.7559
▁화이트	-10.756
▁흐	-10.7563
편의	-10.7568
▁격투	-10.7568
▁속도를	-10.757
마저도	-10.757
운전	-10.757
해준다	-10.7571
▁야마	-10.7572
▁연다	-10.7574
주면	-10.7574
▁옛날	-10.7574
▁63	-10.7578
▁화성	-10.7578
▁다녀	-10.7579
▁미국에서	-10.7582
▁모습은	-10.7583
▁물건을	-10.7585
▁페이지	-10.7587
▁단장	-10.7588
다른	-10.7595
▁히로	-10.7597
실에	-10.7597
방법	-10.7604
랭크	-10.7607
었으며	-10.7607
▁고양시	-10.7612
▁서명	-10.7613
▁충격을	-10.7613
뷰	-10.7614
▁가톨릭	-10.7614
▁You	-10.7615
▁편이	-10.7615
켜	-10.7617
▁기념촬영	-10.7617
▁맡기	-10.762
▁해당한다	-10.7622
▁된다고	-10.7622
▁비판했다	-10.7623
▁여신	-10.7623
았던	-10.7624
저작권자	-10.7625
타가	-10.7626
▁출동한	-10.7627
▁덕에	-10.7627
▁훈	-10.7628
▁패시브	-10.7629
▁운영한다	-10.7633
▁베이스	-10.7633
▁무료로	-10.7634
▁터키	-10.7636
▁시신을	-10.7637
▁중국의	-10.7638
▁경남도	-10.7641
▁아나운서	-10.7642
▁측에서	-10.7642
▁시민들의	-10.7642
▁롱	-10.7643
▁당해	-10.7644
ab	-10.7645
▁경기장	-10.7646
화학	-10.7647
▁개최한다	-10.7647
▁계기가	-10.7647
▁별점	-10.7648
▁급여	-10.7648
▁퇴직	-10.7649
go	-10.7651
▁기어	-10.7653
배우	-10.7656
▁사형	-10.7657
▁결과는	-10.7658
▁그녀	-10.7659
▁나타난	-10.7659
▁함대	-10.766
▁안심	-10.7662
▁경험치	-10.7662
▁스탯	-10.7663
▁출현	-10.7667
▁쾌	-10.7667
▁재배	-10.7673
▁가면라이더	-10.7674
▁비율	-10.7674
▁비교해	-10.7675
▁진학	-10.7675
▁밴	-10.7676
▁빔	-10.7677
▁일도	-10.7677
관에서	-10.768
쿠라	-10.7683
씬	-10.7684
▁폭주	-10.7685
▁찍은	-10.7686
▁장학금	-10.769
▁라이벌	-10.769
요금	-10.769
▁반격	-10.7691
▁입장에서는	-10.7696
하이	-10.7696
▁의존	-10.7697
▁최후	-10.7701
우가	-10.7702
▁이수	-10.7705
▁인근에서	-10.7706
▁지형	-10.7707
▁무관	-10.7707
▁부리	-10.7709
▁언제나	-10.7709
▁코레일	-10.7709
▁95	-10.771
▁이승	-10.7711
▁테스트	-10.7712
▁일부를	-10.7715
▁기회가	-10.7715
▁영문	-10.7717
신의	-10.7727
▁마포구	-10.7727
▁화가	-10.773
▁목포	-10.7731
고요	-10.7732
▁열리고	-10.7732
▁진주	-10.7733
▁죽여	-10.7735
▁런던	-10.7738
궐	-10.7739
▁정말로	-10.7741
▁국정농단	-10.7743
▁제재	-10.7745
▁관찰	-10.7746
▁삶의	-10.7746
▁완공	-10.7748
▁믿고	-10.7748
▁부검	-10.7749
됐	-10.775
▁판타지	-10.7751
근무	-10.7752
▁오랫동안	-10.7755
▁보이며	-10.7758
▁의미로	-10.7759
▁파트너	-10.776
▁추격	-10.7763
▁까지	-10.7763
되지만	-10.7764
▁붙은	-10.7767
▁동료들	-10.7768
▁비중	-10.7768
▁잇는	-10.7771
▁예산을	-10.7772
▁끄	-10.7773
▁늘고	-10.7774
▁your	-10.7774
넘	-10.7775
야구	-10.7776
▁숨지게	-10.7777
주자	-10.7777
▁좌우	-10.778
▁☎	-10.7781
▁700	-10.7785
체육	-10.7785
▁대표이사	-10.7786
(9	-10.7788
울산	-10.7793
ome	-10.7794
▁항소	-10.7794
덤	-10.7794
▁우승을	-10.7795
▁타자	-10.7795
vi	-10.7797
▁다수의	-10.7797
▁l	-10.7799
▁그려	-10.7802
▁채로	-10.7803
▁IS	-10.7804
▁국방	-10.7804
▁않았다고	-10.7806
▁이어졌다	-10.7808
▁양쪽	-10.7809
묵	-10.7812
▁싸우는	-10.7812
트는	-10.7813
ver	-10.7815
▁메뉴	-10.7817
▁없었고	-10.7819
▁있긴	-10.7822
▁농민	-10.7822
▁탱크	-10.7824
▁발생해	-10.7827
▁왕자	-10.7827
▁국회에서	-10.7827
상에	-10.7828
▁크라	-10.7828
▁달라고	-10.783
▁아야	-10.7831
▁진행할	-10.7832
▁늘어난	-10.7836
▁자극	-10.7839
하자면	-10.7842
▁최소화	-10.7844
▁영토	-10.7847
▁바이오	-10.7847
▁미소	-10.7854
▁이종	-10.7854
▁자매	-10.7855
▁거짓말	-10.7856
▁처치	-10.7857
▁추억	-10.786
▁료	-10.7863
유키	-10.7866
▁반대하는	-10.7868
▁경험이	-10.7868
안에	-10.7869
▁동작	-10.7871
▁PS	-10.7871
▁시야	-10.7872
▁마감	-10.7873
TO	-10.7877
▁불린다	-10.7877
ma	-10.7882
아트	-10.7887
▁연구소	-10.7887
▁투명	-10.7891
▁억울	-10.7892
탄을	-10.7892
▁존재하지	-10.7893
▁파손	-10.7895
키로	-10.7898
▁참여했다	-10.7899
▁없었	-10.7899
▁이어질	-10.79
▁나를	-10.7906
호는	-10.7907
pe	-10.791
▁하야	-10.7912
▁고장	-10.7912
▁묶	-10.7915
▁행사에	-10.7917
▁라이트	-10.7918
▁레전드	-10.7918
▁돌아온	-10.7921
순환	-10.7922
▁점이다	-10.7924
▁듀	-10.7926
▁제도를	-10.7926
병을	-10.7927
▁가깝다	-10.793
▁길어	-10.7931
em	-10.7932
▁카나	-10.7934
▁관여	-10.7936
▁눈물을	-10.7939
▁플라	-10.7939
▁부장검사	-10.7942
▁매각	-10.7942
▁결합	-10.7943
학습	-10.7944
▁30%	-10.7944
▁내리는	-10.7947
per	-10.7948
▁수거	-10.7951
▁있겠다	-10.7955
▁이듬해	-10.7956
▁예능	-10.796
콩	-10.7962
대학원	-10.7963
▁한쪽	-10.7965
▁1993	-10.7965
기금	-10.7966
디아	-10.7967
개소	-10.7976
년째	-10.7976
▁하나는	-10.7977
▁유사한	-10.7979
미래	-10.798
▁공격력이	-10.798
▁어쨌든	-10.7982
▁이처럼	-10.7986
▁별도로	-10.7986
ee	-10.7987
률은	-10.7988
namu	-10.7988
▁be	-10.7989
하지는	-10.799
옹	-10.799
▁전투에서	-10.7991
▁출판	-10.7993
▁공연을	-10.7993
스테	-10.7997
▁건강보험	-10.7998
▁늦게	-10.8003
▁미드	-10.8004
나쁨	-10.8006
▁창작	-10.8009
▁Copyright	-10.8009
▁그레이	-10.801
▁기동	-10.801
▁윈	-10.8014
슴	-10.8015
▁면에서	-10.8015
▁내륙	-10.8016
상에서	-10.8019
▁지방선거	-10.8019
▁마지막에	-10.8025
▁작품을	-10.8027
부로	-10.8029
▁분당	-10.8031
▁무렵	-10.8033
▁태국	-10.8033
▁교원	-10.8033
▁조조	-10.8034
▁코어	-10.8034
▁컵	-10.8034
▁신인	-10.8039
▁Le	-10.804
▁촉	-10.8043
에서만	-10.8043
▁떨어진다	-10.8043
▁분야에서	-10.8048
▁혹시	-10.8048
▁쪽이	-10.8048
▁일하는	-10.8049
교실	-10.805
힘	-10.8051
박스	-10.8054
(15	-10.8056
▁올리는	-10.8059
▁태어나	-10.8061
▁핫	-10.8062
기만	-10.8062
▁61	-10.8064
▁사운드	-10.8065
▁130	-10.8066
▁가속	-10.8066
▁얻었다	-10.8069
▁몹	-10.8069
▁떡밥	-10.807
EN	-10.807
층에서	-10.8073
▁정부와	-10.8073
버려	-10.8075
▁드는	-10.8079
▁성공했다	-10.8082
통일	-10.8085
▁적극적인	-10.8086
▁KTX	-10.8089
▁새해	-10.8089
금지	-10.809
렸고	-10.8091
▁취약	-10.8091
▁모래	-10.8092
▁결코	-10.8095
▁노무현	-10.8097
▁그렇다	-10.8098
▁무산	-10.8098
▁겁	-10.8099
▁2~3	-10.8099
▁외교부	-10.81
▁CD	-10.81
▁제외하고	-10.8102
▁지목	-10.8102
▁규칙	-10.8105
▁관내	-10.8106
깊	-10.8106
미를	-10.8109
▁그에게	-10.811
특별	-10.8113
▁지능	-10.8117
▁잡은	-10.8119
시로	-10.8119
▁야외	-10.8119
▁폭풍	-10.8122
▁비고	-10.8122
▁수사관	-10.8123
▁천사	-10.8123
▁맘	-10.8124
렙	-10.8124
▁자제	-10.8125
▁NC	-10.8126
AC	-10.8127
▁가습기	-10.813
▁평가가	-10.813
박람회	-10.8131
▁여자친구	-10.8131
▁상인	-10.8132
책임	-10.8133
블리	-10.8136
▁10%	-10.8136
▁당국	-10.8137
네스	-10.8139
▁달아	-10.814
▁입법	-10.814
▁팔아	-10.8141
▁안동	-10.8141
바라	-10.8141
▁자신들의	-10.8142
▁빨	-10.8143
비리	-10.8143
웨	-10.8147
▁사건과	-10.8147
했다가	-10.8147
▁지금의	-10.8147
량은	-10.8151
타워	-10.8152
▁여성을	-10.8152
▁섭취	-10.8153
소에서	-10.8154
▁예정입니다	-10.8157
▁사무총장	-10.8157
▁낮다	-10.8158
분석	-10.8158
▁조례	-10.8169
▁영양	-10.817
▁k	-10.8174
있던	-10.8174
▁국토부	-10.8175
▁검사장	-10.8175
▁일대에서	-10.8179
보이	-10.8179
만원의	-10.8179
개월간	-10.818
화에	-10.818
편에서	-10.8181
▁짧	-10.8184
▁부당	-10.8184
▁자가	-10.8185
▁6.	-10.8187
▁함께하는	-10.8188
▁강하다	-10.819
▁그녀가	-10.8194
▁돕는	-10.8194
군요	-10.8195
▁받아야	-10.8196
▁최신	-10.8196
▁압수	-10.8197
▁분명히	-10.8198
살인	-10.8203
▁일치	-10.8206
▁무적	-10.8207
▁점도	-10.8208
▁천안	-10.8209
▁웨	-10.8213
▁편입	-10.8218
▁안산	-10.8218
증을	-10.8219
▁이러	-10.8225
▁치안	-10.8226
▁모션	-10.8227
▁꼬리	-10.8228
▁원주	-10.8231
▁포장	-10.8233
▁사랑의	-10.8233
▁다행	-10.8234
받는다	-10.8235
▁모리	-10.8238
▁지내	-10.824
▁혹	-10.8243
▁호남	-10.8245
▁둘러싼	-10.8245
▁암흑	-10.8246
▁이번에는	-10.825
▁수영	-10.8252
▁곳이다	-10.8253
▁안타	-10.8253
▁끊어	-10.8255
▁사업에	-10.8258
할때	-10.826
▁훈련을	-10.8261
▁활용한	-10.8261
▁통영	-10.8262
▁사라지	-10.8264
MA	-10.8265
▁때의	-10.8265
▁청장	-10.8267
▁랩	-10.827
더라	-10.8271
▁기능이	-10.8271
▁똑같이	-10.8271
▁보일	-10.8274
▁내려가	-10.8277
▁타워	-10.8278
▁수험생	-10.8282
▁소녀상	-10.8282
ity	-10.8282
▁증인	-10.8285
▁격파	-10.8286
ast	-10.8288
▁인사를	-10.829
▁어떠한	-10.829
▁자세히	-10.8291
순위	-10.8291
nt	-10.8293
▁균형	-10.8294
프라	-10.8294
▁기준을	-10.8295
▁승격	-10.8296
▁노예	-10.8296
▁수감	-10.8298
▁해임	-10.8298
▁채워	-10.83
▁컴	-10.8303
▁받아들여	-10.8303
▁보내고	-10.8303
▁잃고	-10.8303
▁임용	-10.8303
것을	-10.8304
▁손가락	-10.8304
▁철학	-10.8305
▁말하면	-10.8307
▁88	-10.8307
거리는	-10.8307
인간	-10.8309
▁끝나고	-10.8312
▁그래픽	-10.8313
▁입장에서	-10.8314
폭행	-10.8314
▁거리가	-10.8316
커스	-10.8317
랩	-10.8318
필드	-10.8319
▁여학생	-10.8319
▁통행	-10.8319
▁배정	-10.8319
넥	-10.8321
분에	-10.8321
▁방문한	-10.8322
▁하트	-10.8325
▁상당수	-10.8328
받지	-10.8329
▁일이다	-10.8329
▁1991	-10.833
▁무인	-10.8332
▁기온	-10.8333
NA	-10.8344
▁나아	-10.8344
씨에	-10.8344
▁고수	-10.8344
형을	-10.8345
▁투약	-10.8348
재배포	-10.835
전기	-10.8351
▁기숙사	-10.8353
▁열려	-10.8356
당국	-10.8356
팡	-10.8357
▁학교에서	-10.8358
호의	-10.8359
▁보여주고	-10.8359
▁퇴진	-10.8362
▁측의	-10.8363
▁68	-10.8364
일보	-10.8366
▁일명	-10.8366
▁연료	-10.8368
▁50%	-10.837
▁조합원	-10.8371
허가	-10.8373
터를	-10.8373
티아	-10.8374
▁복무	-10.8377
▁아니라는	-10.8378
▁파트	-10.8379
▁요원	-10.8379
▁프로듀서	-10.838
▁PD	-10.8381
연합회	-10.8382
▁수사가	-10.8384
▁마케팅	-10.8384
▁코스트	-10.8385
▁스페셜	-10.8386
정의	-10.8386
▁후배	-10.839
▁존중	-10.839
웠	-10.839
▁나가는	-10.8391
▁막는	-10.8393
US	-10.8394
▁제약	-10.8395
▁기록한	-10.8396
▁팀장	-10.8397
▁놀이	-10.8399
▁웹툰	-10.8399
▁규	-10.8401
▁권총	-10.8401
▁없는데	-10.8402
▁김경	-10.8404
랍	-10.8406
▁느껴	-10.8407
▁오사카	-10.8408
▁뭘	-10.8409
▁묻	-10.8412
▁최다	-10.8413
▁갈아	-10.8416
▁토요일	-10.842
▁투입해	-10.8421
사업을	-10.8421
▁잡는	-10.8423
호텔	-10.8424
IS	-10.843
man	-10.843
경북	-10.843
▁역사를	-10.8435
▁컨	-10.8436
▁빨라	-10.8437
▁음식을	-10.8441
고교	-10.8442
▁이용하여	-10.8445
▁그랬	-10.8447
▁직원이	-10.8451
▁생겼	-10.8451
▁헤이	-10.8451
▁1987	-10.8453
구의	-10.8454
ac	-10.8454
나와	-10.8456
▁개인정보	-10.8456
▁이쪽은	-10.8457
▁수호	-10.8458
▁들어온	-10.8459
▁활약을	-10.8463
▁대비해	-10.8465
▁만날	-10.8467
▁생긴다	-10.8467
▁송치	-10.847
900	-10.8471
주간	-10.8471
▁카드가	-10.8472
▁종로	-10.8475
▁신부	-10.8476
▁비싼	-10.8477
▁글이	-10.8478
▁들려	-10.8479
것도	-10.8479
▁말자	-10.8479
▁가치를	-10.848
▁환상	-10.8481
▁진행됐다	-10.8481
▁뒤집	-10.8482
▁포함된	-10.8485
▁장면을	-10.8486
▁손으로	-10.8486
▁정신을	-10.8488
▁렌	-10.8489
렸던	-10.8491
싸움	-10.8495
▁많은데	-10.8497
EC	-10.8497
▁역으로	-10.8498
▁사랑을	-10.85
▁시상식	-10.8503
▁기본적인	-10.8504
▁신입생	-10.8504
▁마녀	-10.8505
▁서울시가	-10.8507
▁괜찮은	-10.8508
▁대략	-10.8508
▁향한	-10.8515
▁이상을	-10.8517
▁싶	-10.852
▁붙잡혔다	-10.852
▁별도의	-10.8521
▁최근에는	-10.8523
▁갤럭시	-10.8525
변호사	-10.8525
▁받으며	-10.8525
▁확인했다	-10.8527
▁요새	-10.8531
방지	-10.8532
▁세계에서	-10.8533
석이	-10.8534
▁여수	-10.8535
▁생기는	-10.8539
킴	-10.854
▁사립	-10.854
오카	-10.854
▁상점	-10.8541
트와	-10.8542
▁대거	-10.8545
▁윗	-10.8549
▁01	-10.8549
▁우리의	-10.8551
히로	-10.8553
파일	-10.8553
▁상태였다	-10.8553
▁의미한다	-10.856
▁좋을	-10.8561
▁me	-10.8561
▁착각	-10.8561
▁스킨	-10.8564
안이	-10.8564
▁의정부	-10.8565
건을	-10.8566
▁갑옷	-10.8566
▁To	-10.8566
모임	-10.8567
▁지역사회	-10.8568
▁한파	-10.8569
타는	-10.8569
▁사령관	-10.857
▁머물	-10.857
▁켜	-10.8571
▁결제	-10.8571
▁국어	-10.8571
▁경우에	-10.8572
▁버리고	-10.8573
▁밝히	-10.8574
▁응시	-10.8576
리나	-10.8578
▁위법	-10.8578
▁걸리	-10.858
▁환승	-10.8581
▁불량	-10.8581
▁순으로	-10.8582
▁압	-10.8582
신을	-10.8583
해달라고	-10.8586
▁종목	-10.8586
▁정도다	-10.8587
bo	-10.8588
▁농촌	-10.8588
인력	-10.8588
▁문제에	-10.8588
▁참여해	-10.8589
▁출신의	-10.8589
여자	-10.859
▁나와서	-10.859
▁의상	-10.8591
▁김해	-10.8592
왜	-10.8593
▁한자	-10.8594
▁근절	-10.8595
od	-10.8596
▁화물차	-10.8596
▁자치구	-10.8597
경찰청	-10.8597
서울시	-10.8597
ion	-10.8598
▁한데	-10.8598
▁모인	-10.86
단속	-10.8602
하더라도	-10.8603
교육을	-10.8603
▁스코어	-10.8604
▁있었으며	-10.8607
▁가공	-10.8607
▁있겠	-10.8607
▁죽음을	-10.8609
해질	-10.861
▁이민	-10.8611
시절	-10.8612
▁흘리	-10.8612
▁베르	-10.8613
▁시공	-10.8618
▁갖추	-10.8621
▁구호를	-10.8621
▁명령을	-10.8622
▁은폐	-10.8623
▁남용	-10.8625
처분	-10.8626
억원의	-10.8626
건물	-10.8627
▁진술했다	-10.8628
hi	-10.8632
우드	-10.8635
▁같아	-10.8635
▁부처	-10.8636
▁상실	-10.8637
▁62	-10.8637
▁평타	-10.8638
▁소위	-10.8639
▁위조	-10.8639
▁코믹스	-10.864
▁레오	-10.864
스턴	-10.8641
판이	-10.8643
▁들은	-10.8644
▁다스	-10.8646
▁흰	-10.8646
▁않을까	-10.8646
▁많지	-10.8651
▁풀려	-10.8652
▁조사에	-10.8653
됨에	-10.8654
▁의료진	-10.8656
공을	-10.8656
기념	-10.8657
이상	-10.8658
오르	-10.8658
▁흔	-10.8658
온다	-10.866
▁늘려	-10.8661
▁화상	-10.8663
▁드랍	-10.8664
▁신원	-10.8665
▁알파	-10.8665
넣	-10.8665
▁Do	-10.8665
▁직장인	-10.8666
▁대통령을	-10.8669
계를	-10.8672
경보	-10.8673
▁사회복지	-10.8674
▁곳을	-10.8674
▁미스	-10.8675
▁호평	-10.8676
▁대해선	-10.8678
▁심하게	-10.8678
▁절망	-10.868
▁인구는	-10.868
였다고	-10.8684
편이	-10.8684
술을	-10.8685
▁있는데요	-10.8685
낮	-10.8687
▁메시지	-10.8687
▁위원장은	-10.8688
지대	-10.8692
▁동방	-10.8693
▁전투기	-10.8693
▁성별	-10.8695
되던	-10.8696
▁추가되었다	-10.8697
▁신축	-10.8698
▁한동안	-10.8698
택시	-10.8698
▁했으며	-10.8698
▁안보	-10.8699
▁영주	-10.87
▁분위기가	-10.87
▁영동	-10.8705
▁이뤄진	-10.8706
▁움직이	-10.8707
▁지진이	-10.8707
아서	-10.8708
교육감	-10.8715
▁감찰	-10.8717
▁준공	-10.872
▁페스티벌	-10.872
▁딜러	-10.8722
▁인권위	-10.8725
▁도움	-10.8725
▁사라진	-10.8725
▁마왕	-10.8726
▁도와	-10.8729
팀은	-10.8729
해지고	-10.873
▁MAX	-10.8731
▁광장에서	-10.8732
▁경쟁력	-10.8734
▁패치로	-10.8739
▁방식을	-10.8739
▁시민이	-10.8741
▁죽었다	-10.8741
▁포항시	-10.8745
노스	-10.8748
▁이같은	-10.8749
▁행운	-10.8749
통합	-10.8749
▁그에	-10.875
▁스웨덴	-10.8751
▁갱	-10.8752
▁모금	-10.8752
데다가	-10.8753
▁이란	-10.8753
▁바닥에	-10.8754
▁시청자들	-10.8756
이었습니다	-10.8758
▁입단	-10.8758
▁게이지	-10.8768
비로	-10.8768
▁김기	-10.8768
아버지	-10.8769
일반	-10.877
▁가뭄	-10.8771
▁몽골	-10.8772
물로	-10.8774
▁하위	-10.8777
▁의혹에	-10.8778
▁바뀐	-10.8782
차례에	-10.8782
▁이끌	-10.8786
▁높았다	-10.8787
▁한다면	-10.8787
▁소식이	-10.8789
▁그들은	-10.8792
▁함선	-10.8793
▁만나는	-10.8793
▁따뜻한	-10.8794
▁공범	-10.8797
▁되지만	-10.8797
▁골프	-10.8797
▁대하여	-10.8798
▁여러모로	-10.8798
▁살인사건	-10.88
▁흉기로	-10.88
▁나누	-10.8801
▁줄었다	-10.8802
▁최후의	-10.8803
쉽	-10.8804
▁유령	-10.8804
▁제출한	-10.8807
기사문의	-10.8811
▁멕시코	-10.8812
▁질병관리본부	-10.8812
▁멜	-10.8812
보자	-10.8813
현지시간	-10.8813
▁유인	-10.8814
▁출국	-10.8814
▁장례식장	-10.8814
▁이외에도	-10.8816
PS	-10.8822
발전소	-10.8827
▁비슷하게	-10.8827
두고	-10.8827
임금	-10.8828
▁시작해	-10.8832
▁절도	-10.8832
▁인물이	-10.8832
▁일으키	-10.8838
시위	-10.8839
▁교육과정	-10.8843
▁줄여	-10.8843
려서	-10.8845
븐	-10.8845
▁쿠로	-10.8846
▁벌여	-10.8847
▁김수	-10.8848
▁주체	-10.8856
▁위상	-10.8857
▁야당	-10.8857
레이션	-10.8859
▁것만	-10.886
▁행적	-10.886
▁20%	-10.8861
원인	-10.8861
▁공개했다	-10.8863
크로	-10.8867
▁그간	-10.8871
▁동화	-10.8873
▁강서구	-10.8875
▁서양	-10.8876
▁명시	-10.8877
ance	-10.8877
권의	-10.8882
▁소원	-10.8882
▁넘겨진	-10.8882
▁허리	-10.8884
▁전달했다	-10.8885
▁고르	-10.8885
▁애정	-10.8887
▁포럼	-10.889
겸	-10.889
▁쌍둥이	-10.8893
시오	-10.8894
▁이씨	-10.8895
▁폼	-10.8895
▁그림자	-10.8898
공동	-10.8899
▁지낸	-10.89
지부	-10.8902
▁나오기	-10.8902
실점	-10.8902
▁동원해	-10.8902
▁받아들이	-10.8903
원과	-10.8904
▁기대한다	-10.8905
▁깎	-10.8905
님이	-10.8905
no	-10.8905
▁정수	-10.8906
▁전철	-10.8906
▁없으니	-10.8907
▁석방	-10.8908
▁참가자들	-10.8909
▁방향을	-10.8911
츄	-10.8911
▁수록곡	-10.8911
▁에리	-10.8913
▁투어	-10.8914
▁죽인	-10.8919
재난	-10.8921
▁상태를	-10.8922
▁112	-10.8923
▁제어	-10.8924
▁사전에	-10.8925
▁되도록	-10.8929
▁드립	-10.893
▁이재용	-10.893
▁효과는	-10.8931
큰	-10.8936
▁잠실	-10.8938
▁제국의	-10.8939
▁결승전	-10.8943
▁묻는	-10.8944
로드	-10.8944
▁대개	-10.8944
▁블랙리스트	-10.8944
▁있어요	-10.8945
RA	-10.8945
▁날아가	-10.8947
▁상습	-10.8947
▁찰	-10.8947
▁불어	-10.8947
졌	-10.8953
혔	-10.8956
▁미야	-10.8957
깨	-10.8959
다시피	-10.896
▁시대에	-10.8961
▁소규모	-10.8962
▁76	-10.8962
▁모티브	-10.8965
▁김병	-10.8969
▁세계를	-10.8969
▁않	-10.8969
▁사연	-10.8969
▁Be	-10.897
▁냈	-10.8971
▁튀	-10.8971
···	-10.8972
▁상해	-10.8974
▁기업의	-10.8974
▁크레	-10.8975
마당	-10.8977
코가	-10.8977
ts	-10.8978
녹취	-10.8979
Lv	-10.898
▁게재	-10.898
▁갈라	-10.8981
▁보강	-10.8982
▁반박	-10.8984
▁러	-10.8985
즈가	-10.8985
▁불가능한	-10.8985
▁해산	-10.8985
▁곳곳에서	-10.8986
▁반란	-10.8986
국회	-10.8987
▁추세	-10.8989
▁바람이	-10.8989
▁알아보	-10.899
▁흔적	-10.899
▁사이가	-10.8992
▁브레	-10.8992
▁바보	-10.8993
상이	-10.8998
▁변화가	-10.8999
▁지출	-10.8999
세포	-10.9001
oo	-10.9001
▁문장	-10.9001
▁뮤	-10.9002
▁뉴시스	-10.9003
회복	-10.9003
공원에서	-10.9004
▁수단	-10.9004
▁확인한	-10.9007
여개	-10.9009
▁양식	-10.9013
르트	-10.9015
▁없도록	-10.9015
잘	-10.9015
▁소속사	-10.9019
▁순수	-10.902
▁외치고	-10.9022
사장	-10.9022
흔	-10.9025
▁보여주었다	-10.9025
방에서	-10.9026
▁개체	-10.9028
▁주전	-10.9028
▁가족이	-10.903
▁감지	-10.9032
▁하얀	-10.9035
주의보	-10.9039
▁관계로	-10.9039
세종	-10.9039
▁곰	-10.904
▁비디오	-10.904
▁봤	-10.9041
▁글자	-10.9043
▁들었	-10.9045
▁도중에	-10.9045
▁참석했다	-10.9046
▁보내는	-10.9047
생산	-10.9048
▁대법원은	-10.9049
긋	-10.905
론을	-10.905
▁김포	-10.9052
▁나면	-10.9053
▁관객	-10.9058
▁재발	-10.9059
▁보유하고	-10.9061
자유	-10.9061
▁잡을	-10.9064
▁역사적	-10.9066
▁주변의	-10.9067
▁없던	-10.9068
집니다	-10.9069
▁탐	-10.907
▁때가	-10.9072
▁윌	-10.9072
▁팝	-10.9072
▁노동자들	-10.9073
▁돌아오	-10.9074
▁엮	-10.9075
▁준비를	-10.9075
▁자라	-10.9076
협약	-10.9076
교류	-10.9076
▁내릴	-10.9077
규칙	-10.9078
점에서	-10.9079
▁Tr	-10.9079
▁고기	-10.9082
전대	-10.9082
▁침수	-10.9082
▁파라	-10.9083
사무	-10.9084
하세요	-10.9084
...'	-10.9088
▁파이어	-10.9088
강화	-10.9089
▁기다리	-10.9092
▁왕조	-10.9093
ak	-10.9094
▁1989	-10.9095
▁장교	-10.9096
▁가치가	-10.9097
▁흐름	-10.9097
μ	-10.9098
▁연수	-10.9099
▁습	-10.9099
▁타인	-10.9101
근로	-10.9102
▁있었다는	-10.9102
천원	-10.9103
▁법조계	-10.9103
▁공식적으로	-10.9106
▁율	-10.9106
▁모르고	-10.9108
▁터널	-10.9108
▁짤	-10.9109
▁흥행	-10.9109
▁눈길을	-10.9109
소가	-10.9111
▁쿄	-10.9112
▁챙기	-10.9113
▁오토바이	-10.9113
스럽다	-10.9114
후보	-10.9115
▁락	-10.9116
▁경험을	-10.9118
▁않았을	-10.9118
▁00	-10.9118
▁대항	-10.9119
▁집계됐다	-10.912
▁아직까지	-10.912
▁지속적인	-10.912
▁해킹	-10.9121
▁느	-10.9121
▁성능이	-10.9121
▁기기	-10.9123
▁희귀	-10.9124
▁진행되는	-10.9124
▁들면	-10.9125
▁남아있	-10.9126
쟁이	-10.9127
▁생태	-10.9132
▁상영	-10.9134
▁구출	-10.9134
무를	-10.9134
비서관	-10.9135
설계	-10.9136
놀	-10.9137
▁의원의	-10.9138
치의	-10.9139
담당	-10.914
로이드	-10.9141
▁넣고	-10.9141
오른쪽	-10.9142
▁않습니다	-10.9144
마가	-10.9146
▁서울의	-10.9147
하우스	-10.9149
▁많아서	-10.915
들이다	-10.915
대에서	-10.9151
▁소프트웨어	-10.9152
나마	-10.9152
▁등판	-10.9153
▁방위	-10.9154
▁품질	-10.9155
▁모색	-10.9155
유치원	-10.9156
▁1~2	-10.9157
투스	-10.9157
▁여유	-10.9158
▁부장	-10.9159
▁있었습니다	-10.9161
▁새끼	-10.9161
▁그건	-10.9161
▁만들었	-10.9163
▁소닉	-10.9165
▁실질적인	-10.9167
▁이끌어	-10.9168
▁브리	-10.917
자들을	-10.9171
▁양승태	-10.9175
▁지니고	-10.9176
▁화려한	-10.9176
▁지침	-10.9176
▁정령	-10.9177
공학	-10.9178
▁군주	-10.9178
청은	-10.918
아시아	-10.918
▁위주로	-10.9182
▁내외	-10.9183
역으로	-10.9183
▁작사	-10.9183
녹	-10.9183
지난	-10.9186
▁시계	-10.9188
카페	-10.9188
▁혜택을	-10.9191
▁스튜디오	-10.9192
▁자문	-10.9192
▁기온은	-10.9193
▁농구	-10.9195
▁행정안전부	-10.9196
▁나선다	-10.9196
▁사법부	-10.9196
▁검출	-10.9206
ng	-10.9209
끝	-10.921
▁늑대	-10.921
킥	-10.9211
지며	-10.9213
책을	-10.9216
▁확충	-10.9217
▁캠퍼스	-10.9217
▁사용했다	-10.9217
▁야생	-10.9217
▁군수	-10.9219
▁실적	-10.9219
▁상무	-10.922
▁부수	-10.9221
▁있었을	-10.9222
▁날리	-10.9225
▁전투력	-10.9225
▁결과에	-10.9226
▁장악	-10.9232
▁안경	-10.9237
▁성적을	-10.9238
▁게스트	-10.9239
방울	-10.924
▁국내외	-10.9241
여명의	-10.9242
▁비전	-10.9245
▁진상	-10.9247
▁열쇠	-10.9251
▁보정	-10.9251
통을	-10.9252
▁않는다고	-10.9252
▁빼고	-10.9253
▁스승	-10.9254
확인	-10.9257
그라	-10.9258
▁위원회	-10.9258
▁유학	-10.9259
▁낫다	-10.9259
▁건의	-10.9262
▁어른	-10.9263
릭스	-10.9263
캠	-10.9264
▁신중	-10.9266
▁무언가	-10.9269
▁참가자들이	-10.927
▁화제	-10.9271
이라면서	-10.9271
승을	-10.9272
▁가능하며	-10.9274
전화	-10.9276
▁저작권	-10.9276
▁동해안	-10.9277
▁경향이	-10.9279
▁기도	-10.9285
▁부사장	-10.9285
▁일요일	-10.9286
코스	-10.9286
▁광복	-10.9289
▁약물	-10.929
식에서	-10.9294
▁법원에	-10.9295
▁떨어졌다	-10.9295
▁뺏	-10.93
▁테크	-10.93
▁공을	-10.9302
▁160	-10.9302
▁인물들	-10.9304
▁골든	-10.9305
▁유로	-10.9306
▁충분한	-10.931
부와	-10.9311
▁김민	-10.9311
장소	-10.9311
대병원	-10.9311
▁높고	-10.9312
▁한국에	-10.9314
광고	-10.9315
▁제법	-10.9317
끈	-10.9317
▁정문	-10.9318
워드	-10.9321
▁실망	-10.9325
▁77	-10.9327
없	-10.9327
▁컨텐츠	-10.9328
▁차라리	-10.9329
▁위탁	-10.9331
▁주었다	-10.9331
▁상급	-10.9333
▁총괄	-10.9335
▁거리를	-10.9336
▁선장	-10.9337
형이	-10.9337
▁도착한	-10.9337
▁넣는	-10.9337
▁다들	-10.9338
▁얻고	-10.9338
▁든다	-10.9338
▁성능을	-10.9339
▁라며	-10.9339
방안	-10.934
▁전체의	-10.9341
▁03	-10.9345
▁커지고	-10.9347
았	-10.9347
▁오늘날	-10.9348
자치	-10.9348
홈런	-10.9351
권에	-10.9353
수준	-10.9354
▁마츠	-10.9356
▁훌륭한	-10.9357
▁문구	-10.9358
▁구글	-10.936
▁창립	-10.9361
SNS	-10.9361
▁옥상	-10.9364
특보	-10.9364
▁널	-10.9364
▁사찰	-10.9364
▁부담을	-10.9365
료를	-10.9368
화로	-10.9373
라면서	-10.9374
지방법원	-10.9377
▁판결이	-10.9378
▁썩	-10.9378
비행	-10.938
▁침입	-10.9381
▁귀족	-10.9385
▁만났	-10.9385
전시	-10.9386
AI	-10.9387
▁바꾼	-10.9388
▁주간	-10.9388
▁주민들은	-10.9388
▁있음을	-10.9389
The	-10.939
액을	-10.9393
▁잉글랜드	-10.9393
▁체류	-10.9395
제국	-10.9396
▁불만을	-10.9396
▁비트	-10.9397
▁NPC	-10.9399
율은	-10.94
▁꿀	-10.9404
▁혈액	-10.9404
소녀	-10.9405
▁사용되는	-10.9406
▁서울시교육청	-10.9406
스토	-10.9407
코드	-10.9408
▁진행하는	-10.9408
▁알리는	-10.9409
▁박상	-10.941
맘	-10.9411
▁말했습니다	-10.9411
▁나이가	-10.9413
CE	-10.9414
ub	-10.9414
로서는	-10.9416
▁경기가	-10.9417
▁창의	-10.9418
▁몰리	-10.942
▁그러다	-10.9423
이거나	-10.9423
그러	-10.9425
요원	-10.9425
▁서울고법	-10.9426
▁고양	-10.9427
▁해상에서	-10.9428
▁파일럿	-10.9428
참여	-10.9428
▁실장	-10.9429
▁러브	-10.9431
▁재해	-10.9436
▁나름대로	-10.9436
데스	-10.944
위기	-10.9442
▁삼아	-10.9443
▁회의를	-10.9445
▁비용을	-10.9445
▁참여할	-10.9446
판에	-10.9447
▁시간은	-10.9448
그래	-10.945
전투	-10.945
함과	-10.9451
▁거다	-10.9451
ru	-10.9453
ip	-10.9453
▁전형적인	-10.9453
▁1960	-10.9454
▁이재명	-10.9454
▁물려	-10.9457
▁내야	-10.9457
▁어릴	-10.9458
▁시사	-10.946
▁출구	-10.946
▁생각보다	-10.9462
▁사업은	-10.9463
리카	-10.9467
▁거친	-10.947
▁나타나는	-10.947
▁작품이	-10.9471
중이다	-10.9472
▁술에	-10.9473
▁결과적으로	-10.9474
▁'2018	-10.9477
궤	-10.9477
▁명성	-10.9477
▁다루는	-10.9478
컴	-10.9481
▁67	-10.9482
축구	-10.9483
▁나타난다	-10.9484
데요	-10.9485
됐는데	-10.9487
▁마리아	-10.9487
▁훔쳐	-10.9488
취업	-10.9488
▁140	-10.9492
즈키	-10.9492
▁구름	-10.9492
▁조리	-10.9492
▁부족하다	-10.9493
▁예전에	-10.9493
▁실력을	-10.9493
비와	-10.9494
▁몬	-10.9499
▁패스	-10.95
▁이후로는	-10.95
▁돌아다니	-10.95
▁긴장	-10.95
브리	-10.9504
▁김진	-10.9504
▁힘으로	-10.9509
▁생길	-10.9509
▁영국의	-10.951
▁후지	-10.9512
▁세포	-10.9513
▁웅	-10.9516
▁결의	-10.9518
▁신고가	-10.9519
▁정부에	-10.9522
▁팀은	-10.9523
▁수면	-10.9523
사거리	-10.9523
사용	-10.9524
차원	-10.9526
꺼	-10.9527
▁나왔	-10.9527
▁개발한	-10.9528
▁양심	-10.9528
▁크리티컬	-10.9528
혁명	-10.9529
▁인명피해	-10.9529
현대	-10.953
▁재활용	-10.9531
홀에서	-10.9532
▁한참	-10.9532
보통	-10.9533
피고인	-10.9533
▁분석한	-10.9534
▁대회에서	-10.9534
▁일본인	-10.9535
▁묘지	-10.9536
▁증상이	-10.9537
▁속여	-10.9538
램	-10.9538
▁불교	-10.954
▁특화	-10.9541
크리	-10.9544
세력	-10.9549
▁성분	-10.9549
▁st	-10.9549
았습니다	-10.9553
▁비서관	-10.9554
공개	-10.9555
▁닌자	-10.9555
전선	-10.9556
▁한창	-10.9559
▁위험이	-10.9559
▁사라졌다	-10.956
▁네가	-10.9561
▁특이한	-10.9562
▁축사	-10.9563
▁중순	-10.9563
▁곤란	-10.9563
▁언급한	-10.9563
▁출처	-10.9564
▁그렇지만	-10.9566
▁명예훼손	-10.9566
▁중형	-10.9566
▁물에	-10.9569
되었지만	-10.9569
▁담겨	-10.9572
▁파이널	-10.9574
어스	-10.9574
ide	-10.9577
▁싱	-10.9579
▁폴란드	-10.9579
▁일시	-10.9581
OS	-10.9582
산업단지	-10.9583
▁키리	-10.9584
▁역사상	-10.9584
▁기다리고	-10.9584
▁은하	-10.9584
▁택배	-10.9584
▁참석자들이	-10.9586
▁겪는	-10.9587
▁돌격	-10.9588
원들이	-10.9589
▁연세대	-10.959
▁구체적으로	-10.9591
하루	-10.9591
▁현안	-10.9593
▁준수	-10.9594
▁이익	-10.9595
▁열리	-10.9596
▁인간이	-10.9596
하느냐	-10.9596
카가	-10.9596
▁양형	-10.9596
ake	-10.9597
▁전형	-10.9598
▁격차	-10.9599
▁고통을	-10.96
▁이어진	-10.9603
롯	-10.9605
▁사용하기	-10.9607
▁지휘관	-10.9608
▁학생들을	-10.9611
▁압력	-10.9611
▁돋	-10.9611
~5	-10.9613
댐	-10.9614
▁있을지	-10.9617
▁미래를	-10.9617
토스	-10.9618
▁죽는	-10.9619
학적	-10.9619
이었기	-10.9619
▁이끄는	-10.962
▁공립	-10.9625
▁유저들이	-10.9627
코의	-10.963
나갈	-10.963
유산	-10.9631
정이	-10.9633
▁갖추고	-10.9637
▁당시의	-10.9637
▁안전을	-10.9638
아리	-10.9638
▁진행한	-10.9639
▁갑질	-10.9641
▁사제	-10.9641
▁장비를	-10.9643
▁창고	-10.9644
▁브라	-10.9644
수와	-10.9645
▁브루	-10.9647
▁후기	-10.9649
LE	-10.9651
▁무상	-10.9651
▁보자	-10.9652
▁사람들도	-10.9653
▁진실을	-10.9654
▁발생한다	-10.9655
▁구상	-10.9655
▁사망했다	-10.9655
▁발급	-10.9655
▁셰	-10.9655
▁금속	-10.9655
▁화재가	-10.9657
단에	-10.9657
▁이용객	-10.9658
▁신기	-10.9661
다음	-10.9662
▁마침내	-10.9664
실로	-10.9669
2016	-10.9671
▁출력	-10.9671
▁그것은	-10.9672
껏	-10.9672
▁자국	-10.9676
▁Sp	-10.9676
▁집계	-10.9678
▁실버	-10.968
▁보이지만	-10.9682
▁관해	-10.9683
▁정유라	-10.9685
졌지만	-10.9686
▁색상	-10.9686
▁바깥	-10.9686
나미	-10.9688
권은	-10.9688
▁전함	-10.9689
▁관람객	-10.9693
▁어떻게든	-10.9694
부장판사	-10.9697
▁규모가	-10.9698
당하고	-10.9699
▁경상	-10.9699
끔	-10.97
▁써서	-10.9702
▁총장은	-10.9703
나눔	-10.9703
왕의	-10.9703
▁책임자	-10.9705
▁자산	-10.9705
▁소방관	-10.9706
▁이화여대	-10.9707
백만	-10.9708
▁포스코	-10.9709
▁물이	-10.971
▁카라	-10.9711
▁전에는	-10.9712
▁사자	-10.9713
보기	-10.9713
▁남기	-10.9714
▁따위	-10.9714
▁감안하면	-10.9715
인들의	-10.9717
▁근거로	-10.9718
▁응급실	-10.9719
폭탄	-10.9728
▁공격이	-10.9729
▁중대	-10.9731
▁발간	-10.9732
▁영광	-10.9733
더스	-10.9733
▁있어도	-10.9734
▁농도가	-10.9735
▁창문	-10.9736
▁박모	-10.9736
▁키워	-10.9737
▁표창	-10.9737
▁넘어서	-10.9737
것으로	-10.9739
▁감독의	-10.9742
▁입었다	-10.9742
▁철수	-10.9744
▁98	-10.9745
▁같습니다	-10.9746
서도	-10.9746
▁같지만	-10.975
▁물결	-10.9751
▁!!!	-10.9751
▁붙잡	-10.9751
▁기자회견에서	-10.9754
▁71	-10.9754
종의	-10.9756
▁이른다	-10.9757
▁사업자	-10.9757
▁번개	-10.9757
당해	-10.9759
티스	-10.976
▁사인	-10.976
▁다루	-10.9769
ph	-10.977
▁수확	-10.977
▁얼굴이	-10.9771
▁혐의가	-10.9772
▁외에는	-10.9773
▁층	-10.9773
▁제공하고	-10.9776
봐야	-10.9776
력으로	-10.9777
뚝	-10.978
▁경찰청장	-10.9782
광장	-10.9784
▁뜻은	-10.9785
▁캐리	-10.9785
▁수렴	-10.9785
▁곡을	-10.9786
▁일선	-10.9786
▁맥주	-10.9787
▁춘	-10.9788
▁제주시	-10.9788
▁첫날	-10.9792
▁불과하다	-10.9792
인구	-10.9795
▁선고받았다	-10.9795
▁떠난	-10.9796
▁(2	-10.9796
남부	-10.9799
사이트	-10.98
얀	-10.9801
▁이루어지	-10.9804
▁메타	-10.9804
쇠	-10.9805
작업을	-10.9805
▁상관없이	-10.9805
▁착공	-10.9807
▁라이더	-10.9807
▁팬들은	-10.9808
▁파이	-10.9812
▁자동으로	-10.9813
▁헛	-10.9817
▁이끌고	-10.9817
▁심각	-10.9817
▁매입	-10.9817
▁채취	-10.982
▁과거에	-10.9821
▁소중한	-10.9822
▁고가	-10.9822
혐의	-10.9823
퓨	-10.9824
▁벌금형	-10.9825
▁보유한	-10.9825
▁이루어진	-10.9826
뱅	-10.9827
▁자연스럽게	-10.9827
▁면제	-10.9828
랐다	-10.9828
빌딩	-10.9829
버렸	-10.9829
▁해역	-10.9829
키가	-10.983
▁구속했다	-10.983
▁스킬이	-10.9832
▁BGM	-10.9834
▁의견도	-10.9835
기까지	-10.9836
었다고	-10.9841
▁아동학대	-10.9841
▁논쟁	-10.9842
▁당신의	-10.9843
▁우연히	-10.9843
▁컬러	-10.9844
▁정치권	-10.9846
▁옥시	-10.9848
▁FA	-10.9849
북한	-10.9852
이었다고	-10.9852
노트	-10.9855
MB	-10.9858
나요	-10.986
OO	-10.986
시와	-10.9861
강원	-10.9863
▁노리	-10.9863
▁탈퇴	-10.9865
바다	-10.9867
▁클래식	-10.9868
▁이외에	-10.9869
▁시선	-10.9872
▁특성을	-10.9877
보상	-10.9877
▁해운대	-10.9877
▁몰라	-10.9879
▁비율은	-10.988
▁수련	-10.9882
OR	-10.9884
▁기증	-10.9884
▁특허	-10.9885
▁것인가	-10.9887
▁보게	-10.9889
▁구미	-10.989
▁고개	-10.989
▁싶었	-10.989
▁것보다	-10.9891
▁뮤지컬	-10.9892
▁육상	-10.9892
▁정의당	-10.9893
▁시달리	-10.9897
▁계란	-10.9898
▁채팅	-10.9899
숨	-10.9899
▁나카	-10.99
▁버렸다	-10.99
▁김정은	-10.9902
NG	-10.9904
▁풀리	-10.9905
▁기적	-10.9905
ass	-10.9907
▁육체	-10.991
▁정류장	-10.9911
▁조카	-10.9912
부문	-10.9913
▁중점	-10.9915
▁부패	-10.9916
▁인격	-10.9917
▁강철	-10.9919
▁한명	-10.992
▁정화	-10.9921
▁납부	-10.9923
▁서면	-10.9926
▁계열사	-10.9927
▁속하는	-10.9927
▁월급	-10.9927
▁붙어있	-10.993
▁딴	-10.993
▁삼성서울병원	-10.993
▁시켜	-10.9931
터가	-10.9931
▁주재	-10.9932
▁이로	-10.9932
▁침공	-10.9933
▁진상규명	-10.9934
색이	-10.9936
▁벼	-10.9937
▁틀어	-10.9939
▁향하는	-10.994
▁소문	-10.994
▁감동	-10.994
▁적힌	-10.994
▁입양	-10.994
▁학생들에게	-10.9941
▁행사가	-10.9942
▁마라	-10.9942
▁저그	-10.9944
▁험	-10.9947
▁루시	-10.9949
▁달고	-10.9949
▁스파이	-10.995
판에서	-10.995
스틱	-10.9951
넌	-10.9954
과정에서	-10.9954
▁나오면	-10.9959
▁시작하는	-10.996
(17	-10.996
▁연말	-10.996
▁돌아와	-10.9961
9%	-10.9963
.01	-10.9965
ind	-10.9971
▁메모리	-10.9972
▁느끼는	-10.9974
au	-10.9975
▁캐릭터를	-10.9975
▁찾아온	-10.9978
▁아머	-10.9979
▁이사회	-10.998
▁내달	-10.998
▁여전	-10.9983
▁그렇다면	-10.9984
▁온다	-10.9986
(16	-10.9991
▁게임에서	-10.9994
▁마구	-10.9994
▁받았고	-10.9995
▁국도	-10.9999
▁즐기는	-11
▁조지	-11
점은	-11.0005
리우스	-11.0006
▁아사	-11.0007
께서	-11.0009
▁II	-11.0013
융합	-11.0014
ber	-11.0014
마켓	-11.0015
▁추진한다	-11.0015
▁며칠	-11.0015
▁생존자	-11.0022
▁느리	-11.0027
▁유독	-11.0028
▁서울지방경찰청	-11.0029
▁그렇기	-11.003
▁낫	-11.003
사카	-11.003
액은	-11.0033
전남	-11.0034
▁헌터	-11.0036
▁문화재	-11.0038
▁자신도	-11.0038
▁쇠	-11.0039
덜	-11.004
미나	-11.0042
▁색깔	-11.0042
▁충주	-11.0044
▁무덤	-11.0046
▁실시한다	-11.0047
▁가상	-11.0047
▁본부	-11.0047
▁차량에	-11.005
▁차질	-11.0051
▁그랜드	-11.0052
▁생계	-11.0053
▁이윤	-11.0053
▁죽는다	-11.0053
오스	-11.0054
▁업적	-11.0054
▁게시	-11.0055
110	-11.0055
보도	-11.0056
▁마신	-11.0057
▁작가가	-11.0058
▁전동차	-11.0059
나가는	-11.0059
살이	-11.006
▁펴	-11.0061
▁농담	-11.0062
봤	-11.0063
대한민국	-11.0064
곳이	-11.0065
IT	-11.0065
▁노멀	-11.0065
명령	-11.0065
▁08	-11.0066
▁인프라	-11.0066
RE	-11.0067
▁다음에	-11.0069
는게	-11.0073
▁전문가들은	-11.0074
▁알선	-11.0074
▁대지	-11.0076
▁중학생	-11.008
올해	-11.008
▁제자	-11.0081
▁메시지를	-11.0082
▁추가바람	-11.0083
▁그날	-11.0086
▁78	-11.009
심이	-11.0093
▁뜯어	-11.0095
▁대입	-11.0095
롭게	-11.0095
ey	-11.0097
▁화장품	-11.0098
미디어	-11.0099
▁경호	-11.0099
보장	-11.0101
-2	-11.0103
지청	-11.0103
▁주행	-11.0103
▁사람과	-11.0106
▁아크	-11.0106
▁자유롭게	-11.0106
▁누나	-11.0107
▁업무상	-11.0109
▁음식점	-11.0112
▁듣는	-11.0113
오후	-11.0114
▁하나이다	-11.0114
▁뜻하는	-11.0114
병이	-11.0114
ve	-11.0115
▁실시한	-11.0115
▁의지를	-11.0116
▁좋고	-11.0117
여객	-11.0118
▁취해	-11.0118
▁이메일	-11.0119
▁마스크	-11.012
▁출제	-11.012
▁파악하고	-11.0121
▁안양	-11.0121
▁수상자	-11.0121
▁입히	-11.0123
▁아버지의	-11.0125
▁공통	-11.0127
▁의식을	-11.0128
시설을	-11.0128
▁캐릭터의	-11.0128
수단	-11.0128
▁사장은	-11.0128
▁강경	-11.0129
▁기억을	-11.0131
병기	-11.0131
▁아일랜드	-11.0132
▁드러났습니다	-11.0133
생활을	-11.0133
▁확보한	-11.0133
▁신장	-11.0134
▁제작한	-11.0134
▁전두환	-11.0136
플러스	-11.0137
시리즈	-11.0139
▁불편을	-11.014
▁73	-11.014
▁전방	-11.014
쩍	-11.0143
▁드루킹	-11.0143
▁비교하면	-11.0144
▁간혹	-11.0144
TE	-11.0144
▁났	-11.0144
▁편리	-11.0145
방을	-11.0146
▁아트	-11.0147
▁건네	-11.0147
▁문화체육관광부	-11.0148
방에	-11.0149
▁권유	-11.0151
▁역임	-11.0153
진흥원	-11.0154
▁조건을	-11.0155
졌으며	-11.0156
▁공개한	-11.0158
▁늦어	-11.0162
창업	-11.0164
떡	-11.0164
▁IT	-11.0165
▁금품	-11.0166
▁검찰총장	-11.0168
▁대치	-11.017
▁청문회	-11.017
▁건지	-11.017
포를	-11.017
▁여성은	-11.0172
▁필요하다고	-11.0172
▁지불	-11.0173
▁대부분은	-11.0176
▁오래된	-11.0176
▁반지	-11.0176
▁잡혀	-11.0178
▁규모로	-11.0178
체로	-11.0178
▁미치는	-11.0179
▁행보	-11.0179
▁배우는	-11.018
▁신생아	-11.0181
범위	-11.0182
되었	-11.0183
민족	-11.0183
▁결정할	-11.0183
▁운동을	-11.0186
종이	-11.0187
노선	-11.0187
▁공동체	-11.0189
▁지우	-11.0189
렘	-11.0191
머스	-11.0194
▁사진이	-11.0197
▁휴식	-11.0197
▁이탈	-11.0199
▁싸워	-11.0199
테크	-11.0199
▁퀸	-11.0201
맵	-11.0202
벅	-11.0202
▁태어났다	-11.0203
▁밝혔	-11.0205
건축	-11.0205
▁텐데	-11.0206
▁중립	-11.0209
▁용기	-11.021
유지	-11.0211
▁들어갔	-11.0211
▁가해	-11.0213
▁게시판	-11.0213
▁방화	-11.0214
▁아닐	-11.0214
▁승무원	-11.0215
▁후에도	-11.0216
▁선원	-11.0217
▁그들이	-11.0218
▁다양	-11.0219
AS	-11.0221
▁편지	-11.0221
▁지분	-11.0222
▁개최했다	-11.0224
발을	-11.0225
쾌	-11.0226
이기에	-11.0226
▁아나	-11.0231
▁중복	-11.0232
▁팬들이	-11.0233
▁융	-11.0233
▁가능성은	-11.0234
▁개성	-11.0235
▁시가	-11.0237
▁불길	-11.0237
UN	-11.0241
으로서의	-11.0242
까지만	-11.0242
판에서는	-11.0242
▁용서	-11.0242
구리	-11.0247
▁남해	-11.0247
▁미치	-11.025
▁입사	-11.025
일자리	-11.0251
▁양측	-11.0252
▁연구원	-11.0253
▁징역형	-11.0254
▁7.	-11.0255
▁박씨는	-11.0255
▁기존에	-11.0256
▁사태가	-11.0259
중심	-11.0262
▁으	-11.0265
왔습니다	-11.0265
▁고려대	-11.0267
jebo	-11.0267
▁전체를	-11.0268
▁대북	-11.027
▁자진	-11.027
▁연기를	-11.0271
조차도	-11.0271
▁인도네시아	-11.0273
▁대중교통	-11.0274
▁아들을	-11.0274
셜	-11.0275
▁74	-11.0275
▁숙박	-11.0276
▁쏠	-11.0277
력과	-11.0277
▁진행되고	-11.0277
▁남겼다	-11.0278
▁허락	-11.0278
board	-11.0279
▁않다는	-11.0279
▁박씨	-11.028
▁전문가들	-11.0283
▁자본	-11.0284
▁높이는	-11.0285
▁카르	-11.0286
▁상고	-11.0286
▁이용자	-11.0288
▁승소	-11.0289
▁서식	-11.029
”...	-11.029
하였는데	-11.0291
▁세상에	-11.0293
▁취미	-11.0295
룰	-11.0295
▁MC	-11.0296
▁앞바다	-11.0296
▁충청	-11.0297
▁임의	-11.0297
▁싸울	-11.0298
▁높여	-11.0299
진단	-11.0301
▁입찰	-11.0301
▁이집트	-11.0301
SS	-11.0302
▁아프	-11.0305
지수	-11.0306
▁방출	-11.0306
▁선행	-11.0309
▁걸고	-11.0311
적으로는	-11.0311
보수	-11.0311
▁병사들	-11.0311
▁날이	-11.0312
▁모니터링	-11.0312
▁LA	-11.0313
▁측근	-11.0313
수산	-11.0315
▁데이트	-11.0318
▁차지하는	-11.0318
▁용도로	-11.0321
화와	-11.0322
▁국가의	-11.0322
▁시에	-11.0323
▁차기	-11.0326
▁배터리	-11.0328
▁제임스	-11.0328
(14	-11.033
▁있을까	-11.0331
▁도로에서	-11.0333
▁간격	-11.0333
계에	-11.0335
처장	-11.0336
大	-11.0338
업소	-11.034
ian	-11.034
▁전투를	-11.034
리티	-11.0341
▁캔	-11.0342
자연	-11.0343
▁행복한	-11.0343
아의	-11.0343
rea	-11.0344
▁강간	-11.0344
▁무력	-11.0345
▁변론	-11.0346
워크	-11.0348
▁갖춰	-11.0349
▁오지	-11.035
되었을	-11.035
▁이른	-11.035
내가	-11.035
▁어르신	-11.0352
▁적다	-11.0352
조사를	-11.0352
▁아카데미	-11.0352
▁키스	-11.0354
각을	-11.0355
낭	-11.0355
▁사랑하는	-11.0359
▁인명	-11.036
▁담당하는	-11.0362
기념관	-11.0365
▁협회	-11.0366
▁즐기	-11.0366
▁안전관리	-11.0367
▁스키	-11.0369
▁유물	-11.037
▁구속된	-11.0371
▁설명했습니다	-11.0372
만큼은	-11.0373
▁남산	-11.0374
르크	-11.0376
▁영남	-11.0376
▁방식이	-11.0377
▁않았다는	-11.0378
▁이치	-11.0379
▁버린	-11.038
▁본인도	-11.0381
▁설명을	-11.0381
▁기원전	-11.0381
▁두려워	-11.0382
▁비판을	-11.0383
▁양육	-11.0385
벌레	-11.0387
▁이곳에서	-11.0388
1000	-11.0392
▁지시를	-11.0393
▁첨단	-11.0394
베리	-11.0395
ear	-11.0395
▁전선	-11.0395
▁농협	-11.0396
OL	-11.0397
▁공사를	-11.0398
▁개관	-11.0398
희망	-11.0398
뎀	-11.0399
▁위치해	-11.04
▁세계의	-11.04
BS	-11.0401
▁베스트	-11.0403
▁당연한	-11.0403
▁밤에	-11.0404
▁비해서	-11.0404
▁실질적으로	-11.0408
▁참고인	-11.0408
해주고	-11.0408
에서부터	-11.0408
▁아래로	-11.0409
▁가져가	-11.0413
▁대상을	-11.0413
▁전쟁을	-11.0414
PC	-11.0415
▁사육	-11.042
▁의료기관	-11.0421
▁은근히	-11.0422
▁제천	-11.0422
천명	-11.0423
▁사마	-11.0423
통제	-11.0425
▁감독은	-11.0426
▁모욕	-11.0427
▁행사에서	-11.0427
▁의원들	-11.0428
▁작가의	-11.0431
▁지사는	-11.0431
▁조만간	-11.0432
▁번째로	-11.0432
여름	-11.0433
을때	-11.0433
▁되어서	-11.0433
▁06	-11.0434
해요	-11.0436
위험	-11.0437
위원회를	-11.0437
▁스타크래프트	-11.0438
io	-11.0438
▁뜻이	-11.0438
사인	-11.0439
형으로	-11.0439
▁구호	-11.044
▁선전	-11.0443
디스	-11.0443
▁얻기	-11.0445
가미	-11.0445
당하는	-11.0445
▁청주시	-11.0447
▁빈소	-11.0447
▁그라	-11.0448
영구적으로	-11.0448
▁장미	-11.0448
령을	-11.045
기계	-11.0454
▁것이며	-11.0455
▁부천	-11.0455
ea	-11.0456
▁최강의	-11.0456
▁엑	-11.0457
시다	-11.046
▁커지	-11.0464
▁※	-11.0466
▁칭찬	-11.0467
▁알겠지만	-11.0467
▁도망치	-11.0468
계에서	-11.0469
▁교복	-11.0469
▁쌓아	-11.0469
▁한미	-11.047
▁임직원	-11.047
ice	-11.0472
▁어린이들이	-11.0472
▁이르면	-11.0472
▁"(	-11.0474
▁날짜	-11.0475
렴	-11.0476
▁이식	-11.0476
▁초창기	-11.0477
▁절대로	-11.048
▁박물관	-11.0481
▁쟁점	-11.0482
▁사카	-11.0484
▁출연한	-11.0485
단과	-11.0486
▁학생회	-11.0489
▁정확하게	-11.0489
▁육아	-11.0492
왔	-11.0493
▁2.5	-11.0494
▁관리를	-11.0494
▁메탈	-11.0494
▁나쁘지	-11.0495
▁흙	-11.0497
▁건축물	-11.0499
▁방송에서	-11.0499
▁사흘	-11.0502
▁납	-11.0502
▁갈등을	-11.0502
▁더위	-11.0505
특수	-11.0505
▁물고기	-11.0506
▁딸을	-11.0507
▁좌석	-11.0508
▁적정	-11.0508
세는	-11.0509
▁All	-11.051
▁기간에	-11.0511
정원	-11.0511
극장	-11.0512
▁르	-11.0512
▁마이클	-11.0515
▁제기한	-11.0517
▁구성되어	-11.0518
▁태도를	-11.0519
무장	-11.0519
▁공지	-11.0519
▁리얼	-11.052
con	-11.052
옴	-11.0521
▁자랑한다	-11.0523
▁마련했다	-11.0524
▁여행을	-11.0525
▁한방	-11.0525
약을	-11.0526
IA	-11.0526
▁도시철도	-11.0526
▁이루어져	-11.0526
쪽으로	-11.0528
안타	-11.053
특히	-11.0532
▁후보가	-11.0533
▁운송	-11.0535
▁지키는	-11.0536
our	-11.0538
디자인	-11.0539
sion	-11.0539
▁분포	-11.0539
▁있다며	-11.054
▁불렀다	-11.0542
▁커플	-11.0543
준비	-11.0545
하였	-11.0547
았고	-11.0547
▁제기된	-11.0549
▁브레이크	-11.0549
ace	-11.055
구로	-11.055
▁학교를	-11.0552
▁이미지를	-11.0552
▁씻	-11.0553
▁시정	-11.0555
▁대표적	-11.0556
▁소유자	-11.0556
▁이병	-11.0556
▁선사	-11.0559
▁나나	-11.056
▁height	-11.056
▁문화예술	-11.0561
▁손해	-11.0561
시간을	-11.0562
▁집중적으로	-11.0565
▁줬다	-11.0566
▁지원할	-11.057
▁실시간	-11.0571
▁안타깝	-11.0571
▁병행	-11.0574
▁바위	-11.0575
▁안나	-11.0575
▁걸리는	-11.0577
채용	-11.0579
▁정차	-11.0582
▁재판관	-11.0582
▁감상	-11.0588
한데	-11.0591
▁충족	-11.0592
쿨	-11.0592
.16	-11.0592
마의	-11.0593
▁69	-11.0594
▁선정된	-11.0594
▁가족과	-11.0595
▁명중률	-11.0597
▁능력은	-11.06
▁상생	-11.0601
▁내장	-11.0602
▁뜨거운	-11.0605
▁유효	-11.0605
▁여사	-11.0605
▁잡히	-11.0607
▁금메달	-11.061
▁낙동강	-11.061
~4	-11.0611
▁어려울	-11.0611
성에	-11.0612
프가	-11.0614
질문	-11.0615
▁수급	-11.0615
▁라이프	-11.0615
회의를	-11.0615
받았	-11.0616
▁버려	-11.0616
▁쓰러진	-11.0616
구속	-11.0617
라기	-11.0618
▁상식	-11.0619
▁감정을	-11.062
민이	-11.062
▁변경되었다	-11.0621
줌	-11.0622
진화	-11.0622
파이	-11.0625
▁09	-11.0627
줘야	-11.0632
▁카미	-11.0634
▁미라	-11.0634
▁대성	-11.0635
▁박정희	-11.0635
▁재벌	-11.0636
▁맞으면	-11.0639
본부는	-11.0641
었기	-11.0643
▁밀양	-11.0644
▁래	-11.0644
▁즐거운	-11.0644
▁거예요	-11.0645
ff	-11.0646
▁광화문광장에서	-11.0646
▁파면	-11.0647
▁전국에	-11.0649
▁구하기	-11.065
▁영구	-11.0651
로봇	-11.0651
▁아르바이트	-11.0652
▁시설물	-11.0653
▁발생하지	-11.0654
▁예로	-11.0655
▁유니	-11.0656
▁괜찮	-11.0657
▁Gr	-11.0657
▁당하는	-11.0658
▁보면서	-11.0662
▁다음으로	-11.0662
▁치명타	-11.0667
▁습관	-11.0668
(12	-11.0668
▁1986	-11.0669
▁안전사고	-11.0669
▁헐	-11.067
리조트	-11.067
▁집필	-11.067
옷	-11.0674
때는	-11.0675
▁싸움을	-11.0678
▁요정	-11.0678
▁리메이크	-11.0678
▁중에서는	-11.0678
▁국장	-11.068
▁애초	-11.0682
▁봉사활동	-11.0682
▁활용할	-11.0682
드라마	-11.0684
▁찾고	-11.0684
들로부터	-11.0686
▁일어나는	-11.0687
▁증세	-11.0689
▁어디서	-11.069
▁바꾸는	-11.0691
▁지키	-11.0691
▁SS	-11.0691
▁관련해서	-11.0691
내용	-11.0692
화의	-11.0692
▁카더라	-11.0692
▁신발	-11.0694
▁직접적인	-11.0695
▁가질	-11.0695
경찰서에	-11.0697
▁작곡가	-11.0699
▁막고	-11.07
▁결혼식	-11.0701
▁늦	-11.0703
▁구경	-11.0703
▁로스쿨	-11.0703
▁유력	-11.0704
▁물량	-11.0704
▁조용	-11.0705
▁특집	-11.0706
MS	-11.0709
▁좁은	-11.071
▁문제의	-11.0711
▁버리	-11.0712
드와	-11.0712
▁민정수석	-11.0712
q	-11.0713
▁그러자	-11.0713
▁컷	-11.0715
▁전통시장	-11.0719
▁유적	-11.0719
▁펠	-11.072
동부	-11.072
▁타케	-11.0721
▁기업이	-11.0721
▁취지로	-11.0723
▁신용	-11.0723
▁혼인	-11.0724
▁하천	-11.0727
▁폐기물	-11.0727
▁항공사	-11.0727
빅	-11.0728
▁보도했다	-11.0728
▁국가대표	-11.0732
▁되었으며	-11.0732
▁포탑	-11.0733
▁판단을	-11.0733
▁추진하고	-11.0734
라든가	-11.0735
://	-11.0735
▁가벼운	-11.0741
가격	-11.0741
무역	-11.0742
▁순천	-11.0744
조의	-11.0747
▁4000	-11.0747
.20	-11.0748
▁05	-11.0751
▁물론이고	-11.0752
▁전세계	-11.0755
했어요	-11.0755
캠프	-11.0757
▁진심으로	-11.0757
진은	-11.0757
▁근대	-11.0758
▁MVP	-11.0764
▁넥센	-11.0764
▁멈추	-11.0764
▁토모	-11.0764
▁탄약	-11.0767
▁나도	-11.0771
▁학력	-11.0773
▁고성	-11.0773
▁앞으로도	-11.0774
▁이외의	-11.0774
▁FIFA	-11.0775
▁시대의	-11.0775
▁96	-11.0777
▁관리자	-11.078
▁드러난	-11.078
▁취한	-11.0781
▁학부모들	-11.0781
▁?"	-11.0784
▁고령	-11.0785
▁심해	-11.0785
▁의혹과	-11.0787
▁국경	-11.0788
▁낭	-11.0788
▁골라	-11.0788
규모	-11.0789
▁원소	-11.0792
▁주사	-11.0793
▁추위	-11.0793
▁전진	-11.0794
망을	-11.0795
▁블록	-11.0796
.25	-11.0797
▁적대	-11.0799
▁내주	-11.08
▁미나	-11.0801
헬	-11.0802
▁발전을	-11.0803
▁환자는	-11.0804
(25	-11.0804
률을	-11.0806
▁열기	-11.0806
▁인민	-11.0808
본다	-11.0808
율을	-11.081
▁거주하는	-11.0812
▁재심	-11.0812
우주	-11.0814
▁친구가	-11.0814
▁일부가	-11.0814
원전	-11.0814
...“	-11.0815
▁원본	-11.0819
▁확인해	-11.082
▁정면	-11.082
▁후속작	-11.082
▁미수습자	-11.0821
부에서	-11.0823
마를	-11.0824
▁비하	-11.083
▁유저들	-11.0831
잇	-11.0832
▁어디까지나	-11.0832
▁임무를	-11.0834
▁시위를	-11.0834
였을	-11.0838
까지도	-11.0838
▁인천국제공항	-11.0839
▁마리오	-11.084
▁미츠	-11.0842
▁판매량	-11.0842
속보	-11.0843
▁구성원	-11.0845
투쟁	-11.0846
군수	-11.0846
▁바뀌어	-11.0848
▁안티	-11.0849
▁듣	-11.085
▁체크	-11.0851
▁읽어	-11.0852
▁놓은	-11.0856
2015	-11.0857
▁말하고	-11.0857
하늘	-11.0857
▁부담이	-11.0858
▁유산	-11.0859
▁개인의	-11.0862
▁이로써	-11.0862
▁정씨	-11.0864
▁불안감	-11.0865
▁부스	-11.0866
▁일어났	-11.0866
▁메이저	-11.0866
▁피할	-11.0868
~10	-11.087
▁생명력	-11.0871
▁해병대	-11.0872
툰	-11.0873
▁상황은	-11.0874
▁시스템이	-11.0874
▁시술	-11.0874
▁여건	-11.0876
▁식량	-11.0876
▁상세	-11.088
▁re	-11.088
▁싶지	-11.0881
▁필요하다는	-11.0882
가정	-11.0885
▁실전	-11.0885
▁일어났다	-11.0886
▁다짐	-11.0886
▁1985	-11.0887
▁전교조	-11.0891
▁포격	-11.0892
▁죄다	-11.0894
▁무시하고	-11.0895
▁들어와	-11.0896
▁터미널	-11.0896
▁산책	-11.0899
▁체감	-11.0899
▁고등학생	-11.0903
▁인근에	-11.0903
통신사	-11.0903
▁사업비	-11.0905
▁드림	-11.0905
▁기금	-11.0909
▁시비	-11.0911
▁압도적인	-11.0912
토록	-11.0912
마스	-11.0913
▁전시회	-11.0917
▁He	-11.0919
▁부른	-11.0919
▁내리고	-11.092
▁이어져	-11.0922
▁선도	-11.0924
▁박람회	-11.0925
▁어그로	-11.0925
▁동양	-11.0926
▁상인들	-11.0926
▁너프	-11.0928
▁성공한	-11.0932
▁쏴	-11.0934
▁살리	-11.0934
▁올리고	-11.0935
봉사	-11.0936
▁동행	-11.0937
▁환자의	-11.0938
▁애플	-11.0938
호로	-11.0939
.15	-11.094
전문가	-11.094
우치	-11.094
▁내려진	-11.0942
▁어머니가	-11.0943
▁표면	-11.0945
▁회상	-11.0947
미의	-11.0947
▁견해	-11.0948
▁매직	-11.0948
▁짓을	-11.0949
▁용도	-11.0949
▁김광	-11.095
▁유아	-11.0951
즈를	-11.0952
위원회가	-11.0952
▁한복	-11.0952
▁휴대폰	-11.0954
▁출간	-11.0955
지역에	-11.0955
▁정도였다	-11.0962
▁사토	-11.0962
야만	-11.0962
▁태그	-11.0965
▁올랐	-11.0966
버드	-11.0967
▁정상화	-11.0967
▁□	-11.0968
경쟁	-11.0969
믹	-11.097
▁화제가	-11.097
▁물어보	-11.097
▁마련됐다	-11.097
▁신도	-11.0973
▁캐릭터로	-11.0974
▁어둠의	-11.0974
▁사용된다	-11.0976
벤처	-11.0976
▁선수들이	-11.0977
라니	-11.0979
최근	-11.098
▁좋았	-11.0985
▁위헌	-11.0985
ain	-11.0985
▁묻자	-11.0986
▁3·1	-11.0989
▁경사	-11.099
LA	-11.099
▁배경으로	-11.099
▁기구	-11.0991
▁풍경	-11.0992
▁완벽한	-11.0993
안보	-11.0993
▁펼치	-11.0993
겔	-11.0995
▁설정이	-11.0997
▁인적	-11.0998
앗	-11.0999
▁효율	-11.0999
작가	-11.1
만원으로	-11.1
▁여야	-11.1001
▁알았	-11.1001
▁형상	-11.1002
도르	-11.1003
레나	-11.1004
▁설문조사	-11.1004
▁작성한	-11.1004
비트	-11.1005
됐을	-11.1006
▁진행자	-11.1007
술사	-11.1008
▁드러	-11.1009
프레	-11.101
▁발매된	-11.1011
▁프레임	-11.1011
년대에	-11.1012
▁처지	-11.1012
▁최종보스	-11.1014
▁흉기를	-11.1014
팀을	-11.1015
▁82	-11.1015
▁고지	-11.1016
▁일에	-11.1018
▁더더욱	-11.1018
▁신고했다	-11.1019
▁입장이다	-11.102
▁대사를	-11.1021
▁이곳에	-11.1022
▁대검	-11.1022
▁맛있	-11.1022
▁국가대표팀	-11.1024
▁교전	-11.1025
▁헤드	-11.1026
ED	-11.1028
▁죽고	-11.1029
▁어려움	-11.1029
▁81	-11.103
▁눌러	-11.103
▁저런	-11.1031
▁수수료	-11.1031
▁대전시	-11.1035
▁가격은	-11.1035
▁들을	-11.1035
하자는	-11.1036
▁190	-11.1036
▁비공개	-11.1036
▁재학생	-11.1037
자들에게	-11.104
▁위촉	-11.104
av	-11.1041
▁가로챈	-11.1042
하듯	-11.1042
▁물러	-11.1043
▁개량	-11.1043
▁동작구	-11.1043
▁구석	-11.1044
지점	-11.1044
▁같은데	-11.1047
선은	-11.1047
▁잊지	-11.1048
레인	-11.1048
▁백화점	-11.1048
등이	-11.1051
▁휴일	-11.1051
▁공동으로	-11.1052
▁뜻이다	-11.1053
▁소방서	-11.1053
▁식약처	-11.1054
이냐	-11.1054
정은	-11.1054
듀	-11.1055
▁밝히고	-11.1056
▁달한다	-11.1056
▁후보로	-11.1057
▁어렵지	-11.1059
▁좋아한다	-11.1059
▁식민지	-11.106
▁유지하고	-11.106
▁싫어하는	-11.1061
▁종사자	-11.1062
▁좋게	-11.1063
▁세미나	-11.1064
아야	-11.1064
▁취향	-11.1064
봤다	-11.1065
▁시청률	-11.1065
▁혜택	-11.1066
▁편의	-11.1068
▁빛을	-11.1069
▁사회의	-11.107
▁루이	-11.107
▁감안	-11.107
▁부분에서	-11.1072
▁지냈다	-11.1072
▁되었	-11.1073
튜	-11.1074
▁만나게	-11.1075
▁독특한	-11.1077
▁담고	-11.1077
넨	-11.108
▁전액	-11.1081
▁마산	-11.1083
▁연구를	-11.1083
▁사업이	-11.1084
▁86	-11.1085
▁읍	-11.1086
급으로	-11.1086
훼	-11.1089
▁띠	-11.1089
▁구조를	-11.1091
▁변호사가	-11.1095
▁오스트리아	-11.1095
▁귀찮	-11.1095
머니	-11.1096
▁목격자	-11.1097
지진	-11.1097
오가	-11.1098
둬	-11.1098
것은	-11.1098
▁릴리	-11.1099
▁증거를	-11.1099
문이	-11.11
▁최씨는	-11.1102
등의	-11.1104
▁테란	-11.1105
▁마련해	-11.1105
▁살펴보	-11.1106
▁대표하는	-11.1107
▁탱커	-11.1107
▁기사를	-11.1107
▁전국에서	-11.1108
▁곳곳	-11.1109
▁구원	-11.1109
▁고시	-11.1109
▁약간의	-11.1111
▁대미지를	-11.1112
장갑	-11.1112
▁낮추	-11.1113
▁땅을	-11.1113
▁젠	-11.1114
▁초래	-11.1117
▁클레	-11.1117
보훈	-11.1117
▁많았	-11.1117
▁많을	-11.1118
▁전국적으로	-11.1119
▁일환으로	-11.1119
150	-11.112
▁첫째	-11.112
학부	-11.1121
▁썰	-11.1123
수석	-11.1124
뮤	-11.1124
하신	-11.1125
인증	-11.1125
인들은	-11.1125
▁위키	-11.1125
▁특강	-11.1126
▁강풍	-11.1126
po	-11.1126
▁유리한	-11.1129
▁복잡	-11.113
▁추궁	-11.113
▁아버지는	-11.1131
▁DLC	-11.1131
올림픽	-11.1133
▁악역	-11.1134
됐다는	-11.1134
▁아이들을	-11.1135
▁전격	-11.1135
▁빌리	-11.1135
▁대상은	-11.1137
▁내년부터	-11.1137
▁네티즌	-11.1137
▁전국이	-11.1139
▁정복	-11.1139
▁폭행한	-11.1141
▁죽이	-11.1143
▁티켓	-11.1144
수술	-11.1144
▁찾지	-11.1144
▁설치해	-11.1145
냐는	-11.1146
▁발의	-11.1147
▁찌	-11.1148
▁해주는	-11.1148
▁리스트	-11.115
▁터져	-11.1151
▁소총	-11.1153
▁흉기	-11.1155
▁평소에	-11.1156
▁국내에	-11.1156
▁서민	-11.1157
▁천재	-11.1158
▁물놀이	-11.1159
▁매치	-11.1161
포스	-11.1162
▁받았다고	-11.1164
▁천연	-11.1166
노인	-11.1166
▁모르겠다	-11.1168
~2	-11.1168
들만	-11.1169
▁시민의	-11.1169
건이	-11.1169
루가	-11.117
마츠	-11.1172
▁학사	-11.1172
▁과일	-11.1173
wn	-11.1175
▁이전의	-11.1176
▁넣은	-11.1177
ST	-11.1178
▁스위스	-11.1178
▁침묵	-11.1178
▁신앙	-11.118
력은	-11.118
▁것인데	-11.1181
▁책임이	-11.1183
▁속으로	-11.1184
▁장성	-11.1187
먹는	-11.1187
▁몫	-11.1187
▁부장판사는	-11.1188
그램	-11.1188
▁받으면	-11.1189
▁당부	-11.1189
사격	-11.119
▁예정이라고	-11.1191
▁사항은	-11.1192
으니까	-11.1193
주었다	-11.1194
▁쿠키	-11.1195
ID	-11.1195
▁피아노	-11.1196
▁확인된	-11.12
▁어렵	-11.12
분간	-11.12
▁커다란	-11.1202
봄	-11.1203
▁음원	-11.1203
MO	-11.1203
iz	-11.1204
▁약자	-11.1204
▁삼국지	-11.1205
▁후반에	-11.1207
▁r	-11.1207
시기	-11.1208
▁위치에	-11.1208
▁호흡	-11.1212
▁공격에	-11.1212
▁산림청	-11.1213
▁이뤄졌다	-11.1215
청구	-11.1216
end	-11.1216
▁보이스피싱	-11.1218
▁인물로	-11.1218
▁시행령	-11.1218
▁춤	-11.1218
▁잠수함	-11.1218
센터는	-11.1219
▁대충	-11.1221
▁뛰어나	-11.1222
▁존경	-11.1222
시키려	-11.1223
노동조합	-11.1224
▁박수	-11.1228
▁숨지고	-11.1228
▁움직이는	-11.1231
▁인문	-11.1233
▁회원들	-11.1234
▁차량은	-11.1234
득점	-11.1236
▁심문	-11.1236
▁이르	-11.1238
▁남성은	-11.1238
▁궤도	-11.1238
▁다룬	-11.1238
▁권역	-11.124
▁억제	-11.124
▁넌	-11.124
자격	-11.1241
봤습니다	-11.1241
▁통치	-11.1242
과학기술	-11.1243
▁현수막	-11.1244
▁부총리	-11.1244
▁전주시	-11.1244
▁상륙	-11.1245
▁알려졌습니다	-11.1245
▁거기서	-11.1246
류를	-11.1247
성으로	-11.1248
ni	-11.1249
▁교내	-11.125
▁떠오르	-11.125
▁선거구	-11.1251
크가	-11.1254
▁조사결과	-11.1254
▁일으켜	-11.1256
▁만족도	-11.1257
획	-11.1257
▁않자	-11.1257
▁무척	-11.1257
▁듣기	-11.126
전으로	-11.126
이었으며	-11.1261
▁관행	-11.1261
▁벚꽃	-11.1262
사관	-11.1262
곳에서	-11.1263
▁혐의에	-11.1265
토가	-11.1265
▁'2017	-11.1266
▁일산	-11.1267
▁중국에서	-11.1267
▁캐스팅	-11.1268
▁하시	-11.1269
▁영상이	-11.1269
엇	-11.127
▁위생	-11.1273
▁게이	-11.1275
▁런	-11.1275
▁그와	-11.1278
▁막차	-11.128
▁분들이	-11.1281
▁지키기	-11.1283
▁강행	-11.1283
▁뱀	-11.1285
▁딸이	-11.1285
▁제기했다	-11.1286
▁97	-11.1287
▁들리	-11.1288
▁느끼	-11.129
▁진상조사	-11.129
▁70%	-11.129
전용	-11.129
▁체납	-11.1294
▁작품의	-11.1296
▁출신으로	-11.1297
주지	-11.1298
▁랭킹	-11.1298
▁그러한	-11.1298
쥐	-11.13
▁올라왔다	-11.13
집을	-11.1303
▁벌써	-11.1305
▁지원하고	-11.1305
▁다문화	-11.1307
ix	-11.1308
진을	-11.1309
▁알려주	-11.1311
▁신의	-11.1311
▁공격하는	-11.1312
▁07	-11.1315
청에서	-11.1316
▁이길	-11.1316
▁첨	-11.1317
▁이었다	-11.1318
▁선정됐다	-11.1318
▁이어진다	-11.1319
ore	-11.1319
▁차트	-11.1319
▁마침	-11.132
구는	-11.1323
앞으로	-11.1323
▁밝혀진	-11.1324
▁있었는지	-11.1325
▁미카	-11.1326
첼	-11.1328
▁특별히	-11.1329
▁국왕	-11.133
총회	-11.1331
▁간단한	-11.1334
▁선고한	-11.1336
대강	-11.1336
▁멋진	-11.1337
▁권리를	-11.1337
▁길게	-11.1338
▁들어올	-11.1338
▁피해량	-11.1339
깝	-11.134
sh	-11.134
▁병기	-11.134
행위를	-11.134
▁v	-11.1343
▁사귀	-11.1345
나카	-11.1345
ty	-11.1351
▁면역	-11.1352
▁멈춰	-11.1352
▁메달	-11.1352
▁간주	-11.1352
▁단점이	-11.1353
▁주민센터	-11.1354
ai	-11.1355
민의	-11.1355
기본	-11.1355
▁주자	-11.1356
▁해결을	-11.1357
▁찾았다	-11.1357
(0	-11.1358
▁형식으로	-11.1359
▁사양	-11.1359
▁페르	-11.136
▁둥	-11.136
▁거액	-11.1361
파이어	-11.1361
▁목숨	-11.1362
망이	-11.1364
▁UN	-11.1365
▁신사	-11.1366
▁연봉	-11.1367
▁100%	-11.1367
테르	-11.1369
누스	-11.137
▁시드	-11.137
▁카트	-11.1372
▁고도	-11.1373
▁기운	-11.1374
▁중요성	-11.1375
▁손해를	-11.1376
▁동인	-11.1376
할수	-11.1378
▁보도입니다	-11.138
▁백제	-11.1381
》(	-11.1385
▁1950	-11.1386
홈	-11.1387
▁금전	-11.1388
▁윌리엄	-11.1389
▁인공지능	-11.1389
▁피우	-11.1392
▁불가피	-11.1392
▁국민이	-11.1393
엠	-11.1394
▁바퀴	-11.1394
▁다름없	-11.1397
되어서	-11.1399
▁실드	-11.14
PM	-11.1401
▁취하	-11.1401
▁안철수	-11.1401
▁울트라	-11.1402
▁전장	-11.1402
▁많기	-11.1402
잡이	-11.1402
▁Th	-11.1403
▁공간을	-11.1405
▁경상북도	-11.1407
▁노벨	-11.1407
분부터	-11.1407
▁트레이드	-11.1408
버리면	-11.1409
▁부정적인	-11.1409
▁재판에서	-11.141
▁이뤄지지	-11.1411
타점	-11.1411
험	-11.1411
▁퍼포먼스	-11.1411
▁처음이다	-11.1413
BA	-11.1415
▁하향	-11.1416
▁치는	-11.1416
▁써야	-11.1423
▁대표팀	-11.1423
▁자는	-11.1423
싶	-11.1424
▁this	-11.1425
▁보복	-11.1426
▁네오	-11.1428
▁경우에도	-11.1429
▁극장	-11.1429
유럽	-11.1431
양은	-11.1431
▁용인시	-11.1431
제작	-11.1432
불법	-11.1433
RO	-11.1436
▁말하며	-11.1436
▁설명회	-11.1438
▁속도로	-11.1439
▁말리	-11.1439
셨다	-11.1442
▁되기도	-11.1442
▁얘	-11.1443
▁써먹	-11.1446
▁호수	-11.1448
▁국가가	-11.1448
안은	-11.1449
▁교도소	-11.1452
푸드	-11.1452
텀	-11.1455
▁무사히	-11.1455
▁세월	-11.1455
▁젖	-11.1456
▁죽음의	-11.1456
▁소송에서	-11.1458
▁죽었	-11.1459
▁각국	-11.146
춤	-11.1462
▁확실	-11.1463
▁증가한	-11.1465
▁니시	-11.1465
▁요괴	-11.1465
판은	-11.1466
▁84	-11.1466
SE	-11.1467
▁없었지만	-11.1469
▁저지르	-11.147
▁양상	-11.147
▁독일의	-11.1471
ect	-11.1472
산동	-11.1473
▁do	-11.1473
▁질문을	-11.1474
▁수업을	-11.1475
▁귀신	-11.1476
▁달했다	-11.1477
▁대사가	-11.1478
▁일자리를	-11.1479
▁서포터	-11.148
크의	-11.1483
▁인체	-11.1483
▁고리	-11.1483
▁먹은	-11.1484
▁이동속도	-11.1485
▁분신	-11.1485
▁안드로이드	-11.1486
했으면	-11.1488
▁지르	-11.1489
마스터	-11.1489
▁합격자	-11.1489
▁별개로	-11.1489
▁됐습니다	-11.1489
모를	-11.1489
하길	-11.149
▁정황이	-11.1491
▁한타	-11.1492
▁덴마크	-11.1493
▁헤비	-11.1494
▁피로	-11.1494
MI	-11.1494
심의	-11.1497
▁대검찰청	-11.1499
스쿨	-11.1499
해경	-11.1501
▁본체	-11.1501
전은	-11.1501
▁심정	-11.1502
▁원장은	-11.1503
▁사막	-11.1504
▁경북도	-11.1504
▁101	-11.1507
▁04	-11.1508
▁소드	-11.151
▁단편	-11.151
▁준우승	-11.1511
▁우병우	-11.1511
▁차로	-11.1513
▁가이	-11.1514
▁전반적으로	-11.1514
▁기간이	-11.1515
▁동굴	-11.1515
▁겨	-11.1517
▁훗날	-11.1517
스톤	-11.152
▁카오스	-11.1521
▁침대	-11.1521
체계를	-11.1522
▁칼리	-11.1523
▁Ma	-11.1529
▁멋	-11.153
▁밝혀지	-11.153
▁2.0	-11.1535
내려	-11.1536
▁없다면	-11.1537
▁먹으면	-11.1538
▁답답	-11.1538
국이	-11.1538
▁배수	-11.1539
▁채무	-11.1541
▁다리를	-11.1541
▁환자들	-11.1541
되게	-11.1542
테일	-11.1543
▁가르치	-11.1544
드립	-11.1545
바르	-11.1547
형사	-11.155
▁권위	-11.1552
주로	-11.1557
▁등재	-11.1558
▁통증	-11.1559
▁줄이기	-11.156
▁살펴	-11.1562
▁해리	-11.1562
▁표명	-11.1565
▁실체	-11.1565
▁광명	-11.1566
웰	-11.1567
▁싫	-11.1569
▁응답자	-11.157
▁실력이	-11.1571
▁중동	-11.1572
▁87	-11.1572
pp	-11.1573
▁깜짝	-11.1573
펀	-11.1573
▁욕을	-11.1576
▁실형을	-11.1576
사령관	-11.1577
무늬	-11.1578
▁윤리	-11.1581
▁운영을	-11.1583
루타	-11.1584
이랑	-11.1584
단위	-11.1584
▁과실	-11.1585
▁나무위키	-11.1585
▁측면에서	-11.1586
▁자격증	-11.1586
▁종결	-11.1587
▁일종	-11.1587
▁다쳐	-11.1587
미야	-11.1589
▁정체를	-11.159
리스크	-11.1591
▁올바른	-11.1591
▁합체	-11.1592
▁주류	-11.1593
▁당분간	-11.1594
▁수시로	-11.1595
.13	-11.1595
사법연수원	-11.1596
▁짓는	-11.1596
▁내려오	-11.1596
▁구간이	-11.1597
▁피를	-11.1598
▁경상남도	-11.1598
▁명품	-11.1598
▁이것도	-11.1599
art	-11.16
▁다툼	-11.16
으론	-11.1602
▁알아서	-11.1608
▁공단	-11.1609
▁들어오는	-11.161
▁용사	-11.161
▁여지가	-11.161
▁뿌	-11.1611
▁무너지	-11.1611
▁나지	-11.1612
금액	-11.1612
▁일관	-11.1612
▁덴	-11.1613
▁태평양	-11.1614
▁김주	-11.1615
▁지경	-11.1616
놔	-11.1616
연장	-11.1617
▁주역	-11.1618
들인	-11.1618
▁사장이	-11.162
딕	-11.1622
▁비서실장	-11.1623
▁상속	-11.1623
▁김장	-11.1623
▁산업혁명	-11.1624
▁과도한	-11.1624
▁숨져	-11.1625
▁사신	-11.1627
▁석유	-11.1629
▁증인으로	-11.1629
▁등장하지	-11.163
▁작업이	-11.1631
▁총파업	-11.1631
▁당신이	-11.1632
▁가볍게	-11.1635
진영	-11.1635
▁하차	-11.1636
꼬	-11.1636
▁살펴보고	-11.1637
투수	-11.1638
▁연락을	-11.1639
▁동거	-11.1642
먼트	-11.1642
픈	-11.1642
▁경보	-11.1645
▁숨겨진	-11.1645
▁사라	-11.1646
▁고작	-11.1646
(24	-11.1647
리얼	-11.1647
▁일부는	-11.1648
▁제출했다	-11.1648
▁펼치고	-11.1649
▁정글	-11.165
된다고	-11.165
▁판정이	-11.1652
▁식의	-11.1653
셉	-11.1654
▁도민	-11.1654
▁빨간	-11.1654
켈	-11.1655
▁보다는	-11.1657
▁있나	-11.1657
▁기병	-11.1657
회의에서	-11.166
▁뛰어넘	-11.1661
▁따르	-11.1661
▁점거	-11.1662
▁뮤직	-11.1663
▁스탠	-11.1663
라와	-11.1664
위의	-11.1667
▁양국	-11.1667
▁가기	-11.1669
▁인정하고	-11.167
▁후임	-11.1671
▁당국은	-11.1671
▁춘천시	-11.1673
▁노력하겠다	-11.1674
▁오라	-11.1675
▁설치한	-11.1677
▁시장이	-11.168
▁겐	-11.168
▁계획이	-11.168
▁이벤트를	-11.1681
▁의해서	-11.1681
▁속초	-11.1682
▁한달	-11.1682
▁중심의	-11.1682
▁웬	-11.1683
▁사라져	-11.1683
▁누리	-11.1685
▁해양수산부	-11.1685
▁상의	-11.1686
▁펄	-11.1687
▁안정적인	-11.1689
▁버린다	-11.169
▁신세	-11.169
▁리듬	-11.169
액이	-11.1691
▁남기고	-11.1691
▁커맨드	-11.1691
▁익산	-11.1692
▁곳도	-11.1692
▁1984	-11.1693
▁검토하고	-11.1693
▁강진	-11.1695
PA	-11.1696
▁던진	-11.1697
정권	-11.1697
었는지	-11.17
연수	-11.17
▁투구	-11.1702
▁말하자면	-11.1703
습니까	-11.1703
▁군은	-11.1704
ud	-11.1705
▁허나	-11.1706
▁몰고	-11.1706
DS	-11.1707
▁모양이다	-11.1708
▁참여를	-11.171
▁스톰	-11.1712
▁템	-11.1714
영업	-11.1716
▁THE	-11.1717
▁같아요	-11.1717
▁몰카	-11.1717
▁배운	-11.1718
업을	-11.1718
▁처형	-11.1719
▁DNA	-11.1719
▁보행	-11.172
▁운영자	-11.1721
뇨	-11.1721
▁사이즈	-11.1723
▁뒤에서	-11.1725
▁않겠	-11.1726
시에는	-11.1728
▁무서운	-11.1735
iv	-11.1739
▁닥	-11.1741
▁밑에	-11.1742
▁길드	-11.1742
▁나누고	-11.1743
▁발견했다	-11.1744
떼	-11.1744
시청	-11.1747
▁여진	-11.1747
▁다친	-11.1748
▁쓰러져	-11.1748
▁유니폼	-11.1748
▁기후	-11.1748
▁사용하여	-11.1752
▁비자금	-11.1752
누리	-11.1753
▁양주	-11.1753
FC	-11.1755
▁전복	-11.1755
▁하수인	-11.1756
타입	-11.1758
▁정해	-11.1758
▁의학	-11.176
▁이용해서	-11.1761
했다면	-11.1761
▁끝날	-11.1761
▁피어	-11.1762
▁감수	-11.1763
▁재사용	-11.1764
▁공용	-11.1766
▁퇴근	-11.1766
▁국군	-11.1766
▁정확	-11.1767
▁프리큐어	-11.1767
▁신병	-11.1767
▁엘프	-11.1769
▁구리	-11.1771
▁계기	-11.1772
▁철저한	-11.1773
▁이전에는	-11.1774
▁자꾸	-11.1774
▁공간이	-11.1776
▁OST	-11.1778
▁KIA	-11.1782
억원대	-11.1782
▁정해진	-11.1782
▁약화	-11.1783
하진	-11.1783
▁싱가포르	-11.1786
일까	-11.1788
▁정전	-11.179
▁옹	-11.1792
기에는	-11.1794
▁패소	-11.1794
길이	-11.1795
▁보조금	-11.1796
▁회사의	-11.1797
깐	-11.1798
▁아쉬운	-11.1798
실이	-11.1799
▁일방적으로	-11.1801
▁휴가	-11.1805
▁미사	-11.1808
렵	-11.1811
▁벌이는	-11.1812
셰	-11.1814
▁나누어	-11.1817
대사	-11.1817
▁교직원	-11.182
AP	-11.1821
하려다	-11.1822
▁자아	-11.1823
▁항소심에서	-11.1823
곡동	-11.1824
▁정상적인	-11.1826
▁함양	-11.1829
▁걷	-11.1829
▁자신들	-11.1831
▁SM	-11.1832
▁학문	-11.1832
▁반사	-11.1832
▁창설	-11.1833
▁밝은	-11.1834
▁걸릴	-11.1834
▁많았고	-11.1836
▁오직	-11.1837
▁지원금	-11.1837
ep	-11.1837
▁사용된	-11.1837
▁티어	-11.1838
했으니	-11.1838
▁40%	-11.1839
▁하나도	-11.184
▁장례	-11.1841
▁차원의	-11.1841
▁앓	-11.1841
▁연루	-11.1842
▁동상	-11.1843
ick	-11.1844
▁베이징	-11.1844
▁잉	-11.1844
▁반환	-11.1845
▁진행될	-11.1846
▁죽지	-11.1846
▁범위가	-11.1847
▁79	-11.1849
(11	-11.1849
.03	-11.185
▁그림을	-11.1851
▁시중	-11.1851
던지	-11.1855
▁국정화	-11.1855
▁피격	-11.1856
▁금요일	-11.1857
▁SD	-11.1858
▁구조물	-11.1859
de	-11.186
▁배당	-11.186
▁법원의	-11.186
카르	-11.1861
▁숨겨	-11.1861
▁대면	-11.1862
▁추행	-11.1863
▁아이디	-11.1864
▁유비	-11.1864
전의	-11.1864
~7	-11.1864
▁도서	-11.1865
▁일가	-11.1866
보스	-11.1866
만으로도	-11.1867
운수	-11.187
CD	-11.1871
▁파도	-11.1872
▁늘어났다	-11.1872
CS	-11.1872
▁뇌물수수	-11.1872
▁#	-11.1872
▁92	-11.1872
▁수요가	-11.1873
▁키우는	-11.1874
▁소재로	-11.1875
▁프리미엄	-11.1875
▁대여	-11.1876
▁다가오	-11.1876
▁본부장	-11.1877
▁제작자	-11.188
▁아마도	-11.188
▁서울대학교	-11.1881
▁기아	-11.1881
▁엘리베이터	-11.1881
▁여담이지만	-11.1881
▁몰랐	-11.1882
▁결말	-11.1883
▁몰라도	-11.1883
▁못했고	-11.1885
되었기	-11.1885
▁뒤집어	-11.1885
하기는	-11.1886
스러워	-11.1886
뱅크	-11.1886
▁위험성	-11.1887
▁전성기	-11.1888
▁나설	-11.1894
해서는	-11.1895
.02	-11.1896
추진	-11.1897
콘텐츠	-11.1898
故	-11.1898
▁상태에	-11.1899
식은	-11.1899
▁짝	-11.19
▁박스	-11.19
▁홍준표	-11.19
라든지	-11.1902
▁부친	-11.1903
벼	-11.1904
▁슬롯	-11.1904
▁토끼	-11.1906
뚜	-11.1907
▁나치	-11.1907
▁느끼고	-11.1908
▁백신	-11.1909
▁방에	-11.1912
▁미칠	-11.1912
된다는	-11.1913
do	-11.1913
티브	-11.1915
▁시작됐다	-11.1915
▁독점	-11.1919
독립	-11.1924
▁찍고	-11.1926
▁플레이를	-11.1926
▁빚어	-11.1928
▁톤	-11.1928
찍	-11.1933
▁갈리	-11.1933
▁그들을	-11.1936
▁김씨의	-11.1936
▁하나씩	-11.1936
▁고등	-11.194
아라	-11.1943
▁벌어졌다	-11.1943
▁퀄리티	-11.1945
▁아래에	-11.1946
▁요건	-11.1946
임이	-11.1947
▁상관없	-11.195
▁전과	-11.195
▁i	-11.1951
ES	-11.1951
▁갈등이	-11.1952
▁차이를	-11.1953
▁고려하면	-11.1956
▁첫차	-11.1956
▁외출	-11.1957
▁다하겠다	-11.1957
증권	-11.1961
▁예수	-11.1964
별로는	-11.1966
▁원인은	-11.1967
▁블레이드	-11.197
기보다는	-11.197
▁MS	-11.197
▁계획입니다	-11.1971
▁쪽에	-11.1971
▁못했던	-11.1972
▁특징이다	-11.1972
▁증거가	-11.1973
▁담당자	-11.1974
행복	-11.1975
▁찌르	-11.1975
▁연설	-11.1978
▁또다른	-11.198
▁불로	-11.1981
듯한	-11.1982
비치	-11.1982
협동조합	-11.1983
▁성명	-11.1983
화재	-11.1985
▁시설을	-11.1985
EA	-11.1985
▁터치	-11.1987
▁높았	-11.1987
▁독서	-11.1987
▁궁극	-11.1988
out	-11.1988
복합	-11.1988
.19	-11.1988
▁이익을	-11.199
▁못하면	-11.1994
경우	-11.1996
▁절감	-11.1996
▁HD	-11.1997
즈는	-11.1998
▁높아지	-11.1998
old	-11.1999
아나	-11.2001
▁반쯤	-11.2001
▁기록이	-11.2002
▁직전에	-11.2003
▁교섭	-11.2004
▁현대차	-11.2005
미술관	-11.2006
슬러	-11.2007
▁죽일	-11.2008
▁극심한	-11.201
▁직권남용	-11.201
문서	-11.2011
▁깨고	-11.2011
▁저질렀다	-11.2012
미와	-11.2012
▁업소	-11.2013
▁신비	-11.2014
하겠습니다	-11.2014
▁활성화를	-11.2014
▁확실한	-11.2014
당한다	-11.2015
▁장점이	-11.2015
▁시흥	-11.2015
▁조언	-11.2015
▁정보가	-11.2017
▁호위	-11.2018
순양함	-11.2018
▁너무나	-11.202
▁건강한	-11.2022
▁아티스트	-11.2023
▁고구려	-11.2023
▁레이더	-11.2027
▁미안	-11.203
▁SKT	-11.2031
MP	-11.2032
▁감금	-11.2032
▁공직선거법	-11.2032
ade	-11.2032
▁열정	-11.2033
톨	-11.2034
▁83	-11.2038
해줄	-11.2038
▁94	-11.2038
과장은	-11.2041
항쟁	-11.2042
me	-11.2042
▁경향	-11.2042
▁많지만	-11.2042
mp	-11.2046
▁안전하게	-11.2047
정당	-11.2047
ft	-11.2049
▁직선	-11.2049
졌을	-11.2051
▁샘	-11.2052
▁상시	-11.2053
▁지붕	-11.2053
.05	-11.2055
농협	-11.2055
▁찍는	-11.2055
▁바꿀	-11.2057
▁요구하고	-11.2057
▁김치	-11.2058
▁끝나는	-11.2058
판정	-11.2058
▁남학생	-11.2059
▁켈	-11.2061
(22	-11.2063
흡	-11.2063
▁대표적으로	-11.2064
RI	-11.2065
▁조업	-11.2065
현상	-11.2065
▁지정된	-11.2068
ark	-11.2069
▁그쳤다	-11.2069
▁표지	-11.2071
▁권한을	-11.2074
▁사내	-11.2074
▁내성	-11.2074
▁가축	-11.2075
tic	-11.2076
▁공백	-11.2077
▁컸다	-11.2079
▁사용이	-11.208
▁선제	-11.2081
▁국립공원	-11.2081
▁플라스틱	-11.2082
▁끌려	-11.2082
▁신청했다	-11.2085
▁교정	-11.2085
▁선수로	-11.2087
브레	-11.2088
▁촉구하고	-11.209
놨	-11.2091
▁연도	-11.2091
▁우회	-11.2092
움을	-11.2093
▁점포	-11.2093
합의	-11.2095
▁발표하고	-11.2096
▁체인	-11.2097
경비	-11.2098
▁어렵게	-11.2099
▁아산	-11.2103
▁화를	-11.2105
▁크루	-11.2106
써	-11.2107
▁대포	-11.2108
대비	-11.2109
▁유저가	-11.2109
협정	-11.2109
시간에	-11.2109
▁그중	-11.2111
▁뜻한다	-11.2112
▁공론화	-11.2114
▁아니기	-11.2115
▁리포트	-11.2116
▁여주	-11.2116
▁저소득층	-11.2117
부르크	-11.2118
▁불참	-11.2118
▁내면	-11.2118
음식	-11.2119
▁인하여	-11.2119
▁귀환	-11.2121
▁로그	-11.2123
▁맞았다	-11.2124
보이는	-11.2125
줘서	-11.2127
▁BMW	-11.2127
▁공직	-11.2127
겠지	-11.213
▁고사	-11.213
▁보여줬다	-11.213
▁클릭	-11.213
▁않았습니다	-11.2132
EX	-11.2132
헨	-11.2133
ite	-11.2134
▁비용이	-11.2135
▁초미세먼지	-11.2136
▁퍼지	-11.2137
▁입대	-11.2137
▁조류	-11.2139
키를	-11.214
▁프라이	-11.2141
▁얻게	-11.2143
▁생명을	-11.2145
▁처방	-11.2146
▁금방	-11.2147
▁시민들은	-11.2149
▁Copyrights	-11.215
her	-11.2151
▁안전성	-11.2151
▁중재	-11.2151
▁코우	-11.2151
▁유희왕	-11.2152
▁해마다	-11.2154
▁이들에게	-11.2155
▁열매	-11.2155
▁추진하는	-11.2156
mbn	-11.2156
ti	-11.2157
▁저하	-11.2159
소설	-11.2159
콕	-11.216
▁For	-11.216
과목	-11.216
▁비판이	-11.2162
▁불안정	-11.2163
▁되었는데	-11.2163
성폭력	-11.2165
▁흑인	-11.2165
▁골목	-11.2166
인데도	-11.2166
▁마술	-11.2166
관으로	-11.2167
▁홈페이지에	-11.2167
▁특별법	-11.2168
▁이상은	-11.2169
▁머리가	-11.2169
나게	-11.2169
▁요구를	-11.217
▁세웠다	-11.217
▁있기에	-11.2171
▁일격	-11.2172
▁발목	-11.2172
▁단원	-11.2172
▁최저기온	-11.2173
▁1982	-11.2174
키스	-11.2174
▁학업	-11.2175
▁외형	-11.2175
추가	-11.2176
▁분산	-11.2176
거야	-11.2177
▁상한	-11.2178
▁있음	-11.2179
▁컨설팅	-11.2181
유통	-11.2182
▁헤어	-11.2183
(23	-11.2183
▁주장하고	-11.2184
▁실형	-11.2186
▁국민안전처	-11.2186
▁달라지	-11.2186
▁도시재생	-11.2187
▁제공한	-11.2189
▁봤을	-11.2189
▁졸업생	-11.219
▁회사가	-11.2193
▁미뤄	-11.2194
배를	-11.2194
▁포획	-11.2195
형은	-11.2196
▁숙련	-11.2196
▁합법	-11.2196
론이	-11.22
▁따져	-11.22
▁마이크	-11.2201
▁달아난	-11.2203
▁봐서	-11.2203
▁답이	-11.2204
트론	-11.2205
▁위성	-11.2206
▁인정했다	-11.2207
▁민사	-11.2207
▁원심	-11.2207
▁한두	-11.2208
▁인물이다	-11.2208
▁배임	-11.2209
▁마시고	-11.2209
▁이번엔	-11.221
▁발로	-11.2211
▁빛의	-11.2213
▁일로	-11.2214
▁뽑는	-11.2215
첨	-11.2215
▁지나지	-11.2216
센트	-11.2216
▁사죄	-11.2218
▁심화	-11.2218
▁수류탄	-11.222
나들목	-11.222
▁구사	-11.222
▁급속	-11.222
ath	-11.2221
▁충성	-11.2224
▁정부세종청사	-11.2226
▁전멸	-11.2227
▁원리	-11.2228
3000	-11.2231
▁인질	-11.2232
니어	-11.2233
사망	-11.2233
▁짜증	-11.2233
▁요양	-11.2233
▁이사장은	-11.2234
▁들어가면	-11.2235
▁정찰	-11.2235
▁과거의	-11.2235
▁지나가	-11.2236
▁Love	-11.2237
▁끓	-11.2237
▁문화를	-11.2239
▁공수	-11.2239
▁붙잡혔습니다	-11.2239
▁마다	-11.2239
영이	-11.2242
▁복잡한	-11.2243
곰	-11.2246
▁톱	-11.2249
양을	-11.2251
▁시리아	-11.2251
dy	-11.2251
▁강수량	-11.2253
▁前	-11.2254
▁되었다고	-11.2254
종을	-11.2254
▁장사	-11.2257
박한	-11.2258
▁경비원	-11.2262
▁흠	-11.2263
느라	-11.2263
▁주의해야	-11.2265
▁악용	-11.2273
▁끝났다	-11.2274
▁강릉시	-11.2274
▁피해는	-11.2275
▁전체가	-11.2275
▁2022	-11.228
▁지역으로	-11.2282
▁가담	-11.2283
자책	-11.2283
▁화해	-11.2283
▁델	-11.2283
▁사립유치원	-11.2286
▁신동	-11.2286
▁나왔습니다	-11.2286
~1	-11.2287
▁kt	-11.2288
▁건국	-11.229
길을	-11.229
▁학생은	-11.2293
▁명동	-11.2293
히토	-11.2293
▁아닌데	-11.2294
▁레벨이	-11.2296
▁기사가	-11.2297
▁다를	-11.2299
투어	-11.2301
ec	-11.2302
▁오늘은	-11.2302
▁닦	-11.2302
▁숨어	-11.2302
▁몰락	-11.2304
▁Mi	-11.2305
wiki	-11.2306
▁갖는	-11.2306
▁박정	-11.2307
▁피하기	-11.2307
▁않았기	-11.2308
▁흔들리	-11.2309
대리	-11.231
엎	-11.2312
쵸	-11.2312
▁재임	-11.2312
▁당하고	-11.2314
부인	-11.2314
▁채권	-11.2314
하의	-11.2314
▁나뉘어	-11.2315
▁기둥	-11.2316
▁희망을	-11.2317
까진	-11.232
▁걸린다	-11.2321
른다	-11.2321
(27	-11.2321
들보다	-11.2323
▁유성	-11.2326
▁마비	-11.2327
역이	-11.2327
어린이	-11.2328
폴리	-11.2329
▁목적이	-11.2329
해준	-11.233
▁적합	-11.233
▁한해	-11.2331
▁에너지를	-11.2333
▁이젠	-11.2334
▁부친상	-11.2336
▁유연	-11.2338
▁플레	-11.2338
▁갖게	-11.2339
이었	-11.2339
▁끝으로	-11.2341
니카	-11.2342
▁왕복	-11.2344
▁기종	-11.2344
▁이스라엘	-11.2346
▁무엇이	-11.2347
▁실수로	-11.2347
▁물러나	-11.2351
▁수사팀	-11.2353
팬들	-11.2353
▁규정하고	-11.2353
기위해	-11.2353
▁흰색	-11.2356
보증	-11.2357
▁야산	-11.2357
수익	-11.2358
2.5	-11.2358
▁컨테이너	-11.2359
▁당연	-11.2359
▁치킨	-11.236
▁추진할	-11.2361
▁업주	-11.2363
▁여당	-11.2363
▁막내	-11.2365
렸는데	-11.2366
▁후손	-11.2367
▁건물이	-11.2368
▁3~4	-11.2371
▁투기	-11.2371
▁상임	-11.2371
▁관리하는	-11.2371
▁성동구	-11.2373
中	-11.2379
▁무더위	-11.2379
▁후반부	-11.238
▁브로커	-11.2381
▁개척	-11.2381
▁Bo	-11.2381
▁제작사	-11.2383
맞이	-11.2383
인재	-11.2384
▁상하이	-11.2384
▁피해자를	-11.2386
류가	-11.2387
▁알지	-11.2387
▁초점	-11.2388
▁있거나	-11.2389
▁폭우	-11.2389
▁La	-11.2391
▁신청할	-11.2392
▁리치	-11.2392
유닛	-11.2392
AD	-11.2394
십니까	-11.2395
▁한국사	-11.2395
▁흥미	-11.2396
백여	-11.2397
▁지뢰	-11.2398
▁생각할	-11.2398
▁날인	-11.2399
▁잡았다	-11.24
의료원	-11.2401
▁것들이	-11.2401
▁바라는	-11.2402
▁명문	-11.2404
았지만	-11.2406
▁긍정적인	-11.2407
▁판결했다	-11.2407
▁긍정적	-11.2409
▁체결했다	-11.241
▁밀집	-11.2415
▁좁	-11.2415
▁기간을	-11.2416
▁나간	-11.2416
▁마법을	-11.2416
▁의무화	-11.2417
조가	-11.2419
호와	-11.242
▁묶어	-11.242
▁몰랐다	-11.2421
▁공모전	-11.2421
▁태워	-11.2422
▁기사단	-11.2424
▁세이버	-11.2424
버그	-11.2424
▁제목의	-11.2425
▁침략	-11.2427
ew	-11.2428
힌다	-11.2428
▁뭉	-11.2428
DA	-11.2429
바닥	-11.2429
▁So	-11.2429
EM	-11.2431
하자마자	-11.2431
▁우정	-11.2432
성적	-11.2432
▁초기에는	-11.2433
▁행정자치부	-11.2433
▁80%	-11.2434
▁추구	-11.2434
숭	-11.2435
꼴	-11.2436
▁부임	-11.2436
▁박영수	-11.2437
▁데다가	-11.2438
▁위대한	-11.2439
▁불만	-11.244
▁호우	-11.244
▁비싸	-11.244
▁계층	-11.2441
▁떠났다	-11.2441
▁89	-11.2442
형태	-11.2442
▁한정으로	-11.2442
봇	-11.2443
▁활동에	-11.2445
▁놓치	-11.2447
’...	-11.2448
공공	-11.2448
▁내용으로	-11.2448
▁My	-11.2449
▁이뤄	-11.2449
▁느낌을	-11.2449
▁어렵다는	-11.245
▁이밖에	-11.2452
▁언덕	-11.2452
되도록	-11.2453
▁이낙연	-11.2453
▁왠지	-11.2453
▁시너지	-11.2454
▁맛이	-11.2458
어린이집	-11.2459
▁노선이	-11.2459
사태	-11.2461
▁Bl	-11.2461
son	-11.2462
카를	-11.2462
덩이	-11.2462
▁명중	-11.2463
신도시	-11.2465
▁엿	-11.2466
여부	-11.2469
▁생각했다	-11.2469
▁시절에	-11.247
▁쓰여	-11.2473
타카	-11.2473
▁사회에	-11.2474
▁1983	-11.2474
▁아저씨	-11.2475
ss	-11.2475
▁할지	-11.2479
▁주한	-11.2481
▁동서	-11.2482
▁삽입	-11.2483
▁AC	-11.2483
공화국	-11.2484
▁민중	-11.2484
▁굿	-11.2485
▁화장	-11.2485
▁보건소	-11.2486
▁비춰	-11.2491
▁파문	-11.2491
▁킥	-11.2493
▁스님	-11.2494
▁낸다	-11.2494
▁독재	-11.2495
△	-11.2497
▁파는	-11.2499
방위	-11.25
▁보건당국	-11.2501
▁전송	-11.2501
믹스	-11.2501
▁주제에	-11.2502
ca	-11.2502
작품	-11.2503
▁미혼	-11.2505
▁내정	-11.2509
드립니다	-11.251
▁정체가	-11.2513
▁축산	-11.2514
▁인식이	-11.2514
▁이미지가	-11.2514
▁미성년자	-11.2514
톱	-11.2515
▁충실	-11.2516
▁움직임	-11.2516
▁보여주며	-11.2517
▁구제	-11.2518
ies	-11.2519
▁법령	-11.2519
▁빌딩	-11.2521
▁나타	-11.2522
▁DJ	-11.2522
▁평일	-11.2522
▁벌어지	-11.2522
나이트	-11.2523
구장	-11.2523
▁이해할	-11.2525
▁우유	-11.2526
▁처럼	-11.2527
어머니	-11.2528
fe	-11.2532
▁170	-11.2533
만화	-11.2533
근로자	-11.2534
▁음모	-11.2534
▁아버지를	-11.2535
▁과정이	-11.2535
▁형사합의	-11.2536
▁김승	-11.2537
▁기대된다	-11.2538
맑	-11.2538
he	-11.254
▁시급	-11.2543
▁찾아오	-11.2543
▁항복	-11.2544
▁부모가	-11.2545
▁자랑하는	-11.2545
▁......	-11.2548
▁프랑스의	-11.2548
▁날씨가	-11.2548
▁스틸	-11.2549
▁객관적	-11.2549
▁곱	-11.2549
▁하단	-11.255
▁턱	-11.255
▁사살	-11.2551
▁개선을	-11.2551
▁열사	-11.2552
LO	-11.2552
▁전국의	-11.2553
▁원자력	-11.2553
▁편이라	-11.2553
립니다	-11.2554
(13	-11.2555
▁집어	-11.2558
9000	-11.2559
▁숙소	-11.2559
6000	-11.256
▁무기로	-11.2561
한꺼번에	-11.2562
▁폭언	-11.2562
ny	-11.2563
▁조약	-11.2564
▁영장을	-11.2565
▁파주	-11.2565
족의	-11.2565
렸지만	-11.2566
▁돌아왔다	-11.2566
▁줄어든	-11.2567
ave	-11.2568
붕	-11.2568
권과	-11.2572
▁언론에	-11.2572
▁복용	-11.2574
▁공룡	-11.2575
▁히어로즈	-11.2576
▁궁극기	-11.2576
▁재학	-11.2578
제의	-11.2578
CK	-11.2579
▁공문	-11.258
▁본회의	-11.258
▁발병	-11.2582
▁인터	-11.2582
▁영화를	-11.2583
▁존재를	-11.2585
▁적게	-11.2585
번의	-11.259
▁협업	-11.259
▁스크린	-11.2592
▁엘리트	-11.2593
▁상사	-11.2594
포드	-11.2596
▁공인	-11.2597
회관에서	-11.2598
▁하라	-11.2598
▁화산	-11.2599
▁그만두	-11.2599
▁지표	-11.26
▁수위	-11.26
▁외면	-11.2603
▁뚫고	-11.2604
▁조선시대	-11.2607
▁평이	-11.2607
▁자정	-11.2608
▁촬영한	-11.2608
▁보충	-11.261
이에요	-11.2612
▁특조위	-11.2612
▁유서	-11.2612
▁검은색	-11.2613
ime	-11.2613
▁욕설	-11.2613
SP	-11.2613
정비	-11.2615
CV	-11.2615
섹	-11.2616
▁SR	-11.2616
하에	-11.2616
전사	-11.2618
▁해보	-11.2618
▁시원	-11.2619
▁마련한	-11.2621
전에서는	-11.2622
▁없다며	-11.2624
샵	-11.2624
▁언젠가	-11.2624
▁국가정보원	-11.2624
▁주어	-11.2625
조로	-11.2625
▁애국	-11.2626
식물	-11.2626
(28	-11.2628
▁밖	-11.2629
툴	-11.2629
번이	-11.2629
▁하려고	-11.2629
▁대목	-11.263
▁Se	-11.263
▁설비	-11.263
▁모조리	-11.2631
▁사과를	-11.2633
▁공고	-11.2634
로만	-11.2636
▁조사가	-11.2638
▁찔러	-11.2638
▁매니저	-11.2638
심판	-11.2638
▁사라진다	-11.2639
▁친분	-11.264
▁대행	-11.2641
▁은신	-11.2641
▁모범	-11.2644
컨벤션	-11.2645
▁폐쇄회로	-11.2645
요소	-11.2646
▁지향	-11.2647
▁확립	-11.2647
집단	-11.2648
능력을	-11.2648
류의	-11.265
▁GS	-11.265
▁기획재정부	-11.2652
▁권한대행	-11.2652
3)	-11.2652
▁복제	-11.2653
녕	-11.2655
▁정도를	-11.2656
▁거제	-11.2656
▁공직자	-11.2656
북부	-11.2656
▁마디	-11.2658
▁후회	-11.2659
▁조씨	-11.266
▁환경을	-11.266
▁노려	-11.2665
▁증오	-11.2666
▁덤으로	-11.2667
▁옹호	-11.2667
▁키우	-11.2668
▁택시기사	-11.2668
명씩	-11.2668
▁우울증	-11.2669
▁쪽에서	-11.267
▁사이드	-11.2672
전공	-11.2673
▁여론조사	-11.2674
색을	-11.2674
▁기뻐	-11.2674
▁모양의	-11.2676
▁레이스	-11.2677
▁이루어	-11.2677
▁개업	-11.2677
▁급격히	-11.2679
▁총학생회	-11.2679
조를	-11.2681
식당	-11.2683
▁항해	-11.2684
▁여부는	-11.2685
▁주목을	-11.2687
▁얻	-11.2688
▁간접	-11.2688
이런	-11.2689
▁시로	-11.2689
▁의자	-11.2691
상으로는	-11.2691
▁죽이고	-11.2692
▁즐겨	-11.2693
▁가능할	-11.2693
▁나이에	-11.2693
개인	-11.2694
공주	-11.2695
▁지나면	-11.2697
▁치러	-11.2698
▁장남	-11.2698
▁이자	-11.2701
du	-11.2701
▁개수	-11.2703
▁멸	-11.2704
▁아미	-11.2705
▁권장	-11.2705
▁망치	-11.2706
▁신선	-11.2707
****	-11.2707
cc	-11.2707
▁패널	-11.2708
▁되어있	-11.2709
da	-11.2709
ou	-11.2712
▁반해	-11.2712
먹고	-11.2713
둑	-11.2713
▁회의에서	-11.2714
▁올릴	-11.2714
▁경쟁률	-11.2716
플리	-11.2718
▁둘은	-11.2719
졌는데	-11.2721
▁선수단	-11.2721
▁호응	-11.2723
멀	-11.2723
벨트	-11.2723
▁돕기	-11.2724
▁포위	-11.2726
▁광화문광장	-11.2726
▁완벽하게	-11.2726
▁동명	-11.2726
MG	-11.2727
▁탄력	-11.2727
▁분열	-11.2729
▁박살	-11.2731
요시	-11.2731
코프	-11.2731
▁도망가	-11.2732
▁연구팀	-11.2738
▁당신은	-11.2738
▁안성	-11.2738
~6	-11.2739
▁입건했다	-11.274
▁플래시	-11.2741
▁JR	-11.2741
▁점에	-11.2741
▁나라의	-11.2742
▁쌓여	-11.2744
▁끝나면	-11.2744
▁감축	-11.2745
▁대외	-11.2747
긴다	-11.2747
▁고립	-11.2748
그레	-11.2751
▁보냈	-11.2752
▁아시	-11.2753
직업	-11.2756
▁총알	-11.2756
▁정식으로	-11.2757
▁카드의	-11.2757
▁넘겨졌다	-11.2758
▁쪽은	-11.276
▁포로	-11.2761
▁처음에	-11.2762
▁붙인	-11.2764
▁법무	-11.2768
이후	-11.2771
▁잠재	-11.2772
되어야	-11.2773
▁편지를	-11.2773
쓸	-11.2775
▁창단	-11.2776
▁버튼	-11.278
▁청소년들	-11.278
▁퇴원	-11.2783
▁나머지는	-11.2784
▁이전까지	-11.2784
▁소상공인	-11.2785
ame	-11.2786
▁AR	-11.2786
▁도모	-11.2787
▁모자라	-11.2787
▁그곳	-11.2787
▁파악됐다	-11.2787
▁윙	-11.2788
▁연안	-11.2789
▁특전	-11.279
▁제외하고는	-11.2791
▁낭비	-11.2793
군으로	-11.2794
대기	-11.2796
냉	-11.2796
▁마음으로	-11.2799
나서	-11.2801
▁후방	-11.2803
▁가까워	-11.2803
창호	-11.2804
▁Un	-11.2805
▁시작된다	-11.2805
회차	-11.2807
보라	-11.2808
▁정한	-11.2809
따라	-11.2809
▁Mo	-11.281
▁안희정	-11.2812
▁상위권	-11.2813
▁감각	-11.2813
▁남한	-11.2813
▁세이브	-11.2813
▁가르쳐	-11.2814
대행	-11.2814
속에	-11.2815
주세요	-11.2815
▁요구한	-11.2816
▁내역	-11.2818
▁동아일보	-11.2819
▁규정을	-11.2819
▁높이기	-11.282
▁일어날	-11.282
▁나은	-11.282
▁맺고	-11.2821
위권	-11.2823
▁대학원	-11.2824
구에	-11.2824
호텔에서	-11.2825
자문	-11.2826
▁순환	-11.2827
▁음악을	-11.2828
▁장전	-11.2828
▁보니까	-11.283
▁없었다고	-11.2832
▁만났다	-11.2832
▁반전	-11.2833
▁포르투갈	-11.2833
▁1981	-11.2833
▁차이점	-11.2834
▁통로	-11.2835
▁강점	-11.2835
▁막대한	-11.2836
▁만일	-11.2836
▁정성	-11.2839
▁플레이오프	-11.284
▁용량	-11.2841
닉스	-11.2841
ood	-11.2843
∼20	-11.2843
▁주목받	-11.2845
▁보낼	-11.2846
▁빌드	-11.2846
mo	-11.2848
▁93	-11.2849
▁수법으로	-11.285
▁워싱턴	-11.2854
▁선거에서	-11.2854
▁미르	-11.2855
구치	-11.2856
▁코코	-11.2856
▁쏜	-11.2858
▁느린	-11.2858
▁점심	-11.2858
RS	-11.2859
▁선보이	-11.2863
▁항구	-11.2865
▁홍성	-11.2871
왕이	-11.2872
▁어두운	-11.2875
▁간신히	-11.2875
▁월요일	-11.2875
▁판단해	-11.2876
졌던	-11.2877
▁메카	-11.2878
마르	-11.2879
▁주변에서	-11.288
▁게시물	-11.2881
▁동일하다	-11.2882
up	-11.2883
뿜	-11.2883
▁재산을	-11.2883
▁1200	-11.2885
홍보	-11.2885
센터를	-11.2885
▁도둑	-11.2886
▁서울에서	-11.2887
▁살던	-11.2889
지오	-11.289
▁평등	-11.2891
▁간호	-11.2891
▁이어서	-11.2892
전설	-11.2894
▁돌보	-11.2896
▁암시	-11.2898
▁?'	-11.2899
▁적용해	-11.2902
양의	-11.2903
▁팬덤	-11.2904
▁잘라	-11.2904
법으로	-11.2906
▁태백	-11.291
▁자이언츠	-11.291
▁도저히	-11.291
▁호칭	-11.2911
▁집착	-11.2911
▁저렴한	-11.2912
▁지키고	-11.2915
▁적절	-11.2916
▁아닐까	-11.2918
▁장거리	-11.2919
▁박성	-11.2919
▁서울시청	-11.2921
▁주포	-11.2923
▁재밌	-11.2925
▁구할	-11.2925
▁전체적인	-11.2925
4000	-11.2925
▁내부에서	-11.2927
레이크	-11.2927
▁관련이	-11.2929
사회적	-11.2929
▁계곡	-11.2931
옳	-11.2931
▁황교안	-11.2932
▁무거운	-11.2932
▁취약계층	-11.2932
▁핸드	-11.2932
잎	-11.2932
▁탐지	-11.2934
이용	-11.2935
▁상태이상	-11.2936
안정	-11.2939
▁어디에	-11.2939
▁교수의	-11.2939
▁그러다가	-11.294
▁해피	-11.294
대원	-11.2941
▁붐	-11.2941
▁부자	-11.2947
▁생각하지	-11.2948
▁배를	-11.2949
▁장인	-11.2949
▁당시에	-11.295
▁머리에	-11.295
▁수상했다	-11.2952
▁좌절	-11.2952
▁적당히	-11.2953
▁발송	-11.2954
▁압도	-11.2955
▁자료에	-11.2957
배가	-11.296
▁증가한다	-11.2961
▁사람으로	-11.2961
▁강화하고	-11.2962
▁여권	-11.2962
▁절정	-11.2964
DI	-11.2965
서부	-11.2965
▁단서	-11.2965
▁잠수	-11.2966
▁맡았	-11.2969
▁전쟁이	-11.297
▁수사권	-11.2971
시장에서	-11.2971
값을	-11.2971
▁인디	-11.2972
▁단식	-11.2972
▁지속시간	-11.2973
▁대단히	-11.2974
보고서	-11.2978
자재	-11.2978
▁아시안	-11.2979
▁아니며	-11.2979
▁he	-11.2979
▁예보	-11.298
▁곡이	-11.298
▁차이는	-11.298
체의	-11.2981
▁탄핵심판	-11.2982
▁분석했다	-11.2986
▁원심을	-11.2987
▁가문의	-11.2987
▁병력을	-11.2989
▁톰	-11.2991
▁더해	-11.2991
▁공사장	-11.2991
▁유의	-11.2991
키는	-11.2992
공학과	-11.2995
▁죽이는	-11.2995
sc	-11.2995
저항	-11.2996
▁Ro	-11.2996
▁무더기	-11.2997
▁승객들	-11.2997
▁아즈	-11.2998
▁포스터	-11.2998
스에게	-11.3
최대	-11.3002
변경	-11.3003
회계	-11.3006
▁하나만	-11.3006
▁물류	-11.3007
▁범위를	-11.3008
▁평가받	-11.3008
▁근무하는	-11.3009
젊	-11.3009
▁제시한	-11.3009
▁아까	-11.3011
▁발을	-11.3012
마트	-11.3012
▁범죄자	-11.3016
지휘	-11.3021
▁왕이	-11.3021
▁생태계	-11.3022
뜨려	-11.3022
▁무력화	-11.3023
▁사정거리	-11.3023
▁마린	-11.3023
▁끊임없이	-11.3024
천만원을	-11.3025
▁겹쳐	-11.3025
있고	-11.3027
▁수수	-11.3027
▁팽	-11.3028
▁기준이	-11.3029
친구	-11.3029
▁본질	-11.3029
▁쯤	-11.3029
8000	-11.303
▁마키	-11.303
▁변동	-11.3031
▁기조	-11.3031
▁여성가족부	-11.3032
▁기다려	-11.3032
▁실태	-11.3033
▁속한다	-11.3033
농업	-11.3034
상한	-11.3036
▁바다의	-11.3036
▁일정을	-11.3038
▁된다면	-11.3039
▁즉위	-11.3039
▁건국대	-11.3041
변화	-11.3041
▁나빠	-11.3042
ound	-11.3044
▁높였다	-11.3044
▁타락	-11.3045
테스	-11.3047
▁단기	-11.3049
▁성관계	-11.3049
▁아이스	-11.3049
▁Pro	-11.3052
▁프랑	-11.3054
수요	-11.3055
▁관리에	-11.3055
▁나서는	-11.3057
▁밖의	-11.3057
▁라면	-11.3058
▁노란	-11.3059
▁삐	-11.306
앞으로도	-11.3064
위반	-11.3064
▁나노	-11.3065
▁겹치	-11.3066
▁종전	-11.3066
▁품고	-11.3066
▁We	-11.3066
▁문서를	-11.3067
▁매뉴얼	-11.3067
▁어택	-11.3069
▁뜻으로	-11.3071
▁늘어날	-11.3071
▁집권	-11.3071
▁금연	-11.3072
▁쏟아지	-11.3075
▁생년월일	-11.3075
▁조문	-11.3076
▁장난감	-11.3077
스틴	-11.3078
▁한국노총	-11.3079
▁역을	-11.3081
▁91	-11.3081
▁사직	-11.3083
▁모텔	-11.3085
▁관광지	-11.3086
반대	-11.3086
▁태양광	-11.3087
▁전락	-11.3088
▁사로잡	-11.309
구청	-11.3093
▁세번째	-11.3095
여대	-11.3096
▁조건이	-11.3096
(2014	-11.3097
▁중소	-11.3098
▁죽기	-11.3099
▁오면	-11.3101
▁타는	-11.3101
1.1	-11.3102
▁오카	-11.3102
레이드	-11.3103
으러	-11.3104
▁주민이	-11.3105
층의	-11.3106
▁바뀐다	-11.3108
▁판단이	-11.3109
키의	-11.3109
▁즐기고	-11.3109
공동체	-11.311
▁믿음	-11.3111
▁잔뜩	-11.3111
▁패키지	-11.3112
▁물체	-11.3113
들에게는	-11.3113
▁전당	-11.3115
▁거인	-11.3115
▁if	-11.3115
▁도피	-11.3116
▁그렇고	-11.3117
mi	-11.3117
▁높이고	-11.3118
▁아랍	-11.3118
▁얼굴에	-11.312
텍스	-11.312
▁미국과	-11.3121
▁뒤에는	-11.3121
▁나서고	-11.3122
▁겪은	-11.3122
▁쇼핑	-11.3124
팟	-11.3125
▁떠올리	-11.3125
▁거미	-11.3125
ight	-11.3126
▁지역이	-11.3129
▁자막	-11.313
▁돌봄	-11.313
di	-11.313
▁어리	-11.3131
▁대마	-11.3134
▁윤씨	-11.3137
스트로	-11.3138
마음	-11.314
▁구간을	-11.314
▁있겠지만	-11.314
되었다고	-11.3141
▁외곽	-11.3142
결혼	-11.3143
▁열릴	-11.3144
▁청산	-11.3146
▁칭호	-11.3146
▁중국어	-11.3148
▁카카오	-11.315
▁강화를	-11.3151
▁박영	-11.3154
▁리모델링	-11.3154
센터장	-11.3155
▁신뢰를	-11.3155
▁분이	-11.3157
▁똥	-11.3158
렸습니다	-11.3161
껴	-11.3161
▁Go	-11.3162
▁국비	-11.3165
파를	-11.3165
▁서울대병원	-11.3165
▁공성	-11.3165
▁시라	-11.3165
▁향하고	-11.3167
▁익숙	-11.3168
▁아르헨티나	-11.3169
▁김천	-11.317
그림	-11.3171
대회에서	-11.3173
▁중증	-11.3174
▁취재했습니다	-11.3174
▁분석해	-11.3175
▁추후	-11.3176
▁관장	-11.3177
▁환자를	-11.3178
▁해준다	-11.3179
▁했었다	-11.318
▁방송된	-11.318
▁웨이	-11.318
▁밖에서	-11.3182
▁걸렸다	-11.3184
▁커리어	-11.3185
▁케이블	-11.3186
발표	-11.3186
▁안돼	-11.3187
▁해경은	-11.319
▁엇갈	-11.3191
▁인성	-11.3192
▁멍	-11.3193
▁인정하지	-11.3194
▁거지	-11.3194
▁시그	-11.3195
▁중지	-11.3198
▁바가	-11.3198
▁관중	-11.3199
양성	-11.3199
▁늘어나는	-11.3202
▁산소	-11.3202
명도	-11.3203
▁비극	-11.3203
▁대부	-11.3204
▁참석자들	-11.3204
였다는	-11.3205
▁가만히	-11.3206
▁땅에	-11.3208
▁마그	-11.3208
▁진동	-11.3208
▁하나하나	-11.321
▁정당한	-11.321
▁단속을	-11.3211
▁더이상	-11.3212
▁간단히	-11.3212
▁공천	-11.3213
▁소라	-11.3213
▁MB	-11.3214
▁1979	-11.3215
▁나주	-11.3215
파의	-11.3217
▁맞는다	-11.3218
▁경기는	-11.3219
▁변수	-11.3219
▁유나이티드	-11.322
▁양자	-11.322
▁산타	-11.322
ll	-11.3221
문화재	-11.3222
▁자폭	-11.3222
흉	-11.3223
▁삼척	-11.3223
▁실은	-11.3224
▁효과로	-11.3224
▁선택할	-11.3224
▁정통	-11.3225
▁CV	-11.3225
▁품목	-11.3225
▁뚝	-11.3225
▁소환해	-11.3226
▁삼국	-11.3226
▁충분	-11.3227
▁기술로	-11.3227
▁이내에	-11.3229
▁벌어	-11.323
▁아이콘	-11.3234
▁with	-11.3234
▁보전	-11.3236
흘	-11.3236
브로	-11.3236
▁시속	-11.3237
협상	-11.3238
▁105	-11.3239
▁이득을	-11.3239
▁김경수	-11.324
▁주인공은	-11.3241
▁어머니는	-11.3242
▁있느냐	-11.3243
▁가자	-11.3243
▁위원장이	-11.3246
▁컸	-11.3246
▁살펴보면	-11.3248
▁방사	-11.3248
▁오피스텔	-11.3249
해보자	-11.325
▁대표와	-11.325
▁군의	-11.3252
▁한마디로	-11.3253
▁증가하고	-11.3256
▁휘두르	-11.3256
▁누리과정	-11.3257
계획을	-11.3257
▁세계대전	-11.3258
▁혼잡	-11.3262
거리가	-11.3264
▁알리고	-11.3265
▁?!	-11.3266
▁유혹	-11.3266
네트워크	-11.3267
▁가끔씩	-11.3268
▁주둔	-11.3268
▁안으로	-11.327
文	-11.3271
▁실시했다	-11.3271
▁연결하는	-11.3273
▁시절의	-11.3273
▁태안	-11.3274
▁고쳐	-11.3274
없다	-11.3275
▁맞춘	-11.3276
▁돌아가는	-11.3277
▁목포신항	-11.3279
▁고스트	-11.328
▁넷	-11.328
▁상담을	-11.3281
만원씩	-11.3282
▁외래	-11.3282
▁신상	-11.3285
▁징계를	-11.3285
▁진술한	-11.3285
▁성금	-11.3285
▁변환	-11.3287
▁붙잡아	-11.3287
▁디젤	-11.3288
▁확신	-11.3289
▁뿔	-11.3289
▁손자	-11.329
▁종점	-11.3291
들끼리	-11.3291
▁지칭	-11.3292
▁전라남도	-11.3293
▁단위로	-11.3293
▁거라	-11.3296
▁매번	-11.3296
▁서서히	-11.3296
▁원인으로	-11.3297
▁투신	-11.3297
▁되돌아	-11.3301
때마다	-11.3302
▁간판	-11.3303
▁넘긴	-11.3304
하시는	-11.3306
▁모모	-11.3307
▁벌레	-11.3307
▁WWE	-11.3308
ah	-11.3312
▁플랜	-11.3312
▁나타내	-11.3316
▁등록금	-11.332
▁확보했다	-11.332
▁계절	-11.3321
▁자신감	-11.3323
▁윈도우	-11.3323
▁아름	-11.3324
▁말투	-11.3326
현직	-11.3326
▁설명이다	-11.3327
▁설치하고	-11.3328
작은	-11.3328
▁기록하며	-11.3331
시의회	-11.3332
▁소재지	-11.3333
▁해명했다	-11.3335
▁차지하고	-11.3335
부족	-11.3336
▁디버프	-11.3337
▁쓰러지	-11.3338
▁대통령에게	-11.3338
▁맡게	-11.3339
▁김대중	-11.3342
자로서	-11.3344
▁국정감사	-11.3345
▁발라	-11.3346
▁청렴	-11.3347
▁자신들이	-11.3347
ye	-11.3347
▁걸친	-11.3348
▁인하	-11.3349
밴드	-11.3352
보드	-11.3353
▁자금을	-11.3357
▁노원구	-11.3358
▁왜냐하면	-11.336
부처	-11.3361
▁주장한	-11.3361
▁자칫	-11.3362
즈와	-11.3363
▁Good	-11.3363
결정	-11.3363
펀드	-11.3364
▁성실	-11.3366
루수	-11.3366
▁디자이너	-11.3367
카의	-11.3369
▁읽는	-11.3371
▁회장을	-11.3373
▁업종	-11.3373
니시	-11.3373
첸	-11.3374
▁스트라이크	-11.3374
▁도움으로	-11.3375
▁번도	-11.3375
아들	-11.3375
생들	-11.3376
크라	-11.3376
▁특성화	-11.3377
▁업체가	-11.3377
▁우위	-11.3383
시죠	-11.3383
▁해결하기	-11.3383
▁스카	-11.3384
▁면모	-11.3385
▁촉진	-11.3386
인물	-11.3387
▁금강	-11.339
▁체중	-11.339
▁데려가	-11.339
▁각지	-11.3391
▁하루에	-11.3392
네이션	-11.3395
▁농사	-11.3395
▁남편이	-11.3396
▁타격을	-11.3397
▁내용이다	-11.3397
▁회담	-11.3398
팽	-11.3401
덩	-11.3401
▁학위	-11.3402
▁언더	-11.3402
▁기분이	-11.3403
세에	-11.3404
초간	-11.3404
▁드라이브	-11.3405
▁기억이	-11.3406
▁소방당국	-11.3408
소식	-11.3411
▁모습도	-11.3412
▁쇼핑몰	-11.3412
▁관광객들이	-11.3413
▁이렇다	-11.3413
▁교사들	-11.3413
▁농도	-11.3414
수정	-11.3417
▁바지	-11.3418
겨울	-11.3419
▁수령	-11.342
▁여고생	-11.342
▁떨어	-11.3421
▁불사	-11.3421
▁레이드	-11.3422
▁정선	-11.3423
ree	-11.3423
마치	-11.3424
▁줘	-11.3424
▁객실	-11.3428
▁지원사업	-11.3428
▁요소가	-11.3428
하냐	-11.3429
▁씨에	-11.343
▁잠정	-11.343
모든	-11.343
자고	-11.3431
▁남아있는	-11.3431
▁얘기가	-11.3432
▁부채	-11.3433
▁조현	-11.3434
수영	-11.3434
▁꾸려	-11.3435
▁전임	-11.3435
▁모았다	-11.3436
ach	-11.3437
▁활동하고	-11.3439
▁감당	-11.344
▁수상한	-11.344
▁심야	-11.3441
oc	-11.3442
su	-11.3446
▁조종사	-11.3446
▁장기간	-11.3446
▁연쇄	-11.3447
▁끝이	-11.3447
▁아픈	-11.3447
▁여기는	-11.3447
▁파크	-11.3449
▁연산	-11.3449
▁해운대구	-11.345
▁우편	-11.3451
▁재개발	-11.3452
▁지혜	-11.3452
▁지역구	-11.3454
운동본부	-11.3454
것이다	-11.3455
▁악의	-11.3455
▁잃어	-11.3455
▁가족을	-11.3456
테츠	-11.3456
▁비치	-11.3456
▁룬	-11.3456
▁논란에	-11.3457
▁코미디	-11.3459
▁코인	-11.3459
▁내놓은	-11.3459
▁받아들이지	-11.3459
▁메리	-11.346
▁노선을	-11.3461
▁정상적으로	-11.3461
▁해수욕장	-11.3462
▁주된	-11.3463
▁하나다	-11.3463
▁포함되어	-11.3465
▁로버트	-11.3466
▁내부에	-11.3467
▁시작할	-11.3467
▁양천구	-11.3468
▁죽이려	-11.3468
▁무술	-11.3468
▁원형	-11.3468
▁연기가	-11.3468
마는	-11.347
▁엄중	-11.347
▁적군	-11.3471
▁허위사실	-11.3473
반을	-11.3473
▁나오면서	-11.3474
▁부정적	-11.3474
▁느려	-11.3475
▁없지	-11.3476
▁식사를	-11.3476
▁잡아먹	-11.3476
▁먹는다	-11.3477
▁캐논	-11.3481
▁아메리카	-11.3483
조작	-11.3483
▁간에	-11.3488
▁싼	-11.3488
▁크지	-11.3488
▁재무	-11.349
▁암호	-11.349
수입	-11.3491
슬라	-11.3491
▁트라이	-11.3491
▁확진자	-11.3493
▁각본	-11.3493
▁필로폰	-11.3494
▁외계인	-11.3494
▁로고	-11.3495
▁my	-11.3496
▁적용된다	-11.3496
▁저출산	-11.3496
▁가지게	-11.3497
▁한국과	-11.3497
▁사태를	-11.3501
▁설립된	-11.3501
▁실시하고	-11.3502
억원이	-11.3505
▁산다	-11.3505
▁적혀	-11.3507
▁통학	-11.3508
▁때문이라고	-11.351
▁총을	-11.3511
▁북한이	-11.3512
생태	-11.3513
▁베어	-11.3513
박사	-11.3514
▁연합군	-11.3514
▁자회사	-11.3515
▁해결할	-11.3516
▁동력	-11.3516
▁기대를	-11.3519
▁돼서	-11.3521
▁사정이	-11.3521
코는	-11.3522
캐릭터	-11.3523
▁제작된	-11.3523
▁성공한다	-11.3523
▁냄새	-11.3525
▁파란	-11.3525
▁넘치는	-11.3526
▁보험사	-11.3527
퀘	-11.3527
▁상금	-11.353
헬기	-11.3531
▁대표의	-11.3534
했음에도	-11.3534
▁느껴지	-11.3537
▁「	-11.3537
썬	-11.3539
▁모으고	-11.3539
▁듣지	-11.3539
관과	-11.354
▁정체성	-11.3544
▁통계청	-11.3544
▁음료	-11.3545
▁예언	-11.3546
▁이겨	-11.3546
」	-11.3547
마리를	-11.3547
▁개교	-11.3547
▁늦은	-11.3549
▁숭	-11.3549
▁해치	-11.355
▁미흡	-11.3552
▁뿌려	-11.3552
켰	-11.3552
회원	-11.3552
▁sh	-11.3553
▁다운로드	-11.3555
▁준비한	-11.3555
▁완전한	-11.3557
▁과거사	-11.3557
▁요약	-11.3557
▁회사에	-11.3559
▁데이터를	-11.3559
▁구간은	-11.356
▁EP	-11.3561
▁국토	-11.3562
▁경우엔	-11.3563
~9	-11.3563
.18	-11.3566
▁수험생들	-11.3566
▁성주	-11.3567
▁도교육청	-11.3567
▁털어	-11.3568
▁악당	-11.3569
▁비즈니스	-11.357
▁전세	-11.357
▁승점	-11.357
▁저희가	-11.3571
판결	-11.3572
▁www	-11.3572
공업	-11.3573
▁마음의	-11.3575
▁먼지	-11.3576
▁영원히	-11.3577
KBS	-11.3579
고발	-11.3581
▁삼진	-11.3584
보안	-11.3586
▁1945	-11.3586
▁부산광역시	-11.3587
▁인정한	-11.3587
▁스턴	-11.3588
▁대동	-11.3589
흑	-11.359
정보통신	-11.3591
▁맑은	-11.3593
▁해수부	-11.3594
▁궁금	-11.3596
▁쭉	-11.3596
급식	-11.3597
▁감염된	-11.3599
▁오디션	-11.36
▁산재	-11.36
▁늘리	-11.36
정동	-11.3601
분기점	-11.3601
▁판매하는	-11.3602
▁요청을	-11.3602
▁패턴이	-11.3602
거라	-11.3603
▁경선	-11.3604
oul	-11.3609
▁구도	-11.3611
코와	-11.3611
▁표현을	-11.3611
▁브로	-11.3611
▁플로	-11.3614
▁법을	-11.3616
▁않다고	-11.3616
▁구해	-11.3617
▁받던	-11.3622
▁근거가	-11.3623
.08	-11.3623
▁호랑이	-11.3623
▁났습니다	-11.3625
▁세계에	-11.3625
▁스쿨	-11.3626
VE	-11.3627
▁발견한	-11.3629
▁섞어	-11.3629
쿤	-11.363
▁각오	-11.3631
현이	-11.3632
TC	-11.3632
▁야스	-11.3633
▁거기	-11.3635
배로	-11.3635
▁감안해	-11.3636
山	-11.3638
▁일기	-11.3638
주의자	-11.3639
점수	-11.3639
▁캐릭터는	-11.364
▁느낀	-11.3641
▁사면	-11.3642
▁영향이	-11.3643
▁갱신	-11.3643
▁바뀌었	-11.3644
▁일시적으로	-11.3644
▁추방	-11.3647
▁테라	-11.3648
▁협약을	-11.3648
▁나누는	-11.3648
▁나라를	-11.3649
▁제기됐다	-11.3649
왔으며	-11.365
▁왈	-11.3651
▁탐방	-11.3652
사이클	-11.3653
▁한글판	-11.3654
▁피터	-11.3654
▁추첨	-11.3654
▁농산물	-11.3655
▁출연했다	-11.3659
▁난동	-11.366
▁대학수학능력시험	-11.366
▁편곡	-11.3662
트레	-11.3664
▁명칭은	-11.3664
▁성능은	-11.3665
▁퀘스트를	-11.3666
▁행위가	-11.3669
▁SC	-11.367
▁구별	-11.367
▁필요할	-11.367
▁공격할	-11.3671
▁어르신들	-11.3671
▁대표를	-11.3673
왔는데	-11.3673
▁총재	-11.3674
▁않나	-11.3675
▁트라우마	-11.3676
▁후퇴	-11.3676
▁생각해보면	-11.3678
▁연상	-11.368
타리	-11.368
감정	-11.3681
미네	-11.3682
ci	-11.3682
영웅	-11.3684
ae	-11.3685
▁세계적인	-11.3686
▁350	-11.3686
▁동경	-11.3688
▁슈팅	-11.3688
출입	-11.369
▁가족의	-11.3691
우라	-11.3691
▁방한	-11.3692
▁시즈	-11.3692
둥이	-11.3692
▁신경을	-11.3692
왔고	-11.3693
▁최종적으로	-11.3694
▁질서	-11.3696
pt	-11.3697
▁펼쳤다	-11.3698
▁불행	-11.3699
▁잦은	-11.3699
▁감염병	-11.3699
▁앨리스	-11.3699
▁빡	-11.37
▁구제역	-11.3701
▁소동	-11.3705
휴가	-11.3705
▁닮았다	-11.3706
▁CPU	-11.3706
▁장면에서	-11.371
▁늘어나고	-11.3711
▁뜬	-11.3712
딱	-11.3714
하되	-11.3714
꿈	-11.3714
▁동영상을	-11.3715
▁활동하는	-11.3716
▁관여한	-11.3717
▁떨어질	-11.3717
▁이뤄질	-11.3718
▁바둑	-11.3718
▁쉬워	-11.3718
콧	-11.3719
▁꽂	-11.3719
▁소스	-11.372
▁괜히	-11.3722
▁안개	-11.3722
▁심사를	-11.3722
▁비서	-11.3722
▁의사가	-11.3723
▁남자친구	-11.3723
▁유닛이	-11.3723
▁온천	-11.3724
▁박재	-11.3725
▁900	-11.3726
▁법정에서	-11.3726
▁제시했다	-11.3728
하겠지만	-11.3729
국장은	-11.3729
▁감옥	-11.3731
▁횡	-11.3732
▁Con	-11.3732
크스	-11.3733
▁이례적	-11.3734
▁주시	-11.3735
▁수강	-11.3736
억원으로	-11.3737
▁귀여운	-11.3737
▁믿을	-11.3737
영장	-11.3738
▁차가	-11.3738
▁기업들	-11.3739
▁프로토스	-11.3739
만원이	-11.374
▁부당한	-11.3742
기반	-11.3745
뚱	-11.3745
▁것들	-11.3746
▁동성애	-11.3746
▁과천	-11.3748
겠고	-11.3749
선언	-11.3749
미세먼지	-11.375
▁청구했다	-11.375
▁관계없이	-11.3751
출연	-11.3751
▁결혼을	-11.3751
▁공시	-11.3752
늄	-11.3752
▁카카오톡	-11.3753
번째로	-11.3753
▁납득	-11.3753
▁오랜만에	-11.3753
▁영장실질심사	-11.3753
▁가지는	-11.3754
▁고무	-11.3754
영어	-11.3754
▁스페이스	-11.3755
.09	-11.3756
▁오늘의	-11.3756
▁로즈	-11.3757
hy	-11.3758
▁상단	-11.3759
▁받아서	-11.3759
▁프라	-11.3761
챠	-11.3761
▁여론이	-11.3762
관계를	-11.3765
▁요구하며	-11.3766
수업	-11.3766
▁안쪽	-11.3768
▁소명	-11.3768
▁이득	-11.3768
▁판매한	-11.3769
▁우산	-11.3769
▁표절	-11.377
시키지	-11.377
GB	-11.3774
▁그거	-11.3774
▁구간에서	-11.3775
▁아닌지	-11.3776
▁겪었다	-11.3776
▁동문	-11.3776
▁알렸다	-11.3777
▁기울	-11.3778
▁지은	-11.3779
▁파주시	-11.378
▁송도	-11.3781
▁도로를	-11.3781
▁사회에서	-11.3782
전환	-11.3782
심과	-11.3783
▁유언	-11.3783
ME	-11.3784
▁대학의	-11.3786
인듯	-11.3789
▁받았지만	-11.3792
▁감추	-11.3793
사상	-11.3795
▁모델로	-11.3797
▁기량	-11.3797
다니는	-11.3798
법과	-11.3799
ET	-11.38
▁대단한	-11.38
▁건데	-11.3801
▁남성의	-11.3802
▁분야에	-11.3805
▁선두	-11.3805
▁심어	-11.3805
▁회사를	-11.3807
▁결함	-11.3807
▁동급	-11.3808
▁실습	-11.3808
▁감사원	-11.3808
▁결핵	-11.3808
▁남자가	-11.381
대책위원회	-11.381
▁토르	-11.381
▁사이로	-11.3811
▁조용히	-11.3811
▁연속으로	-11.3812
▁한번에	-11.3812
▁전수	-11.3812
▁원료	-11.3812
▁페이스북에	-11.3813
▁거세	-11.3813
▁김준	-11.3814
▁내용에	-11.3815
▁차체	-11.3817
공모	-11.3817
▁면이	-11.3817
파출소	-11.3819
▁KBO	-11.3819
▁활동이	-11.3821
올라	-11.3821
▁빠졌다	-11.3822
SA	-11.383
▁이해가	-11.383
▁약속을	-11.3831
▁우호	-11.3833
CH	-11.3833
▁김형	-11.3833
▁구성해	-11.3834
▁모를	-11.3835
.22	-11.3837
▁극히	-11.3838
좋은	-11.3839
▁저렴	-11.384
▁보직	-11.3841
▁조금만	-11.3841
▁목표를	-11.3842
▁사실이다	-11.3843
▁만들어졌다	-11.3844
방해	-11.3844
들과는	-11.3845
▁평가했다	-11.3845
낳	-11.3846
▁응용	-11.3846
▁못하다	-11.3847
▁안녕	-11.3847
규정	-11.3848
됐으나	-11.3849
▁지역경제	-11.3849
▁되었을	-11.3853
▁들어선	-11.3853
▁무엇을	-11.3853
▁장모	-11.3853
▁도청	-11.3854
▁재배포금지	-11.3855
▁드럼	-11.3856
▁최근까지	-11.3856
▁감싸	-11.3856
▁알았다	-11.3856
역과	-11.3857
▁선택한	-11.3858
▁접한	-11.3858
▁지방의	-11.3858
▁오르는	-11.386
슬리	-11.3861
서비스를	-11.3861
쑥	-11.3861
아를	-11.3863
▁정상회담	-11.3866
▁중심지	-11.3868
▁심지어는	-11.3868
▁전승	-11.3869
해수욕장	-11.387
▁헌신	-11.387
▁친척	-11.387
▁퍼포먼스를	-11.3871
▁검사가	-11.3873
▁건넨	-11.3873
▁퇴임	-11.3876
▁포기하고	-11.3878
▁감염자	-11.3878
▁버리는	-11.3878
▁檢	-11.3879
제와	-11.3879
▁주고받	-11.388
포항	-11.388
▁매매	-11.3882
▁흐르	-11.3883
▁거울	-11.3883
▁스크	-11.3883
▁디지몬	-11.3884
보인다	-11.3885
▁만성	-11.3885
▁학교가	-11.3886
자녀	-11.3887
▁찬반	-11.3888
▁가요	-11.3891
편성	-11.3892
있어	-11.3892
강도	-11.3895
▁유권자	-11.3895
▁레어도	-11.3897
엄마	-11.3898
▁공부를	-11.3899
▁인건비	-11.39
급의	-11.3902
▁경감	-11.3902
▁만취	-11.3906
▁도끼	-11.3909
▁적자	-11.3909
▁타율	-11.391
▁강등	-11.3911
▁버닝썬	-11.3912
▁주의를	-11.3913
▁사회를	-11.3913
▁배가	-11.3914
▁감소했다	-11.3914
운행	-11.3915
▁한양대	-11.3915
▁담임	-11.3917
되어있다	-11.3918
▁휴업	-11.3919
▁김선	-11.392
▁빠르	-11.392
패스	-11.3921
GE	-11.3921
아는	-11.3923
▁구치소	-11.3923
LI	-11.3923
당할	-11.3923
▁소금	-11.3924
▁과학자	-11.3925
▁..."	-11.3925
▁세우고	-11.3925
카운트	-11.3926
▁민주화	-11.3926
중공업	-11.3927
▁세탁	-11.3927
▁통하여	-11.3927
▁드러낸	-11.3928
▁학교폭력	-11.3928
▁빈곤	-11.3929
▁양의	-11.3929
돌이	-11.3929
▁별도	-11.3931
▁멘탈	-11.3931
▁전적	-11.3931
▁전문성	-11.3934
▁탄창	-11.3934
▁여기까지	-11.3935
▁섞	-11.3935
▁입건했다고	-11.3937
▁조상	-11.3938
▁제공할	-11.3938
▁마이너	-11.3939
▁전인	-11.3939
시키면	-11.394
웃	-11.394
▁산악	-11.394
▁산지	-11.3941
▁준비하고	-11.3941
▁통장	-11.3942
▁웃음	-11.3943
내리	-11.3945
해당	-11.3945
▁그러던	-11.3945
▁조국	-11.3947
▁머리카락	-11.3947
팜	-11.3947
▁출근길	-11.3947
▁확정했다	-11.3948
체인	-11.3949
사전	-11.3951
▁증폭	-11.3952
ok	-11.3953
▁여섯	-11.3956
▁나갔다	-11.3956
▁개헌	-11.3957
▁입어	-11.3958
▁부부가	-11.3959
▁총무	-11.396
▁말라고	-11.3963
▁사범	-11.3963
▁의약품	-11.3963
▁조건으로	-11.3964
▁운반	-11.3965
▁본격화	-11.3965
정도로	-11.3967
▁나눈	-11.3967
▁보수단체	-11.3968
▁억지로	-11.397
▁스톤	-11.397
치와	-11.3971
▁내게	-11.3972
지에서	-11.3972
▁퍼져	-11.3973
▁출신인	-11.3973
아키	-11.3977
EL	-11.3977
연의	-11.3977
▁캡틴	-11.3979
▁정체는	-11.3979
▁최장	-11.3979
lu	-11.3979
▁임상	-11.398
예정	-11.398
상자	-11.398
▁만료	-11.398
▁최순실씨	-11.3981
▁프로그램이	-11.3981
국내	-11.3981
▁맥스	-11.3982
▁일족	-11.3982
보호법	-11.3982
▁탄압	-11.3985
▁아니라면	-11.3986
▁뮤직비디오	-11.3986
▁아케이드	-11.3987
는데도	-11.3987
▁즈음	-11.3988
▁싶다면	-11.3989
▁씹	-11.3989
으려고	-11.3989
▁붕	-11.399
▁좋다고	-11.3992
int	-11.3992
▁명분	-11.3992
▁굽	-11.3992
▁찾아내	-11.3993
▁교과	-11.3993
앰	-11.3994
롯데	-11.3995
▁확실하게	-11.3997
▁진짜로	-11.3997
▁악기	-11.3997
▁개념이	-11.3998
▁6000	-11.3998
▁화합	-11.3999
▁기다리는	-11.3999
▁선진국	-11.3999
▁고래	-11.4001
일째	-11.4002
▁앞선	-11.4004
▁추돌	-11.4004
▁소문이	-11.4004
끄러	-11.4006
▁다닌다	-11.4007
▁빠져나가	-11.4008
미사일	-11.4009
▁다음은	-11.4009
▁구속영장이	-11.401
▁드러냈다	-11.4011
▁예시	-11.4012
▁플래그	-11.4013
▁캠페인을	-11.4013
인지는	-11.4013
▁부를	-11.4015
▁울리	-11.4016
▁시작되었다	-11.4016
즈카	-11.4016
▁전망된다	-11.4017
팀의	-11.4018
십시오	-11.4019
▁효율이	-11.402
도교육청	-11.402
팝	-11.4021
▁반입	-11.4022
아와	-11.4022
▁기관총	-11.4023
▁명의로	-11.4023
News	-11.4024
▁증진	-11.4024
▁아냐	-11.4026
▁텍스트	-11.4026
받기	-11.4026
▁프로필	-11.4026
억여원	-11.4027
▁1973	-11.4028
▁가리지	-11.4029
▁질의	-11.4029
▁늘어난다	-11.4032
▁원수	-11.4033
▁닮은	-11.4034
▁특검은	-11.4035
IV	-11.4035
▁찾아와	-11.4035
▁총회	-11.4036
▁거둔	-11.4036
▁난입	-11.4037
▁라인업	-11.4037
회의실에서	-11.4039
▁슈트	-11.4039
▁부하들	-11.4041
port	-11.4042
대회를	-11.4043
▁출석하고	-11.4047
▁자녀를	-11.4048
▁칼을	-11.4049
▁프랜차이즈	-11.405
링크	-11.4051
▁먹었다	-11.4052
▁모은	-11.4053
푼	-11.4053
▁상황이었다	-11.4053
▁계통	-11.4053
▁영어로	-11.4055
▁언급되	-11.4055
수급	-11.4058
▁안정성	-11.4058
▁교차로	-11.4058
▁당첨	-11.4059
▁함부로	-11.406
▁시절부터	-11.406
▁받았습니다	-11.4062
▁날씨를	-11.4062
▁Br	-11.4062
▁당할	-11.4063
▁수료	-11.4063
▁대수	-11.4063
▁지시한	-11.4066
▁사원	-11.4068
▁유족들	-11.4068
회말	-11.4068
▁참배	-11.4072
▁3.5	-11.4073
▁발전소	-11.4074
▁김해시	-11.4076
▁노린	-11.4076
▁메모	-11.4077
능력이	-11.4081
▁다카	-11.4081
▁챕터	-11.4082
▁개신교	-11.4082
▁어렵고	-11.4082
.04	-11.4083
▁미투	-11.4085
▁인쇄	-11.4086
조각	-11.4087
가능한	-11.4087
▁오로지	-11.4088
▁날리는	-11.4088
▁최우수	-11.4089
▁무서워	-11.409
IM	-11.4091
▁나타났습니다	-11.4091
▁금고	-11.4091
▁기자들	-11.4091
콘서트	-11.4093
츠카	-11.4094
▁속한	-11.4095
▁(3	-11.4095
▁데드	-11.4096
▁자백	-11.4098
즌	-11.4099
▁집회에	-11.4099
▁팬들에게	-11.41
▁성질	-11.41
▁더빙	-11.4103
▁배후	-11.4103
▁선조	-11.4104
▁인스타그램	-11.4105
▁다이아몬드	-11.4106
▁유학생	-11.4106
▁한층	-11.4107
▁없었기	-11.4111
116	-11.4112
헌법	-11.4113
사례	-11.4113
▁방문객	-11.4113
▁말레이시아	-11.4113
▁운전기사	-11.4117
▁후계자	-11.4117
▁독자들	-11.4118
▁가이드	-11.4119
▁노리고	-11.4119
진료	-11.4119
▁가능해	-11.4119
St	-11.412
퉁	-11.4121
▁조롱	-11.4121
▁언급했다	-11.4122
▁올라와	-11.4122
▁전까지는	-11.4122
▁대통령에	-11.4124
▁먹기	-11.4124
뜻	-11.4124
▁딜링	-11.4127
셔서	-11.4127
▁헝가리	-11.4129
는걸	-11.413
채널	-11.413
▁크레인	-11.413
▁실려	-11.4131
OT	-11.4133
.24	-11.4139
▁마스크를	-11.4139
지요	-11.4141
매치	-11.4141
▁지원이	-11.4142
레이터	-11.4143
▁동계	-11.4143
오의	-11.4144
씨로부터	-11.4145
金	-11.4145
▁되려	-11.4146
면적	-11.4147
▁기점	-11.4147
▁원조	-11.4149
▁의류	-11.415
▁움	-11.4152
~8	-11.4152
▁경향신문	-11.4153
▁CC	-11.4154
슈퍼	-11.4154
판의	-11.4157
▁이하로	-11.4158
▁머신	-11.4159
BO	-11.4159
실험	-11.416
▁찾아볼	-11.416
부상	-11.4161
▁테이블	-11.4162
층이	-11.4162
▁마트	-11.4163
▁검정	-11.4163
위안부	-11.4166
▁내기	-11.4168
▁것이기	-11.4169
풋	-11.417
▁부속	-11.417
▁유저들은	-11.417
▁공적	-11.4172
▁삽	-11.4172
▁받았던	-11.4173
NE	-11.4173
▁박탈	-11.4173
▁선로	-11.4176
라고도	-11.4176
▁백남기	-11.4178
▁이뤄지	-11.4178
▁체육관	-11.4179
▁때문입니다	-11.4181
▁달리는	-11.4182
▁가진다	-11.4183
▁대국민	-11.4183
IL	-11.4183
▁부상자	-11.4185
펑	-11.4186
▁기르	-11.4186
▁보이는데	-11.4187
▁강아지	-11.4187
▁드레	-11.4189
▁TF	-11.419
함대	-11.4192
▁니코	-11.4193
▁결정적인	-11.4193
▁대변인	-11.4193
강남	-11.4194
♧	-11.4194
▁경매	-11.4194
암동	-11.4195
사이드	-11.4196
▁등지에서	-11.4196
▁절단	-11.4196
.23	-11.4197
여건	-11.4197
▁인정된다	-11.4198
떨	-11.4198
▁막상	-11.4198
▁방식이다	-11.42
▁하우스	-11.42
▁여파로	-11.4201
쿄	-11.4202
▁모델이	-11.4203
▁아픔	-11.4203
▁가나	-11.4203
▁예정인	-11.4204
▁수준에	-11.4204
▁주범	-11.4205
륨	-11.4207
▁삼각	-11.4212
해달라는	-11.4213
ob	-11.4214
▁크림	-11.4214
OW	-11.4215
▁게임에	-11.4218
▁가루	-11.4219
차관	-11.4221
▁항목을	-11.4223
▁낚	-11.4223
▁폭행을	-11.4223
▁기점으로	-11.4224
TF	-11.4225
▁부르며	-11.4225
▁부르고	-11.4225
했는데요	-11.4226
▁상징하는	-11.4226
시켜서	-11.4227
▁컬	-11.4227
영역	-11.4229
남북	-11.423
▁통산	-11.423
▁외의	-11.423
▁연타	-11.4231
▁국산	-11.4231
▁줄어	-11.4232
▁아이들의	-11.4233
▁아닙니다	-11.4234
▁편견	-11.4234
▁모친상	-11.4234
sa	-11.4235
▁계획이라고	-11.4237
샘	-11.4238
소재	-11.4238
▁분할	-11.4239
▁재건축	-11.4239
▁나오며	-11.4239
▁드문	-11.424
▁행위는	-11.424
.07	-11.4242
▁행태	-11.4242
▁대접	-11.4242
나리	-11.4243
▁성공적으로	-11.4244
마리가	-11.4246
▁찢어	-11.4246
▁재미있	-11.4246
빔	-11.4247
▁효력	-11.4247
지역에서	-11.4247
▁벨기에	-11.4249
▁포수	-11.425
▁버스를	-11.425
▁국세청	-11.425
더라고요	-11.4251
▁번에	-11.4251
▁누르면	-11.4253
▁운동장	-11.4253
▁아베	-11.4253
쿠스	-11.4255
▁살피	-11.4255
▁미국인	-11.4255
▁볼트	-11.4256
▁경연	-11.4257
▁적발된	-11.4257
바이오	-11.4258
▁수중	-11.4258
▁포즈	-11.4259
▁by	-11.4259
▁천장	-11.426
곽	-11.4261
.21	-11.4262
▁이벤트가	-11.4263
ko	-11.4263
▁순찰	-11.4266
▁캘리포니아	-11.4266
쿵	-11.4266
▁종업원	-11.4267
▁호환	-11.4267
ug	-11.4267
▁정답	-11.4268
UR	-11.427
▁노동조합	-11.4271
▁만세	-11.4272
▁ma	-11.4272
▁넥슨	-11.4275
▁이후의	-11.4275
▁엄정	-11.4277
▁석탄	-11.4277
▁세계적으로	-11.4277
▁대상에	-11.4277
개교	-11.4278
▁신용카드	-11.4278
▁불복	-11.4278
▁발족	-11.4279
ki	-11.428
지하철	-11.428
▁치즈	-11.4281
▁왕의	-11.4281
▁매월	-11.4282
드린	-11.4282
슐	-11.4283
▁일람	-11.4283
▁블러드	-11.4283
▁문체부	-11.4283
▁이번이	-11.4283
행성	-11.4285
▁폭발물	-11.4286
▁인사말을	-11.4287
▁하루카	-11.4288
way	-11.4288
▁호소했다	-11.429
▁적폐	-11.429
▁편의를	-11.4291
7.5	-11.4292
▁주최로	-11.4292
▁자르	-11.4294
▁1978	-11.4294
▁전략을	-11.4296
땐	-11.4296
▁루머	-11.4298
▁분기	-11.4299
▁잠복	-11.4299
▁수질	-11.4299
▁사냥꾼	-11.43
▁격추	-11.4301
티나	-11.4301
▁자치단체	-11.4301
▁중대한	-11.4301
공급	-11.4302
▁하계	-11.4302
드림	-11.4302
▁도약	-11.4303
▁평화의	-11.4304
▁하늘을	-11.4304
▁들지	-11.4305
달라는	-11.4307
▁쫓겨	-11.4307
▁스프링	-11.4307
▁재판이	-11.4307
UM	-11.4309
▁이루고	-11.431
sp	-11.4311
방문	-11.4311
▁버프를	-11.4315
▁돈으로	-11.4315
▁현실을	-11.4316
▁막판	-11.4317
▁내용과	-11.4319
▁지역주민	-11.4321
▁무혐의	-11.4321
▁킨	-11.4321
▁상기	-11.4321
▁세력이	-11.4322
▁작품은	-11.4323
▁“(	-11.4323
▁그럭저럭	-11.4323
▁비례	-11.4324
▁할머니가	-11.4325
개씩	-11.4326
오전	-11.4326
▁떨어졌	-11.4331
▁칼날	-11.4331
▁학생을	-11.4331
선택	-11.4333
▁보라	-11.4333
▁스팀	-11.4333
(2013	-11.4334
▁바라보	-11.4334
▁산정	-11.4337
if	-11.4338
냈습니다	-11.4339
▁시작했고	-11.4339
뜰	-11.434
▁출퇴근	-11.434
▁어딘가	-11.434
▁승마	-11.4343
으로만	-11.4343
함께	-11.4345
▁한국은	-11.4345
▁빌라	-11.4347
▁슬픔	-11.4348
사범	-11.4349
포토뉴스	-11.4351
▁발견하고	-11.4351
화물	-11.4352
조에	-11.4353
▁구축함	-11.4353
▁운영에	-11.4354
▁근본	-11.4356
▁반박했다	-11.4358
▁구름이	-11.4358
▁무라	-11.4359
▁모형	-11.4359
▁적었다	-11.4359
▁기용	-11.436
▁발매되었다	-11.4361
쌀	-11.4362
▁생각에	-11.4362
십자	-11.4363
▁올라가는	-11.4363
▁빼돌린	-11.4364
▁시간당	-11.4364
▁롯데그룹	-11.4369
▁줄이고	-11.4369
▁김창	-11.4369
▁폴리	-11.437
문재인	-11.4371
▁아끼	-11.4372
히트	-11.4372
▁평년	-11.4375
아니	-11.4375
▁장면은	-11.4377
▁포함됐다	-11.4377
▁불신	-11.4378
쿼	-11.438
▁유료	-11.4382
▁원이	-11.4382
▁적립	-11.4383
ook	-11.4384
▁준비하는	-11.4385
▁댄	-11.4385
▁소집	-11.4385
▁올해부터	-11.4386
봅니다	-11.4389
레이트	-11.4389
ence	-11.4391
▁외전	-11.4391
▁화재로	-11.4391
▁어렸을	-11.4392
▁참여연대	-11.4394
장치를	-11.4394
▁주어지	-11.4395
사관학교	-11.4396
▁연락이	-11.4396
▁확인됐습니다	-11.4398
▁강동	-11.4399
▁형량	-11.44
▁지났	-11.44
▁ST	-11.4403
소환	-11.4403
인데다	-11.4405
▁리드	-11.4406
증후군	-11.4407
▁공업	-11.4409
▁않겠다	-11.441
버트	-11.4411
키아	-11.4413
▁지팡이	-11.4414
▁말하기	-11.4414
▁분노를	-11.4415
▁치우	-11.4416
.14	-11.4418
지역의	-11.4418
▁발생하고	-11.4419
교육과	-11.4419
▁소중	-11.442
▁같다고	-11.442
▁교토	-11.442
▁잠을	-11.442
렸을	-11.442
▁보행자	-11.4421
유기	-11.4423
▁60%	-11.4425
무대	-11.4426
▁공격한다	-11.4428
▁구는	-11.4428
▁반응은	-11.4429
▁일각에서는	-11.443
▁가져오	-11.443
▁부상으로	-11.4431
▁공정성	-11.4433
[	-11.4434
▁인지도	-11.4435
▁화천	-11.4436
ps	-11.4436
개정	-11.4436
▁트레일러	-11.4438
▁출발해	-11.4438
▁꼽힌다	-11.4439
▁시골	-11.4439
▁포털	-11.4439
슈타인	-11.444
만으로는	-11.444
로프	-11.444
▁정동	-11.4441
▁구조조정	-11.4442
▁민첩	-11.4442
▁없으나	-11.4443
▁만점	-11.4443
하였지만	-11.4443
lt	-11.4444
우의	-11.4444
봤자	-11.4444
▁언급이	-11.4445
▁예정된	-11.4446
선거관리위원회	-11.4447
FF	-11.4447
감시	-11.4447
2019	-11.4448
민주당	-11.4451
▁바라본	-11.4451
▁Al	-11.4452
▁일삼	-11.4453
▁라운드	-11.4453
그린	-11.4453
▁광산	-11.4454
했어	-11.4454
▁발표된	-11.4455
리움	-11.4456
거지	-11.4456
▁마찰	-11.4459
봉사단	-11.4459
▁술집	-11.4463
▁잔인	-11.4464
▁대학에	-11.4465
ial	-11.4467
화력	-11.4468
▁올스타	-11.4468
▁탐사	-11.4468
▁승률	-11.4472
▁미키	-11.4472
사정	-11.4473
스토리	-11.4473
▁비유	-11.4474
▁받기도	-11.4474
▁퇴장	-11.4475
▁정씨는	-11.4475
▁론	-11.4476
▁심각하게	-11.4476
소방본부	-11.4477
▁주면	-11.4477
▁방송국	-11.4478
카미	-11.4478
뱃	-11.4479
▁두려움	-11.448
▁태권도	-11.448
▁훔치	-11.448
▁넘겼다	-11.448
요리	-11.4481
▁지문	-11.4482
외국인	-11.4482
▁제안했다	-11.4487
▁떨어지고	-11.4487
클리	-11.4488
▁노사정	-11.449
▁시점에	-11.449
ink	-11.4491
레인저	-11.4492
▁짐작	-11.4493
▁신형	-11.4493
IST	-11.4495
일차	-11.4496
▁반려동물	-11.4496
▁1975	-11.4496
▁수익을	-11.4497
▁지적도	-11.4502
▁보호자	-11.4502
.06	-11.4504
▁더군다나	-11.4505
▁덩치	-11.4505
▁조연	-11.4505
▁활짝	-11.4506
▁무엇인지	-11.4506
▁ch	-11.4507
GA	-11.4509
▁여객선	-11.451
▁사서	-11.4511
▁원작에서	-11.4513
北	-11.4513
▁어려움이	-11.4513
▁불편한	-11.4514
▁학생의	-11.4515
▁예매	-11.4517
농가	-11.4517
og	-11.4517
▁기대하고	-11.4519
▁구속됐다	-11.452
▁인상을	-11.452
▁드래프트	-11.4521
▁팔을	-11.4524
▁부유	-11.4524
▁단정	-11.4524
▁파생	-11.4524
ory	-11.4525
▁줬	-11.4526
들었다	-11.4527
▁데몬	-11.4528
마크	-11.4528
▁터진	-11.4528
▁나왔는데	-11.4529
▁지시했다	-11.4529
▁일고	-11.4529
▁여기저기	-11.453
▁완결	-11.453
▁셋째	-11.453
▁재활	-11.4531
▁줄이는	-11.4532
▁잔혹	-11.4532
▁차에	-11.4532
▁싸웠	-11.4536
차별	-11.4537
랫	-11.4541
▁공세	-11.4541
구조대	-11.4543
▁야구장	-11.4544
▁않았는데	-11.4545
▁악수	-11.4545
▁국립과학수사연구원	-11.4546
▁마드리드	-11.4546
▁동계올림픽	-11.4546
▁유전	-11.4546
▁치솟	-11.4547
▁출시된	-11.4549
▁전력이	-11.4549
▁기소했다	-11.4551
GM	-11.4551
▁선고했다고	-11.4551
▁노조는	-11.4552
▁모습이다	-11.4552
▁불렀	-11.4553
백화점	-11.4554
▁0.1	-11.4554
▁애매한	-11.4556
▁재미있는	-11.4556
▁출소	-11.4557
경향	-11.4557
네가	-11.4558
▁낙하	-11.4559
▁두루	-11.4559
▁가던	-11.4559
▁독일군	-11.456
▁유죄로	-11.456
탱크	-11.4561
▁실태조사	-11.4561
▁토벌	-11.4561
▁보시	-11.4562
▁구청장	-11.4564
피안타	-11.4564
▁어째	-11.4567
▁시장의	-11.4567
▁살아있	-11.4568
▁인원이	-11.4568
▁쓰인	-11.4569
▁답변을	-11.4569
pr	-11.4569
소장	-11.457
박쥐	-11.4571
*	-11.4571
인터넷	-11.4571
▁공허	-11.4572
▁듣는다	-11.4574
일지도	-11.4575
▁꽉	-11.4575
▁앓고	-11.4576
▁워터	-11.4576
▁우라	-11.4577
▁깎아	-11.4577
▁리가	-11.4578
ary	-11.4579
▁신속하게	-11.4579
▁작아	-11.4581
▁치명적인	-11.4581
▁그해	-11.4582
▁주거지	-11.4582
▁비위	-11.4584
▁왕위	-11.4585
▁방학	-11.4585
▁무대에	-11.4586
▁나간다	-11.4586
바퀴	-11.4587
았으나	-11.4588
▁땀	-11.4588
▁상대에게	-11.459
∼5	-11.459
▁제안을	-11.459
▁발길	-11.4591
▁적발됐다	-11.4591
▁출연해	-11.4591
▁이럴	-11.4591
▁일본은	-11.4592
▁들어서는	-11.4593
이라고도	-11.4593
▁많아지	-11.4593
▁줄일	-11.4594
▁명으로	-11.4595
닷	-11.4596
▁텔레비전	-11.4596
▁아버지와	-11.4597
▁신세계	-11.46
▁알려지지	-11.4601
▁방송사	-11.4602
▁지니	-11.4603
▁누구도	-11.4605
▁광고를	-11.4606
▁친절	-11.461
▁부위원장	-11.4613
했기에	-11.4613
▁포르	-11.4614
▁IP	-11.4615
▁살아있는	-11.4615
▁칩	-11.4617
▁War	-11.4618
▁사실관계	-11.4618
▁구슬	-11.462
▁복사	-11.462
▁파동	-11.462
▁헤럴드경제	-11.4622
▁경부고속도로	-11.4622
쿠마	-11.4622
▁홈런을	-11.4622
▁방침입니다	-11.4623
5.0	-11.4623
▁깨끗	-11.4623
▁벽에	-11.4624
▁사업으로	-11.4627
▁원자	-11.4627
비율	-11.4628
▁벌어지는	-11.463
▁지원해	-11.4631
▁영등포	-11.4631
질서	-11.4632
▁일일	-11.4635
출산	-11.4637
▁개최된	-11.4638
▁출판사	-11.4639
▁빼면	-11.4639
히코	-11.4641
▁폭격	-11.4643
▁일으키는	-11.4643
▁go	-11.4645
▁기장군	-11.4645
▁동남	-11.4645
▁부인했다	-11.4646
▁부재	-11.4646
▁자유를	-11.4646
▁않는다면	-11.4647
▁젤	-11.4647
수능	-11.4647
텐데	-11.4648
▁실명	-11.4649
수용	-11.465
▁장소를	-11.465
사유	-11.465
▁사도	-11.4651
▁맞을	-11.4651
▁깨지	-11.4651
▁집합	-11.4651
▁정부서울청사	-11.4652
▁주무	-11.4653
▁기록하고	-11.4654
파티	-11.4655
▁전산	-11.4655
▁곡은	-11.4655
▁행정구역	-11.4659
▁관광객이	-11.4659
▁경기력	-11.4661
그런	-11.4661
▁현상을	-11.4662
▁참모	-11.4662
▁조화	-11.4663
▁불만이	-11.4663
▁챌린지	-11.4664
▁가맹점	-11.4664
rd	-11.4666
▁0.0	-11.4667
▁성수	-11.4669
han	-11.4669
(2012	-11.4669
▁오기	-11.467
▁증가하는	-11.4671
▁춤을	-11.4672
뼈	-11.4673
▁퇴출	-11.4673
▁챔피언십	-11.4673
유리	-11.4674
경희	-11.4675
▁후보는	-11.4676
▁싶다는	-11.4679
▁카드는	-11.468
덩어리	-11.4681
▁충청남도	-11.4681
▁헨리	-11.4681
▁철도역	-11.4681
▁이라크	-11.4683
죄로	-11.4684
4.0	-11.4685
▁쉴	-11.4685
대출	-11.4686
끄	-11.4686
정보를	-11.4686
최고	-11.4686
▁따지면	-11.4688
▁3.1	-11.4688
▁치면	-11.4689
TP	-11.4689
코치	-11.469
▁위력을	-11.4695
▁어쩌면	-11.4697
▁커서	-11.4697
▁가까	-11.4698
ke	-11.4699
▁리본	-11.4699
▁전원이	-11.4699
연패	-11.47
▁탐색	-11.4702
정화	-11.4704
개월에	-11.4705
ung	-11.4706
▁배트맨	-11.4706
▁전반에	-11.4707
▁거리에	-11.4707
돔	-11.4707
▁나츠	-11.4708
▁서초동	-11.4709
▁포스트	-11.4709
▁부산진구	-11.4711
레드	-11.4712
▁이후부터	-11.4713
▁정부에서	-11.4714
▁신속	-11.4714
▁소독	-11.4715
빗	-11.4715
▁비틀	-11.4716
설비	-11.4717
▁펫	-11.4718
▁Vi	-11.4718
▁생각합니다	-11.472
비의	-11.4721
▁문제다	-11.4721
미투	-11.4721
▁집어넣	-11.4723
되므로	-11.4725
▁마법소녀	-11.4725
▁소방대원	-11.4727
▁만들어낸	-11.4727
▁법칙	-11.4728
사용자	-11.4729
찮	-11.473
▁모듈	-11.4732
▁다가가	-11.4733
▁천하	-11.4733
▁사단	-11.4733
▁과거에는	-11.4734
▁나타내는	-11.4734
▁담배를	-11.4735
기부	-11.4736
▁확인하는	-11.4738
▁성적이	-11.4739
파리	-11.4739
▁조계사	-11.4741
▁숨을	-11.4742
▁LV	-11.4742
▁마을버스	-11.4743
▁끝난다	-11.4743
biz	-11.4744
▁신지	-11.4744
▁주택가	-11.4744
▁역할이	-11.4745
▁득	-11.4747
윤리	-11.4747
▁모노	-11.4747
▁학부	-11.4748
▁다투	-11.4748
▁무소속	-11.4749
▁흐르는	-11.4749
▁엑스트라	-11.4749
▁검찰과	-11.4753
겟	-11.4754
▁치열한	-11.4754
▁마포	-11.4756
朴	-11.4757
▁명예를	-11.4757
▁웬만한	-11.4757
az	-11.4758
▁대형마트	-11.4758
▁소방차	-11.476
▁잃었다	-11.4761
▁작화	-11.4762
▁??	-11.4763
eg	-11.4764
▁최영	-11.4765
▁만인	-11.4765
▁교통안전	-11.4765
▁따온	-11.4766
▁변호인은	-11.4767
▁유용한	-11.4767
▁모습과	-11.4768
_1	-11.4768
▁직위	-11.4768
▁삼성동	-11.4769
▁확보해	-11.4769
▁인력을	-11.477
▁부각	-11.477
▁남매	-11.4772
▁명은	-11.4772
▁법무법인	-11.4774
권자	-11.4775
▁싹	-11.4776
▁존재가	-11.4776
∼4	-11.4779
▁불과했다	-11.478
▁총력	-11.4781
7000	-11.4781
▁학생부	-11.4781
▁여부에	-11.4783
▁중부지방	-11.4784
▁전년	-11.4784
▁자원봉사자	-11.4785
▁확인되지	-11.4785
▁선보였다	-11.4785
시경	-11.4786
▁생각은	-11.4788
동네	-11.4788
▁유감	-11.4789
▁선정했다	-11.4789
sk	-11.4789
치사	-11.479
▁바른미래당	-11.4791
▁폭파	-11.4795
▁나흘	-11.4796
▁하도록	-11.4796
▁방안도	-11.4796
ron	-11.4797
배치	-11.4798
SI	-11.4799
▁후원금	-11.4799
▁멤버들이	-11.4803
▁옆에서	-11.4804
▁상성	-11.4807
▁걸그룹	-11.4807
▁선택을	-11.4807
▁취하고	-11.4808
▁탄환	-11.4808
▁웃는	-11.4809
▁구속하고	-11.4809
▁화려	-11.481
▁SH	-11.481
▁광범위	-11.481
▁게시판에	-11.4811
▁교사가	-11.4814
▁인정하는	-11.4816
▁부산지역	-11.4819
았는데	-11.482
▁관악구	-11.482
▁차려	-11.482
▁강화하는	-11.482
▁엔터테인먼트	-11.4821
▁수치가	-11.4822
▁본명	-11.4823
천사	-11.4823
▁해변	-11.4825
wikireport	-11.4825
▁바라보는	-11.4826
▁에어컨	-11.4827
▁분해	-11.4827
▁협력을	-11.4827
▁바다에	-11.4827
뜨린	-11.4828
페이스	-11.4829
▁저감	-11.4829
▁UEFA	-11.4834
▁크루즈	-11.4835
해야한다	-11.4835
▁투자자	-11.4837
운동을	-11.4839
-3	-11.4839
▁미즈	-11.484
▁신속한	-11.484
▁연맹	-11.484
▁겹	-11.4842
챈	-11.4842
광장에서	-11.4843
▁가리키는	-11.4843
▁무기징역	-11.4843
▁여인	-11.4844
▁조직원	-11.4846
▁타겟	-11.4846
▁생전	-11.4846
지난해	-11.4846
▁노부	-11.4847
▁살기	-11.4848
▁무작위	-11.4851
si	-11.4854
▁실패한	-11.4854
▁초기에	-11.4854
▁성북구	-11.4854
▁무리가	-11.4855
▁권력을	-11.4856
▁서해안	-11.4856
▁파기	-11.4856
▁안다	-11.4857
ans	-11.4858
▁멀어	-11.4858
▁있듯이	-11.4858
▁행동이	-11.4859
▁필요성을	-11.4859
냄	-11.486
▁힐링	-11.4863
▁노리는	-11.4866
▁대사관	-11.4866
▁잡힌	-11.4866
하곤	-11.4868
▁기쁨	-11.4869
KR	-11.4871
▁함수	-11.4871
비전	-11.4872
회초	-11.4874
▁주인이	-11.4877
▁달걀	-11.4877
쿼터	-11.4878
▁염려	-11.4878
▁구체적	-11.4878
▁규모는	-11.4879
▁CG	-11.4879
▁전설의	-11.488
▁토크	-11.4882
긍	-11.4886
▁가중	-11.4886
▁1972	-11.4888
▁펀치	-11.489
▁파편	-11.489
하려던	-11.4891
▁성사	-11.4892
▁홍천	-11.4892
▁무기는	-11.4893
▁1.2	-11.4893
▁형법	-11.4894
▁침투	-11.4894
▁나란히	-11.4894
앱	-11.4897
라이더	-11.4897
▁소주	-11.4898
▁거창	-11.4899
▁카와	-11.4899
▁무기가	-11.4899
▁위치하고	-11.49
▁장애물	-11.4901
▁오늘도	-11.4902
▁불에	-11.4902
▁아이의	-11.4903
▁도적	-11.4903
▁견디	-11.4903
▁기자간담회	-11.4904
▁크리스탈	-11.4905
▁중력	-11.4908
▁아내가	-11.4908
▁백인	-11.4909
▁얻는다	-11.4909
급히	-11.4909
▁의견으로	-11.491
▁언급된	-11.491
스마트	-11.491
▁걷어	-11.4911
▁위주의	-11.4911
▁짓고	-11.4912
▁탕	-11.4912
형제	-11.4912
▁임팩트	-11.4913
▁○	-11.4916
촬영	-11.4917
▁시장에	-11.4918
설명회	-11.4919
▁쌓인	-11.492
▁가리킨다	-11.492
포트	-11.4921
▁와일드	-11.4921
▁동국대	-11.4922
스테이지	-11.4924
▁와인	-11.4924
▁승차	-11.4925
들과의	-11.4925
▁정책에	-11.4925
▁피가	-11.4926
연속	-11.4926
하여야	-11.4928
훈련을	-11.4928
▁도대체	-11.4929
청와대	-11.4929
▁●	-11.493
▁여럿	-11.4931
▁가족들이	-11.4931
▁참가했다	-11.4932
▁했는지	-11.4935
타니	-11.4936
▁순직	-11.4937
▁잎	-11.4937
▁힐러	-11.4937
▁보드	-11.4937
▁냉장고	-11.4938
▁만들어서	-11.4938
윙	-11.4938
▁의원을	-11.4938
▁클랜	-11.4939
▁염두	-11.4942
▁북측	-11.4943
▁직접적으로	-11.4944
▁의미하는	-11.4944
▁원룸	-11.4948
▁죄를	-11.4948
소드	-11.4951
▁조회	-11.4952
▁익스	-11.4952
~)	-11.4953
▁사료	-11.4954
▁말씀을	-11.4954
뤼	-11.4955
▁게임은	-11.4955
▁최대의	-11.4956
▁만주	-11.4956
군단	-11.4957
▁액수	-11.4957
▁카드로	-11.4957
▁글로	-11.4958
▁네티즌들은	-11.4958
▁페이스	-11.4959
억원에	-11.496
외교	-11.4961
▁끼고	-11.4961
▁질투	-11.4962
▁360	-11.4962
▁쓰게	-11.4963
▁원대	-11.4964
▁방식의	-11.4964
노총	-11.4965
▁다름	-11.4967
II	-11.4969
▁반동	-11.4969
▁해골	-11.497
▁들어가서	-11.497
▁대박	-11.4971
수리	-11.4971
▁Cl	-11.4972
▁선수는	-11.4973
▁등극	-11.4975
동생	-11.4976
▁김모씨	-11.4976
▁KB	-11.4976
▁책정	-11.4979
▁차량의	-11.4979
▁상장	-11.498
▁대법	-11.498
사업자	-11.4981
▁어린이들	-11.4981
▁선택지	-11.4982
▁일체	-11.4983
엉	-11.4985
ms	-11.4985
▁영어판	-11.4985
▁정도이다	-11.4986
쳤고	-11.4986
iss	-11.4988
▁보호를	-11.4989
▁성당	-11.499
높	-11.4991
▁별명이	-11.4992
▁끝났	-11.4992
▁선거운동	-11.4992
ys	-11.4993
IG	-11.4993
▁리스	-11.4994
▁디스크	-11.4994
개발원	-11.4994
▁밭	-11.4995
냐면	-11.4996
▁학생과	-11.4996
▁내걸	-11.4998
▁기믹	-11.4998
▁주가	-11.4999
▁행방	-11.5
▁1976	-11.5001
▁경성	-11.5002
▁끊이지	-11.5003
▁농도는	-11.5006
▁CF	-11.5006
▁모르게	-11.5006
▁협력업체	-11.5006
▁코르	-11.5007
▁나왔던	-11.5007
▁원활	-11.5008
▁합의를	-11.5008
▁놓여	-11.5009
세와	-11.501
대사관	-11.501
밸리	-11.5011
▁처우	-11.5013
ile	-11.5015
충남	-11.5018
▁지대	-11.5018
아직	-11.5019
▁부산대	-11.5019
▁운세	-11.5021
▁악성	-11.5021
▁비추	-11.5022
▁Mar	-11.5022
▁북상	-11.5023
▁휩쓸	-11.5025
▁성균관대	-11.5025
창원	-11.5025
▁형이	-11.5026
▁적합한	-11.5026
▁화성시	-11.5027
▁친한	-11.5029
▁강원랜드	-11.5029
▁만화가	-11.503
▁Ar	-11.503
▁선고받은	-11.5031
▁제트	-11.5031
보트	-11.5031
▁자체적으로	-11.5032
ction	-11.5033
▁이순신	-11.5034
▁코토	-11.5034
▁참여한다	-11.5034
▁경과	-11.5035
법률	-11.5035
삼거리	-11.5037
▁언론사	-11.5037
▁뛰어들	-11.5038
▁괜찮다	-11.5038
▁초등	-11.504
▁덧붙여	-11.504
▁높아지고	-11.5041
▁평창동계올림픽	-11.5042
▁꾸며	-11.5043
▁나오기도	-11.5043
▁박종	-11.5043
▁착한	-11.5044
▁중세	-11.5044
▁반경	-11.5045
▁자원봉사	-11.5047
▁전력을	-11.5048
▁라이온즈	-11.5051
▁아키라	-11.5051
▁리버	-11.5051
▁미치지	-11.5052
▁에드	-11.5052
▁시연	-11.5052
HA	-11.5053
▁시민들에게	-11.5056
장터	-11.5056
▁일당이	-11.5057
▁실업	-11.5059
▁압도적으로	-11.5059
▁열악한	-11.506
▁천주교	-11.506
ish	-11.5061
도지사	-11.5062
▁신촌	-11.5063
▁광진구	-11.5065
day	-11.5067
▁herald	-11.5069
▁뒷받침	-11.5069
▁깃발	-11.5069
▁청춘	-11.5069
▁먹지	-11.5069
▁학계	-11.507
▁없으므로	-11.507
▁회색	-11.5071
▁최정	-11.5071
▁눈으로	-11.5071
▁시키	-11.5072
▁중앙일보	-11.5073
▁서산	-11.5073
밸	-11.5073
▁타이거즈	-11.5075
▁놀란	-11.5077
▁욕심	-11.5078
▁광양	-11.5081
▁노란색	-11.5081
▁종사	-11.5082
▁청취	-11.5084
▁Im	-11.5084
▁브라운	-11.5085
플라	-11.5085
▁수사하고	-11.5087
▁막히	-11.5089
▁상공	-11.5089
▁낙선	-11.5091
▁논의를	-11.5092
럿	-11.5093
비상	-11.5095
▁사람들과	-11.5095
▁이원	-11.5096
▁파란색	-11.5098
▁설명하고	-11.5099
▁히데	-11.51
케어	-11.5101
▁공학	-11.5102
▁점검하고	-11.5103
▁마쳤다	-11.5103
▁하남	-11.5103
▁투척	-11.5103
▁확정된	-11.5105
▁기동성	-11.5105
▁환수	-11.5105
▁PV	-11.5108
핏	-11.5109
펫	-11.5109
▁OECD	-11.5109
▁중화	-11.511
▁하급	-11.5111
웨어	-11.5111
▁사라지고	-11.5111
▁바뀌는	-11.5113
▁일화	-11.5113
▁소속팀	-11.5114
▁좋지만	-11.5116
▁마당	-11.5118
스런	-11.5119
▁아레나	-11.512
ens	-11.5122
강제	-11.5123
▁레알	-11.5124
▁성산	-11.5125
▁오고	-11.5126
▁연사	-11.5126
▁소개했다	-11.5127
▁어필	-11.5127
▁이닝	-11.5129
▁강남역	-11.513
▁여는	-11.5131
▁주도한	-11.5131
▁프로야구	-11.5132
뒀다	-11.5133
▁인턴	-11.5134
▁故	-11.5134
▁철원	-11.5137
▁최선	-11.5137
▁사회공헌	-11.5139
▁지지율	-11.5139
TH	-11.5141
학생들	-11.5141
▁생활비	-11.5142
▁기차	-11.5143
▁편하게	-11.5144
▁속이	-11.5145
▁미미	-11.5145
▁아파트에서	-11.5147
▁버튼을	-11.5149
▁회차	-11.5149
▁육박	-11.515
▁실린	-11.515
게시판	-11.5151
▁짧게	-11.5151
태평양	-11.5153
▁착수했다	-11.5154
▁곡명	-11.5155
▁극단적인	-11.5156
ock	-11.5157
▁아쉬움	-11.5157
무리	-11.5158
트랙	-11.5159
페이지	-11.516
즉	-11.5162
▁리뷰	-11.5163
시켜야	-11.5164
▁주주	-11.5165
▁특수한	-11.5165
▁반짝	-11.5165
▁루비	-11.5165
▁홈페이지에서	-11.5166
▁갇혀	-11.5166
담당관	-11.5167
보육	-11.5169
▁US	-11.517
풀이	-11.517
▁끌었다	-11.5172
▁지워	-11.5173
▁가져다	-11.5173
▁결의대회	-11.5173
▁과학기술	-11.5173
▁참여하고	-11.5174
▁견인	-11.5176
▁맡겨	-11.5177
▁동전	-11.5177
▁읽고	-11.5178
있게	-11.5178
▁가죽	-11.5178
젤리	-11.5179
va	-11.5179
▁타마	-11.5179
▁한국당	-11.5179
▁이긴	-11.5181
▁필요성	-11.5182
인방	-11.5183
▁아파	-11.5183
문자	-11.5184
▁오페라	-11.5184
▁베를린	-11.5184
▁출석해	-11.5188
▁하는지	-11.5189
▁자리가	-11.519
▁본진	-11.5192
스탄	-11.5194
합격	-11.5197
▁행정관	-11.5198
▁실점	-11.5199
▁만들어내	-11.52
▁센서	-11.5202
▁시키는	-11.5203
▁주장하며	-11.5205
▁연루된	-11.5206
▁판다	-11.5208
▁OP	-11.5209
▁난사	-11.5209
▁양재	-11.5211
▁어려	-11.5212
▁재산피해	-11.5212
▁천막	-11.5214
되었습니다	-11.5215
▁시장을	-11.5217
▁“‘	-11.5217
李	-11.5219
▁DVD	-11.5219
▁탐험	-11.5219
▁거냐	-11.522
▁포트	-11.522
▁기세	-11.522
▁전투가	-11.5221
동맹	-11.5222
▁꼽았다	-11.5222
▁이번에도	-11.5224
화장실	-11.5227
▁교육부가	-11.5228
밋	-11.5228
▁긴급체포	-11.5228
쯔	-11.5228
▁공조	-11.5229
▁에코	-11.523
▁코난	-11.523
▁되겠다	-11.5232
▁이야기는	-11.5232
농장	-11.5232
▁소아	-11.5236
▁뉴질랜드	-11.5237
▁최우선	-11.5237
▁외치는	-11.5237
▁주장은	-11.5238
▁Li	-11.5239
▁1971	-11.5239
코스트	-11.524
▁이상인	-11.524
▁저도	-11.5241
▁아님	-11.5242
▁연탄	-11.5243
▁0.3	-11.5244
▁웰	-11.5245
▁사각지대	-11.5246
▁???	-11.5246
▁이석	-11.5248
▁125	-11.5249
▁끼치	-11.5249
야말로	-11.525
▁곁에	-11.525
▁근원	-11.525
▁심리로	-11.5251
강사	-11.5251
하느라	-11.5253
▁투자를	-11.5254
학술	-11.5254
▁Try	-11.5254
▁빅데이터	-11.5255
.17	-11.5255
드레	-11.5256
▁적법	-11.5256
▁대학생들	-11.5257
▁일하고	-11.5257
▁김대	-11.526
▁에그	-11.5261
▁곡이다	-11.5261
▁핑크	-11.5261
▁송환	-11.5262
▁유저들의	-11.5263
취소	-11.5263
썸	-11.5264
▁행안부	-11.5264
▁사회가	-11.5264
▁뒤인	-11.5264
▁쉐	-11.5265
▁애매	-11.5265
▁그릇	-11.5267
▁가져온	-11.5268
▁유예	-11.5269
▁8000	-11.5269
▁전투에	-11.527
▁시절에는	-11.5271
tion	-11.5272
▁제독	-11.5272
공정	-11.5274
▁싶다고	-11.5274
▁사임	-11.5274
▁특별검사팀	-11.5274
▁증권	-11.5274
▁상봉	-11.5275
▁용의	-11.5276
▁수사기관	-11.5276
▁흔한	-11.5276
▁시장에서	-11.5276
▁90%	-11.5277
▁감독을	-11.5277
▁학기	-11.5279
▁강좌	-11.528
▁하이퍼	-11.5281
ever	-11.5281
youtube	-11.5282
▁국민청원	-11.5282
▁우세	-11.5283
▁목적을	-11.5283
▁마음대로	-11.5283
▁코멘트	-11.5284
▁노동계	-11.5286
▁알려졌	-11.5286
▁여객	-11.5287
▁올라간다	-11.5287
▁실용	-11.5288
물리	-11.5289
▁경직	-11.5289
▁유이	-11.5289
▁이유도	-11.529
▁데이비드	-11.5291
었으니	-11.5291
▁무궁화	-11.5291
▁앞장서	-11.5291
rt	-11.5291
▁오크	-11.5292
▁작품들	-11.5292
act	-11.5292
▁체계적	-11.5294
▁내전	-11.5294
특위	-11.5295
타르	-11.5296
▁주의보	-11.5298
▁선물을	-11.5303
▁거북	-11.5308
▁돌고래	-11.5309
▁진도	-11.5309
▁판단한	-11.5309
▁1974	-11.5312
역량	-11.5312
▁여성들이	-11.5313
▁감정이	-11.5317
▁뱀파이어	-11.5318
시타	-11.5318
▁커녕	-11.5319
▁잠입	-11.5319
▁플러스	-11.5321
연승	-11.5321
입구	-11.5321
▁가능하게	-11.5321
▁재회	-11.5322
▁경제를	-11.5322
▁수직	-11.5325
▁나오게	-11.5326
▁함유	-11.5326
▁Star	-11.5327
▁나비	-11.5327
▁설정상	-11.5328
▁웨스트	-11.533
▁일정한	-11.533
확률	-11.5331
▁떠나는	-11.5332
▁배울	-11.5332
▁맡았던	-11.5334
▁정신이	-11.5335
솜	-11.5335
▁지키지	-11.5336
▁쓸어	-11.5336
▁역사가	-11.5336
▁나뉜다	-11.5336
긁	-11.5336
판사	-11.5336
▁힘들었	-11.5336
다르	-11.5337
성모병원	-11.5337
▁김명수	-11.5337
▁기울이	-11.534
갑니다	-11.534
▁숨기	-11.534
▁꾀	-11.534
▁주부	-11.5342
▁선수를	-11.5342
천동	-11.5343
▁불리한	-11.5343
▁철저하게	-11.5345
▁극대화	-11.5345
▁상하	-11.5346
▁2021	-11.5346
해보면	-11.5346
▁기업인	-11.5347
▁열차가	-11.5348
▁타이어	-11.5349
▁낙태	-11.535
▁서울광장	-11.5351
▁0.2	-11.5351
▁고스란히	-11.5354
▁서번트	-11.5354
▁부분도	-11.5354
▁로얄	-11.5356
▁드롭	-11.5357
▁한마디	-11.5358
▁칼로	-11.536
▁뺨	-11.536
▁뒤에도	-11.5361
▁큐브	-11.5362
▁빠르다	-11.5362
▁워크숍	-11.5363
▁김기춘	-11.5364
▁파르	-11.5365
▁국민들	-11.5365
▁양보	-11.5366
관리법	-11.5366
▁유착	-11.5369
▁1968	-11.537
▁내각	-11.5371
▁인사들	-11.5371
~3	-11.5372
▁이펙트	-11.5372
▁일행이	-11.5375
▁유지할	-11.5375
▁앵	-11.5375
있었다	-11.5376
▁수록된	-11.5377
겠다며	-11.5378
width	-11.538
▁조사했다	-11.5381
▁완주	-11.5383
▁대리인	-11.5384
▁정발	-11.5384
▁고성군	-11.5384
▁나기	-11.5385
▁이루는	-11.5385
▁의하여	-11.5385
▁Lo	-11.5386
연수원	-11.5386
▁관점에서	-11.5387
▁제목으로	-11.5387
▁공개되었다	-11.5388
까봐	-11.5391
▁운전자가	-11.5391
▁키라	-11.5392
주심	-11.5393
▁본토	-11.5393
▁강북구	-11.5394
▁노래방	-11.5395
▁공안	-11.5397
▁바리	-11.5397
도박	-11.5399
▁작전을	-11.5401
▁발명	-11.5401
▁석사	-11.5403
▁서서	-11.5403
▁알기	-11.5404
▁저택	-11.5404
▁연동	-11.5406
▁쉽	-11.5406
▁생략	-11.5407
▁핀란드	-11.5408
▁압수수색을	-11.5409
▁1·2	-11.541
▁이념	-11.5411
▁행렬	-11.5412
.30	-11.5414
▁유지하는	-11.5415
▁관료	-11.5417
▁사측	-11.5417
▁편이지만	-11.5417
▁YouTube	-11.5417
▁첼시	-11.5418
교육지원청	-11.5418
▁일어난다	-11.5418
▁결투	-11.5421
▁베이비	-11.5421
▁진에어	-11.5422
조치를	-11.5424
▁싸움이	-11.5424
▁배역	-11.5425
▁페널티	-11.5427
졌다고	-11.5427
▁전해졌습니다	-11.5427
▁마루	-11.5427
경기도	-11.5429
▁자립	-11.543
▁평을	-11.543
▁키가	-11.543
려다	-11.5431
▁느낀다	-11.5431
▁도시락	-11.5434
▁액체	-11.5434
°	-11.5436
▁작가는	-11.5436
▁단체는	-11.5437
▁여겨	-11.5439
.26	-11.544
▁귀엽	-11.544
▁맺었다	-11.544
깔	-11.5443
▁전라북도	-11.5445
▁앨	-11.5445
▁할머니는	-11.5446
▁고집	-11.5447
▁생애	-11.5447
▁곤충	-11.5448
▁글씨	-11.5448
DD	-11.5449
▁슛	-11.545
▁튜	-11.545
▁넓어	-11.545
▁공격으로	-11.5451
▁독립운동	-11.5454
▁흔적이	-11.5458
▁담보	-11.5459
▁제한이	-11.5459
▁단계에서	-11.546
▁했기	-11.546
▁error	-11.5463
▁팬텀	-11.5464
▁너의	-11.5465
마사	-11.5465
▁명확히	-11.5466
▁전제	-11.5466
▁대령	-11.5466
▁공사가	-11.5466
▁멀쩡	-11.5467
▁연결된	-11.5467
▁생명체	-11.5467
▁모터	-11.5469
세상	-11.547
▁렉	-11.5471
▁근처에서	-11.5472
▁작업에	-11.5472
▁손쉽게	-11.5472
▁액티브	-11.5473
▁배포금지	-11.5473
▁스위치	-11.5475
mon	-11.5476
▁흐름을	-11.5477
▁인제	-11.5479
▁포함돼	-11.548
카메라	-11.5481
▁토너먼트	-11.5481
▁뱃	-11.5482
▁베타	-11.5482
▁GO	-11.5483
▁도시로	-11.5483
▁준수한	-11.5484
상황실	-11.5484
▁속출	-11.5484
▁디바	-11.5485
장군	-11.5485
▁문제도	-11.5485
▁아시아경제	-11.5485
▁보여주기	-11.5485
오버	-11.5485
▁대변	-11.5486
왔지만	-11.5488
▁천천히	-11.5491
▁협정	-11.5491
▁나들이	-11.5492
데미지	-11.5493
현실	-11.5493
▁악몽	-11.5494
▁불쾌	-11.5496
▁박용	-11.5497
▁루나	-11.5497
▁Di	-11.5498
▁스파	-11.5501
?	-11.5501
▁인간을	-11.5501
▁공채	-11.5502
▁미쿠	-11.5502
IR	-11.5502
▁주민등록	-11.5502
▁후술	-11.5502
▁모순	-11.5503
▁이상하게	-11.5504
▁단종	-11.5507
▁아쿠아	-11.5509
▁장소에서	-11.5509
▁근로시간	-11.551
▁카스	-11.551
▁남아있다	-11.551
▁일일이	-11.5511
RC	-11.5512
▁레일	-11.5512
▁대회에	-11.5514
곳으로	-11.5514
파워	-11.5514
▁미끄러	-11.5514
▁연계해	-11.5515
▁실패했다	-11.5516
재생	-11.5517
▁되니	-11.5518
▁열람	-11.5518
▁중이라고	-11.5519
▁개원	-11.5521
▁밝히는	-11.5522
봐도	-11.5522
▁설명은	-11.5522
▁시기가	-11.5523
▁법정에	-11.5523
▁녹화	-11.5524
▁피난	-11.5526
▁동성	-11.5526
AE	-11.5526
▁'2016	-11.5526
▁동향	-11.5527
▁==========	-11.5528
▁대도시	-11.5533
▁라인전	-11.5535
▁졸업식	-11.5535
▁자격을	-11.5536
▁산업통상자원부	-11.5536
▁뭐가	-11.5537
▁고기압	-11.5538
▁압축	-11.5538
▁촌	-11.5539
▁태우고	-11.5539
할만한	-11.5539
▁의원과	-11.554
▁빨간색	-11.5541
▁문단	-11.5544
▁국가들	-11.5544
▁쏘는	-11.5545
관리공단	-11.5545
▁행자부	-11.5546
▁수비력	-11.5547
▁필요없	-11.5549
검사를	-11.5549
▁넘은	-11.555
▁감사를	-11.5553
경기장	-11.5558
be	-11.5558
페르	-11.5558
▁복도	-11.5562
트리스	-11.5564
▁마리가	-11.5565
▁조율	-11.5567
▁나쁘	-11.5569
▁유용	-11.557
▁노르웨이	-11.5573
▁DF	-11.5573
▁흡입	-11.5573
▁뽀	-11.5574
▁극단	-11.5574
위생	-11.5577
▁호흡기	-11.5578
▁최모	-11.5581
▁단어를	-11.5582
▁직원을	-11.5583
▁걷기	-11.5583
▁소감	-11.5584
▁사이에서는	-11.5585
▁말아	-11.5585
▁주인공인	-11.5586
▁증거인멸	-11.5588
▁에르	-11.5588
▁관리가	-11.5589
숍	-11.5592
▁펼쳐진다	-11.5595
▁공산당	-11.5596
▁국외	-11.5596
▁야수	-11.5597
▁익명	-11.5597
▁극도	-11.56
▁입문	-11.5601
▁video	-11.5601
▁보고서를	-11.5602
랙	-11.5602
▁오산	-11.5602
▁예산이	-11.5605
▁공무원들	-11.5606
▁안정적으로	-11.5606
▁휘하	-11.5608
▁나뉘	-11.5608
▁폐사	-11.5608
▁계속되는	-11.561
right	-11.561
카라	-11.561
▁냉동	-11.561
▁트롤	-11.5611
▁첩보	-11.5611
▁업로드	-11.5611
mg	-11.5612
▁나타날	-11.5612
▁맺은	-11.5613
▁인정할	-11.5614
▁움직임을	-11.5614
▁여름철	-11.5615
▁내의	-11.5615
▁220	-11.5615
▁맡는다	-11.5615
▁만나고	-11.5615
▁돌아갈	-11.5615
▁공통점	-11.5615
대책본부	-11.5617
http	-11.5617
▁세금을	-11.5618
▁위해선	-11.5621
▁라이플	-11.5623
있지	-11.5625
2.1	-11.5625
▁배송	-11.5625
▁먹거리	-11.5627
엔딩	-11.5628
스팅	-11.5629
▁정직	-11.5631
▁방사능	-11.5631
▁고조	-11.5635
Ch	-11.5636
▁적혀있	-11.5638
▁너는	-11.5639
▁역사교과서	-11.5639
▁1977	-11.5642
▁스탠드	-11.5644
▁결정이	-11.5645
▁고치	-11.5646
▁극중	-11.5646
▁조세	-11.5646
▁캔슬	-11.5647
▁넣을	-11.5647
▁벌인다	-11.5649
▁상표	-11.5649
▁따르는	-11.5649
▁볼넷	-11.5649
▁길거리	-11.565
▁진료를	-11.5651
▁반영한	-11.5652
▁확대하고	-11.5652
▁않거나	-11.5653
▁이동하는	-11.5654
▁공정위	-11.5654
▁가라	-11.5656
▁JavaScript	-11.5657
▁드라이버	-11.5657
▁단백질	-11.5657
▁멜로디	-11.5657
▁좋아서	-11.5658
▁트리플	-11.5658
▁주의가	-11.5659
▁보도자료	-11.5659
▁적들	-11.5659
▁재수	-11.5665
▁정무	-11.5665
▁240	-11.5666
▁중동호흡기증후군	-11.5667
위원회에서	-11.5668
▁그렇듯	-11.5669
1.5	-11.5669
▁外	-11.567
게이트	-11.567
▁차례로	-11.5672
스토어	-11.5672
대상자	-11.5672
▁순이었다	-11.5674
샬	-11.5676
액션	-11.5676
▁이산가족	-11.5676
▁원천	-11.5677
여명을	-11.5677
▁총수	-11.5677
▁공무원이	-11.568
▁발견해	-11.568
▁2500	-11.5684
베스	-11.5684
▁일제강점기	-11.5685
▁친구들과	-11.5685
▁주장한다	-11.5685
테러	-11.5686
▁최하위	-11.5686
▁시카고	-11.5686
▁직속	-11.5688
▁축적	-11.5688
중단	-11.5691
▁루카	-11.5692
▁들어왔다	-11.5692
▁설치되어	-11.5693
RT	-11.5694
▁보상을	-11.5694
컴퍼니	-11.5694
ax	-11.5694
워서	-11.5695
닭	-11.5695
감염	-11.5695
▁부모의	-11.5698
▁때문이었다	-11.57
ICT	-11.5701
▁신청한	-11.5701
▁조치가	-11.5702
▁올렸	-11.5702
▁we	-11.5703
ign	-11.5703
▁벨트	-11.5706
골드	-11.5706
▁제조업	-11.5707
▁운이	-11.5707
▁강제추행	-11.5708
▁아래의	-11.5709
▁부족해	-11.5709
▁기간제	-11.571
0.0	-11.571
▁설립한	-11.5711
민주주의	-11.5712
▁enable	-11.5713
▁독립운동가	-11.5713
▁양손	-11.5716
▁어머니의	-11.5716
▁약하다	-11.5717
▁Ver	-11.5717
▁이르렀다	-11.5721
▁풍부한	-11.5723
sys	-11.5724
▁축복	-11.5724
ran	-11.5726
▁당대	-11.5727
▁무효화	-11.5728
▁성경	-11.5728
▁과다	-11.5729
▁watching	-11.5732
터스	-11.5732
▁누르	-11.5733
kmh	-11.5733
tra	-11.5733
▁기간은	-11.5734
▁소비자들	-11.5734
주차장	-11.5734
▁못해서	-11.5736
▁115	-11.5737
▁밝혀지지	-11.5738
지역본부	-11.5739
▁RPG	-11.574
▁occurred	-11.5741
▁조희연	-11.5741
▁행위에	-11.5742
▁인천광역시	-11.5743
▁사회주의	-11.5744
▁스트리트	-11.5744
▁음란	-11.5747
연령	-11.5748
▁필요로	-11.575
▁힙합	-11.5751
▁정준영	-11.5751
▁정관용	-11.5751
분까지	-11.5751
▁과자	-11.5752
만명이	-11.5752
햄	-11.5753
앨범	-11.5753
▁비중은	-11.5754
▁변한	-11.5754
KT	-11.5755
▁질주	-11.5755
▁DD	-11.5756
▁타선	-11.5756
괄	-11.5757
▁UC	-11.5759
▁탈북	-11.576
공작	-11.576
▁후보를	-11.576
▁쓰러뜨리	-11.576
▁사무실에서	-11.5762
표준	-11.5765
▁즉사	-11.5766
▁표정을	-11.5769
▁빈번	-11.5772
▁건강을	-11.5772
▁AS	-11.5773
▁소화기	-11.5773
▁특징이	-11.5773
SC	-11.5775
▁부스터	-11.5776
임대	-11.5777
▁시선을	-11.5777
▁강동구	-11.5778
▁모니터	-11.5778
▁지원하기	-11.5778
▁뽑기	-11.5778
깜	-11.5779
▁아쉽게	-11.5779
▁캠핑	-11.5779
▁관점	-11.5779
▁보이기도	-11.5781
글로벌	-11.5781
▁출입문	-11.5782
▁특검팀은	-11.5783
ster	-11.5785
아스	-11.5785
무사	-11.5786
▁사이트에	-11.5787
▁상품을	-11.5787
▁되어야	-11.5789
▁들어가기	-11.579
듣	-11.5791
▁간부들	-11.5792
▁주장에	-11.5792
▁말아야	-11.5794
▁돌며	-11.5796
▁감식	-11.5797
▁그러니	-11.5798
▁기호	-11.5798
▁기동전사	-11.5798
법관	-11.5798
▁위안	-11.5799
▁사상자	-11.5803
▁모집한다	-11.5804
▁사교육	-11.5805
▁여긴	-11.5805
▁졸업하고	-11.5805
▁지나가는	-11.5806
aw	-11.5806
▁disabled	-11.5807
▁막바지	-11.5807
▁맞추기	-11.5807
▁카지노	-11.5808
▁책상	-11.5808
포르	-11.5808
부담	-11.5808
▁확대할	-11.5809
▁돈은	-11.5809
▁지나친	-11.581
▁참가해	-11.581
▁않았으나	-11.5811
▁애들	-11.5811
▁에디	-11.5812
머신	-11.5812
▁독성	-11.5813
▁미세	-11.5814
▁바른	-11.5814
▁browser	-11.5817
CI	-11.5817
▁that	-11.5817
▁잉여	-11.5817
대신	-11.5818
남동	-11.5818
▁작품으로	-11.5819
했더니	-11.582
냐며	-11.5821
▁겨울철	-11.5821
▁녹아	-11.5821
▁결정에	-11.5825
▁선보인다	-11.5825
파이트	-11.5826
▁신학	-11.5827
▁사례는	-11.5827
▁회장과	-11.5828
▁주장했습니다	-11.5829
▁감자	-11.5829
▁공헌	-11.583
▁근본적인	-11.5832
▁오가는	-11.5832
▁불법행위	-11.5833
자료를	-11.5837
▁경악	-11.5837
▁Po	-11.5837
▁갖는다	-11.5839
▁발탁	-11.5839
▁가로막	-11.5839
뿐이다	-11.5839
기간이	-11.584
▁사칭	-11.584
한강공원	-11.584
▁기해	-11.5841
ort	-11.5843
▁버그가	-11.5843
▁운영된다	-11.5844
ture	-11.5844
▁우울	-11.5844
▁MF	-11.5845
▁합리적	-11.5845
▁한나라당	-11.5845
▁합계	-11.5846
▁근거리	-11.5846
▁높지	-11.5846
▁김유	-11.5847
▁쳐들어	-11.5847
회전	-11.5848
▁그로	-11.5849
찔	-11.5854
▁비판하는	-11.5854
▁그래서인지	-11.5856
▁살아가	-11.5856
▁시노	-11.5856
▁지목된	-11.5857
▁이뤄진다	-11.5857
▁규격	-11.5858
▁여겨지	-11.5858
▁영업을	-11.5859
패로	-11.5859
▁경제학	-11.5861
▁여부가	-11.5861
▁심심	-11.5862
▁확대해	-11.5862
▁드릴	-11.5862
▁마약류	-11.5863
모스	-11.5864
▁청계천	-11.5864
▁국무회의	-11.5864
▁문제와	-11.5865
▁극단적	-11.5865
▁아서	-11.5866
▁야마토	-11.5867
▁선정해	-11.5868
▁운행을	-11.5869
청탁	-11.587
층으로	-11.5872
▁히틀러	-11.5874
셸	-11.5874
▁서울메트로	-11.5874
▁비난을	-11.5874
▁123	-11.5876
▁수준인	-11.5878
▁훈장	-11.5878
▁MA	-11.5883
▁백작	-11.5883
▁쿠데타	-11.5883
▁일원에서	-11.5887
▁넘어가는	-11.589
▁다닐	-11.589
TR	-11.5891
측은	-11.5892
▁우크라이나	-11.5893
월말	-11.5894
친화	-11.5895
틀리	-11.5895
250	-11.5898
▁않았으며	-11.59
▁경희대	-11.5901
▁육아휴직	-11.5902
▁비주얼	-11.5902
카드를	-11.5904
▁지장이	-11.5904
▁갖다	-11.5905
▁과감	-11.5906
▁mm	-11.5906
렀다	-11.5908
▁수요일	-11.5908
▁시작하였다	-11.5909
▁소외	-11.591
▁멧돼지	-11.5912
▁여중생	-11.5912
▁계시	-11.5913
▁놓인	-11.5913
▁우주선	-11.5914
▁밥을	-11.5914
▁빛나는	-11.5915
▁장병	-11.5916
▁지냈	-11.5916
▁시합	-11.5926
▁좀더	-11.5926
멘트	-11.5926
▁방식은	-11.5926
않	-11.5927
▁똑같다	-11.5928
자본	-11.5928
▁마우스	-11.593
▁엉덩이	-11.5931
▁마련할	-11.5932
함으로	-11.5935
NC	-11.5935
▁진격	-11.5936
▁BB	-11.5936
코어	-11.5941
ire	-11.5942
6.5	-11.5943
▁일베	-11.5943
▁레인	-11.5943
▁되었지만	-11.5943
찾	-11.5944
이동	-11.5944
▁기탁	-11.5944
▁번식	-11.5944
▁가디언	-11.5945
▁요소들	-11.5946
▁예상되는	-11.5947
▁것들을	-11.5947
평균	-11.5948
▁막혀	-11.5949
폴리스	-11.5949
사법농단	-11.595
▁마블	-11.5952
▁활용하는	-11.5953
▁저자	-11.5954
▁전보	-11.5956
▁정점	-11.5959
▁초콜릿	-11.596
▁방어구	-11.5961
▁버스터	-11.5962
▁잡으면	-11.5962
▁일자	-11.5963
쭉	-11.5964
▁원으로	-11.5964
파괴	-11.5967
▁득표	-11.5967
▁평범	-11.5967
▁따뜻	-11.5969
▁절실	-11.597
▁남지	-11.5971
▁정신질환	-11.5971
▁작품이다	-11.5972
▁툴	-11.5973
경전철	-11.5973
▁이용하면	-11.5974
▁상습적	-11.5974
▁장학	-11.5975
▁밝히기	-11.5975
▁모토	-11.5976
▁반려견	-11.5979
▁불거진	-11.5979
릅니다	-11.5979
협의체	-11.5979
스텔	-11.5979
▁가득한	-11.598
[...]
