[PAD]
[unused1]
[unused2]
[unused3]
[unused4]
[unused5]
[unused6]
[unused7]
[unused8]
[unused9]
[unused10]
[unused11]
[unused12]
[unused13]
[unused14]
[unused15]
[unused16]
[unused17]
[unused18]
[unused19]
[unused20]
[unused21]
[unused22]
[unused23]
[unused24]
[unused25]
[unused26]
[unused27]
[unused28]
[unused29]
[unused30]
[unused31]
[unused32]
[unused33]
[unused34]
[unused35]
[unused36]
[unused37]
[unused38]
[unused39]
[unused40]
[unused41]
[unused42]
[unused43]
[unused44]
[unused45]
[unused46]
[unused47]
[unused48]
[unused49]
[unused50]
[unused51]
[unused52]
[unused53]
[unused54]
[unused55]
[unused56]
[unused57]
[unused58]
[unused59]
[unused60]
[unused61]
[unused62]
[unused63]
[unused64]
[unused65]
[unused66]
[unused67]
[unused68]
[unused69]
[unused70]
[unused71]
[unused72]
[unused73]
[unused74]
[unused75]
[unused76]
[unused77]
[unused78]
[unused79]
[unused80]
[unused81]
[unused82]
[unused83]
[unused84]
[unused85]
[unused86]
[unused87]
[unused88]
[unused89]
[unused90]
[unused91]
[unused92]
[unused93]
[unused94]
[unused95]
[unused96]
[unused97]
[unused98]
[unused99]
[UNK]
[CLS]
[SEP]
[MASK]
<S>
<T>
!
"
#
$
%
&
'
(
)
*
+
,
-
.
/
0
1
2
3
4
5
6
7
8
9
:
;
<
=
>
?
@
A
B
C
D
E
F
G
H
I
J
K
L
M
N
O
P
Q
R
S
T
U
V
W
X
Y
Z
[
\
]
^
_
a
b
c
d
e
f
g
h
i
j
k
l
m
n
o
p
q
r
s
t
u
v
w
x
y
z
{
|
}
~
¡
¢
£
¥
¦
§
¨
©
ª
«
¬
®
°
±
²
³
µ
¶
·
¹
º
»
¼
½
¾
¿
가
각
간
갇
갈
감
갑
값
갓
갔
강
갖
같
갚
개
객
갤
갯
갱
걀
거
걱
건
걷
걸
검
겁
것
겉
게
겐
겔
겟
겠
겨
격
겪
견
결
겸
겹
겼
경
곁
계
고
곡
곤
곧
골
곰
곱
곳
공
곶
과
곽
관
괄
괌
광
괜
괴
굉
교
구
국
군
굳
굴
굵
굽
굿
궁
권
궐
궤
귀
귄
규
균
그
극
근
글
금
급
긋
긍
기
긴
길
김
깁
깃
깊
까
깎
깐
깔
깜
깝
깥
깨
꺼
꺾
껍
껏
께
껴
꼈
꼬
꼭
꼴
꼼
꼽
꽃
꽤
꾀
꾸
꾼
꿀
꿈
꿔
꿨
뀌
뀐
끄
끈
끊
끌
끓
끔
끗
끝
끼
낀
낄
낌
나
낙
난
날
낡
남
납
낫
났
낭
낮
낯
낱
낳
내
낸
낼
냄
냈
냉
냐
냥
너
넌
널
넓
넘
넛
넣
네
넥
넨
넬
넷
녀
녁
년
념
녔
녕
노
녹
논
놀
놈
농
높
놓
뇌
뇨
누
눅
눈
눌
눠
뉘
뉜
뉴
늄
느
늑
는
늘
늙
능
늦
늬
니
닉
닌
닐
님
닛
닝
다
닥
닦
단
닫
달
닭
닮
담
답
닷
당
닿
대
댄
댈
댐
댓
더
덕
던
덜
덟
덤
덧
덩
덮
데
덱
덴
델
도
독
돈
돋
돌
돔
돕
돗
동
돼
됐
되
된
될
됨
두
둑
둔
둘
둠
둥
뒀
뒤
뒷
듀
듈
드
득
든
듣
들
듬
듭
듯
등
디
딕
딘
딜
딥
딧
딩
딪
따
딱
딴
딸
땃
땄
땅
때
떠
떡
떤
떨
떻
떼
또
똑
뚜
뚝
뚫
뚱
뛰
뜨
뜬
뜻
띄
띠
띤
라
락
란
랄
람
랍
랐
랑
래
랙
랜
램
랩
랫
랬
랭
랴
략
량
러
럭
런
럴
럼
럽
럿
렀
렁
렇
레
렉
렌
렐
렘
렛
려
력
련
렬
렴
렵
렷
렸
령
례
로
록
론
롤
롬
롭
롯
롱
뢰
료
룡
루
룩
룬
룰
룸
룹
룻
룽
뤄
뤘
뤼
류
륙
륜
률
륨
륭
르
륵
른
를
름
릇
릉
릎
리
릭
린
릴
림
립
릿
링
마
막
만
많
맏
말
맑
맘
맛
망
맞
맡
매
맥
맨
맵
맷
맹
맺
머
먹
먼
멀
멈
멋
멍
메
멕
멘
멜
멤
멧
며
면
멸
명
몇
모
목
몫
몬
몰
몸
몹
못
몽
뫼
묘
무
묵
묶
문
묻
물
뭄
뭇
뭉
뭐
뭔
뮌
뮤
뮬
므
미
믹
민
믿
밀
밋
밍
및
밑
바
박
밖
반
받
발
밝
밟
밤
밥
방
밭
배
백
밴
밸
뱀
뱅
버
벅
번
벌
범
법
벗
벚
베
벡
벤
벨
벳
벵
벼
벽
변
별
볍
병
보
복
본
볼
봄
봇
봉
봐
봤
부
북
분
불
붉
붐
붓
붕
붙
뷔
뷰
브
븐
블
비
빅
빈
빌
빔
빗
빙
빚
빛
빠
빨
빵
빼
빽
뻐
뻔
뻗
뼈
뽑
뾰
뿌
뿐
뿔
쁘
쁜
쁨
사
삭
산
살
삶
삼
삽
삿
샀
상
새
색
샌
샐
샘
생
샤
샬
샹
섀
서
석
섞
선
설
섬
섭
섯
섰
성
세
섹
센
셀
셈
셉
셋
셔
션
셜
셨
셰
셸
소
속
손
솔
솜
솟
송
쇄
쇠
쇼
숀
숍
수
숙
순
술
숨
숫
숭
숲
쉐
쉬
쉴
쉽
슈
슌
슐
슘
슛
스
슨
슬
슭
슴
습
슷
승
시
식
신
싣
실
싫
심
십
싯
싱
싶
싸
싹
싼
쌀
쌍
쌓
써
썩
썬
썰
썼
쏘
쏜
쏟
쑤
쓰
쓴
쓸
씀
씌
씨
씩
씬
아
악
안
앉
않
알
앓
암
압
앗
았
앙
앞
애
액
앤
앨
앱
앵
야
약
얀
얄
얇
양
얕
얘
어
억
언
얹
얻
얼
얽
엄
업
없
엇
었
엉
에
엑
엔
엘
엠
엣
여
역
엮
연
열
염
엽
엿
였
영
옆
예
옌
옐
옛
오
옥
온
올
옮
옳
옴
옵
옷
옹
와
완
왈
왓
왔
왕
왜
외
왼
요
욕
욘
욤
용
우
욱
운
울
움
웃
웅
워
원
월
웠
웨
웬
웰
웹
위
윅
윈
윌
윗
윙
유
육
윤
율
융
으
윽
은
을
음
읍
응
의
이
익
인
일
읽
잃
임
입
잇
있
잉
잊
잎
자
작
잔
잘
잠
잡
장
잦
재
잭
쟁
쟈
저
적
전
절
젊
점
접
정
젖
제
젝
젠
젤
져
졌
조
족
존
졸
좀
좁
종
좋
좌
죄
죠
주
죽
준
줄
줌
중
줘
줬
쥐
쥬
쥰
즈
즉
즌
즐
즘
증
지
직
진
질
짐
집
짓
징
짙
짜
짝
짧
짱
째
쩌
쩔
쪽
쫓
쭉
쯔
쯤
찌
찍
찔
차
착
찬
찮
찰
참
창
찾
채
책
챈
챌
챔
챙
처
척
천
철
첨
첩
첫
청
체
첸
첼
쳐
쳤
초
촉
촌
촛
총
촨
촬
최
추
축
춘
출
춤
충
춰
췌
취
츄
츠
측
츰
층
치
칙
친
칠
침
칩
칭
카
칸
칼
캄
캅
캉
캐
캔
캘
캠
캡
캣
커
컨
컫
컬
컴
컵
컷
컸
케
켄
켈
켓
켜
켰
코
콕
콘
콜
콤
콥
콧
콩
콰
쾌
쾰
쿄
쿠
쿡
쿤
쿨
쿼
퀘
퀴
퀸
큐
큘
크
큰
클
큼
키
킥
킨
킬
킴
킷
킹
타
탁
탄
탈
탐
탑
탓
탔
탕
태
택
탠
탤
탬
탭
탱
터
턱
턴
털
텀
테
텍
텐
텔
템
텝
톈
토
톡
톤
톨
톰
톱
통
퇴
투
툰
툴
툼
퉁
튀
튜
튠
튬
트
특
튼
틀
틈
티
틱
틴
틸
팀
팅
파
팍
판
팔
팜
팝
팟
팡
패
팩
팬
팽
퍼
펀
펄
펌
펑
페
펙
펜
펠
펫
펴
편
펼
평
폐
포
폭
폰
폴
폼
퐁
표
푸
푼
풀
품
풋
풍
퓨
프
픈
플
픔
피
픽
핀
필
핍
핑
하
학
한
할
함
합
핫
항
해
핵
핸
햄
햇
했
행
향
허
헌
헐
험
헝
헤
헨
헬
혀
혁
현
혈
혐
협
혔
형
혜
호
혹
혼
홀
홈
홉
홋
홍
화
확
환
활
황
회
획
횟
횡
효
후
훈
훌
훔
훗
훨
훼
휘
휠
휩
휴
흉
흐
흑
흔
흘
흙
흡
흥
흩
희
흰
히
힌
힐
힘
힙
땐
뭘
땀
뺀
꽉
헛
씻
춥
쏠
뺏
덥
짚
텅
삐
꽂
뜯
푹
뺨
꿇
굶
쥔
엎
흠
넉
깬
긁
꿰
팁
늪
씹
뛴
짠
쏙
놔
쑥
핏
찢
뗀
쪼
낚
쏴
뜸
볶
덫
##에
##의
##을
##이
##는
##도
##은
##가
##를
##로
##일
##고
##과
##년
##한
##만
##와
##월
##인
##다
##대
##서
##지
##명
##해
##할
##시
##기
##자
##개
##원
##억
##나
##조
##천
##장
##주
##수
##면
##된
##사
##성
##차
##선
##진
##제
##적
##전
##세
##동
##위
##상
##화
##리
##며
##비
##정
##당
##여
##부
##분
##게
##라
##회
##어
##중
##호
##미
##요
##야
##들
##형
##용
##산
##스
##신
##식
##구
##소
##배
##보
##아
##법
##석
##건
##재
##우
##실
##권
##될
##경
##안
##치
##영
##국
##관
##문
##돼
##단
##던
##민
##엔
##종
##오
##모
##연
##유
##군
##급
##하
##씨
##계
##무
##내
##방
##물
##마
##점
##청
##박
##니
##간
##금
##현
##층
##트
##드
##심
##곳
##병
##파
##등
##강
##양
##질
##공
##역
##감
##반
##포
##길
##발
##초
##준
##표
##태
##직
##교
##살
##희
##통
##설
##철
##남
##히
##러
##근
##판
##죠
##번
##김
##학
##약
##론
##란
##불
##임
##생
##두
##별
##행
##체
##복
##데
##순
##려
##타
##노
##환
##승
##범
##온
##저
##운
##창
##거
##그
##증
##열
##집
##카
##바
##난
##피
##네
##후
##백
##디
##입
##규
##르
##절
##광
##속
##평
##외
##채
##력
##량
##져
##봉
##항
##업
##류
##더
##린
##터
##까
##크
##림
##액
##목
##토
##색
##각
##티
##본
##레
##말
##달
##덕
##코
##래
##음
##매
##북
##윤
##함
##령
##팀
##프
##랑
##출
##망
##든
##숙
##처
##날
##새
##갑
##예
##품
##암
##편
##송
##훈
##울
##씩
##락
##즈
##책
##줄
##추
##홍
##변
##풍
##찬
##옥
##님
##탄
##투
##친
##율
##결
##독
##손
##총
##루
##돈
##담
##향
##삼
##냐
##립
##격
##버
##막
##료
##작
##北
##애
##키
##곡
##촌
##폭
##필
##익
##왕
##워
##탈
##갈
##긴
##률
##균
##글
##척
##측
##너
##악
##릴
##값
##올
##언
##충
##합
##브
##때
##욱
##빈
##헌
##뿐
##취
##견
##듯
##몰
##참
##최
##귀
##알
##술
##착
##섭
##골
##퍼
##족
##볼
##돌
##패
##황
##택
##습
##죄
##링
##례
##춘
##축
##완
##록
##녀
##혁
##농
##쪽
##꽃
##쯤
##밥
##련
##쳐
##밀
##테
##존
##슬
##혜
##폐
##朴
##효
##낸
##곤
##文
##칠
##커
##흥
##침
##앤
##메
##육
##美
##걸
##극
##염
##벌
##으
##킹
##츠
##되
##렌
##협
##검
##빛
##객
##누
##잠
##왜
##움
##죽
##혼
##탕
##銀
##른
##혀
##中
##팔
##베
##션
##탑
##웅
##께
##쇼
##것
##혈
##먹
##름
##톤
##룡
##페
##허
##납
##눈
##머
##플
##읍
##벽
##팅
##쿠
##런
##압
##겨
##슨
##텍
##싱
##日
##맨
##득
##낼
##잔
##룸
##띠
##잡
##솔
##힌
##퇴
##휴
##밤
##블
##엽
##빙
##땐
##롱
##째
##폰
##섬
##따
##갓
##특
##탁
##밭
##엄
##홀
##궁
##딩
##먼
##렬
##찰
##케
##맛
##둔
##굴
##욕
##野
##힐
##쉬
##맥
##활
##람
##콘
##엘
##답
##낙
##십
##풀
##응
##둥
##잘
##靑
##틀
##랩
##짓
##칙
##념
##닝
##좌
##징
##比
##빅
##맞
##칼
##받
##젠
##능
##벨
##끝
##엠
##셨
##安
##끼
##쓰
##큰
##몸
##클
##였
##또
##봄
##쌀
##렁
##與
##꾼
##빵
##칭
##핵
##둘
##했
##쳤
##삭
##뜨
##접
##확
##았
##뚝
##빗
##틴
##멸
##푸
##팩
##얼
##콜
##샵
##짐
##닥
##줘
##랐
##윈
##센
##슈
##딸
##있
##숲
##뒤
##땅
##갔
##셀
##뉴
##붙
##졸
##튼
##묘
##몽
##딜
##찌
##컬
##험
##렸
##몬
##女
##핑
##낮
##첫
##밍
##큐
##셔
##릿
##넷
##닉
##졌
##꿈
##텔
##못
##헤
##빌
##쾌
##럴
##촉
##힘
##럽
##턴
##럼
##샤
##핀
##앙
##앞
##않
##끈
##냉
##컷
##랜
##었
##大
##왔
##닭
##괴
##컵
##韓
##싸
##묵
##칩
##샘
##홈
##긋
##룩
##놓
##랄
##혹
##맹
##맘
##털
##녹
##칸
##뇌
##느
##륜
##앱
##휘
##흐
##짜
##男
##넘
##뷰
##꼬
##쇄
##숨
##됐
##숭
##컨
##꾸
##팬
##첩
##놀
##캐
##렉
##떡
##댐
##킬
##램
##논
##릉
##럭
##웠
##덴
##옷
##없
##컴
##檢
##콤
##쌍
##떼
##깃
##톱
##흑
##멘
##켜
##냈
##人
##킨
##봐
##잇
##샷
##硏
##뭉
##톡
##뢰
##찍
##텐
##꺼
##깨
##겠
##널
##쟁
##랭
##팜
##펜
##겁
##픽
##첨
##롤
##릭
##겼
##흔
##故
##꺾
##車
##옹
##높
##폴
##떨
##횡
##획
##잎
##봤
##즐
##팝
##펠
##찜
##젤
##숍
##百
##잉
##짱
##셋
##껏
##렵
##빠
##콩
##證
##롬
##벅
##줬
##公
##딱
##략
##캔
##델
##빚
##춤
##겹
##탐
##뚜
##딘
##벼
##덤
##갱
##났
##듀
##굳
##낭
##혔
##퓨
##캠
##끔
##뼈
##펀
##뽀
##李
##늘
##넥
##듬
##겸
##댄
##픈
##벤
##틱
##궤
##엇
##렛
##쇠
##金
##뇨
##軍
##쩍
##돔
##닷
##닌
##밋
##닐
##펫
##흡
##섰
##重
##前
##눌
##캡
##룰
##킷
##弗
##盧
##짝
##팡
##굿
##꼭
##둬
##꼴
##핫
##켓
##닛
##둑
##쥐
##놈
##붉
##쉐
##랬
##뿌
##롭
##웰
##맵
##얘
##겐
##듣
##렀
##新
##밸
##똥
##덜
##랍
##큼
##쭉
##늦
##家
##톨
##밖
##콕
##갤
##非
##反
##法
##웃
##좀
##옛
##싶
##즙
##떠
##봇
##뿔
##뱅
##뛰
##뱃
##땀
##곽
##돕
##갯
##꿀
##뚱
##엑
##밑
##發
##궈
##렇
##흘
##싹
##젓
##곰
##넌
##쥬
##템
##道
##궐
##팥
##엉
##턱
##쑥
##쓴
##멀
##좋
##高
##렴
##곧
##앵
##委
##쏘
##푼
##뒀
##툰
##줌
##륙
##켈
##씽
##깡
##株
##솥
##앗
##行
##닫
##깊
##社
##뜻
##돗
##흉
##삐
##쿵
##똑
##긍
##넬
##볕
##쿡
##챌
##챙
##켰
##뒷
##쓸
##셈
##텀
##팟
##쌈
##믹
##솜
##놨
##냥
##쁘
##뜰
##쾅
##킴
##뭐
##멜
##無
##心
##줍
##셜
##톰
##붕
##귤
##넣
##뮤
##탭
##쿨
##펑
##껍
##즉
##깔
##셰
##앨
##웨
##됨
##윌
##핸
##짤
##젊
##싼
##꿔
##黨
##年
##쉽
##므
##섹
##펼
##헨
##퀴
##엣
##늑
##툭
##땡
##폼
##햇
##協
##많
##빨
##흠
##썬
##對
##슴
##같
##룬
##잖
##썸
##댁
##써
##잣
##틸
##全
##웹
##덩
##얀
##믿
##뜬
##툴
##앰
##찮
##댈
##삿
##핍
##父
##멤
##헬
##佛
##낡
##렐
##튜
##껴
##칫
##걷
##뭇
##걱
##놔
##탱
##뱀
##亞
##콧
##퐁
##곶
##핏
##쿼
##퉁
##낯
##앉
##性
##쑤
##퀸
##췄
##親
##탓
##現
##엿
##딥
##國
##삶
##끌
##랴
##깐
##깜
##빼
##팍
##얄
##햄
##캘
##쏠
##융
##렘
##셉
##찼
##녘
##팽
##母
##휠
##앓
##옴
##짖
##南
##즘
##윙
##옵
##섯
##몇
##來
##兆
##끄
##빔
##켄
##子
##不
##헛
##밝
##굵
##뽑
##붐
##멍
##늄
##녕
##잭
##윗
##젯
##컥
##킥
##잼
##캣
##묻
##代
##겔
##쁜
##썽
##벗
##숫
##鄭
##꽁
##썰
##딴
##귄
##괄
##츄
##펄
##벳
##씬
##崔
##첸
##뭔
##잊
##뱉
##先
##튀
##훼
##稅
##솟
##찾
##쩌
##上
##춰
##첼
##릇
##낌
##갭
##뷔
##껌
##눕
##劉
##옌
##엎
##랫
##둡
##戰
##펌
##곱
##릅
##씌
##政
##훌
##켠
##洪
##밴
##붓
##팸
##맙
##깍
##촘
##팁
##風
##샐
##쁠
##룽
##찻
##븐
##찔
##넛
##썼
##혐
##댕
##삽
##슘
##멋
##뜩
##렷
##뻥
##콥
##水
##甲
##헐
##쉼
##쉰
##멈
##샛
##後
##텅
##産
##굽
##펴
##印
##쌩
##쌌
##푹
##췌
##퀵
##옆
##섞
##쯔
##좁
##꾹
##렙
##띤
##뽕
##뻘
##뻔
##틈
##냅
##뎌
##낱
##벙
##낀
##댓
##슐
##맑
##쎄
##꿨
##픔
##꼈
##닮
##흩
##럿
##춧
##헷
##캉
##外
##훔
##왈
##英
##닿
##풋
##랠
##市
##륨
##콰
##얽
##폈
##돋
##숯
##벡
##끗
##딤
##쭤
##랗
##롯
##뮬
##쿄
##텁
##탬
##뜯
##홉
##헝
##갖
##맡
##깁
##짚
##흙
##젝
##쩔
##싯
##옮
##랏
##싣
##맏
##쫄
##탠
##뤼
##얇
##넨
##쫓
##덥
##웍
##넓
##잿
##떴
##퀘
##뤄
##깎
##쩡
##빕
##끊
##딪
##쌓
##샌
##얌
##왼
##륭
##펙
##둠
##뚫
##짙
##캄
##댔
##탔
##쨌
##뻐
##룻
##뽐
##샴
##흰
##즌
##갚
##낄
##및
##獨
##퀄
##왓
##썹
##툼
##쏙
##듈
##꼽
##챔
##옐
##젖
##넉
##탤
##힙
##黃
##멧
##똘
##쥔
##슷
##웬
##月
##볐
##꼼
##뭘
##옅
##썩
##뜸
##냄
##녔
##듭
##짬
##칵
##덮
##뉘
##챈
##뿜
##덱
##릎
##춥
##맴
##짧
##쪼
##꽂
##횟
##넋
##잃
##멕
##씻
##랙
##빽
##눠
##찹
##띈
##걀
##씁
##윳
##볍
##빡
##몹
##깝
##퉈
##씹
##샅
##벚
##뺐
##숱
##넸
##휩
##늬
##짠
##괌
##맺
##닙
##됩
##잰
##팠
##궂
##묶
##겉
##낚
##몫
##밟
##떳
##뉜
##퓰
##낵
##텃
##끓
##녁
##읽
##떤
##늙
##룹
##튬
##쁨
##뾰
##꽉
##섣
##딧
##싫
##홧
##팎
##덟
##괜
##옳
##맣
##쉴
##닦
##굉
##왠
##봅
##얗
##꺽
##갇
##얻
##씀
##뀐
##늠
##뗐
##덧
##앴
##뺑
##팻
##꿇
##낫
##뭄
##뀌
##촬
##쏟
##잦
##딛
##띄
##늪
##팰
##웁
##낳
##폄
##눔
##덫
##뺨
##눴
##곁
##뀔
##꾀
##촛
##탰
##깥
##굶
##찢
##봬
##볶
##깬
##훨
##뛴
##끽
##뺏
##뻗
##겪
##옇
##뗀
##컸
##뺀
##텨
##긁
##쏴
##츰
##企
##컫
##꽤
##쏜
##큽
##떻
##땠
##샀
##셧
##엮
##튿
##얹
##꿰
##껑
##뭡
##띕
##빴
##밌
##뵙
##뤘
이
정
수
지
시
사
아
리
고
유
스
가
기
오
미
자
소
마
대
도
비
서
성
라
조
동
하
전
한
우
신
부
노
로
어
상
나
무
모
주
일
인
세
구
장
다
제
보
진
원
안
경
포
카
강
호
재
선
타
바
영
해
김
공
파
양
박
코
에
레
피
산
불
발
트
치
중
여
연
내
니
드
토
개
화
방
저
교
문
거
반
예
차
위
민
태
최
은
매
남
티
배
윤
단
버
투
두
디
의
천
루
종
국
임
관
베
초
만
간
분
현
승
실
메
그
금
요
용
손
야
애
송
심
명
르
광
후
추
백
알
데
난
더
허
순
테
네
체
러
외
황
키
페
당
통
청
홍
삼
평
생
직
쿠
병
군
회
복
과
계
적
석
프
왕
봉
브
창
번
절
각
물
달
북
본
히
희
입
건
권
결
열
푸
퍼
설
워
친
운
말
밀
채
근
크
감
패
식
판
볼
망
독
격
효
귀
악
학
커
변
처
속
준
헤
엄
블
특
게
완
터
급
살
폭
충
즈
증
온
낙
항
출
누
역
약
갈
철
돌
함
형
목
케
총
들
울
뒤
캐
환
음
혼
행
월
탈
슬
암
참
필
잔
풍
혜
너
규
담
옥
작
와
새
막
등
언
날
골
합
엔
몰
슈
덕
글
점
올
머
육
란
극
려
쓰
집
류
농
칼
법
팔
컨
범
래
편
빈
린
샤
걸
폐
길
할
염
숙
표
플
츠
으
질
향
축
뉴
익
궁
탄
별
면
팬
맥
좌
콘
벤
느
휴
콜
업
잡
잠
따
쇼
얼
홀
멜
솔
퇴
찬
셀
맞
헌
흐
혈
랑
을
취
렌
는
검
휘
센
녹
앙
냉
까
씨
탐
펜
클
능
활
림
싱
엠
갑
흥
헬
겨
벌
곤
응
맹
틀
빌
멘
억
풀
렉
릴
런
곡
착
벨
접
징
눈
떠
몬
괴
힐
꼬
롤
앤
엘
뒷
쳐
색
빗
되
택
론
협
빼
엑
품
맨
놀
짜
견
늘
압
몸
델
링
묵
침
락
칠
겸
십
던
술
빙
논
굴
텐
잘
펠
컬
습
빨
존
앞
넥
긴
셔
묘
액
록
빅
셰
랜
혹
둥
척
홈
립
졸
곽
깨
탁
큰
폴
섬
듀
욕
먹
답
끼
른
몽
줄
픽
벽
촉
못
웨
킬
찰
춘
득
삭
롱
렁
칸
찌
텍
낭
돈
쌍
젤
갤
컴
팀
쾌
훈
탕
끄
벡
책
힘
첫
털
넷
덩
확
펑
웰
턴
쓸
족
젠
숭
때
왜
넘
큐
섹
칭
닌
촌
튀
튼
쟁
랄
꾸
널
짓
웅
횡
킨
벼
켄
짝
닉
객
죄
납
윈
콤
멀
럼
윗
쫓
먼
팅
닐
흉
컵
력
앨
첨
콩
싸
션
즉
햄
를
름
럭
닝
핑
밤
혁
풋
딜
흡
즐
캔
뱅
둘
꽃
쿼
밸
캡
봐
령
섭
빠
냐
쏘
흑
룩
캠
쉬
덴
램
뭇
율
덮
낸
뽀
팽
윌
똑
멋
끈
끝
밴
움
샘
랭
험
폰
밍
얀
셋
캄
믹
텔
꺼
뜻
릿
웃
헐
녀
톨
엉
퀴
굽
닛
핫
렐
뚝
젖
잉
융
갱
뚜
웹
딱
럴
켈
균
룸
끌
깃
죽
웬
넬
써
갓
든
뇌
숨
된
덤
량
탑
샌
펄
윙
틱
첼
짐
퉁
틸
람
획
붉
또
킹
넉
켜
봄
곱
땅
돼
퀄
져
틈
껍
싹
팍
딩
벗
줌
릭
흠
삐
년
쥐
퀘
끓
빛
핏
렘
튜
옹
뷰
굳
슐
둔
덜
깜
겐
셉
떡
돋
젓
곧
례
쉐
앵
콕
슨
햇
깊
쑤
닥
홋
냅
댄
랴
벅
뮤
쭉
뿔
룬
쿨
뚱
쑥
릉
춤
뜯
넌
졌
꽂
뿌
턱
솜
궤
휩
휠
죠
힌
료
굵
딕
탱
쥬
밥
팟
셸
덧
퓨
셈
겔
걷
롬
잇
됐
퀸
첸
템
꼭
며
펫
꽁
측
꿀
엽
쇠
닷
뻔
붕
찢
톰
왓
뜬
첩
큼
탬
팰
깔
핀
헨
쓴
줍
툴
뤼
엣
뮬
딘
련
쪽
앗
받
뭉
쐐
펀
뿜
값
끔
밋
뜨
팩
펌
롭
긍
멍
딸
찍
썰
같
럽
엎
콰
팡
뺏
빡
잣
줘
썩
뉘
왈
밑
껑
볶
낱
떨
톱
흔
삿
뱃
톡
갖
딴
홉
잊
꿰
엿
쌀
놈
뤄
푹
찜
꺾
콥
핸
쪼
탭
쯔
빵
엇
롯
놨
층
샬
팝
눌
빔
댐
넨
싼
씁
똥
멤
뼈
옌
곰
셜
옆
늦
틴
뺨
렵
킴
뷔
젊
텁
뭄
봤
챌
뛰
맛
늠
었
챔
흩
랫
젝
욱
듯
믿
씌
읽
떼
했
슴
좀
콧
펙
즌
몇
븐
붙
맏
맘
얄
훤
녕
긋
찔
옐
둠
곳
넓
폼
겁
랩
깡
붓
썸
옴
춰
쿡
쎄
톈
룰
낡
톤
앉
뜸
뢰
룽
닫
슘
굿
걀
멸
섯
덱
쉽
눅
끊
뚫
렛
룡
틋
있
펴
댓
샐
칙
굶
솥
밝
헛
랙
짖
듬
갯
밉
씬
잖
놔
돗
핵
헉
팜
칵
핍
똘
깐
낫
늙
댁
캉
곁
띠
샴
훌
략
삽
궈
깎
촨
괜
욘
뭐
뒀
덟
쿵
잭
툭
꿔
쏠
벙
냥
껴
젯
묻
텝
늪
괌
좋
볕
앰
캣
멕
읍
될
뜩
쌈
맣
텅
왼
떳
륜
낮
컷
엮
룻
흰
촘
놓
캘
뎀
튿
푼
샹
섣
몹
맵
꿈
낚
쩍
썬
쩡
헥
칫
께
튬
씹
숱
쉴
힙
므
쇄
칩
웍
팸
벚
왔
깁
끽
밌
혐
얻
꼴
귄
캅
쿄
텀
괄
뽕
썹
긁
둬
맺
봇
섀
뾰
뺑
팁
짬
붐
렬
훼
넛
뱀
꼽
뭔
옛
닮
궐
떴
쏙
텃
딥
맴
짠
튠
잦
빽
돔
썽
폄
릅
겹
귤
흘
높
혀
냈
컥
랍
켓
츄
눔
않
옵
짤
렴
옷
쉼
갸
쩌
씀
릇
꿋
겟
헝
낌
캇
앓
웠
퐁
궂
찾
것
왠
깅
췌
뻐
욜
땡
님
쁜
옮
얘
늑
쿤
퓰
윽
꼼
뵙
듭
걱
닭
킥
괘
롄
숀
째
껄
짱
륵
싯
쑨
솟
씽
댈
및
겉
률
뿐
딧
꽝
츰
둑
펭
팻
념
앱
빚
웸
팥
얕
헷
뮐
앳
짧
쏟
쭈
뜰
핌
뻘
랏
뽑
뵈
잼
벳
쾰
났
훙
킷
훔
펼
곶
엌
뻥
셨
륙
펩
셧
륨
얌
퀵
쎈
윅
쩔
줬
켐
튕
깍
벵
봅
슭
뇰
샅
짊
껌
쯤
씩
퀀
딤
즙
챙
넋
밟
촬
멱
냄
눠
뻑
댕
랐
쫄
왁
얽
렙
콴
웜
큘
챗
쟈
찡
륭
낼
샛
훅
꾹
잎
춧
얏
쩐
많
묶
엥
윳
눕
밧
뼛
옅
픈
댜
갭
켠
짚
뇽
퍽
쉰
랠
샨
맡
였
렷
싶
꾀
캥
촐
숫
핼
뿍
렸
윔
숲
덫
맷
좇
굉
췄
밈
얇
즘
믈
찻
갔
멈
낵
없
숏
뇨
넝
쌩
멩
숟
뫼
킵
꿍
쾅
햅
홧
뚤
힉
욤
뻗
캬
룹
쉘
텨
쓱
뷴
뒹
됨
뮈
퀼
읊
귓
셴
삶
웽
댑
듐
탯
럿
뎅
툼
랬
툰
땜
솎
뎌
멓
힝
덥
찐
흙
쁘
뷸
뮌
줏
챈
숄
녘
슝
낯
씻
쥔
밭
뻣
엡
뎁
윕
챠
숯
꺽
얹
끗
땐
잰
았
꿉
쌔
샙
헹
찝
걔
렀
찹
잿
횟
훑
녜
렝
넴
켤
빕
폿
쌓
땃
슛
슌
늉
닳
싫
샵
젬
팠
퓌
쿰
컹
쵸
듣
쟤
촛
꼿
눴
꿎
띄
휼
맑
쬐
뮴
쳇
뺌
땠
횃
쩜
핥
쭐
묀
쾨
훗
돛
놉
땀
씸
짭
꼰
끙
갚
엷
맬
좡
텡
쑹
섞
컸
쏴
잽
갉
샷
껏
낄
옇
꽈
탤
잃
엊
겋
닦
쏜
빤
꿨
훨
헴
뤘
볜
멎
냇
꽤
쫙
쇳
츨
첵
틔
탠
뽐
겜
꿇
펍
눗
빴
켰
쏭
밖
쳤
쫑
괭
뱌
쥴
찧
젼
뼘
좁
쥰
웡
쭤
콸
뺐
홑
닻
챕
굣
뭘
웁
깝
꿩
솽
찼
먀
몫
곪
귈
왑
돕
띵
쿱
맙
숍
껫
뭍
죤
넵
겅
쐬
뎃
뗏
멧
겼
젭
죗
굼
꼈
긱
섰
탉
윷
깻
뜀
짢
셍
츤
깽
넙
땋
혔
헵
쐈
빳
낑
셌
팹
뭣
솅
윰
룀
쥘
튤
낀
텼
펨
쉑
댔
푯
쌌
햐
뤽
곗
쌤
냘
탔
뼉
쫀
샥
텟
뎬
갠
둣
륄
앎
묄
휙
갬
뎐
륀
솝
볏
쇤
뺄
쨍
퉈
뀐
궜
뿅
뛸
넣
옙
휜
쪘
옻
냑
썼
쳉
쉿
됭
쟝
땔
씰
잤
냠
짰
깟
숑
꽉
늬
겊
짙
넸
뢴
늄
뻤
눙
넹
뱉
놋
쩨
훠
욧
꾼
쭙
쁠
뛴
챤
얍
떵
랖
삯
뙤
칡
꽹
흄
슥
퉜
옭
떤
뽁
폈
딨
묽
뗐
삑
젱
믐
냔
갹
샀
휑
뵐
챘
꺄
툇
뎠
닿
퓸
푀
췬
뀔
혓
땁
탸
듄
웩
곯
뵀
둡
쫒
삵
닙
듦
쿈
긷
뺀
겪
돤
벰
엾
셩
톳
숴
빻
낳
껐
섶
븀
깼
쁨
킁
쯧
힛
찮
쌉
쟀
랸
캑
봬
텄
빰
쌘
쑈
갗
딛
녔
꾐
옳
셤
쫌
샜
궉
쪄
쭝
쿳
녁
튈
삥
왐
렇
뷜
뵤
푈
뀜
쉈
켑
쨩
땄
쨋
쾡
꼐
옘
쩝
괵
쌕
탓
멥
욥
떫
똬
뿡
츈
붇
깰
켁
깬
낟
쾀
꺅
뱁
쉔
맸
슉
짼
줴
숩
쭘
푄
콱
홰
젋
퐈
쳄
횔
뭅
꽥
왝
뉼
껀
휨
퍄
횬
쮸
켕
녠
욋
믄
닢
뀌
됩
믓
듸
퇘
뤠
좨
솁
뵘
겄
팃
뗀
묠
춥
몐
헙
뒬
큇
큅
륌
휀
쳅
볐
앴
멨
캤
죵
볍
몄
쨉
톄
섐
츳
햘
겡
큄
룔
넜
퀭
췐
쟌
톺
큭
틍
띤
쉥
뢸
뀄
툽
쭌
뗄
뻬
솀
굄
탰
벧
겠
쏨
닯
묜
뽄
죈
흣
띈
띨
좆
쉭
챵
궬
쎌
퓐
먄
좔
싣
뷘
갇
쨈
퇀
뒈
슷
덞
섕
밂
틂
롸
뱐
짇
팼
걍
튄
쯩
짹
큔
풉
듈
섈
뱄
짦
휫
퀜
웻
뚠
녓
뒴
묏
큠
툉
뵌
얜
읗
삘
밞
붑
똠
곬
펐
겆
녤
갰
벋
섄
뒨
낏
뵨
햏
뱡
귬
푁
쫘
왱
풂
읏
욀
훵
얉
뉵
묫
쳔
놘
벱
뇩
돠
껸
퓔
캴
쇽
귁
돐
귐
깠
뮨
솨
툠
땝
홱
윱
퐝
셕
뽈
쾃
큉
귿
딪
틉
셱
찟
섦
펏
벴
떰
뇬
햣
넒
깸
뗍
늴
괼
긔
덖
룅
됸
믜
먁
뺍
읜
끎
렜
괸
휭
촙
끕
졍
뉠
겯
돝
왬
뙈
폅
띌
휸
쟎
퍅
썻
슙
묑
쯕
풰
퉤
쳰
툐
낢
쥠
룟
쭸
똣
롼
픔
춉
퍌
쒔
켬
앝
횐
쇨
됴
뚬
쿌
휄
촹
찿
폽
똔
숌
푤
솃
됙
듕
삔
촤
귑
띰
츔
뉨
샾
헀
흗
쌰
뉙
겍
큽
좍
퀑
뎨
몌
컽
옝
흭
좐
윾
켯
쟨
웝
튑
껜
륏
곈
앏
맟
퍈
죌
꿘
븡
벛
춍
꽜
횰
씐
뉜
챨
떱
잌
챰
얭
긑
쥡
떻
뗑
꼍
흴
죔
먕
끅
푠
뚧
볘
셥
쏱
굘
룝
쾍
퇼
챡
몃
췰
붰
쨌
앍
눼
썅
뗬
띔
튐
륑
짯
큥
짫
핬
잛
볓
쨘
쵤
밎
쑵
됫
땟
껭
떽
늡
쁑
읖
쓩
읒
츙
욺
뭬
쮜
쳬
퓟
뜁
틑
씼
얾
읺
녬
롓
덪
뱟
걲
옯
궃
뻴
몆
혠
쩬
뜷
겻
팎
낍
챦
읔
굻
쥣
잗
꼇
붸
걋
뎔
쀼
뺘
떪
엶
맽
퀠
캪
녑
웟
웤
읃
꿧
잴
읓
궨
턔
젔
뉸
탘
묾
퍙
븨
##이
##정
##수
##지
##시
##사
##아
##리
##고
##유
##스
##가
##기
##오
##미
##자
##소
##마
##대
##도
##비
##서
##성
##라
##조
##동
##하
##전
##한
##우
##신
##부
##노
##로
##어
##상
##나
##무
##모
##주
##일
##인
##세
##구
##장
##다
##제
##보
##진
##원
##안
##경
##포
##카
##강
##호
##재
##선
##타
##바
##영
##해
##김
##공
##파
##양
##박
##코
##에
##레
##피
##산
##불
##발
##트
##치
##중
##여
##연
##내
##니
##드
##토
##개
##화
##방
##저
##교
##문
##거
##반
##예
##차
##위
##민
##태
##최
##은
##매
##남
##티
##배
##윤
##단
##버
##투
##두
##디
##의
##천
##루
##종
##국
##임
##관
##베
##초
##만
##간
##분
##현
##승
##실
##메
##그
##금
##요
##용
##손
##야
##애
##송
##심
##명
##르
##광
##후
##추
##백
##알
##데
##난
##더
##허
##순
##테
##네
##체
##러
##외
##황
##키
##페
##당
##통
##청
##홍
##삼
##평
##생
##직
##쿠
##병
##군
##회
##복
##과
##계
##적
##석
##프
##왕
##봉
##브
##창
##번
##절
##각
##물
##달
##북
##본
##히
##희
##입
##건
##권
##결
##열
##푸
##퍼
##설
##워
##친
##운
##말
##밀
##채
##근
##크
##감
##패
##식
##판
##볼
##망
##독
##격
##효
##귀
##악
##학
##커
##변
##처
##속
##준
##헤
##엄
##블
##특
##게
##완
##터
##급
##살
##폭
##충
##즈
##증
##온
##낙
##항
##출
##누
##역
##약
##갈
##철
##돌
##함
##형
##목
##케
##총
##들
##울
##뒤
##캐
##환
##음
##혼
##행
##월
##탈
##슬
##암
##참
##필
##잔
##풍
##혜
##너
##규
##담
##옥
##작
##와
##새
##막
##등
##언
##날
##골
##합
##엔
##몰
##슈
##덕
##글
##점
##올
##머
##육
##란
##극
##려
##쓰
##집
##류
##농
##칼
##법
##팔
##컨
##범
##래
##편
##빈
##린
##샤
##걸
##폐
##길
##할
##염
##숙
##표
##플
##츠
##으
##질
##향
##축
##뉴
##익
##궁
##탄
##별
##면
##팬
##맥
##좌
##콘
##벤
##느
##휴
##콜
##업
##잡
##잠
##따
##쇼
##얼
##홀
##멜
##솔
##퇴
##찬
##셀
##맞
##헌
##흐
##혈
##랑
##을
##취
##렌
##는
##검
##휘
##센
##녹
##앙
##냉
##까
##씨
##탐
##펜
##클
##능
##활
##림
##싱
##엠
##갑
##흥
##헬
##겨
##벌
##곤
##응
##맹
##틀
##빌
##멘
##억
##풀
##렉
##릴
##런
##곡
##착
##벨
##접
##징
##눈
##떠
##몬
##괴
##힐
##꼬
##롤
##앤
##엘
##뒷
##쳐
##색
##빗
##되
##택
##론
##협
##빼
##엑
##품
##맨
##놀
##짜
##견
##늘
##압
##몸
##델
##링
##묵
##침
##락
##칠
##겸
##십
##던
##술
##빙
##논
##굴
##텐
##잘
##펠
##컬
##습
##빨
##존
##앞
##넥
##긴
##셔
##묘
##액
##록
##빅
##셰
##랜
##혹
##둥
##척
##홈
##립
##졸
##곽
##깨
##탁
##큰
##폴
##섬
##듀
##욕
##먹
##답
##끼
##른
##몽
##줄
##픽
##벽
##촉
##못
##웨
##킬
##찰
##춘
##득
##삭
##롱
##렁
##칸
##찌
##텍
##낭
##돈
##쌍
##젤
##갤
##컴
##팀
##쾌
##훈
##탕
##끄
##벡
##책
##힘
##첫
##털
##넷
##덩
##확
##펑
##웰
##턴
##쓸
##족
##젠
##숭
##때
##왜
##넘
##큐
##섹
##칭
##닌
##촌
##튀
##튼
##쟁
##랄
##꾸
##널
##짓
##웅
##횡
##킨
##벼
##켄
##짝
##닉
##객
##죄
##납
##윈
##콤
##멀
##럼
##윗
##쫓
##먼
##팅
##닐
##흉
##컵
##력
##앨
##첨
##콩
##싸
##션
##즉
##햄
##를
##름
##럭
##닝
##핑
##밤
##혁
##풋
##딜
##흡
##즐
##캔
##뱅
##둘
##꽃
##쿼
##밸
##캡
##봐
##령
##섭
##빠
##냐
##쏘
##흑
##룩
##캠
##쉬
##덴
##램
##뭇
##율
##덮
##낸
##뽀
##팽
##윌
##똑
##멋
##끈
##끝
##밴
##움
##샘
##랭
##험
##폰
##밍
##얀
##셋
##캄
##믹
##텔
##꺼
##뜻
##릿
##웃
##헐
##녀
##톨
##엉
##퀴
##굽
##닛
##핫
##렐
##뚝
##젖
##잉
##융
##갱
##뚜
##웹
##딱
##럴
##켈
##균
##룸
##끌
##깃
##죽
##웬
##넬
##써
##갓
##든
##뇌
##숨
##된
##덤
##량
##탑
##샌
##펄
##윙
##틱
##첼
##짐
##퉁
##틸
##람
##획
##붉
##또
##킹
##넉
##켜
##봄
##곱
##땅
##돼
##퀄
##져
##틈
##껍
##싹
##팍
##딩
##벗
##줌
##릭
##흠
##삐
##년
##쥐
##퀘
##끓
##빛
##핏
##렘
##튜
##옹
##뷰
##굳
##슐
##둔
##덜
##깜
##겐
##셉
##떡
##돋
##젓
##곧
##례
##쉐
##앵
##콕
##슨
##햇
##깊
##쑤
##닥
##홋
##냅
##댄
##랴
##벅
##뮤
##쭉
##뿔
##룬
##쿨
##뚱
##쑥
##릉
##춤
##뜯
##넌
##졌
##꽂
##뿌
##턱
##솜
##궤
##휩
##휠
##죠
##힌
##료
##굵
##딕
##탱
##쥬
##밥
##팟
##셸
##덧
##퓨
##셈
##겔
##걷
##롬
##잇
##됐
##퀸
##첸
##템
##꼭
##며
##펫
##꽁
##측
##꿀
##엽
##쇠
##닷
##뻔
##붕
##찢
##톰
##왓
##뜬
##첩
##큼
##탬
##팰
##깔
##핀
##헨
##쓴
##줍
##툴
##뤼
##엣
##뮬
##딘
##련
##쪽
##앗
##받
##뭉
##쐐
##펀
##뿜
##값
##끔
##밋
##뜨
##팩
##펌
##롭
##긍
##멍
##딸
##찍
##썰
##같
##럽
##엎
##콰
##팡
##뺏
##빡
##잣
##줘
##썩
##뉘
##왈
##밑
##껑
##볶
##낱
##떨
##톱
##흔
##삿
##뱃
##톡
##갖
##딴
##홉
##잊
##꿰
##엿
##쌀
##놈
##뤄
##푹
##찜
##꺾
##콥
##핸
##쪼
##탭
##쯔
##빵
##엇
##롯
##놨
##층
##샬
##팝
##눌
##빔
##댐
##넨
##싼
##씁
##똥
##멤
##뼈
##옌
##곰
##셜
##옆
##늦
##틴
##뺨
##렵
##킴
##뷔
##젊
##텁
##뭄
##봤
##챌
##뛰
##맛
##늠
##었
##챔
##흩
##랫
##젝
##욱
##듯
##믿
##씌
##읽
##떼
##했
##슴
##좀
##콧
##펙
##즌
##몇
##븐
##붙
##맏
##맘
##얄
##훤
##녕
##긋
##찔
##옐
##둠
##곳
##넓
##폼
##겁
##랩
##깡
##붓
##썸
##옴
##춰
##쿡
##쎄
##톈
##룰
##낡
##톤
##앉
##뜸
##뢰
##룽
##닫
##슘
##굿
##걀
##멸
##섯
##덱
##쉽
##눅
##끊
##뚫
##렛
##룡
##틋
##있
##펴
##댓
##샐
##칙
##굶
##솥
##밝
##헛
##랙
##짖
##듬
##갯
##밉
##씬
##잖
##놔
##돗
##핵
##헉
##팜
##칵
##핍
##똘
##깐
##낫
##늙
##댁
##캉
##곁
##띠
##샴
##훌
##략
##삽
##궈
##깎
##촨
##괜
##욘
##뭐
##뒀
##덟
##쿵
##잭
##툭
##꿔
##쏠
##벙
##냥
##껴
##젯
##묻
##텝
##늪
##괌
##좋
##볕
##앰
##캣
##멕
##읍
##될
##뜩
##쌈
##맣
##텅
##왼
##떳
##륜
##낮
##컷
##엮
##룻
##흰
##촘
##놓
##캘
##뎀
##튿
##푼
##샹
##섣
##몹
##맵
##꿈
##낚
##쩍
##썬
##쩡
##헥
##칫
##께
##튬
##씹
##숱
##쉴
##힙
##므
##쇄
##칩
##웍
##팸
##벚
##왔
##깁
##끽
##밌
##혐
##얻
##꼴
##귄
##캅
##쿄
##텀
##괄
##뽕
##썹
##긁
##둬
##맺
##봇
##섀
##뾰
##뺑
##팁
##짬
##붐
##렬
##훼
##넛
##뱀
##꼽
##뭔
##옛
##닮
##궐
##떴
##쏙
##텃
##딥
##맴
##짠
##튠
##잦
##빽
##돔
##썽
##폄
##릅
##겹
##귤
##흘
##높
##혀
##냈
##컥
##랍
##켓
##츄
##눔
##않
##옵
##짤
##렴
##옷
##쉼
##갸
##쩌
##씀
##릇
##꿋
##겟
##헝
##낌
##캇
##앓
##웠
##퐁
##궂
##찾
##것
##왠
##깅
##췌
##뻐
##욜
##땡
##님
##쁜
##옮
##얘
##늑
##쿤
##퓰
##윽
##꼼
##뵙
##듭
##걱
##닭
##킥
##괘
##롄
##숀
##째
##껄
##짱
##륵
##싯
##쑨
##솟
##씽
##댈
##및
##겉
##률
##뿐
##딧
##꽝
##츰
##둑
##펭
##팻
##념
##앱
##빚
##웸
##팥
##얕
##헷
##뮐
##앳
##짧
##쏟
##쭈
##뜰
##핌
##뻘
##랏
##뽑
##뵈
##잼
##벳
##쾰
##났
##훙
##킷
##훔
##펼
##곶
##엌
##뻥
##셨
##륙
##펩
##셧
##륨
##얌
##퀵
##쎈
##윅
##쩔
##줬
##켐
##튕
##깍
##벵
##봅
##슭
##뇰
##샅
##짊
##껌
##쯤
##씩
##퀀
##딤
##즙
##챙
##넋
##밟
##촬
##멱
##냄
##눠
##뻑
##댕
##랐
##쫄
##왁
##얽
##렙
##콴
##웜
##큘
##챗
##쟈
##찡
##륭
##낼
##샛
##훅
##꾹
##잎
##춧
##얏
##쩐
##많
##묶
##엥
##윳
##눕
##밧
##뼛
##옅
##픈
##댜
##갭
##켠
##짚
##뇽
##퍽
##쉰
##랠
##샨
##맡
##였
##렷
##싶
##꾀
##캥
##촐
##숫
##핼
##뿍
##렸
##윔
##숲
##덫
##맷
##좇
##굉
##췄
##밈
##얇
##즘
##믈
##찻
##갔
##멈
##낵
##없
##숏
##뇨
##넝
##쌩
##멩
##숟
##뫼
##킵
##꿍
##쾅
##햅
##홧
##뚤
##힉
##욤
##뻗
##캬
##룹
##쉘
##텨
##쓱
##뷴
##뒹
##됨
##뮈
##퀼
##읊
##귓
##셴
##삶
##웽
##댑
##듐
##탯
##럿
##뎅
##툼
##랬
##툰
##땜
##솎
##뎌
##멓
##힝
##덥
##찐
##흙
##쁘
##뷸
##뮌
##줏
##챈
##숄
##녘
##슝
##낯
##씻
##쥔
##밭
##뻣
##엡
##뎁
##윕
##챠
##숯
##꺽
##얹
##끗
##땐
##잰
##았
##꿉
##쌔
##샙
##헹
##찝
##걔
##렀
##찹
##잿
##횟
##훑
##녜
##렝
##넴
##켤
##빕
##폿
##쌓
##땃
##슛
##슌
##늉
##닳
##싫
##샵
##젬
##팠
##퓌
##쿰
##컹
##쵸
##듣
##쟤
##촛
##꼿
##눴
##꿎
##띄
##휼
##맑
##쬐
##뮴
##쳇
##뺌
##땠
##횃
##쩜
##핥
##쭐
##묀
##쾨
##훗
##돛
##놉
##땀
##씸
##짭
##꼰
##끙
##갚
##엷
##맬
##좡
##텡
##쑹
##섞
##컸
##쏴
##잽
##갉
##샷
##껏
##낄
##옇
##꽈
##탤
##잃
##엊
##겋
##닦
##쏜
##빤
##꿨
##훨
##헴
##뤘
##볜
##멎
##냇
##꽤
##쫙
##쇳
##츨
##첵
##틔
##탠
##뽐
##겜
##꿇
##펍
##눗
##빴
##켰
##쏭
##밖
##쳤
##쫑
##괭
##뱌
##쥴
##찧
##젼
##뼘
##좁
##쥰
##웡
##쭤
##콸
##뺐
##홑
##닻
##챕
##굣
##뭘
##웁
##깝
##꿩
##솽
##찼
##먀
##몫
##곪
##귈
##왑
##돕
##띵
##쿱
##맙
##숍
##껫
##뭍
##죤
##넵
##겅
##쐬
##뎃
##뗏
##멧
##겼
##젭
##죗
##굼
##꼈
##긱
##섰
##탉
##윷
##깻
##뜀
##짢
##셍
##츤
##깽
##넙
##땋
##혔
##헵
##쐈
##빳
##낑
##셌
##팹
##뭣
##솅
##윰
##룀
##쥘
##튤
##낀
##텼
##펨
##쉑
##댔
##푯
##쌌
##햐
##뤽
##곗
##쌤
##냘
##탔
##뼉
##쫀
##샥
##텟
##뎬
##갠
##둣
##륄
##앎
##묄
##휙
##갬
##뎐
##륀
##솝
##볏
##쇤
##뺄
##쨍
##퉈
##뀐
##궜
##뿅
##뛸
##넣
##옙
##휜
##쪘
##옻
##냑
##썼
##쳉
##쉿
##됭
##쟝
##땔
##씰
##잤
##냠
##짰
##깟
##숑
##꽉
##늬
##겊
##짙
##넸
##뢴
##늄
##뻤
##눙
##넹
##뱉
##놋
##쩨
##훠
##욧
##꾼
##쭙
##쁠
##뛴
##챤
##얍
##떵
##랖
##삯
##뙤
##칡
##꽹
##흄
##슥
##퉜
##옭
##떤
##뽁
##폈
##딨
##묽
##뗐
##삑
##젱
##믐
##냔
##갹
##샀
##휑
##뵐
##챘
##꺄
##툇
##뎠
##닿
##퓸
##푀
##췬
##뀔
##혓
##땁
##탸
##듄
##웩
##곯
##뵀
##둡
##쫒
##삵
##닙
##듦
##쿈
##긷
##뺀
##겪
##돤
##벰
##엾
##셩
##톳
##숴
##빻
##낳
##껐
##섶
##븀
##깼
##쁨
##킁
##쯧
##힛
##찮
##쌉
##쟀
##랸
##캑
##봬
##텄
##빰
##쌘
##쑈
##갗
##딛
##녔
##꾐
##옳
##셤
##쫌
##샜
##궉
##쪄
##쭝
##쿳
##녁
##튈
##삥
##왐
##렇
##뷜
##뵤
##푈
##뀜
##쉈
##켑
##쨩
##땄
##쨋
##쾡
##꼐
##옘
##쩝
##괵
##쌕
##탓
##멥
##욥
##떫
##똬
##뿡
##츈
##붇
##깰
##켁
##깬
##낟
##쾀
##꺅
##뱁
##쉔
##맸
##슉
##짼
##줴
##숩
##쭘
##푄
##콱
##홰
##젋
##퐈
##쳄
##횔
##뭅
##꽥
##왝
##뉼
##껀
##휨
##퍄
##횬
##쮸
##켕
##녠
##욋
##믄
##닢
##뀌
##됩
##믓
##듸
##퇘
##뤠
##좨
##솁
##뵘
##겄
##팃
##뗀
##묠
##춥
##몐
##헙
##뒬
##큇
##큅
##륌
##휀
##쳅
##볐
##앴
##멨
##캤
##죵
##볍
##몄
##쨉
##톄
##섐
##츳
##햘
##겡
##큄
##룔
##넜
##퀭
##췐
##쟌
##톺
##큭
##틍
##띤
##쉥
##뢸
##뀄
##툽
##쭌
##뗄
##뻬
##솀
##굄
##탰
##벧
##겠
##쏨
##닯
##묜
##뽄
##죈
##흣
##띈
##띨
##좆
##쉭
##챵
##궬
##쎌
##퓐
##먄
##좔
##싣
##뷘
##갇
##쨈
##퇀
##뒈
##슷
##덞
##섕
##밂
##틂
##롸
##뱐
##짇
##팼
##걍
##튄
##쯩
##짹
##큔
##풉
##듈
##섈
##뱄
##짦
##휫
##퀜
##웻
##뚠
##녓
##뒴
##묏
##큠
##툉
##뵌
##얜
##읗
##삘
##밞
##붑
##똠
##곬
##펐
##겆
##녤
##갰
##벋
##섄
##뒨
##낏
##뵨
##햏
##뱡
##귬
##푁
##쫘
##왱
##풂
##읏
##욀
##훵
##얉
##뉵
##묫
##쳔
##놘
##벱
##뇩
##돠
##껸
##퓔
##캴
##쇽
##귁
##돐
##귐
##깠
##뮨
##솨
##툠
##땝
##홱
##윱
##퐝
##셕
##뽈
##쾃
##큉
##귿
##딪
##틉
##셱
##찟
##섦
##펏
##벴
##떰
##뇬
##햣
##넒
##깸
##뗍
##늴
##괼
##긔
##덖
##룅
##됸
##믜
##먁
##뺍
##읜
##끎
##렜
##괸
##휭
##촙
##끕
##졍
##뉠
##겯
##돝
##왬
##뙈
##폅
##띌
##휸
##쟎
##퍅
##썻
##슙
##묑
##쯕
##풰
##퉤
##쳰
##툐
##낢
##쥠
##룟
##쭸
##똣
##롼
##픔
##춉
##퍌
##쒔
##켬
##앝
##횐
##쇨
##됴
##뚬
##쿌
##휄
##촹
##찿
##폽
##똔
##숌
##푤
##솃
##됙
##듕
##삔
##촤
##귑
##띰
##츔
##뉨
##샾
##헀
##흗
##쌰
##뉙
##겍
##큽
##좍
##퀑
##뎨
##몌
##컽
##옝
##흭
##좐
##윾
##켯
##쟨
##웝
##튑
##껜
##륏
##곈
##앏
##맟
##퍈
##죌
##꿘
##븡
##벛
##춍
##꽜
##횰
##씐
##뉜
##챨
##떱
##잌
##챰
##얭
##긑
##쥡
##떻
##뗑
##꼍
##흴
##죔
##먕
##끅
##푠
##뚧
##볘
##셥
##쏱
##굘
##룝
##쾍
##퇼
##챡
##몃
##췰
##붰
##쨌
##앍
##눼
##썅
##뗬
##띔
##튐
##륑
##짯
##큥
##짫
##핬
##잛
##볓
##쨘
##쵤
##밎
##쑵
##됫
##땟
##껭
##떽
##늡
##쁑
##읖
##쓩
##읒
##츙
##욺
##뭬
##쮜
##쳬
##퓟
##뜁
##틑
##씼
##얾
##읺
##녬
##롓
##덪
##뱟
##걲
##옯
##궃
##뻴
##몆
##혠
##쩬
##뜷
##겻
##팎
##낍
##챦
##읔
##굻
##쥣
##잗
##꼇
##붸
##걋
##뎔
##쀼
##뺘
##떪
##엶
##맽
##퀠
##캪
##녑
##웟
##웤
##읃
##꿧
##잴
##읓
##궨
##턔
##젔
##뉸
##탘
##묾
##퍙
##븨
[unused102]
[unused103]
[unused104]
##,
##)
##에서
##(
있다
##으로
##하는
##"
##'
##하고
##·
있는
##.
##했다
##이다
##에게
“
##”
‘
##’
10
한다
것으로
서울
##까지
##한다
##들이
대한
위해
때문에
##하게
다른
함께
##2
##에서는
했다
이후
같은
##에는
##이나
##하지
밝혔다
##1
하는
12
##하기
하지만
오후
지난
경우
11
된다
##라고
20
##이라고
##라는
##하여
하고
통해
오전
##면서
##...
##적인
것이
등을
그리고
없다
가장
말했다
한국
##하며
30
##보다
것을
모두
당시
##부터
따라
대해
없는
위한
...
##들은
것은
##되는
##3
것이다
##하면
15
##지만
다시
##m
##들을
관련
이상
##적으로
이날
##()
##이라는
##된다
이런
##해야
많은
##하였다
##되었다
많이
19
##-
또한
그러나
##해서
모든
##되어
##하면서
열린
따르면
18
현재
##들의
자신의
부산
16
##4
13
지난해
있었다
일본
14
##하다
아니라
결국
받고
##됐다
이어
이번
특히
보고
보면
##에도
##s
지역
##씨는
##처럼
##]
있습니다
17
##는데
않고
되었다
사실
##시간
##~
다만
##>
공격
않은
게임
정도
경찰
##명이
등의
해당
혐의로
여성
##거나
##입니다
동안
##5
100
추가
미국
지원
##되고
##였다
25
##A
경기
##했던
2016
사용
일부
2017
그는
매우
물론
##D
##이었다
가운데
조사
##이며
올해
50
전국
##했습니다
##했고
2015
결과
경찰은
국가
교육
직접
이를
바로
않는
역시
아닌
21
##에서도
있으며
없이
수사
중국
좋은
보인다
학교
##B
되는
운영
계속
세계
최근
사건
대통령
이에
22
관계자는
24
분류
##6
하나
시작
있을
##만원
받은
있어
있고
등이
##명을
거의
##=
않았다
##이라
23
다음
시즌
높은
##기를
여러
40
##었다
피해
2014
모습을
대표
우리
있는데
같이
##C
##),
검찰
사고
영화
않는다
▲
그런
##기도
일반
##P
있던
수도
진행
##y
##S
##인데
##t
##지는
##T
오늘
최대
국내
##30
##년에
문제
##M
강화
28
달리
##K
있지만
한편
27
대학
개발
26
이미
정부
##으며
경기도
##10
##들에게
##G
##/
##7
금지
인해
##20
##되지
대신
시간
##했다고
있다고
어떤
앞서
기술
다양한
##하던
##하자
많다
가지고
##씨가
##L
##:
것도
##에선
그런데
시리즈
##일부터
받아
하지
2013
정도로
사람이
또는
있다는
##했지만
등장
결정
오는
연구
크게
활동
##서울
##대로
그냥
들어
생각
제대로
너무
아니다
혐의
안전
공개
캐릭터
...)
하다
사업
##일까지
방송
이동
등에
##교육
기자
##하지만
광주
사회
사망
##하거나
##사업
29
##지역
그대로
##스트
국제
소속
혐의를
발생
있도록
##다가
width
기준
예정이다
스킬
##8
##km
##들과
자기
위반
아이
▶
이렇게
증가
씨는
처음
같다
등으로
관리
건물
##습니다
국민
문서
되어
때문이다
차량
의해
##센터
도시
마지막
주요
받았다
기록
하루
대구
자신이
새로운
상당히
인천
##장을
상대로
문화
경우가
그의
##개월
2012
31
##시설
만들어
만큼
불법
##이지만
소환
이름
추진
각각
##자가
##11
##9
교수
##F
이는
기본
문제가
대부분
이용
카드
##이라며
청와대
나온다
없어
##c
##하기도
나온
##년부터
##로부터
평가
사람
실제로
앞에서
과정에서
##합니다
##학교
어느
일이
지금
영상
확인
##문화
정보
구속
##뉴스
이야기
##E
##연합뉴스
전체
어떻게
##R
버스
최고
##관리
나오는
발표
사이
먼저
대한민국
최종
말을
기업
지난달
##위원회
대전
##er
판매
세월호
##명의
설명했다
이들은
설치
##으면
피해자
검찰은
##년간
##50
##∼
하면
대상으로
생산
계획
전투
징역
##이자
서울시
범죄
제작
주로
알고
존재
구조
60
##하기로
제공
반대
경제
받는
국회
만에
비해
그래서
서로
중앙
2018
되고
상황
만든
##e
##업체
경찰에
현장
확대
개선
공식
조성
요구
##주의
가능하다
여자
있기
시민
무기
실제
알려졌다
제주
평균
##기관
2011
생활
##이고
##시장
레벨
이유로
##했으며
자주
됐다
관한
개인
##했을
전문
찾아
유지
주민
가능성이
상대
##하는데
학생
적용
도입
##g
없었다
적이
해도
대상
않아
인정
않다
오히려
##였던
박근혜
가진
성공
##억원
선수
가지
##N
##렸다
주변
2010
##장이
참여
경남
상태
사실상
##o
라고
아직
##졌다
대응
더욱
회복
화재
##X
##월부터
정책
마을
##기가
인사
일단
##지원
##mm
시행
과거
##성을
인근
있어서
설명
병원
##O
조직
선택
변호사
남자
그렇게
아파트
집중
개최
좋다
##마다
역사
행사
##병원
의원
사실을
필요
있게
처리
하며
때문
못한
주인공
##u
##i
건설
##겠다
가능
북한
##n
이전
##대학
신고
계획이다
청년
마법
변경
남성
##H
준비
전부
##거리
보통
이러한
해외
각종
##씨의
기간
##지를
뉴스
원래
##산업
##라며
특별
나왔다
감소
##하라
기관
##학년
필요한
사진
플레이
비슷한
전혀
검사
몬스터
가족
##40
기존
특수
##d
전쟁
##ing
참고로
##V
승리
##12
아이템
인터넷
##되면서
보는
##19
##있는
##l
70
인간
##자는
##년대
##스타
동시에
의혹
중인
피해를
단체
##들도
현대
구성
##인지
해서
해결
지방
출신
정말
설정
공동
표현
##a
인물
나가
따른
##씨를
##al
직원
사람들이
발견
##W
##기로
프로그램
##U
##단체
##안전
공격력
##기업
분석
##장은
##라도
행정
삼성
지급
선거
##ᆞ
선발
효과
영향을
때는
조금
제한
전남
성장
영국
##대학교
##위를
스스로
##ar
판단
해야
아들
음악
##한다는
도로
##한다고
##했는데
회사
못하고
두고
##버스
시도
배우
예상
돈을
이제
시절
##성이
##도록
##자를
##했다는
파괴
이들
상위
역할을
앞으로
##경기
시험
경북
못했다
환경
##지도
##하도록
제품
2000
##했으나
위치
the
##15
번째
##되면
200
##공사
중단
게다가
방어
지정
정치
씨가
타고
##기에
미세먼지
회장
근무
라는
##k
##r
조선
##리아
이때
출연
리그
예정
항목
선정
기사
##권을
아예
방문
##명으로
◇
작은
##f
보호
거쳐
##있다
시간이
##년생
##으로부터
##기는
포함
##Y
전했다
친구
##분께
메르스
없고
자유
상승
일을
##주는
##100
##와의
##명은
하는데
여전히
맞아
받을
업체
노력
반면
보내
서비스
들고
전에
△
##사를
강원
발생한
공무원
가능한
따라서
완전히
##60
만들
아니
쉽게
법률
차단
형사
독일
##80
《
내부
좋아
##or
발전
선고
작품
##개의
혹은
부분
힘을
기준으로
업무
##이었던
지구
중요한
버전
##한국
사기
프로
있었던
##h
갖고
장관
중구
울산
##p
그래도
대형
입장
마련
치료
##시켜
주는
일정
만나
of
가정
대회
##로서
스타
환자
변화
쓰는
후보
신청
대해서는
측은
종로구
활용
조사를
##다는
건강
사랑
했지만
시설
채용
넘어
관련해
이름을
##in
운행
체험
행동
미래
##사가
##이란
주장했다
우려
##포토
유닛
결혼
않을
발매
##았다
체력
담당
2009
##25
운동
기능
이유
대비
KBS
##같은
참가
80
##년까지
노래
##en
감독
특정
논란
전북
자신을
산업
보스
##기술
한다는
내려
##번째
홍보
예방
관계
굉장히
경우도
시스템
프랑스
이하
이벤트
교통
재판부는
이용해
배치
노선
드라마
어려운
기념
##조사
##대회
사용하는
제도
##하겠다
중이다
자체
진출
##70
설립
사람은
직업
나타났다
##대를
보도
투자
상황에서
##TV
순간
점을
문제는
##an
##13
##16
잘못
처벌
되면
우선
2008
##사회
작업
주장
##이기도
위해서
##ed
중심으로
##18
폭발
자체가
##진다
말이
##만원을
가격
가는
외국인
교사
하기
이상의
500
러시아
논의
##학과
수준
##14
..
나서
##환경
나머지
##정보
애니메이션
##cm
##리는
취업
##수가
##(1
부인
##자의
내용을
##17
경찰이
자연
아주
영어
##호선
불러
폭행
확보
높다
사건을
##》
성우
요청
##다고
인구
온라인
장비
보이는
나와
강한
밝혔습니다
집회
인한
지나
대통령이
안에
의미
##만큼
기대
##보다는
##없이
참조
열고
##I
##21
시기
유럽
##23
핵심
##회의
촬영
부족
##력을
스토리
난이도
여기서
플레이어
공연
출석
의심
되지
청구
고용
전환
무단
심지어
연기
기억
보장
한번
소개
##으나
지적
멤버
축구
##시키는
범행
분야
##정부
확정
##공원
나는
##라면
◆
##서를
모습
내가
##조차
지속
상황이
덕분에
##분류
##단계
사장
성격
검토
통합
만드는
하자
들어가
문제를
정부가
능력
청소년
고려
##경찰
300
나라
언론
보기
아버지
아래
앨범
##자로
마무리
##되기
조정
##on
훨씬
##35
낮은
##0
대화
그리
비롯한
의사
##일에
##le
디자인
투입
모델
규모
데뷔
재판
##대가
시장
##지고
위험
1000
문재인
합니다
동물
##되며
##수사
##24
##정책
지하
##th
의료
##x
##스의
인상
밖에
강력한
##st
이유는
##도로
35
슈퍼
전용
전기
##한테
훈련
##됐습니다
발사
재배포
##.3
불구하고
계약
감사
처음으로
것에
##린다
사이에
##과의
그나마
##사진
##협회
##스터
##세대
규정
조작
구축
보니
시대
받는다
##운동
등장하는
통과
우리나라
유명
어린이
아침
앞두고
축제
전달
없다는
사회적
취소
합의
자세한
실패
##점을
레이
사실이
마찬가지로
시작했다
작성
위치한
2007
##방송
논란이
대통령의
노동
피의자
##경제
##32
개정
영웅
##세기
사과
사용할
강조했다
것과
##그룹
대체
아동
없다고
등장인물
원을
발언
정확한
실시
걸쳐
장애인
새벽
관광
진화
당연히
그동안
시간을
속성
우승
##스가
하였다
##마을
발동
나이
평화
이와
독립
##려고
점검
참고
##밖에
강원도
민간
하면서
대법원
자동차
오브
##re
##화에서
##년에는
못하는
##월까지
파악
패배
##으로서
언급
한다고
내용
##개발
차례
##과는
##사건
예산
직후
연속
##26
것이라고
대책
공공
받지
걱정
그룹
롯데
활동을
##레벨
가수
교체
##니까
비판
##왔다
##겠습니다
긴급
초기
책임
폐지
부대
갑자기
머리
위에
말한다
전문가
##축제
공급
##b
수사를
##사고
등은
##이기
일자리
절대
90
명이
소리
##가지
##기간
##상을
충북
확산
앞에
현실
인터뷰
연장
##나라
노인
듣고
만화
제외한
법원
제출
집단
충남
Δ
씨의
보였다
##받은
내년
##력이
가입
경우는
거부
모습이
우주
엄청난
조합
##본부
TV
모드
올림픽
없을
교수는
조치
필요하다
##게임
공사
후에
##수를
표시
에너지
수정
획득
자리
##.2
##경찰서는
지진
##라인
##었고
취급
중에
##us
##200
The
명칭
구매
##시킨
활약
동료
##리스
##하다가
종합
##비를
사는
상태에서
연결
것처럼
##하나
곳이
##.4
반드시
상황을
##재단
운전
나무
구속영장
이야기를
##(19
##22
등록
..)
거리
위협
SNS
##et
철도
자료
강제
##el
경우에는
##개를
인식
하이
불이
전날
수행
##월에
주소
기획
##활동
부정
앵커
수가
지지
지하철
##at
협력
감염
왔다
희망
의원은
진짜
외부
##29
만약
얘기
##우리
적은
정보를
##같이
종료
검찰에
##와는
##하였고
##90
##z
대기
##.7
이게
크기
##주년
노조
기타
그가
드래곤
광고
사람을
##J
##종합
결과를
##시민
##되었고
##었던
편이다
##관계
##에게는
##(2
프로젝트
##전을
정신
가까운
않으면
기소된
정리
##이라면
##제를
혼자
##평가
새로
##500
프리
아니고
출시
...).
2006
45
원작
소설
덧붙였다
경영
속도
접근
의혹을
거래
##com
데미지
정부는
공격을
##행사
있지
살인
전자
##하려
32
##%)
##군의
중심
아군
제기
국회의원
정부의
##함을
##씨에게
사례
지금까지
끝에
##장에서
홈페이지
나올
MBC
전시
여기에
의견을
제거
##부산
법무부
##국민
대사
##씨와
어렵다
?)
오르
##un
성과
좋지
택시
마음
##들에
경쟁
재판에
엄마
##고등학교
방침이다
부여
비상
##화를
##리그
바람
마스터
전통
##5%
방향
기자회견을
추천
시민들이
단계
##스러운
고민
총장
##감을
수도권
열어
##스를
명의
내용이
##은행
숨진
따로
무단전재
사건이
##48
##해도
준다
아이돌
수밖에
인권
인도
반복
##레이
관련된
의한
지적했다
소재
찾은
허용
방면
##치는
전해졌다
특검
임금
달성
크다
포함한
남편
종류
보상
진입
다음과
33
역대
구간
##카드
했던
무슨
(.
단속
놓고
떠나
##우스
대부분의
##하려는
넘는
일본의
약간
있으면
인기
주택
에피소드
반영
##회사
학생들이
파워
입장을
통한
추가로
이름이
◀
수입
졸업
##27
성적
##억원을
주문
항상
##.1
어린
##전에서
접수
아내
하늘
##별로
도움을
##도시
##임을
##복지
본인
##공격
부담
##식을
■
맞는
부모
빠른
##대는
특성
불구속
전화
달라
금융
진술
투표
입학
2005
댓글
##마리
스포츠
기자가
##니아
##es
SK
참석
매년
관계자
보다
서초구
##ur
제일
절반
해군
드러났다
기소
##사의
부활
점수
유리
기계
쓰고
의무
근로자
알아
클리어
대한민국의
수능
때까지
출전
자리를
검찰이
돌아가
얼마나
압수수색
##28
위기
있다면
정상
##생활
##국가
대해서
동생
미리
##.6
주말
충분히
나타나
어제
국립
##연구
달려
##it
잡아
효과를
더불어
여기
잠시
도움이
우수
충돌
##31
##리가
있으나
빨리
내용은
##사는
얼굴
보수
신체
정도의
차이가
소방
부산시
##is
##ad
##00
행복
통제
고소
바다
번역
##45
오래
##분쯤
소송
##지방
표기
체포
교육부
사고가
상태로
유명한
삭제
##(3
비밀
컴퓨터
길이
엔진
조사하고
##자와
회원
전재
수상
이해
장기
##위원
차지
##물을
##시험
태풍
하게
##여성
!!
공중
복지
##세를
다소
지자체
더불어민주당
고발
수원
앞둔
##냈다
여행
##차례
얼마
활성화
많아
전면
★
##ro
재정
않게
##겠다고
경험
입고
비롯해
설계
목록
자살
목표
아무
참사
완성
##학생
장착
정작
##행정
블랙
생존
최초로
손을
비용
##문을
범위
작가
적을
아니면
일대
겨울
군사
사용자가
마리
역할
##주기
초반
##시켰다
배경
##나무
##시킬
어머니
씨를
이달
그를
주제로
물리
여름
필요가
##연합
내에서
##범죄
##지구
지역에
등장한다
아마
주고
연출
판결
##.9
##군은
반발
내일
미국의
##스는
##으니
효과가
연계
선언
알려져
주의
창업
안내
출발
비교
무장
()
방식으로
남은
사업을
알게
##과학
증거
마음을
서울시는
완료
제안
##준다
야구
##시키고
있으니
바람에
##문제
방영
150
얻을
현재는
공항
능력을
##000
##등급
포인트
정식
##사와
제시
나오
식으로
추정
34
##IP
부분이
미션
제외
남북
많았다
했는데
유통
예를
##대표
등에서
김씨는
정당
##ic
사상
보여
과학
형태
최고의
한정
폭력
##이면
육군
내리
여담으로
고등학교
성폭력
분위기
모집
도착
싱글
지도
노동자
##보호
복귀
나중에
##트리
중요
제주도
있었고
SBS
못해
이건
##kg
##랜드
그림
##서비스
##원이
사전
수술
##이므로
아시아
임명
엔딩
과정
##ra
2004
공포
조건
##34
관심을
##시부터
여부를
해제
사태
말고
살해
##07
##검사
이미지
다르다
통일
비가
법정
검거
##교통
추모
##w
생명
글을
했습니다
##들어
별로
가면
열차
부회장
때마다
존재한다
##연구원
라이
FC
##이라도
도전
탈출
구분
강조
적극
##36
해석
떨어진
36
신규
##제도
이사장
방해
높이
제국
##레스
올려
지상
메인
여의도
##관광
공간
맞춰
방안을
뒤에
벌금
in
알려진
평소
자녀
만들기
##장으로
상담
##야마
보이
##됩니다
##니다
무려
##자들이
초등학교
부탁
소모
##kr
##75
빠르게
행위
쓰레기
탄핵
결론
특징
##만명
##리를
##군이
##부장
개편
##대상
기부
도심
걸어
중간
나오고
LG
방법
최순실
패턴
##ri
어디
떨어져
모양
열리는
##지가
##더라도
동일
지휘
부상
카페
##www
예술
##하려고
브랜드
영업
##co
##나는
운전자
투수
세력
힘든
상당한
다르게
##세계
살아
포항
##55
못한다
공장
##협의회
분리
집행
신설
이용한
나눠
촉구
집에
묘사
##버린
유치원
##..."
소득
성인
김영
##09
##보고
##없는
작중
##99
노출
강남구
##33
착용
회의
군대
월드
##계획
##37
나섰다
형성
##교사
했고
##행위
##상태
항공
이름은
합동
성추행
##원을
##하겠다고
박사
##라운드
변신
마치
Lv
##연대
임시
하나로
계열
가끔
##받아
의견
양성
남아
모아
사람의
##01
본인이
인증
##기준
위원장
글로벌
가져
이탈리아
해소
대규모
로마
##38
불가능
요리
##이번
유일한
구입
지원을
수색
이른바
없지만
마약
지시
##차량
있었지만
참석한
작년
지배
##라이
##량이
##보험
언어
수출
케이
사이트
먹고
##어서
타입
##드는
38
공유
적발
##금을
수석
##지로
위로
여부
점점
추락
외에도
비리
사진을
치료를
##시즌
##간다
##어요
발생했다
##되었으며
대피
자원
##구조
대선
경찰관
최초
받게
##단지
센터
유도
서울대
소녀
##했기
##위는
##오는
고객
##발전
##노조
기체
##아이
다이
탑승
선물
곳에
하여
수많은
##였고
정권
전략
공모
분노
가구
##성과
지금은
##가량
현지
대표적인
책임을
속에서
시점
저항
##국제
보이고
순위
점에서
그린
있었는데
우리가
눈에
##08
도중
허위
음식
##더니
일행
원인
개념
가까이
재산
HP
##기록
전개
접촉
문을
클럽
무대
유치
검은
최소
포기
되기
수록
수용
사유
나오지
개통
##소리
##자리
죽은
전사
남부
좋아하는
##사항
저녁
바탕으로
종교
등급
했으나
어린이집
##대전
상당
사람들은
서울중앙지법
##화가
##시대
탓에
전차
지역에서
##연구소
생긴
##기사
자유한국당
했다고
한국의
도쿄
후반
##',
끝내
그러면서
##치고
점이
세상
가서
##원은
할머니
징계
스테이지
대표는
경찰청
시작한
확장
추적
위해서는
일어나
탈락
바꿔
빠져
##치를
##이니
공부
운영하는
##회장
애초에
##전에
적극적으로
모르는
##처리
젊은
##재판
이름으로
장소
##Z
##위원장
모른다
대통령은
##당한
황제
vs
환경부
자동
말에
주인
체결
##(4
##으면서
발굴
to
정의
관심이
질문에
현장에서
테러
##65
옮겨
무료
##카와
이들이
협박
2002
않도록
향해
베트남
##일에는
열린다
지사
배틀
##세요
그때
육성
##훈련
사람들
문제로
##하다는
##교육청
##시킨다
필수
철거
##건설
사용한
심리
##마저
실험
사용한다
##.8
유출
학원
기본적으로
비난
작업을
시전
##스와
연합뉴스
강남
지역의
##(5
##운영
싶은
직장
찾는
출생
기초
건담
최저임금
신경
##해진
제목
##용으로
만들었다
올라
단지
연휴
정확히
##공간
되는데
##하였으며
입은
싸우
외국
화면
비행
제조
차관
##대의
취지
##대교
서울중앙지검
원하는
악마
운용
청주
향상
속에
인력
37
고정
##05
파견
피해가
모여
로봇
##비가
반응
다리
편성
##시아
개방
전주
김씨
성폭행
종족
강릉
밝힌
협의
시각
현금
있는지
사고로
추석
##하겠다는
유일하게
##인이
몸을
이웃
시는
이걸
##자원
이기
증언
매일
##시스템
고속도로
물건
##노동
본래
▷
##공단
##id
##일본
봐도
전원
##44
경계
올리
겁니다
##선을
이적
한국인
지식
것이라는
스타일
등장한
패치
##점이
장면
영역
중에서
2019
애니
##능력
각성
수십
##동안
월드컵
그걸
2003
만난
가게
근접
##트를
입원
미사일
생각해
팬들
##에게서
말하는
조사됐다
의뢰
120
##겠다는
##안을
주민들
정비
##다면
당일
출범
무조건
동영상
##협력
2.
다크
수는
대중
게임을
현재까지
##시티
##되자
확인됐다
없기
그야말로
사격
광화문
없음
당장
부부
##전쟁
훼손
아무리
불리는
##선거
은행
##사랑
##법을
수업
뿐만
바란다
##IC
마친
응원
당선
전망
##신고
국정원
가슴
사이에서
AI
65
힘들다
스마트폰
##39
##수록
##트로
##하다고
위안부
제정
확인할
PC
##초등학교
##갔다
눈이
피부
폭염
보이지
드러나
건축
등과
주도
승객
건립
몇몇
끌어
##지지
없어서
소년
위의
##서는
##어야
던전
링크
간부
은퇴
허가
##시에
상황에
##조선
##47
내린
헌법
김모
##대책
평가를
새누리당
공주
##세가
##하라고
심각한
주력
달러
올라가
의원이
##전문
##받는
전직
대학생
발표했다
혁신
다수
길을
의식
꾸준히
##개혁
##쳤다
약속
않지만
##경찰서
and
향후
기록했다
북부
유저
##버리는
방안
개입
행진
##400
광역
지속적으로
한반도
의도
블루
부르
호텔
반대로
##학원
방식
학부모
상대방
보험
##느냐
캠페인
최대한
##원으로
##므로
##04
취임
##~20
부르는
합격
자신
##었습니다
400
가스
승용차
No
그녀의
통신
이유가
##세트
대체로
보급
##까지는
이들의
보여준다
목적으로
잡고
##때문에
파티
거기에
뇌물
카메라
주제
##의료
수립
##천만
집행유예
##적이고
희생
종종
대학교
상품
##이던
동의
##뿐만
최초의
싶다
미만
뛰어난
##300
대장
죽어
##음을
커뮤니티
개혁
고대
보아
라인
보조
##버렸다
내용의
워낙
의지
들여
세대
능력이
##프로
##버린다
교통사고
##59
아르
계산
작전
##놓고
##었지만
형태로
완전
남성이
수비
무시
기각
규제
끝난
사무실
산불
##ir
토론
세트
일은
방지
비교적
횡령
하던
##장의
선박
타이
사실은
감정
넣어
퀘스트
타격
##한다면
##수도
##명과
누가
목숨을
##46
##었는데
보안
##주고
장면이
##가족
본사
중학교
##스케
삼성전자
근데
냈다
기반
안정
##제가
기존의
신문
55
프레
##as
경기에서
##감독
만들어진
복수
상징
실력
명령
##기구
에어
##ha
연주
차별
있었
(19
민원
##려는
##지법
때도
소통
##장과
채널
해상
필드
기회를
만한
즉시
수치
이후로
연재
알려
기술을
이사
곳에서
초반에
당한
포지션
##하니
##머리
않았
바이
성능
대법관
되었고
##am
119
##스크
##"...
formula
##56
##06
부장판사
##겠지만
42
##장에
않기
장애
방침
후보자
그리스
##데이
업데이트
포함해
바이러스
외에
사건의
리더
##지라
생각하면
자료를
안에서
부지
호소
방어력
처분
##라서
부문
병원으로
해양
##ol
상대적으로
범행을
내렸다
굳이
##il
생물
가사
초대
싶어
만들고
원장
##부터는
##포인트
##일간
화장실
정치적
##49
침해
경주
민주노총
반응을
39
합류
뭔가
마나
##88
부과
전망이다
##수는
##all
일제
전력
얼음
부동산
대법원장
압박
대해서도
##타로
##부가
##하므로
##부는
불과
경고
원칙
생각이
소비
CCTV
##장관
##ch
##항공
소비자
숫자
##여명이
##들로
현상
폐쇄
내고
##기와
##98
마이
돌아
전설
이전에
후원
대출
##속도
자전거
##해졌다
쉽지
자체는
소유
혼란
생각한다
표준
피고인
보관
기자회견
듯한
업그레이드
##지검
창원
총리
##실에서
일상
기여
##im
미니
##리에
먹는
한계
인생
수리
유족
민족
붕괴
##치기
밴드
##개국
전작
##43
발표한
권리
시위
도주
##아파트
##95
에이
고려해
##학년도
한국어
##03
계획을
편집
한강
##사키
정황
인수
디지털
##상황
##효과
함정
단순히
##v
75
유형
일본군
인기를
주변에
태양
사거리
강력
서부
그래
뛰어
포켓몬
##에만
뿌리
체계
들었다
##상의
2001
##감이
전공
##받고
이것
아는
라디오
대처
##_
이유를
재료
왼쪽
측정
진행된다
정기
##공무원
관심
스페인
##무라
무리
##했는지
##85
맡은
##버리
##계약
아니지만
주차
의외로
생성
무게
##57
듯하다
시청
하나의
시신
##케이
회장은
벗어나
예상된다
48
항의
방향으로
시작된
인천시
지명
능력치
대답
##하려면
프로그램을
신고를
##피해
구성된
불리
##인권
국방부
판사
##시마
##보는
불안
##지에
##공장
이명박
소송을
과정을
##함으로써
고양이
고향
##사로
##64
가량
##소를
##원의
##위에
##구역
단어
동부
카드를
생각을
##(20
카이
이혼
챔피언
담긴
##됐고
##드라
외모
##부대
문제점
입건
재난
점프
중요하다
과제
간다
##위로
방문해
분명
번호
나선
##77
돌려
살고
교회
김종
교류
참여한
학대
원인을
좀비
레드
서버
##)'
##시까지
성매매
연합
##치료
유기
공감
사망자
주최
##금융
##체험
##보면
협상
그게
이상이
##되기도
체제
##의원
##02
물질
##66
##웨이
국민의
##업자
발견된
토대로
직무
휴대전화
강하게
담은
무죄
공원
##정도
아무런
##주택
재단
수사에
강요
저지
##사무소
자리에
43
의하면
동원
영상을
미군
김정
대로
오른쪽
##답게
점은
막기
실행
##선수
거주
코스
##보니
가동
배출
보너스
##부분
한글
관측
대결
선생님
감시
##구를
서술
##여명
##69
소장
경기를
통보
##대에
제가
KT
##소득
언제
누구
선수들
중소기업
제외하면
요구하는
시작으로
부서
##여서
##리고
넘게
근거
##단은
의견이
의혹이
행사를
트위터
##상담
당했다
##명에
보낸
고위
##내는
##영화
##CC
자금
성우는
##67
##비아
법적
수준의
짧은
판단했다
요금
뒤로
서비스를
##회를
뉴욕
얻어
펼쳐
선고했다
때부터
제보
지켜
##모토
조종
1990
집에서
왕국
##네요
몰래
##and
음반
루트
##정치
뜻을
라이브
##조직
##89
것입니다
##자인
예측
고교
경비
시리즈의
서구
아프리카
죽음
##te
##이었고
그러니까
주차장
도박
##청소년
##53
##1%
##86
동기
열심히
##부를
대폭
상태다
장관이
연습
충격
장갑
소련
##오늘
3.
##겼다
##ow
아울러
자리에서
맞은
갈등
요시
##였지만
가을
##58
수준으로
지닌
타카
##투자
확률
##장치
##se
사법
명예
있어야
##단이
헌법재판소
##비용
북구
공군
맞이
흡수
##행동
규모의
##시쯤
격리
##영상
특별한
41
한때
파업
시작한다
##공항
##본부장
사고를
동해
특유의
##교수
진실
지점
마치고
##51
영장
##0%
올린
##'...
수집
##&
5·18
되면서
김성
##ly
가해자
비슷
형식
심사
조기
춘천
St
52
돌파
동네
대상이
부분은
개설
선임
##지게
막아
방법을
개조
정규
한화
##41
이곳
##명에게
밝혀
##78
44
##짜리
##무기
해체
환자가
이모
##800
Re
머리를
##1)
##트라
거절
##것이
받기
회피
시민단체
당부했다
발음
##국장
##치가
본인의
##)’
##친다
집안
여성이
업무를
##(6
##까요
들어서
데미지를
이중
경찰과
않았고
화력
의문
영하
##적이
일반적인
##96
점차
끝까지
총선
골드
부족한
옵션
##졌고
##업무
임신
이것은
와서
대표가
들어오
맞고
일반적으로
발령
##ie
아빠
##이닝
예비
음주
가득
별세
주거
음성
해당하는
##42
##기지
입구
형제
##예술
##시께
보유
추측
곳은
아키
있었으나
끌고
##검찰
통해서
##8%
떨어지는
눈을
##차로
EX
특성상
설치된
문자
##광주
창출
손에
헬기
##97
힘이
오랜
오리
민주당
의장
##해왔다
네이버
직원들
##현장
##듯이
그것
식당
어려워
##하러
산하
그저
생각하는
복구
성향
승인
환영
학습
우려가
자랑
법인
교육을
##op
쉬운
판정
##군을
##베이
강도
점령
재개
세종
부른다
조치를
다행히
아이를
내에
심의
심장
가치
수학
##받았다
연간
마법사
줄어들
더블
##ation
##52
##68
보여주는
이행
##현재
시내
걸려
현장에
관광객
붉은
인기가
나눔
유엔
!)
원정
시내버스
빠진
##ut
위에서
박원순
장관은
항공기
##함에
##됐던
##체계
마음이
물을
화염
검색
영향
##계의
##중앙
##제품
비정규직
세상을
관련한
##72
이야기가
##79
치고
##장애인
이것이
쓴다
##54
##→
##74
##면서도
탄생
다니
개그
##ER
##지기
실종
민주
##600
##만이
변호사는
스트레스
##76
두번째
곧바로
오해
모습으로
##+
##사람
밀려
추정된다
동구
인재
##났다
##로운
46
발휘
##토리
말았다
본다
작동
결과가
정원
많고
1999
조각
##거래
식품
한국에서
매장
코드
##해주는
관할
소수
##학회
챙긴
내지
##민주
노후
장치
문건
마찬가지
흔히
##해주
만족
멤버들
겨우
##관을
해안
풀어
늘어
계기로
셈이다
차량을
아름다운
당신
고급
시장은
3000
거대한
##제로
타이틀
##기획
건너
##타임
##미터
범인
##px
납치
답변
청소
황금
영혼
##이었지만
진단
바랍니다
##환자
농업
경위
봉인
상태가
##놓은
확실히
찬성
데이터
사퇴
이라는
인류
됩니다
컨셉
차량이
##구청장
전역
대기업
##단의
쪽으로
재생
거치
이론
##바이
공기
몰려
1996
행성
##오리
없애
이번에
멀리
금액
뿐이다
유튜브
##해온
우리는
##타운
##대구
옆에
##2%
직전
일어난
오리지널
1980
인원
입수
In
바닥
##la
들어간
실현
##단을
##84
선생
자신에게
요즘
의미가
방치
##um
고유
자세
거듭
사이버
관계를
##활동을
주목
##73
##만으로
잠깐
##스키
##사기
교과서
없게
밖으로
만든다
목소리를
세워
##신청
말씀
##라스
득점
##는지
##ell
항소심
목적
1998
##이어서
오픈
붙여
트럼프
나름
이내
파일
그럴
##장애
##선이
다니는
##에게도
진행한다
낮아
47
##트가
극복
할인
정착
부분을
저격
##철도
발인
5000
보여주
폭로
찾기
방법으로
영입
들어가는
모바일
대다수
싸움
작용
##장비
통상
##63
공략
권고
사람도
제압
##심에서
##스티
증명
목소리
도내
##식품
##원장
##당시
본선
주지
커피
##ia
구단
명단
김현정
시점에서
입주
##이치
진료
바뀌었다
김동
팀의
수요
병력
##스킬
본격적으로
##률이
것인지
##작업
##역사
술을
장군
지연
출근
##도서관
기지
##속성
전반
평범한
넘어가
정지
##카이
##동의
출산
광주시
##ot
##웠다
해경
##ay
걸로
일러스트
##자료
들어갔다
##니스
히트
##(7
##Q
타임
없었던
사냥
소리를
##만을
열었다
##으로써
##경영
##방향
그렇지
장점
말한
이씨는
부품
중반
콘서트
못할
##신문
##였는데
맡고
쓰지
경제적
##천만원
얼굴을
작곡
##구나
죽을
보완
공공기관
##역에서
아니냐는
방법이
승진
##li
부실
##임에도
##미가
마지막으로
저는
##정신
##62
행동을
깊은
##이드
모임
요구했다
##중학교
이후에
참석해
##식이
주기
회수
##메이
##총장
고통
출마
장르
##됐지만
차원에서
##관이
그러
##공연
경찰의
##사실
무한
가짜
해주
갖춘
쓰기
##가스
최강
측이
면적
이래
사람들의
별명
##대와
도망
##우는
##개가
마사
1997
Co
저지른
취재진
##법인
##94
권력
아직도
사안
사진은
##하긴
##평화
##5000
코너
개의
아무래도
##으므로
버프
불편
임무
화물
발언을
##놀이
대미지
내내
저장
##기의
손해배상
##월에는
you
##만한
역량
맡았다
음주운전
##부의
양산
동일한
적의
경유
보고서
지원하는
콤보
찾아가
##중인
조사에서
기회
설득
생겼다
미디어
손님
힘들
브라질
재판부
선출
취득
캐나다
습격
불꽃
발생하는
##700
##간의
나쁜
뒤를
회장이
이재
##인천
##드리
관계자들이
일원
##화된
보컬
임대
상황이다
대한항공
브리핑
##교회
##거든요
김태
##.11
사건은
유행
사건에
##lo
##자에게
그것을
사람들을
최씨
누군가
와중에
몰아
##주민
채택
실천
남녀
유포
하락
트리
보도합니다
##세이
인형
##물이
붙어
메이
승강장
##어가
질병
신분
##.10
이성
착수
단순
제로
##통신
사용자
여론
봤다
전담
##’,
악화
상처
##져서
주위
촛불
얻은
가능성
##ul
정규직
초과
꽤나
일종의
##전자
날씨
##ent
느낌
요소
필리핀
체력이
대공
있었다고
주관
##코리아
모자
건조
충전
입증
벌이고
##조치
##시키기
예외
올렸다
폭탄
그만큼
동맹
심판
가능성도
##려면
확률로
##박근혜
질문
경력
늘었다
처음에는
남구
돈이
##과정
여성의
태도
예고
트랙
씨와
유해
서울특별시
수준이
##낸다
구체적인
복원
팀이
국내에서
견제
##투표
##아동
##os
개봉
코치
분들
##.12
##천여
꺼내
##~19
신분으로
외교
이슈
교환
유사
밀리
or
규탄
군인
##해진다
본격
곳으로
이송
아기
경위를
지인
일본어
지적이
벌어진
##단독
탑재
발견됐다
면접
배제
단독
난민
근처
어쩔
영향으로
파리
시나리오
##)·
단축
##티어
출입
자신은
오른
##자들은
자격
49
규명
불을
어느정도
##심을
그들의
##드를
통계
체육
##정지
내놓
목소리가
누구나
농가
괴물
계약을
자택
##과장
투쟁
존재하는
상상
##71
공개된
##되었던
교장
##대통령
##박물관
이틀
신호
딱히
오오
흘러
##자마자
응답
##였으나
시민들
이용할
크고
##팀장
미친
목표로
기상청은
대부분이
올랐다
맞추
눈물
on
아닌가
##중국
##자들
고문
##법원
##년도
##스카
태극기
600
##고속도로
통화
그렇다고
진정
재판을
맞다
것이었다
개막
##왼쪽
알리
##자금
##보건
##정을
상향
소지
##업계
게이트
##결과
아카
전후
##적이다
세이
상반기
##졌습니다
하다가
지위
속도가
포착
학생들은
##ive
확진
발달
날아
##분야
학생들의
##받을
원거리
용어
등이다
개장
되며
엄청나게
썼다
절차를
상당의
##였습니다
홀로
증상
##음악
엄청
이주
##조정
다섯
불가능하다
##사에
신뢰
이후에는
그녀는
하더라도
인천공항
했다는
대화를
컨트롤
돌입
페이스북
가문
##2000
완화
##ine
약점
연방
##하면서도
계정
어려움을
##ag
아라
##드의
기온이
시기에
##비는
수원시
최선을
##j
교육청
당초
##냐고
##프트
이어지는
##다리
참가한
##na
대만
봐야
서해
생일
##하시
##대장
절차
시범
국적
개정안
##는데요
보건복지부
시청자
##량을
벌인
##'(
찍어
기재
클래스
##’(
제공하는
영향력
열렸다
병사
##AR
말해
주식
1995
##로서의
운항
마음에
명절
별다른
##ce
심한
합쳐
홍콩
모험
녀석
잇따라
콘텐츠
있으므로
##ill
야간
선배
AP
광장
##ter
아리
날개
선체
일본에서
즉각
##%
구역
드러내
##음에도
질환
했을
생활을
논문
이루
거기다
##드가
##4%
아니었다
출장
다르
is
##플레이
로드
##지사
성희롱
나이트
진영
적도
나갈
스마트
희생자
##에겐
##93
##어로
##83
처음부터
유입
정도가
##표를
##실장
##하고자
##자들의
임기
말도
살해한
사례가
특혜
##전이
##ate
암살
성범죄
집을
부분에
##ig
##율이
부하
갔다
##82
##지않
마크
부모님
단점
연금
도서관
##수당
바꾸
확인하고
배상
##하라는
##건으로
인간의
사정
에스
적에게
언니
조심
56
측면
##방식
##어를
검증
초청
차장
##수로
기원
##츠키
축하
가능성을
대상자
레어
위하여
전화를
##되었으나
서브
##호가
진보
대량
보병
과연
계속해서
##다니
복합
##캠퍼스
##진흥
추가된
현황
##피스
연대
예전
전술
현행
##87
발행
##ant
마련된
흔들
##즈의
약한
##ex
##가구
##예방
녹음
쓰이는
##ry
##루스
51
보석
촉구했다
유발
개별
##one
교수가
##데다
식물
없으며
하겠다
역전
단일
불명
둘째
예선
살려
##심사
##명이다
##마루
전까지
De
64
매출
가야
마르
말이다
##세의
진행된
소식을
##청년
에이스
갤러리
높아
돌리
##91
용의자
##모씨
도구
축소
적지
##자동차
##부에
구현
않는다는
못하게
결심
배신
횟수
중에서도
##‘
장난
사항
김현
배달
추정되는
엘리
##페이
여러분
##61
##물질
하나가
상대가
##센터에서
실무
났다
당사자
종이
##2017
무엇보다
달하는
인터뷰에서
##이었으나
##버릴
##권에서
주민들이
동쪽
결정을
좋겠다
판정을
크리
거두
청원
집회를
근로
전파
봉사
##군에
##리안
전부터
임원
대책을
##리어
해설
서쪽
멸망
입을
그만
다음날
1.5
##제주
데리고
고용노동부
##질환
당황
철회
관람
최악의
가려
마시
##사단
해고
씨에게
##달라고
온갖
유키
##청장
그러면
장수
본인은
VS
##ho
##하였으나
수습
떨어지
판결을
그것도
##성은
행위를
대륙
청탁
사무
지옥
아웃
참가자
먹어
##권이
사용해
보험료
듀얼
목격
정치인
차를
총기
눈치
##수원
삶을
법관
##2018
##바람
250
밝혀졌다
높게
##AT
사람에게
##버리고
기념식
협약
##위원회는
몸에
##ap
대구시
촛불집회
중부
##회에
요인
##시키
물품
발부
메가
재직
가리
드론
##7%
돌진
사망한
##중에
테마
레이저
널리
급증
##체를
동아리
결승
##관은
인양
부진
패러디
비행기
##로스
##건강
전무
수백
과목
##TA
경찰서
차이
훔친
##로우
저주
##인사
180
##가능
신임
송파구
5.
JTBC
회원들이
녹색
협조
부위
크로
##기능
막을
4.
등등
하기도
말라
##이라서
토지
상호
명을
만다
지어
##고용
나아가
혁명
추산
이후에도
##이지
의미를
보건
어깨
위원
##러스
##시켰
히로인
정책을
##age
오염
수여
##.5
끝나
조항
북미
##법에
##다운
포스
오류
재미
옮기
##경남
##으려
##점검
간의
스테
잘못된
모르
조절
동시
SP
때려
거대
53
일주일
동반
연인
늘어나
##92
아무도
접속
터지
이정
걸린
##연금
대리
답했다
그것이
##연맹
1994
##대한
몸이
강제로
새롭게
##판을
법원은
원내대표
km
매력
##om
다운
하거나
않았지만
태어난
##ong
먹을
승리를
##법이
##언론
자기가
##파크
잃은
##어도
살짝
유가족
##분의
반성
기독교
특기
액션
일부러
이용하는
관계가
생각하고
취재
인지
되자
##판매
공화국
##(8
대놓고
여러가지
산림
차지했다
맞서
캐릭터가
##원에서
1.
##관련
시인
##ang
용역
##주를
일당
교실
소요
소방당국은
기록을
시스템을
##https
##프리
카운터
참여하는
않았던
국정
비중이
닥터
##수의
시체
귀국
적절한
난다
창조
두산
##스포츠
국무총리
방패
##6%
##차피
진정한
시티
넘기
전해
진술을
기상청
안팎
최소한
주먹
2020
맞지
중간에
농장
재능
해방
않으며
##이긴
당시에는
##계열
보인
##내기
입국
##3%
##2)
##인들이
매달
공익
보존
##81
##조건
기소됐다
##당했다
않아도
목사
##동에
위력
쏟아
공작
안된다
지방자치단체
식사
있었기
원고
사람들에게
들어간다
날려
it
##피해자
##층에
차원
원래는
대우
다음달
지켜보
먹이
소멸
국민연금
공판
학과
친구들
쿨타임
하나인
##로써
여동생
이상한
비록
화학
베이
##프로그램
##리의
##직을
업계
캐릭터들
응급
##위가
아이디어
빌려
없습니다
구형
헌재
클로
놀라
가졌다
Ch
후에는
병원에서
노트
단위
##지면서
지원한다
Sh
데스
댄스
주장을
##터미널
상관
##시스
소형
솔로
노사
학교에
##용품
공정
##줬다
앉아
전체적으로
폐기
아니라고
할아버지
된다는
지역을
##복을
조사한
않아서
##주년을
살아남
자체를
가드
##메르스
낚시
조금씩
과장
원전
이제는
되찾
논리
페이
위기에
아이들
보냈다
##사법
가로
말할
##였으며
교육감
##제는
보지
현재의
정체
강사
##해달라
들이받
평창
##였기
이거
##해지는
58
##돼야
99
기상
것이라
출동
운영하고
진행했다
공약
위장
흡연
##타이
사드
확률이
면허
해명
서류
회전
배포
매체
대통령과
##ge
##지마
서울역
간담회
극장판
팀을
자식
현직
##구가
생기
##ers
회장의
없으면
오버
지역은
어선
##마이
던져
융합
##IN
진행하고
울산시
##개로
##상으로
##품을
중에는
로켓
##끼리
##번호
54
##지방경찰청
고생
상자
##ist
부착
소식
85
금품을
힘들어
과태료
##집회
창원시
결정했다
옷을
하나를
안되는
변호인
매주
지금도
이다
제품을
넓은
세부
승부
0.5
##(18
##상품
대가로
꿈을
##곳에
뒤늦게
##트의
##ack
세운
##내고
버티
오프닝
`
성남시
진로
##집행
##법상
학생들
##점으로
수송
##`
부터
거짓
기름
판사는
토론회
용병
케이스
트럭
격려
사이의
이쪽
네트워크
##전형
##리와
침몰
편의점
최저
##분이
형태의
대립
##ard
돼지
##〉
적어
##혁신
##to
여왕
호주
##었으나
주연
평택
느낌이
던지
때에는
##되는데
##세로
내는
데이
얘기를
오토
##지면
수익
(0
##지원센터
(1
문의
하반기
버그
아니었
게임이
서울시장
##예산
##리스트
##절차
급식
잡지
가방
MP
김상
혐오
##스코
조사할
직원들이
##아웃
##시가
변형
가족들
쉽다
##스로
히어로
##주차
무역
##est
참전
계승
데다
법안
##든지
입지
군단
합성
##소송
모두가
간호사
담배
원인이
순서
인용
만남
##드로
제공한다
빠지
평양
용산
남긴
운명
##주가
##화에서는
##모드
비슷하다
카톡
밸런스
##달라
##되거나
알바
##됐으며
연극
클라
로비
##자키
본관
##라이트
연관
##이든
연령
친환경
##인지라
##분을
북한의
##방어
피해자들
증가했다
스피드
##법은
57
대안
김용
##테이
입력
##동물
##해져
처분을
##원에
원의
독자
연예인
드리
남겨
##리오
사건으로
맡아
##여행
합병
수차례
국민의당
군산
##지금
##조원
방송을
똑같은
촉구하는
챙겨
##신이
##-1
기분
##터널
정밀
연애
생겨
현장을
##학자
거죠
연락
쓰면
분량
밀어
##혔다
##AL
노력을
그녀를
현역
59
저희
왜곡
의결
선수가
무사
민주주의
활용해
싫어
도와주
##스럽게
지나치게
일반인
각자
66
##실을
반응이
네덜란드
성격이
지도자
플랫폼
##이었는데
패션
##리지
거야
국토교통부
살균제
##보다도
의사를
MBN
##재산
초등학생
필살기
##(10
관계자들
구멍
유죄
랭크
후속
##“
대가
동참
공방
인연
디스
갈수록
하니
##팀이
##전략
자치
이상으로
사용하면
##달러
##대응
##건의
##포럼
##TS
##열차
이슬람
남쪽
나의
강연
실제로는
##르는
무효
진압
세계관
유전자
철저히
##der
신청을
타이밍
벌였다
시간에
본편
##다보니
아니냐
아버지가
##분기
가격이
책을
##마법
##AM
피해자가
맞춤형
사업장
##버전
〈
복지부
##ON
가고
숨졌다
크리스
##난다
물어
##호를
빼앗
청사
##양이
들어갈
중국인
##AN
계단
##곳을
아이가
##잖아
대원
##되었는데
학술
측에
용인
##전국
##군과
##등을
성립
표정
기반으로
비율이
구속기소
이르는
순식간에
02
##사이
학생이
노래를
아우
발생할
도발
마력
아스
본격적
##비스
맞게
정도는
등도
일찍
##아가
멀티
단순한
주장하는
행사는
화살
아이들이
찾을
상대를
선포
잡기
스킬을
크로스
##인데요
##사에서
중독
배려
이라고
적응
인공
##라가
##미국
권한
##개선
문학
시간대
##시간이
즐길
정신적
무릎
쓰인다
결성
##진이
카즈
##ne
올라오
얻는
습득
감독이
손상
배우자
##ta
홈런
소울
예약
서대문구
기술이
용산구
민간인
곳곳에
##고속
둘이
그럼
An
##사령부
##선의
보물
##피아
CJ
기절
등장했다
##노동자
위험한
##부모
게임의
##하기에
##패를
이것을
상대의
##보단
##국의
##ue
계급
우수한
##재정
달린
스펙
트레
##단장
납품
복장
이영
불가
Me
조준
세우
스트
자율
##차전
미술
법원행정처
막장
가시
바르
치매
농성
##학기
부상을
요청했다
신라
72
회계
##전차
마주
해금
그다지
그럼에도
##해양
교황
##골을
아오
부근
북쪽
1500
또다시
##호기
귀가
소음
거라고
##리온
de
##급여
푸른
데미지가
소화
##모리
##청사
말로
안습
오빠
안전한
유래
주인공이
##그리
보며
병원에
그런지
혼자서
주장이
##생물
##회관
입시
재현
##식으로
겪고
근처에
800
##었을
파이터
경로
##월드
##nd
보여준
상업
##왔던
##석을
##에너지
##감사
##이야
적어도
##조합
##0000
##했었다
온도
손실
랜덤
##제한
##모델
말은
담아
관통
일으킨
거점
제작진
무기를
##이하
분위기를
중계
분양
둘러
##생명
누적
장식
유우
이름의
고인
김재
##인당
과정에
신화
성남
현상이
하드
의회
실수
##인터뷰
명목으로
계좌
분쟁
크리스마스
발효
어찌
개시
드디어
뽑아
혐의도
신성
##세월호
##브라
치유
##만여
고속
##회에서
캠프
거론
나오는데
교육부는
받았
것이고
##작전
고전
사쿠라
초월
##등록
검사를
해적
##지와
##체가
##성장
##됐다고
비하면
근육
세종시
보입니다
소리가
##폭력
학살
이어지고
구청
작중에서
깊이
전신
문명
##BC
가르
면담
자신과
##소방
보육
블로그
##직원
기습
처벌을
부작용
상처를
1988
평생
##음이
아무것도
업무협약
##제보
사후
##ment
방역
법원이
##클럽
for
무죄를
방법은
##질을
도는
##성의
조명
엑스
##년만에
첫번째
##최순실
쫓아
말까지
실내
중이던
##역을
강의
넘겨
느낄
도달
##타를
바라
세금
##소방서
영등포구
병역
##구간
##함이
코리아
어둠
##심은
독도
고백
##문학
치르
집으로
1992
아들이
수준을
커버
##잖아요
선호
1970
##체제
수준이다
사용하고
유명하다
110
바뀌
상가
사용하지
##베르
스카이
때문인지
##삼성
올라온
상주
##너스
최고기온
화이트
##편의
격투
속도를
##마저도
##운전
##해준다
야마
연다
##주면
옛날
63
화성
다녀
미국에서
모습은
물건을
페이지
단장
##다른
히로
##실에
##방법
##랭크
##었으며
고양시
서명
충격을
가톨릭
You
편이
기념촬영
맡기
해당한다
된다고
비판했다
여신
##았던
##저작권자
##타가
출동한
덕에
패시브
운영한다
베이스
무료로
터키
시신을
중국의
경남도
아나운서
측에서
시민들의
당해
##ab
경기장
##화학
개최한다
계기가
별점
급여
퇴직
##go
기어
##배우
사형
결과는
그녀
나타난
함대
안심
경험치
스탯
출현
재배
가면라이더
비율
비교해
진학
일도
##관에서
##쿠라
폭주
찍은
장학금
라이벌
##요금
반격
입장에서는
##하이
의존
최후
##우가
이수
인근에서
지형
무관
부리
언제나
코레일
95
이승
테스트
일부를
기회가
영문
##신의
마포구
화가
목포
##고요
열리고
진주
죽여
런던
정말로
국정농단
제재
관찰
삶의
완공
믿고
부검
판타지
##근무
오랫동안
보이며
의미로
파트너
추격
까지
##되지만
붙은
동료들
비중
잇는
예산을
늘고
your
##야구
숨지게
##주자
좌우
☎
700
##체육
대표이사
##(9
##울산
##ome
항소
우승을
타자
##vi
다수의
그려
채로
IS
국방
않았다고
이어졌다
양쪽
싸우는
##트는
##ver
메뉴
없었고
있긴
농민
탱크
발생해
왕자
국회에서
##상에
크라
달라고
아야
진행할
늘어난
자극
##하자면
최소화
영토
바이오
미소
이종
자매
거짓말
처치
추억
##유키
반대하는
경험이
##안에
동작
PS
시야
마감
##TO
불린다
##ma
##아트
연구소
투명
억울
##탄을
존재하지
파손
##키로
참여했다
없었
이어질
나를
##호는
##pe
하야
고장
행사에
라이트
레전드
돌아온
##순환
점이다
제도를
##병을
가깝다
길어
##em
카나
관여
눈물을
플라
부장검사
매각
결합
##학습
30%
내리는
##per
수거
있겠다
이듬해
예능
##대학원
한쪽
1993
##기금
##디아
##개소
##년째
하나는
유사한
##미래
공격력이
어쨌든
이처럼
별도로
##ee
##률은
##namu
be
##하지는
전투에서
출판
공연을
##스테
건강보험
늦게
미드
##나쁨
창작
Copyright
그레이
기동
면에서
내륙
##상에서
지방선거
마지막에
작품을
##부로
분당
무렵
태국
교원
조조
코어
신인
Le
##에서만
떨어진다
분야에서
혹시
쪽이
일하는
##교실
##박스
##(15
올리는
태어나
##기만
61
사운드
130
가속
얻었다
떡밥
##EN
##층에서
정부와
##버려
드는
성공했다
##통일
적극적인
KTX
새해
##금지
##렸고
취약
모래
결코
노무현
그렇다
무산
2~3
외교부
CD
제외하고
지목
규칙
관내
##미를
그에게
##특별
지능
잡은
##시로
야외
폭풍
비고
수사관
천사
자제
NC
##AC
가습기
평가가
##박람회
여자친구
상인
##책임
##블리
10%
당국
##네스
달아
입법
팔아
안동
##바라
자신들의
##비리
사건과
##했다가
지금의
##량은
##타워
여성을
섭취
##소에서
예정입니다
사무총장
낮다
##분석
조례
영양
##있던
국토부
검사장
일대에서
##보이
##만원의
##개월간
##화에
##편에서
부당
자가
6.
함께하는
강하다
그녀가
돕는
##군요
받아야
최신
압수
분명히
##살인
일치
무적
점도
천안
편입
안산
##증을
이러
치안
모션
꼬리
원주
포장
사랑의
다행
##받는다
모리
지내
호남
둘러싼
암흑
이번에는
수영
곳이다
안타
끊어
사업에
##할때
훈련을
활용한
통영
사라지
##MA
때의
청장
##더라
기능이
똑같이
보일
내려가
타워
수험생
소녀상
##ity
증인
격파
##ast
인사를
어떠한
자세히
##순위
##nt
균형
##프라
기준을
승격
노예
수감
해임
채워
받아들여
보내고
잃고
임용
##것을
손가락
철학
말하면
88
##거리는
##인간
끝나고
그래픽
입장에서
##폭행
거리가
##커스
##필드
여학생
통행
배정
##분에
방문한
하트
상당수
##받지
일이다
1991
무인
기온
##NA
나아
##씨에
고수
##형을
투약
##재배포
##전기
기숙사
열려
##당국
학교에서
##호의
보여주고
퇴진
측의
68
##일보
일명
연료
50%
조합원
##허가
##터를
##티아
복무
아니라는
파트
요원
프로듀서
PD
##연합회
수사가
마케팅
코스트
스페셜
##정의
후배
존중
나가는
막는
##US
제약
기록한
팀장
놀이
웹툰
권총
없는데
김경
느껴
오사카
최다
갈아
토요일
투입해
##사업을
잡는
##호텔
##IS
##man
##경북
역사를
빨라
음식을
##고교
이용하여
그랬
직원이
생겼
헤이
1987
##구의
##ac
##나와
개인정보
이쪽은
수호
들어온
활약을
대비해
만날
생긴다
송치
##900
##주간
카드가
종로
신부
비싼
글이
들려
##것도
말자
가치를
환상
진행됐다
뒤집
포함된
장면을
손으로
정신을
##렸던
##싸움
많은데
##EC
역으로
사랑을
시상식
기본적인
신입생
마녀
서울시가
괜찮은
대략
향한
이상을
붙잡혔다
별도의
최근에는
갤럭시
##변호사
받으며
확인했다
요새
##방지
세계에서
##석이
여수
생기는
사립
##오카
상점
##트와
대거
01
우리의
##히로
##파일
상태였다
의미한다
좋을
me
착각
스킨
##안이
의정부
##건을
갑옷
To
##모임
지역사회
한파
##타는
사령관
머물
결제
국어
경우에
버리고
밝히
응시
##리나
위법
걸리
환승
불량
순으로
##신을
##해달라고
종목
정도다
##bo
농촌
##인력
문제에
참여해
출신의
##여자
나와서
의상
김해
한자
근절
##od
화물차
자치구
##경찰청
##서울시
##ion
한데
모인
##단속
##하더라도
##교육을
스코어
있었으며
가공
있겠
죽음을
##해질
이민
##시절
흘리
베르
시공
갖추
구호를
명령을
은폐
남용
##처분
##억원의
##건물
진술했다
##hi
##우드
같아
부처
상실
62
평타
소위
위조
코믹스
레오
##스턴
##판이
들은
다스
않을까
많지
풀려
조사에
##됨에
의료진
##공을
##기념
##이상
##오르
##온다
늘려
화상
드랍
신원
알파
Do
직장인
대통령을
##계를
##경보
사회복지
곳을
미스
호평
대해선
심하게
절망
인구는
##였다고
##편이
##술을
있는데요
메시지
위원장은
##지대
동방
전투기
성별
##되던
추가되었다
신축
한동안
##택시
했으며
안보
영주
분위기가
영동
이뤄진
움직이
지진이
##아서
##교육감
감찰
준공
페스티벌
딜러
인권위
도움
사라진
마왕
도와
##팀은
##해지고
MAX
광장에서
경쟁력
패치로
방식을
시민이
죽었다
포항시
##노스
이같은
행운
##통합
그에
스웨덴
모금
##데다가
이란
바닥에
시청자들
##이었습니다
입단
게이지
##비로
김기
##아버지
##일반
가뭄
몽골
##물로
하위
의혹에
바뀐
##차례에
이끌
높았다
한다면
소식이
그들은
함선
만나는
따뜻한
공범
되지만
골프
대하여
여러모로
살인사건
흉기로
나누
줄었다
최후의
유령
제출한
##기사문의
멕시코
질병관리본부
##보자
##현지시간
유인
출국
장례식장
이외에도
##PS
##발전소
비슷하게
##두고
##임금
시작해
절도
인물이
일으키
##시위
교육과정
줄여
##려서
쿠로
벌여
김수
주체
위상
야당
##레이션
것만
행적
20%
##원인
공개했다
##크로
그간
동화
강서구
서양
명시
##ance
##권의
소원
넘겨진
허리
전달했다
고르
애정
포럼
쌍둥이
##시오
이씨
그림자
##공동
지낸
##지부
나오기
##실점
동원해
받아들이
##원과
기대한다
##님이
##no
정수
전철
없으니
석방
참가자들
방향을
수록곡
에리
투어
죽인
##재난
상태를
112
제어
사전에
되도록
드립
이재용
효과는
잠실
제국의
결승전
묻는
##로드
대개
블랙리스트
있어요
##RA
날아가
상습
불어
미야
##다시피
시대에
소규모
76
모티브
김병
세계를
사연
Be
##···
상해
기업의
크레
##마당
##코가
##ts
##녹취
##Lv
게재
갈라
보강
반박
##즈가
불가능한
해산
곳곳에서
반란
##국회
추세
바람이
알아보
흔적
사이가
브레
바보
##상이
변화가
지출
##세포
##oo
문장
뉴시스
##회복
##공원에서
수단
확인한
##여개
양식
##르트
없도록
소속사
순수
외치고
##사장
보여주었다
##방에서
개체
주전
가족이
감지
하얀
##주의보
관계로
##세종
비디오
글자
들었
도중에
참석했다
보내는
##생산
대법원은
##론을
김포
나면
관객
재발
보유하고
##자유
잡을
역사적
주변의
없던
##집니다
때가
노동자들
돌아오
준비를
자라
##협약
##교류
내릴
##규칙
##점에서
Tr
고기
##전대
침수
파라
##사무
##하세요
##...'
파이어
##강화
기다리
왕조
##ak
1989
장교
가치가
흐름
##μ
연수
타인
##근로
있었다는
##천원
법조계
공식적으로
모르고
터널
흥행
눈길을
##소가
챙기
오토바이
##스럽다
##후보
경험을
않았을
00
대항
집계됐다
아직까지
지속적인
해킹
성능이
기기
희귀
진행되는
들면
남아있
##쟁이
생태
상영
구출
##무를
##비서관
##설계
의원의
##치의
##담당
##로이드
넣고
##오른쪽
않습니다
##마가
서울의
##하우스
많아서
##들이다
##대에서
소프트웨어
##나마
등판
방위
품질
모색
##유치원
1~2
##투스
여유
부장
있었습니다
새끼
그건
만들었
소닉
실질적인
이끌어
브리
##자들을
양승태
지니고
화려한
지침
정령
##공학
군주
##청은
##아시아
위주로
내외
##역으로
작사
##지난
시계
##카페
혜택을
스튜디오
자문
기온은
농구
행정안전부
나선다
사법부
검출
##ng
늑대
##지며
##책을
확충
캠퍼스
사용했다
야생
군수
실적
상무
부수
있었을
날리
전투력
결과에
장악
안경
성적을
게스트
##방울
국내외
##여명의
비전
진상
열쇠
보정
##통을
않는다고
빼고
스승
##확인
##그라
위원회
유학
낫다
건의
어른
##릭스
신중
무언가
참가자들이
화제
##이라면서
##승을
가능하며
##전화
저작권
동해안
경향이
기도
부사장
일요일
##코스
광복
약물
##식에서
법원에
떨어졌다
테크
공을
160
인물들
골든
유로
충분한
##부와
김민
##장소
##대병원
높고
한국에
##광고
제법
정문
##워드
실망
77
컨텐츠
차라리
위탁
주었다
상급
총괄
거리를
선장
##형이
도착한
넣는
다들
얻고
든다
성능을
라며
##방안
전체의
03
커지고
오늘날
##자치
##홈런
##권에
##수준
마츠
훌륭한
문구
구글
창립
##SNS
옥상
##특보
사찰
부담을
##료를
##화로
##라면서
##지방법원
판결이
##비행
침입
귀족
만났
##전시
##AI
바꾼
주간
주민들은
있음을
##The
##액을
잉글랜드
체류
##제국
불만을
비트
NPC
##율은
혈액
##소녀
사용되는
서울시교육청
##스토
##코드
진행하는
알리는
박상
말했습니다
나이가
##CE
##ub
##로서는
경기가
창의
몰리
그러다
##이거나
##그러
##요원
서울고법
고양
해상에서
파일럿
##참여
실장
러브
재해
나름대로
##데스
##위기
삼아
회의를
비용을
참여할
##판에
시간은
##그래
##전투
##함과
거다
##ru
##ip
전형적인
1960
이재명
물려
내야
어릴
시사
출구
생각보다
사업은
##리카
거친
나타나는
작품이
##중이다
술에
결과적으로
'2018
명성
다루는
67
##축구
나타난다
##데요
##됐는데
마리아
훔쳐
##취업
140
##즈키
구름
조리
부족하다
예전에
실력을
##비와
패스
이후로는
돌아다니
긴장
##브리
김진
힘으로
생길
영국의
후지
세포
결의
신고가
정부에
팀은
수면
##사거리
##사용
##차원
나왔
개발한
양심
크리티컬
##혁명
인명피해
##현대
재활용
##홀에서
한참
##보통
##피고인
분석한
대회에서
일본인
묘지
증상이
속여
불교
특화
##크리
##세력
성분
st
##았습니다
비서관
##공개
닌자
##전선
한창
위험이
사라졌다
네가
특이한
축사
중순
곤란
언급한
출처
그렇지만
명예훼손
중형
물에
##되었지만
담겨
파이널
##어스
##ide
폴란드
일시
##OS
##산업단지
키리
역사상
기다리고
은하
택배
참석자들이
겪는
돌격
##원들이
연세대
구체적으로
##하루
현안
준수
이익
열리
인간이
##하느냐
##카가
양형
##ake
전형
격차
고통을
이어진
사용하기
지휘관
학생들을
압력
##~5
있을지
미래를
##토스
죽는
##학적
##이었기
이끄는
공립
유저들이
##코의
##나갈
##유산
##정이
갖추고
당시의
안전을
##아리
진행한
갑질
사제
장비를
창고
브라
##수와
브루
후기
##LE
무상
보자
사람들도
진실을
발생한다
구상
사망했다
발급
금속
화재가
##단에
이용객
신기
##다음
마침내
##실로
##2016
출력
그것은
자국
Sp
집계
실버
보이지만
관해
정유라
##졌지만
색상
바깥
##나미
##권은
전함
관람객
어떻게든
##부장판사
규모가
##당하고
경상
써서
총장은
##나눔
##왕의
책임자
자산
소방관
이화여대
##백만
포스코
물이
카라
전에는
사자
##보기
남기
따위
감안하면
##인들의
근거로
응급실
##폭탄
공격이
중대
발간
영광
##더스
있어도
농도가
창문
박모
키워
표창
넘어서
##것으로
감독의
입었다
철수
98
같습니다
##서도
같지만
물결
!!!
붙잡
기자회견에서
71
##종의
이른다
사업자
번개
##당해
##티스
사인
다루
##ph
수확
얼굴이
혐의가
외에는
제공하고
##봐야
##력으로
경찰청장
##광장
뜻은
캐리
수렴
곡을
일선
맥주
제주시
첫날
불과하다
##인구
선고받았다
떠난
(2
##남부
##사이트
이루어지
메타
##작업을
상관없이
착공
라이더
팬들은
파이
자동으로
이끌고
심각
매입
채취
과거에
소중한
고가
##혐의
벌금형
보유한
이루어진
자연스럽게
면제
##랐다
##빌딩
##버렸
해역
##키가
구속했다
스킬이
BGM
의견도
##기까지
##었다고
아동학대
논쟁
당신의
우연히
컬러
정치권
옥시
FA
##북한
##이었다고
##노트
##MB
##나요
##OO
##시와
##강원
노리
탈퇴
##바다
클래식
이외에
시선
특성을
##보상
해운대
몰라
비율은
수련
##OR
기증
특허
것인가
보게
구미
고개
싶었
것보다
뮤지컬
육상
정의당
시달리
계란
채팅
나카
버렸다
김정은
##NG
풀리
기적
##ass
육체
정류장
조카
##부문
중점
부패
인격
강철
한명
정화
납부
서면
계열사
속하는
월급
붙어있
삼성서울병원
시켜
##터가
주재
이로
침공
진상규명
##색이
틀어
향하는
소문
감동
적힌
입양
학생들에게
행사가
마라
저그
루시
달고
스파이
##판에서
##스틱
##과정에서
나오면
시작하는
##(17
연말
돌아와
##9%
##.01
##ind
메모리
느끼는
##au
캐릭터를
찾아온
아머
이사회
내달
여전
그렇다면
온다
##(16
게임에서
마구
받았고
국도
즐기는
조지
##점은
##리우스
아사
##께서
II
##융합
##ber
##마켓
추진한다
며칠
생존자
느리
유독
서울지방경찰청
그렇기
##사카
##액은
##전남
헌터
문화재
자신도
##미나
색깔
충주
무덤
실시한다
가상
본부
차량에
차질
그랜드
생계
이윤
죽는다
##오스
업적
게시
##110
##보도
마신
작가가
전동차
##나가는
##살이
농담
##대한민국
##곳이
##IT
노멀
##명령
08
인프라
##RE
다음에
##는게
전문가들은
알선
대지
중학생
##올해
제자
메시지를
추가바람
그날
78
##심이
뜯어
대입
##롭게
##ey
화장품
##미디어
경호
##보장
##-2
##지청
주행
사람과
아크
자유롭게
누나
업무상
음식점
듣는
##오후
하나이다
뜻하는
##병이
##ve
실시한
의지를
좋고
##여객
취해
이메일
마스크
출제
파악하고
안양
수상자
입히
아버지의
공통
의식을
##시설을
캐릭터의
##수단
사장은
강경
기억을
##병기
아일랜드
드러났습니다
##생활을
확보한
신장
제작한
전두환
##플러스
##시리즈
불편을
73
전방
드루킹
비교하면
간혹
##TE
편리
##방을
아트
건네
문화체육관광부
##방에
권유
역임
##진흥원
조건을
##졌으며
공개한
늦어
##창업
IT
금품
검찰총장
대치
청문회
건지
##포를
여성은
필요하다고
지불
대부분은
오래된
반지
잡혀
규모로
##체로
미치는
행보
배우는
신생아
##범위
##되었
##민족
결정할
운동을
##종이
##노선
공동체
지우
##머스
사진이
휴식
이탈
싸워
##테크
태어났다
밝혔
##건축
텐데
중립
용기
##유지
들어갔
가해
게시판
방화
아닐
승무원
후에도
선원
그들이
다양
##AS
편지
지분
개최했다
##발을
##이기에
아나
중복
팬들이
가능성은
개성
시가
불길
##UN
##으로서의
##까지만
##판에서는
용서
##구리
남해
미치
입사
##일자리
양측
연구원
징역형
7.
박씨는
기존에
사태가
##중심
##왔습니다
고려대
##jebo
전체를
대북
자진
연기를
##조차도
인도네시아
대중교통
아들을
74
숙박
##력과
진행되고
남겼다
허락
##board
않다는
박씨
전문가들
자본
높이는
카르
상고
이용자
승소
서식
##”...
##하였는데
세상에
취미
MC
앞바다
충청
임의
싸울
높여
##진단
입찰
이집트
##SS
아프
##지수
방출
선행
걸고
##적으로는
##보수
병사들
날이
모니터링
LA
측근
##수산
데이트
차지하는
용도로
##화와
국가의
시에
차기
배터리
제임스
##(14
있을까
도로에서
간격
##계에
##처장
##업소
##ian
전투를
##리티
##자연
행복한
##아의
##rea
강간
무력
변론
##워크
갖춰
오지
##되었을
이른
##내가
어르신
적다
##조사를
아카데미
키스
##각을
사랑하는
인명
담당하는
##기념관
협회
즐기
안전관리
스키
유물
구속된
설명했습니다
##만큼은
남산
##르크
영남
방식이
않았다는
이치
버린
본인도
설명을
기원전
두려워
비판을
양육
##벌레
이곳에서
##1000
지시를
첨단
##베리
##ear
전선
농협
##OL
공사를
개관
##희망
위치해
세계의
##BS
베스트
당연한
밤에
비해서
실질적으로
참고인
##해주고
##에서부터
아래로
가져가
대상을
전쟁을
##PC
사육
의료기관
은근히
제천
##천명
사마
##통제
감독은
모욕
행사에서
의원들
작가의
지사는
조만간
번째로
##여름
##을때
되어서
06
##해요
##위험
##위원회를
스타크래프트
##io
뜻이
##사인
##형으로
구호
선전
##디스
얻기
##가미
##당하는
청주시
빈소
그라
##영구적으로
장미
##령을
##기계
것이며
부천
##ea
최강의
##시다
커지
※
칭찬
알겠지만
도망치
##계에서
교복
쌓아
한미
임직원
##ice
어린이들이
이르면
"(
날짜
이식
초창기
절대로
박물관
쟁점
사카
출연한
##단과
학생회
정확하게
육아
2.5
관리를
메탈
나쁘지
건축물
방송에서
사흘
갈등을
더위
##특수
물고기
딸을
좌석
적정
##세는
All
기간에
##정원
##극장
마이클
제기한
구성되어
태도를
##무장
공지
리얼
##con
자랑한다
마련했다
여행을
한방
##약을
##IA
도시철도
이루어져
##쪽으로
##안타
##특히
후보가
운송
지키는
##our
##디자인
##sion
분포
있다며
불렀다
커플
##준비
##하였
##았고
제기된
브레이크
##ace
##구로
학교를
이미지를
시정
대표적
소유자
이병
선사
나나
height
문화예술
손해
##시간을
집중적으로
줬다
지원할
실시간
안타깝
병행
바위
안나
걸리는
##채용
정차
재판관
감상
##한데
충족
##.16
##마의
69
선정된
가족과
명중률
능력은
상생
내장
뜨거운
유효
여사
잡히
금메달
낙동강
##~4
어려울
##성에
##프가
##질문
수급
라이프
##회의를
##받았
버려
쓰러진
##구속
##라기
상식
감정을
##민이
변경되었다
##진화
##파이
09
##줘야
카미
미라
대성
박정희
재벌
맞으면
##본부는
##었기
밀양
즐거운
거예요
##ff
광화문광장에서
파면
전국에
구하기
영구
##로봇
아르바이트
시설물
발생하지
예로
유니
괜찮
Gr
당하는
보면서
다음으로
치명타
습관
##(12
1986
안전사고
##리조트
집필
##때는
싸움을
요정
리메이크
중에서는
국장
애초
봉사활동
활용할
##드라마
찾고
##들로부터
일어나는
증세
어디서
바꾸는
지키
SS
관련해서
##내용
##화의
카더라
신발
직접적인
가질
##경찰서에
작곡가
막고
결혼식
구경
로스쿨
유력
물량
조용
특집
##MS
좁은
문제의
버리
##드와
민정수석
##q
그러자
전통시장
유적
##동부
타케
기업이
취지로
신용
혼인
하천
폐기물
항공사
보도했다
국가대표
되었으며
포탑
판단을
추진하고
##라든가
##://
가벼운
##가격
##무역
순천
##조의
4000
##.20
05
물론이고
전세계
##했어요
##캠프
진심으로
##진은
근대
MVP
넥센
멈추
토모
탄약
나도
학력
고성
앞으로도
이외의
FIFA
시대의
96
관리자
드러난
취한
학부모들
?"
고령
심해
의혹과
국경
골라
##규모
원소
주사
추위
전진
##망을
블록
##.25
적대
내주
미나
발전을
환자는
##(25
##률을
열기
인민
##본다
##율을
거주하는
재심
##우주
친구가
일부가
##원전
##...“
원본
확인해
정면
후속작
미수습자
##부에서
##마를
비하
유저들
어디까지나
임무를
시위를
##였을
##까지도
인천국제공항
마리오
미츠
판매량
##속보
구성원
##투쟁
##군수
바뀌어
안티
체크
읽어
놓은
##2015
말하고
##하늘
부담이
유산
개인의
이로써
정씨
불안감
부스
일어났
메이저
피할
##~10
생명력
해병대
상황은
시스템이
시술
여건
식량
상세
re
싶지
필요하다는
##가정
실전
일어났다
다짐
1985
전교조
포격
죄다
무시하고
들어와
터미널
산책
체감
고등학생
인근에
##통신사
사업비
드림
기금
시비
압도적인
##토록
##마스
전시회
He
부른
내리고
이어져
선도
박람회
어그로
동양
상인들
너프
성공한
살리
올리고
##봉사
동행
환자의
애플
##호로
##.15
##전문가
##우치
내려진
어머니가
표면
회상
##미의
견해
매직
짓을
용도
김광
유아
##즈를
##위원회가
한복
휴대폰
출간
##지역에
정도였다
사토
##야만
태그
올랐
##버드
정상화
□
##경쟁
화제가
물어보
마련됐다
신도
캐릭터로
어둠의
사용된다
##벤처
선수들이
##라니
##최근
좋았
위헌
##ain
묻자
3·1
경사
##LA
배경으로
기구
풍경
완벽한
##안보
펼치
설정이
인적
효율
##작가
##만원으로
여야
알았
형상
##도르
##레나
설문조사
작성한
##비트
##됐을
진행자
##술사
드러
##프레
발매된
프레임
##년대에
처지
최종보스
흉기를
##팀을
82
고지
일에
더더욱
신고했다
입장이다
대사를
이곳에
대검
맛있
국가대표팀
교전
헤드
##ED
죽고
어려움
81
눌러
저런
수수료
대전시
가격은
들을
##하자는
190
비공개
재학생
##자들에게
위촉
##av
가로챈
##하듯
물러
개량
동작구
구석
##지점
같은데
##선은
잊지
##레인
백화점
##등이
휴일
공동으로
뜻이다
소방서
식약처
##이냐
##정은
밝히고
달한다
후보로
어렵지
좋아한다
식민지
유지하고
싫어하는
종사자
좋게
세미나
##아야
취향
##봤다
시청률
혜택
편의
빛을
사회의
루이
감안
부분에서
지냈다
되었
만나게
독특한
담고
전액
마산
연구를
사업이
86
##급으로
구조를
변호사가
오스트리아
귀찮
##머니
목격자
##지진
##오가
##것은
릴리
증거를
##문이
최씨는
##등의
테란
마련해
살펴보
대표하는
탱커
기사를
전국에서
곳곳
구원
고시
약간의
대미지를
##장갑
낮추
땅을
초래
클레
##보훈
많았
많을
전국적으로
일환으로
##150
첫째
##학부
##수석
##하신
##인증
##인들은
위키
특강
강풍
##po
유리한
복잡
추궁
아버지는
DLC
##올림픽
악역
##됐다는
아이들을
전격
빌리
대상은
내년부터
네티즌
전국이
정복
폭행한
죽이
티켓
##수술
찾지
설치해
##냐는
발의
해주는
리스트
터져
소총
흉기
평소에
국내에
서민
천재
물놀이
매치
##포스
받았다고
천연
##노인
모르겠다
##~2
##들만
시민의
##건이
##루가
##마츠
학사
과일
##wn
이전의
넣은
##ST
스위스
침묵
신앙
##력은
것인데
책임이
속으로
장성
##먹는
부장판사는
##그램
받으면
당부
##사격
예정이라고
사항은
##으니까
##주었다
쿠키
##ID
피아노
확인된
어렵
##분간
커다란
음원
##MO
##iz
약자
삼국지
후반에
##시기
위치에
호흡
공격에
산림청
이뤄졌다
##청구
##end
보이스피싱
인물로
시행령
잠수함
##센터는
대충
뛰어나
존경
##시키려
##노동조합
박수
숨지고
움직이는
인문
회원들
차량은
##득점
심문
이르
남성은
궤도
다룬
권역
억제
##자격
##봤습니다
통치
##과학기술
현수막
부총리
전주시
상륙
알려졌습니다
거기서
##류를
##성으로
##ni
교내
떠오르
선거구
##크가
조사결과
일으켜
만족도
않자
무척
듣기
##전으로
##이었으며
관행
벚꽃
##사관
##곳에서
혐의에
##토가
'2017
일산
중국에서
캐스팅
하시
영상이
위생
게이
그와
막차
분들이
지키기
강행
딸이
제기했다
97
들리
느끼
진상조사
70%
##전용
체납
작품의
출신으로
##주지
랭킹
그러한
올라왔다
##집을
벌써
지원하고
다문화
##ix
##진을
알려주
신의
공격하는
07
##청에서
이길
이었다
선정됐다
이어진다
##ore
차트
마침
##구는
##앞으로
밝혀진
있었는지
미카
특별히
국왕
##총회
간단한
선고한
##대강
멋진
권리를
길게
들어올
피해량
##sh
병기
##행위를
사귀
##나카
##ty
면역
멈춰
메달
간주
단점이
주민센터
##ai
##민의
##기본
주자
해결을
찾았다
##(0
형식으로
사양
페르
거액
##파이어
목숨
##망이
UN
신사
연봉
100%
##테르
##누스
시드
카트
고도
기운
중요성
손해를
동인
##할수
보도입니다
백제
##》(
1950
금전
윌리엄
인공지능
피우
불가피
국민이
바퀴
다름없
##되어서
실드
##PM
취하
안철수
울트라
전장
많기
##잡이
Th
공간을
경상북도
노벨
##분부터
트레이드
##버리면
부정적인
재판에서
이뤄지지
##타점
퍼포먼스
처음이다
##BA
하향
치는
써야
대표팀
자는
this
보복
네오
경우에도
극장
##유럽
##양은
용인시
##제작
##불법
##RO
말하며
설명회
속도로
말리
##셨다
되기도
써먹
호수
국가가
##안은
교도소
##푸드
무사히
세월
죽음의
소송에서
죽었
각국
확실
증가한
니시
요괴
##판은
84
##SE
없었지만
저지르
양상
독일의
##ect
##산동
do
질문을
수업을
귀신
달했다
대사가
일자리를
서포터
##크의
인체
고리
먹은
이동속도
분신
안드로이드
##했으면
지르
##마스터
합격자
별개로
됐습니다
##모를
##하길
정황이
한타
덴마크
헤비
피로
##MI
##심의
대검찰청
##스쿨
##해경
본체
##전은
심정
원장은
사막
경북도
101
04
소드
단편
준우승
우병우
차로
가이
전반적으로
기간이
동굴
훗날
##스톤
카오스
침대
##체계를
칼리
Ma
밝혀지
2.0
##내려
없다면
먹으면
답답
##국이
배수
채무
다리를
환자들
##되게
##테일
가르치
##드립
##바르
##형사
권위
##주로
등재
통증
줄이기
살펴
해리
표명
실체
광명
응답자
실력이
중동
87
##pp
깜짝
욕을
실형을
##사령관
##무늬
윤리
운영을
##루타
##이랑
##단위
과실
나무위키
측면에서
자격증
종결
일종
다쳐
##미야
정체를
##리스크
올바른
합체
주류
당분간
수시로
##.13
##사법연수원
짓는
내려오
구간이
피를
경상남도
명품
이것도
##art
다툼
##으론
알아서
공단
들어오는
용사
여지가
무너지
나지
##금액
일관
태평양
김주
지경
##연장
주역
##들인
사장이
비서실장
상속
김장
산업혁명
과도한
숨져
사신
석유
증인으로
등장하지
작업이
총파업
당신이
가볍게
##진영
하차
살펴보고
##투수
연락을
동거
##먼트
경보
숨겨진
사라
고작
##(24
##리얼
일부는
제출했다
펼치고
정글
##된다고
판정이
식의
도민
빨간
보다는
있나
기병
##회의에서
뛰어넘
따르
점거
뮤직
스탠
##라와
##위의
양국
가기
인정하고
후임
당국은
춘천시
노력하겠다
오라
설치한
시장이
계획이
이벤트를
의해서
속초
한달
중심의
사라져
누리
해양수산부
상의
안정적인
버린다
신세
리듬
##액이
남기고
커맨드
익산
곳도
1984
검토하고
강진
##PA
던진
##정권
##었는지
##연수
투구
말하자면
##습니까
군은
##ud
허나
몰고
##DS
모양이다
참여를
스톰
##영업
THE
같아요
몰카
배운
##업을
처형
DNA
보행
운영자
사이즈
뒤에서
않겠
##시에는
무서운
##iv
밑에
길드
나누고
발견했다
##시청
여진
다친
쓰러져
유니폼
기후
사용하여
비자금
##누리
양주
##FC
전복
하수인
##타입
정해
의학
이용해서
##했다면
끝날
피어
감수
재사용
공용
퇴근
국군
정확
프리큐어
신병
엘프
구리
계기
철저한
이전에는
자꾸
공간이
OST
KIA
##억원대
정해진
약화
##하진
싱가포르
##일까
정전
##기에는
패소
##길이
보조금
회사의
아쉬운
##실이
일방적으로
휴가
미사
벌이는
나누어
##대사
교직원
##AP
##하려다
자아
항소심에서
##곡동
정상적인
함양
자신들
SM
학문
반사
창설
밝은
걸릴
많았고
오직
지원금
##ep
사용된
티어
##했으니
40%
하나도
장례
차원의
연루
동상
##ick
베이징
반환
진행될
죽지
범위가
79
##(11
##.03
그림을
시중
##던지
국정화
피격
금요일
SD
구조물
##de
배당
법원의
##카르
숨겨
대면
추행
아이디
유비
##전의
##~7
도서
일가
##보스
##만으로도
##운수
##CD
파도
늘어났다
##CS
뇌물수수
92
수요가
키우는
소재로
프리미엄
대여
다가오
본부장
제작자
아마도
서울대학교
기아
엘리베이터
여담이지만
몰랐
결말
몰라도
못했고
##되었기
뒤집어
##하기는
##스러워
##뱅크
위험성
전성기
나설
##해서는
##.02
##추진
##콘텐츠
상태에
##식은
박스
홍준표
##라든지
부친
슬롯
토끼
나치
느끼고
백신
방에
미칠
##된다는
##do
##티브
시작됐다
독점
##독립
찍고
플레이를
빚어
갈리
그들을
김씨의
하나씩
고등
##아라
벌어졌다
퀄리티
아래에
요건
##임이
상관없
전과
##ES
갈등이
차이를
고려하면
첫차
외출
다하겠다
##증권
예수
##별로는
원인은
블레이드
##기보다는
MS
계획입니다
쪽에
못했던
특징이다
증거가
담당자
##행복
찌르
연설
또다른
불로
##듯한
##비치
##협동조합
성명
##화재
시설을
##EA
터치
높았
독서
궁극
##out
##복합
##.19
이익을
못하면
##경우
절감
HD
##즈는
높아지
##old
##아나
반쯤
기록이
직전에
교섭
현대차
##미술관
##슬러
죽일
극심한
직권남용
##문서
깨고
저질렀다
##미와
업소
신비
##하겠습니다
활성화를
확실한
##당한다
장점이
시흥
조언
정보가
호위
##순양함
너무나
건강한
아티스트
고구려
레이더
미안
SKT
##MP
감금
공직선거법
##ade
열정
83
##해줄
94
##과장은
##항쟁
##me
경향
많지만
##mp
안전하게
##정당
##ft
직선
##졌을
상시
지붕
##.05
##농협
찍는
바꿀
요구하고
김치
끝나는
##판정
남학생
##(22
대표적으로
##RI
조업
##현상
지정된
##ark
그쳤다
표지
권한을
사내
내성
가축
##tic
공백
컸다
사용이
선제
국립공원
플라스틱
끌려
신청했다
교정
선수로
##브레
촉구하고
연도
우회
##움을
점포
##합의
발표하고
체인
##경비
어렵게
아산
화를
크루
대포
##대비
유저가
##협정
##시간에
그중
뜻한다
공론화
아니기
리포트
여주
저소득층
##부르크
불참
내면
##음식
인하여
귀환
로그
맞았다
##보이는
##줘서
BMW
공직
##겠지
고사
보여줬다
클릭
않았습니다
##EX
##ite
비용이
초미세먼지
퍼지
입대
조류
##키를
프라이
얻게
생명을
처방
금방
시민들은
Copyrights
##her
안전성
중재
코우
유희왕
해마다
이들에게
열매
추진하는
##mbn
##ti
저하
##소설
For
##과목
비판이
불안정
되었는데
##성폭력
흑인
골목
##인데도
마술
##관으로
홈페이지에
특별법
이상은
머리가
##나게
요구를
세웠다
있기에
일격
발목
단원
최저기온
1982
##키스
학업
외형
##추가
분산
##거야
상한
있음
컨설팅
##유통
헤어
##(23
주장하고
실형
국민안전처
달라지
도시재생
제공한
봤을
졸업생
회사가
미뤄
##배를
포획
##형은
숙련
합법
##론이
따져
마이크
달아난
봐서
답이
##트론
위성
인정했다
민사
원심
한두
인물이다
배임
마시고
이번엔
발로
빛의
일로
뽑는
지나지
##센트
사죄
심화
수류탄
##나들목
구사
급속
##ath
충성
정부세종청사
전멸
원리
##3000
인질
##니어
##사망
짜증
요양
이사장은
들어가면
정찰
과거의
지나가
Love
문화를
공수
붙잡혔습니다
마다
##영이
복잡한
##양을
시리아
##dy
강수량
前
되었다고
##종을
장사
##박한
경비원
##느라
주의해야
악용
끝났다
강릉시
피해는
전체가
2022
지역으로
가담
##자책
화해
사립유치원
신동
나왔습니다
##~1
kt
건국
##길을
학생은
명동
##히토
아닌데
레벨이
기사가
다를
##투어
##ec
오늘은
숨어
몰락
Mi
##wiki
갖는
박정
피하기
않았기
흔들리
##대리
재임
당하고
##부인
채권
##하의
나뉘어
기둥
희망을
##까진
걸린다
##른다
##(27
##들보다
유성
마비
##역이
##어린이
##폴리
목적이
##해준
적합
한해
에너지를
이젠
부친상
유연
플레
갖게
##이었
끝으로
##니카
왕복
기종
이스라엘
무엇이
실수로
물러나
수사팀
##팬들
규정하고
##기위해
흰색
##보증
야산
##수익
##2.5
컨테이너
당연
치킨
추진할
업주
여당
막내
##렸는데
후손
건물이
3~4
투기
상임
관리하는
성동구
무더위
후반부
브로커
개척
Bo
제작사
##맞이
##인재
상하이
피해자를
##류가
알지
초점
있거나
폭우
La
신청할
리치
##유닛
##AD
##십니까
한국사
흥미
##백여
지뢰
생각할
날인
잡았다
##의료원
것들이
바라는
명문
##았지만
긍정적인
판결했다
긍정적
체결했다
밀집
기간을
나간
마법을
의무화
##조가
##호와
묶어
몰랐다
공모전
태워
기사단
세이버
##버그
제목의
침략
##ew
##힌다
##DA
##바닥
So
##EM
##하자마자
우정
##성적
초기에는
행정자치부
80%
추구
부임
박영수
데다가
위대한
불만
호우
비싸
계층
떠났다
89
##형태
한정으로
활동에
놓치
##’...
##공공
내용으로
My
이뤄
느낌을
어렵다는
이밖에
언덕
##되도록
이낙연
왠지
시너지
맛이
##어린이집
노선이
##사태
Bl
##son
##카를
##덩이
명중
##신도시
##여부
생각했다
시절에
쓰여
##타카
사회에
1983
아저씨
##ss
할지
주한
동서
삽입
AC
##공화국
민중
화장
보건소
비춰
파문
스님
낸다
독재
##△
파는
##방위
보건당국
전송
##믹스
주제에
##ca
##작품
미혼
내정
##드립니다
정체가
축산
인식이
이미지가
미성년자
충실
움직임
보여주며
구제
##ies
법령
빌딩
나타
DJ
평일
벌어지
##나이트
##구장
이해할
우유
처럼
##어머니
##fe
170
##만화
##근로자
음모
아버지를
과정이
형사합의
김승
기대된다
##he
시급
찾아오
항복
부모가
자랑하는
......
프랑스의
날씨가
스틸
객관적
하단
사살
개선을
열사
##LO
전국의
원자력
편이라
##립니다
##(13
집어
##9000
숙소
##6000
무기로
##한꺼번에
폭언
##ny
조약
영장을
파주
##족의
##렸지만
돌아왔다
줄어든
##ave
##권과
언론에
복용
공룡
히어로즈
궁극기
재학
##제의
##CK
공문
본회의
발병
인터
영화를
존재를
적게
##번의
협업
스크린
엘리트
상사
##포드
공인
##회관에서
하라
화산
그만두
지표
수위
외면
뚫고
조선시대
평이
자정
촬영한
보충
##이에요
특조위
유서
검은색
##ime
욕설
##SP
##정비
##CV
SR
##하에
##전사
해보
시원
마련한
##전에서는
없다며
언젠가
국가정보원
주어
##조로
애국
##식물
##(28
##번이
하려고
대목
Se
설비
모조리
사과를
공고
##로만
조사가
찔러
매니저
##심판
사라진다
친분
대행
은신
모범
##컨벤션
폐쇄회로
##요소
지향
확립
##집단
##능력을
##류의
GS
기획재정부
권한대행
##3)
복제
정도를
거제
공직자
##북부
마디
후회
조씨
환경을
노려
증오
덤으로
옹호
키우
택시기사
##명씩
우울증
쪽에서
사이드
##전공
여론조사
##색을
기뻐
모양의
레이스
이루어
개업
급격히
총학생회
##조를
##식당
항해
여부는
주목을
간접
##이런
시로
의자
##상으로는
죽이고
즐겨
가능할
나이에
##개인
##공주
지나면
치러
장남
이자
##du
개수
아미
권장
망치
신선
##****
##cc
패널
되어있
##da
##ou
반해
##먹고
회의에서
올릴
경쟁률
##플리
둘은
##졌는데
선수단
호응
##벨트
돕기
포위
광화문광장
완벽하게
동명
##MG
탄력
분열
박살
##요시
##코프
도망가
연구팀
당신은
안성
##~6
입건했다
플래시
JR
점에
나라의
쌓여
끝나면
감축
대외
##긴다
고립
##그레
보냈
아시
##직업
총알
정식으로
카드의
넘겨졌다
쪽은
포로
처음에
붙인
법무
##이후
잠재
##되어야
편지를
창단
버튼
청소년들
퇴원
나머지는
이전까지
소상공인
##ame
AR
도모
모자라
그곳
파악됐다
연안
특전
제외하고는
낭비
##군으로
##대기
마음으로
##나서
후방
가까워
##창호
Un
시작된다
##회차
##보라
정한
##따라
Mo
안희정
상위권
감각
남한
세이브
가르쳐
##대행
##속에
##주세요
요구한
내역
동아일보
규정을
높이기
일어날
나은
맺고
##위권
대학원
##구에
##호텔에서
##자문
순환
음악을
장전
보니까
없었다고
만났다
반전
포르투갈
1981
차이점
통로
강점
막대한
만일
정성
플레이오프
용량
##닉스
##ood
##∼20
주목받
보낼
빌드
##mo
93
수법으로
워싱턴
선거에서
미르
##구치
코코
느린
점심
##RS
선보이
항구
홍성
##왕이
어두운
간신히
월요일
판단해
##졌던
메카
##마르
주변에서
게시물
동일하다
##up
재산을
1200
##홍보
##센터를
도둑
서울에서
살던
##지오
평등
간호
이어서
##전설
돌보
암시
?'
적용해
##양의
팬덤
잘라
##법으로
태백
자이언츠
도저히
호칭
집착
저렴한
지키고
적절
아닐까
장거리
박성
서울시청
주포
재밌
구할
전체적인
##4000
내부에서
##레이크
관련이
##사회적
계곡
황교안
무거운
취약계층
핸드
탐지
##이용
상태이상
##안정
어디에
교수의
그러다가
해피
##대원
부자
생각하지
배를
장인
당시에
머리에
수상했다
좌절
적당히
발송
압도
자료에
##배가
증가한다
사람으로
강화하고
여권
절정
##DI
##서부
단서
잠수
맡았
전쟁이
수사권
##시장에서
##값을
인디
단식
지속시간
대단히
##보고서
##자재
아시안
아니며
he
예보
곡이
차이는
##체의
탄핵심판
분석했다
원심을
가문의
병력을
더해
공사장
유의
##키는
##공학과
죽이는
##sc
##저항
Ro
무더기
승객들
아즈
포스터
##스에게
##최대
##변경
##회계
하나만
물류
범위를
평가받
근무하는
제시한
아까
발을
##마트
범죄자
##지휘
왕이
생태계
##뜨려
무력화
사정거리
마린
끊임없이
##천만원을
겹쳐
##있고
수수
기준이
##친구
본질
##8000
마키
변동
기조
여성가족부
기다려
실태
속한다
##농업
##상한
바다의
일정을
된다면
즉위
건국대
##변화
나빠
##ound
높였다
타락
##테스
단기
성관계
아이스
Pro
프랑
##수요
관리에
나서는
밖의
라면
노란
##앞으로도
##위반
나노
겹치
종전
품고
We
문서를
매뉴얼
어택
뜻으로
늘어날
집권
금연
쏟아지
생년월일
조문
장난감
##스틴
한국노총
역을
91
사직
모텔
관광지
##반대
태양광
전락
사로잡
##구청
세번째
##여대
조건이
##(2014
중소
죽기
오면
타는
##1.1
오카
##레이드
##으러
주민이
##층의
바뀐다
판단이
##키의
즐기고
##공동체
믿음
잔뜩
패키지
물체
##들에게는
전당
거인
if
도피
그렇고
##mi
높이고
아랍
얼굴에
##텍스
미국과
뒤에는
나서고
겪은
쇼핑
떠올리
거미
##ight
지역이
자막
돌봄
##di
어리
대마
윤씨
##스트로
##마음
구간을
있겠지만
##되었다고
외곽
##결혼
열릴
청산
칭호
중국어
카카오
강화를
박영
리모델링
##센터장
신뢰를
분이
##렸습니다
Go
국비
##파를
서울대병원
공성
시라
향하고
익숙
아르헨티나
김천
##그림
##대회에서
중증
취재했습니다
분석해
추후
관장
환자를
해준다
했었다
방송된
웨이
밖에서
걸렸다
커리어
케이블
##발표
안돼
해경은
엇갈
인성
인정하지
거지
시그
중지
바가
관중
##양성
늘어나는
산소
##명도
비극
대부
참석자들
##였다는
가만히
땅에
마그
진동
하나하나
정당한
단속을
더이상
간단히
공천
소라
MB
1979
나주
##파의
맞는다
경기는
변수
유나이티드
양자
산타
##ll
##문화재
자폭
삼척
실은
효과로
선택할
정통
CV
품목
소환해
삼국
충분
기술로
이내에
벌어
아이콘
with
보전
##브로
시속
##협상
105
이득을
김경수
주인공은
어머니는
있느냐
가자
위원장이
살펴보면
방사
오피스텔
##해보자
대표와
군의
한마디로
증가하고
휘두르
누리과정
##계획을
세계대전
혼잡
##거리가
알리고
?!
유혹
##네트워크
가끔씩
주둔
안으로
실시했다
연결하는
시절의
태안
고쳐
##없다
맞춘
돌아가는
목포신항
고스트
상담을
##만원씩
외래
신상
징계를
진술한
성금
변환
붙잡아
디젤
확신
손자
종점
##들끼리
지칭
전라남도
단위로
거라
매번
서서히
원인으로
투신
되돌아
##때마다
간판
넘긴
##하시는
모모
벌레
WWE
##ah
플랜
나타내
등록금
확보했다
계절
자신감
윈도우
아름
말투
##현직
설명이다
설치하고
##작은
기록하며
##시의회
소재지
해명했다
차지하고
##부족
디버프
쓰러지
대통령에게
맡게
김대중
##자로서
국정감사
발라
청렴
자신들이
##ye
걸친
인하
##밴드
##보드
자금을
노원구
왜냐하면
##부처
주장한
자칫
##즈와
Good
##결정
##펀드
성실
##루수
디자이너
##카의
읽는
회장을
업종
##니시
스트라이크
도움으로
번도
##아들
##생들
##크라
특성화
업체가
우위
##시죠
해결하기
스카
면모
촉진
##인물
금강
체중
데려가
각지
하루에
##네이션
농사
남편이
타격을
내용이다
회담
학위
언더
기분이
##세에
##초간
드라이브
기억이
소방당국
##소식
모습도
쇼핑몰
관광객들이
이렇다
교사들
농도
##수정
바지
##겨울
수령
여고생
떨어
불사
레이드
정선
##ree
##마치
객실
지원사업
요소가
##하냐
씨에
잠정
##모든
##자고
남아있는
얘기가
부채
조현
##수영
꾸려
전임
모았다
##ach
활동하고
감당
수상한
심야
##oc
##su
조종사
장기간
연쇄
끝이
아픈
여기는
파크
연산
해운대구
우편
재개발
지혜
지역구
##운동본부
##것이다
악의
잃어
가족을
##테츠
비치
논란에
코미디
코인
내놓은
받아들이지
메리
노선을
정상적으로
해수욕장
주된
하나다
포함되어
로버트
내부에
시작할
양천구
죽이려
무술
원형
연기가
##마는
엄중
적군
허위사실
##반을
나오면서
부정적
느려
없지
식사를
잡아먹
먹는다
캐논
아메리카
##조작
간에
크지
재무
암호
##수입
##슬라
트라이
확진자
각본
필로폰
외계인
로고
my
적용된다
저출산
가지게
한국과
사태를
설립된
실시하고
##억원이
산다
적혀
통학
때문이라고
총을
북한이
##생태
베어
##박사
연합군
자회사
해결할
동력
기대를
돼서
사정이
##코는
##캐릭터
제작된
성공한다
냄새
파란
넘치는
보험사
상금
##헬기
대표의
##했음에도
느껴지
「
모으고
듣지
##관과
정체성
통계청
음료
예언
이겨
##」
##마리를
개교
늦은
해치
미흡
뿌려
##회원
sh
다운로드
준비한
완전한
과거사
요약
회사에
데이터를
구간은
EP
국토
경우엔
##~9
##.18
수험생들
성주
도교육청
털어
악당
비즈니스
전세
승점
저희가
##판결
www
##공업
마음의
먼지
영원히
##KBS
##고발
삼진
##보안
1945
부산광역시
인정한
스턴
대동
##정보통신
맑은
해수부
궁금
##급식
감염된
오디션
산재
늘리
##정동
##분기점
판매하는
요청을
패턴이
##거라
경선
##oul
구도
##코와
표현을
브로
플로
법을
않다고
구해
받던
근거가
##.08
호랑이
났습니다
세계에
스쿨
##VE
발견한
섞어
각오
##현이
##TC
야스
거기
##배로
감안해
##山
일기
##주의자
##점수
캐릭터는
느낀
사면
영향이
갱신
바뀌었
일시적으로
추방
테라
협약을
나누는
나라를
제기됐다
##왔으며
탐방
##사이클
한글판
피터
추첨
농산물
출연했다
난동
대학수학능력시험
편곡
##트레
명칭은
성능은
퀘스트를
행위가
SC
구별
필요할
공격할
어르신들
대표를
##왔는데
총재
않나
트라우마
후퇴
생각해보면
연상
##타리
##감정
##미네
##ci
##영웅
##ae
세계적인
350
동경
슈팅
##출입
가족의
##우라
방한
시즈
##둥이
신경을
##왔고
최종적으로
질서
##pt
펼쳤다
불행
잦은
감염병
앨리스
구제역
소동
##휴가
닮았다
CPU
장면에서
늘어나고
##하되
동영상을
활동하는
관여한
떨어질
이뤄질
바둑
쉬워
소스
괜히
안개
심사를
비서
의사가
남자친구
유닛이
온천
박재
900
법정에서
제시했다
##하겠지만
##국장은
감옥
Con
##크스
이례적
주시
수강
##억원으로
귀여운
믿을
##영장
차가
기업들
프로토스
##만원이
부당한
##기반
것들
동성애
과천
##겠고
##선언
##미세먼지
청구했다
관계없이
##출연
결혼을
공시
카카오톡
##번째로
납득
오랜만에
영장실질심사
가지는
고무
##영어
스페이스
##.09
오늘의
로즈
##hy
상단
받아서
프라
여론이
##관계를
요구하며
##수업
안쪽
소명
이득
판매한
우산
표절
##시키지
##GB
그거
구간에서
아닌지
겪었다
동문
알렸다
기울
지은
파주시
송도
도로를
사회에서
##전환
##심과
유언
##ME
대학의
##인듯
받았지만
감추
##사상
모델로
기량
##다니는
##법과
##ET
대단한
건데
남성의
분야에
선두
심어
회사를
결함
동급
실습
감사원
결핵
남자가
##대책위원회
토르
사이로
조용히
연속으로
한번에
전수
원료
페이스북에
거세
김준
내용에
차체
##공모
면이
##파출소
KBO
활동이
##올라
빠졌다
##SA
이해가
약속을
우호
##CH
김형
구성해
모를
##.22
극히
##좋은
저렴
보직
조금만
목표를
사실이다
만들어졌다
##방해
##들과는
평가했다
응용
못하다
안녕
##규정
##됐으나
지역경제
되었을
들어선
무엇을
장모
도청
재배포금지
드럼
최근까지
감싸
알았다
##역과
선택한
접한
지방의
오르는
##슬리
##서비스를
##아를
정상회담
중심지
심지어는
전승
##해수욕장
헌신
친척
퍼포먼스를
검사가
건넨
퇴임
포기하고
감염자
버리는
檢
##제와
주고받
##포항
매매
흐르
거울
스크
디지몬
##보인다
만성
학교가
##자녀
찬반
가요
##편성
##있어
##강도
유권자
레어도
##엄마
공부를
인건비
##급의
경감
만취
도끼
적자
타율
강등
버닝썬
주의를
사회를
배가
감소했다
##운행
한양대
담임
##되어있다
휴업
김선
빠르
##패스
##GE
##아는
구치소
##LI
##당할
소금
과학자
..."
세우고
##카운트
민주화
##중공업
세탁
통하여
드러낸
학교폭력
빈곤
양의
##돌이
별도
멘탈
전적
전문성
탄창
여기까지
입건했다고
조상
제공할
마이너
전인
##시키면
산악
산지
준비하고
통장
웃음
##내리
##해당
그러던
조국
머리카락
출근길
확정했다
##체인
##사전
증폭
##ok
여섯
나갔다
개헌
입어
부부가
총무
말라고
사범
의약품
조건으로
운반
본격화
##정도로
나눈
보수단체
억지로
스톤
##치와
내게
##지에서
퍼져
출신인
##아키
##EL
##연의
캡틴
정체는
최장
##lu
임상
##예정
##상자
만료
최순실씨
프로그램이
##국내
맥스
일족
##보호법
탄압
아니라면
뮤직비디오
아케이드
##는데도
즈음
싶다면
##으려고
좋다고
##int
명분
찾아내
교과
##롯데
확실하게
진짜로
악기
개념이
6000
화합
기다리는
선진국
고래
##일째
앞선
추돌
소문이
##끄러
다닌다
빠져나가
##미사일
다음은
구속영장이
드러냈다
예시
플래그
캠페인을
##인지는
부를
울리
시작되었다
##즈카
전망된다
##팀의
##십시오
효율이
##도교육청
반입
##아와
기관총
명의로
##News
증진
아냐
텍스트
##받기
프로필
##억여원
1973
가리지
질의
늘어난다
원수
닮은
특검은
##IV
찾아와
총회
거둔
난입
라인업
##회의실에서
슈트
부하들
##port
##대회를
출석하고
자녀를
칼을
프랜차이즈
##링크
먹었다
모은
상황이었다
계통
영어로
언급되
##수급
안정성
교차로
당첨
함부로
시절부터
받았습니다
날씨를
Br
당할
수료
대수
지시한
사원
유족들
##회말
참배
3.5
발전소
김해시
노린
메모
##능력이
다카
챕터
개신교
어렵고
##.04
미투
인쇄
##조각
##가능한
오로지
날리는
최우수
무서워
##IM
나타났습니다
금고
기자들
##콘서트
##츠카
속한
(3
데드
자백
집회에
팬들에게
성질
더빙
배후
선조
인스타그램
다이아몬드
유학생
한층
없었기
##116
##헌법
##사례
방문객
말레이시아
운전기사
후계자
독자들
가이드
노리고
##진료
가능해
##St
조롱
언급했다
올라와
전까지는
대통령에
먹기
딜링
##셔서
헝가리
##는걸
##채널
크레인
실려
##OT
##.24
마스크를
##지요
##매치
지원이
##레이터
동계
##오의
##씨로부터
되려
##면적
기점
원조
의류
##~8
경향신문
CC
##슈퍼
##판의
이하로
머신
##BO
##실험
찾아볼
##부상
테이블
##층이
마트
검정
##위안부
내기
것이기
부속
유저들은
공적
받았던
##NE
박탈
선로
##라고도
백남기
이뤄지
체육관
때문입니다
달리는
가진다
대국민
##IL
부상자
기르
보이는데
강아지
드레
TF
##함대
니코
결정적인
대변인
##강남
##♧
경매
##암동
##사이드
등지에서
절단
##.23
##여건
인정된다
막상
방식이다
하우스
여파로
모델이
아픔
가나
예정인
수준에
주범
삼각
##해달라는
##ob
크림
##OW
게임에
가루
##차관
항목을
폭행을
기점으로
##TF
부르며
부르고
##했는데요
상징하는
##시켜서
##영역
##남북
통산
외의
연타
국산
줄어
아이들의
아닙니다
편견
모친상
##sa
계획이라고
##소재
분할
재건축
나오며
드문
행위는
##.07
행태
대접
##나리
성공적으로
##마리가
찢어
재미있
효력
##지역에서
벨기에
포수
버스를
국세청
##더라고요
번에
누르면
운동장
아베
##쿠스
살피
미국인
볼트
경연
적발된
##바이오
수중
포즈
by
천장
##.21
이벤트가
##ko
순찰
캘리포니아
종업원
호환
##ug
정답
##UR
노동조합
만세
ma
넥슨
이후의
엄정
석탄
세계적으로
대상에
##개교
신용카드
불복
발족
##ki
##지하철
치즈
왕의
매월
##드린
일람
블러드
문체부
이번이
##행성
폭발물
인사말을
하루카
##way
호소했다
적폐
편의를
##7.5
주최로
자르
1978
전략을
루머
분기
잠복
수질
사냥꾼
격추
##티나
자치단체
중대한
##공급
하계
##드림
도약
평화의
하늘을
들지
##달라는
쫓겨
스프링
재판이
##UM
이루고
##sp
##방문
버프를
돈으로
현실을
막판
내용과
지역주민
무혐의
상기
세력이
작품은
“(
그럭저럭
비례
할머니가
##개씩
##오전
떨어졌
칼날
학생을
##선택
보라
스팀
##(2013
바라보
산정
##if
##냈습니다
시작했고
출퇴근
어딘가
승마
##으로만
##함께
한국은
빌라
슬픔
##사범
##포토뉴스
발견하고
##화물
##조에
구축함
운영에
근본
반박했다
구름이
무라
모형
적었다
기용
발매되었다
생각에
##십자
올라가는
빼돌린
시간당
롯데그룹
줄이고
김창
폴리
##문재인
아끼
##히트
평년
##아니
장면은
포함됐다
불신
유료
원이
적립
##ook
준비하는
소집
올해부터
##봅니다
##레이트
##ence
외전
화재로
어렸을
참여연대
##장치를
주어지
##사관학교
연락이
확인됐습니다
강동
형량
지났
ST
##소환
##인데다
리드
##증후군
공업
않겠다
##버트
##키아
지팡이
말하기
분노를
치우
##.14
##지역의
발생하고
##교육과
소중
같다고
교토
잠을
##렸을
보행자
##유기
60%
##무대
공격한다
구는
반응은
일각에서는
가져오
부상으로
공정성
##[
인지도
화천
##ps
##개정
트레일러
출발해
꼽힌다
시골
포털
##슈타인
##만으로는
##로프
정동
구조조정
민첩
없으나
만점
##하였지만
##lt
##우의
##봤자
언급이
예정된
##선거관리위원회
##FF
##감시
##2019
##민주당
바라본
Al
일삼
라운드
##그린
광산
##했어
발표된
##리움
##거지
마찰
##봉사단
술집
잔인
대학에
##ial
##화력
올스타
탐사
승률
미키
##사정
##스토리
비유
받기도
퇴장
정씨는
심각하게
##소방본부
주면
방송국
##카미
두려움
태권도
훔치
넘겼다
##요리
지문
##외국인
제안했다
떨어지고
##클리
노사정
시점에
##ink
##레인저
짐작
신형
##IST
##일차
반려동물
1975
수익을
지적도
보호자
##.06
더군다나
덩치
조연
활짝
무엇인지
ch
##GA
여객선
사서
원작에서
어려움이
불편한
학생의
예매
##농가
##og
기대하고
구속됐다
인상을
드래프트
팔을
부유
단정
파생
##ory
##들었다
데몬
##마크
터진
나왔는데
지시했다
일고
여기저기
완결
셋째
재활
줄이는
잔혹
차에
싸웠
##차별
공세
##구조대
야구장
않았는데
악수
국립과학수사연구원
마드리드
동계올림픽
유전
치솟
출시된
전력이
기소했다
##GM
선고했다고
노조는
모습이다
불렀
##백화점
0.1
애매한
재미있는
출소
##경향
##네가
낙하
두루
가던
독일군
유죄로
##탱크
실태조사
토벌
보시
구청장
##피안타
어째
시장의
살아있
인원이
쓰인
답변을
##pr
##소장
##박쥐
##*
##인터넷
공허
듣는다
##일지도
앓고
워터
우라
깎아
리가
##ary
신속하게
작아
치명적인
그해
주거지
비위
왕위
방학
무대에
나간다
##바퀴
##았으나
상대에게
##∼5
제안을
발길
적발됐다
출연해
이럴
일본은
들어서는
##이라고도
많아지
줄일
명으로
텔레비전
아버지와
신세계
알려지지
방송사
지니
누구도
광고를
친절
부위원장
##했기에
포르
IP
살아있는
War
사실관계
구슬
복사
파동
헤럴드경제
경부고속도로
##쿠마
홈런을
방침입니다
##5.0
깨끗
벽에
사업으로
원자
##비율
벌어지는
지원해
영등포
##질서
일일
##출산
개최된
출판사
빼면
##히코
폭격
일으키는
go
기장군
동남
부인했다
부재
자유를
않는다면
##수능
##텐데
실명
##수용
장소를
##사유
사도
맞을
깨지
집합
정부서울청사
주무
기록하고
##파티
전산
곡은
행정구역
관광객이
경기력
##그런
현상을
참모
조화
불만이
챌린지
가맹점
##rd
0.0
성수
##han
##(2012
오기
증가하는
춤을
퇴출
챔피언십
##유리
##경희
후보는
싶다는
카드는
##덩어리
충청남도
헨리
철도역
이라크
##죄로
##4.0
##대출
##정보를
##최고
따지면
3.1
치면
##TP
##코치
위력을
어쩌면
커서
가까
##ke
리본
전원이
##연패
탐색
##정화
##개월에
##ung
배트맨
전반에
거리에
나츠
서초동
포스트
부산진구
##레드
이후부터
정부에서
신속
소독
비틀
##설비
Vi
생각합니다
##비의
문제다
##미투
집어넣
##되므로
마법소녀
소방대원
만들어낸
법칙
##사용자
모듈
다가가
천하
사단
과거에는
나타내는
담배를
##기부
확인하는
성적이
##파리
조계사
숨을
LV
마을버스
끝난다
##biz
신지
주택가
역할이
##윤리
모노
학부
다투
무소속
흐르는
엑스트라
검찰과
치열한
마포
명예를
웬만한
##az
대형마트
소방차
잃었다
작화
??
##eg
최영
만인
교통안전
따온
변호인은
유용한
모습과
##_1
직위
삼성동
확보해
인력을
부각
남매
명은
법무법인
##권자
존재가
##∼4
불과했다
총력
##7000
학생부
여부에
중부지방
전년
자원봉사자
확인되지
선보였다
##시경
생각은
##동네
유감
선정했다
##sk
##치사
바른미래당
폭파
나흘
하도록
방안도
##ron
##배치
##SI
후원금
멤버들이
옆에서
상성
걸그룹
선택을
취하고
탄환
웃는
구속하고
화려
SH
광범위
게시판에
교사가
인정하는
부산지역
##았는데
관악구
차려
강화하는
엔터테인먼트
수치가
본명
##천사
해변
##wikireport
바라보는
에어컨
분해
협력을
바다에
##뜨린
##페이스
저감
UEFA
크루즈
##해야한다
투자자
##운동을
##-3
미즈
신속한
연맹
##광장에서
가리키는
무기징역
여인
조직원
타겟
생전
##지난해
노부
살기
무작위
##si
실패한
초기에
성북구
무리가
권력을
서해안
파기
안다
##ans
멀어
있듯이
행동이
필요성을
힐링
노리는
대사관
잡힌
##하곤
기쁨
##KR
함수
##비전
##회초
주인이
달걀
##쿼터
염려
구체적
규모는
CG
전설의
토크
가중
1972
펀치
파편
##하려던
성사
홍천
무기는
1.2
형법
침투
나란히
##라이더
소주
거창
카와
무기가
위치하고
장애물
오늘도
불에
아이의
도적
견디
기자간담회
크리스탈
중력
아내가
백인
얻는다
##급히
의견으로
언급된
##스마트
걷어
위주의
짓고
##형제
임팩트
○
##촬영
시장에
##설명회
쌓인
가리킨다
##포트
와일드
동국대
##스테이지
와인
승차
##들과의
정책에
피가
##연속
##하여야
##훈련을
도대체
##청와대
●
여럿
가족들이
참가했다
했는지
##타니
순직
힐러
보드
냉장고
만들어서
의원을
클랜
염두
북측
직접적으로
의미하는
원룸
죄를
##소드
조회
익스
##~)
사료
말씀을
게임은
최대의
만주
##군단
액수
카드로
글로
네티즌들은
페이스
##억원에
##외교
끼고
질투
360
쓰게
원대
방식의
##노총
다름
##II
반동
해골
들어가서
대박
##수리
Cl
선수는
등극
##동생
김모씨
KB
책정
차량의
상장
대법
##사업자
어린이들
선택지
일체
##ms
영어판
정도이다
##쳤고
##iss
보호를
성당
별명이
끝났
선거운동
##ys
##IG
리스
디스크
##개발원
##냐면
학생과
내걸
기믹
주가
행방
1976
경성
끊이지
농도는
CF
모르게
협력업체
코르
나왔던
원활
합의를
놓여
##세와
##대사관
##밸리
처우
##ile
##충남
지대
##아직
부산대
운세
악성
비추
Mar
북상
휩쓸
성균관대
##창원
형이
적합한
화성시
친한
강원랜드
만화가
Ar
선고받은
제트
##보트
자체적으로
##ction
이순신
코토
참여한다
경과
##법률
##삼거리
언론사
뛰어들
괜찮다
초등
덧붙여
높아지고
평창동계올림픽
꾸며
나오기도
박종
착한
중세
반경
자원봉사
전력을
라이온즈
아키라
리버
미치지
에드
시연
##HA
시민들에게
##장터
일당이
실업
압도적으로
열악한
천주교
##ish
##도지사
신촌
광진구
##day
herald
뒷받침
깃발
청춘
먹지
학계
없으므로
회색
최정
눈으로
시키
중앙일보
서산
타이거즈
놀란
욕심
광양
노란색
종사
청취
Im
브라운
##플라
수사하고
막히
상공
낙선
논의를
##비상
사람들과
이원
파란색
설명하고
히데
##케어
공학
점검하고
마쳤다
하남
투척
확정된
기동성
환수
PV
OECD
중화
하급
##웨어
사라지고
바뀌는
일화
소속팀
좋지만
마당
##스런
아레나
##ens
##강제
레알
성산
오고
연사
소개했다
어필
이닝
강남역
여는
주도한
프로야구
##뒀다
인턴
故
철원
최선
사회공헌
지지율
##TH
##학생들
생활비
기차
편하게
속이
미미
아파트에서
버튼을
회차
육박
실린
##게시판
짧게
##태평양
착수했다
곡명
극단적인
##ock
아쉬움
##무리
##트랙
##페이지
리뷰
##시켜야
주주
특수한
반짝
루비
홈페이지에서
갇혀
##담당관
##보육
US
##풀이
끌었다
지워
가져다
결의대회
과학기술
참여하고
견인
맡겨
동전
읽고
##있게
가죽
##젤리
##va
타마
한국당
이긴
필요성
##인방
아파
##문자
오페라
베를린
출석해
하는지
자리가
본진
##스탄
##합격
행정관
실점
만들어내
센서
시키는
주장하며
연루된
판다
OP
난사
양재
어려
재산피해
천막
##되었습니다
시장을
“‘
DVD
탐험
거냐
포트
기세
전투가
##동맹
꼽았다
이번에도
##화장실
교육부가
긴급체포
공조
에코
코난
되겠다
이야기는
##농장
소아
뉴질랜드
최우선
외치는
주장은
Li
1971
##코스트
이상인
저도
아님
연탄
0.3
사각지대
???
이석
125
끼치
##야말로
곁에
근원
심리로
##강사
##하느라
투자를
##학술
Try
빅데이터
##.17
##드레
적법
대학생들
일하고
김대
에그
곡이다
핑크
송환
유저들의
##취소
행안부
사회가
뒤인
애매
그릇
가져온
유예
8000
전투에
시절에는
##tion
제독
##공정
싶다고
사임
특별검사팀
증권
상봉
용의
수사기관
흔한
시장에서
90%
감독을
학기
강좌
하이퍼
##ever
##youtube
국민청원
우세
목적을
마음대로
코멘트
노동계
알려졌
여객
올라간다
실용
##물리
경직
유이
이유도
데이비드
##었으니
무궁화
앞장서
##rt
오크
작품들
##act
체계적
내전
##특위
##타르
주의보
선물을
거북
돌고래
진도
판단한
1974
##역량
여성들이
감정이
뱀파이어
##시타
커녕
잠입
플러스
##연승
##입구
가능하게
재회
경제를
수직
나오게
함유
Star
나비
설정상
웨스트
일정한
##확률
떠나는
배울
맡았던
정신이
지키지
쓸어
역사가
나뉜다
##판사
힘들었
##다르
##성모병원
김명수
기울이
##갑니다
숨기
주부
선수를
##천동
불리한
철저하게
극대화
상하
2021
##해보면
기업인
열차가
타이어
낙태
서울광장
0.2
고스란히
서번트
부분도
로얄
드롭
한마디
칼로
뒤에도
큐브
빠르다
워크숍
김기춘
파르
국민들
양보
##관리법
유착
1968
내각
인사들
##~3
이펙트
일행이
유지할
##있었다
수록된
##겠다며
##width
조사했다
완주
대리인
정발
고성군
나기
이루는
의하여
Lo
##연수원
관점에서
제목으로
공개되었다
##까봐
운전자가
키라
##주심
본토
강북구
노래방
공안
바리
##도박
작전을
발명
석사
서서
알기
저택
연동
생략
핀란드
압수수색을
1·2
이념
행렬
##.30
유지하는
관료
사측
편이지만
YouTube
첼시
##교육지원청
일어난다
결투
베이비
진에어
##조치를
싸움이
배역
페널티
##졌다고
전해졌습니다
마루
##경기도
자립
평을
키가
##려다
느낀다
도시락
액체
##°
작가는
단체는
여겨
##.26
귀엽
맺었다
전라북도
할머니는
고집
생애
곤충
글씨
##DD
넓어
공격으로
독립운동
흔적이
담보
제한이
단계에서
했기
error
팬텀
너의
##마사
명확히
전제
대령
공사가
멀쩡
연결된
생명체
모터
##세상
근처에서
작업에
손쉽게
액티브
배포금지
스위치
##mon
흐름을
인제
포함돼
##카메라
토너먼트
베타
GO
도시로
준수한
##상황실
속출
디바
##장군
문제도
아시아경제
보여주기
##오버
대변
##왔지만
천천히
협정
나들이
##데미지
##현실
악몽
불쾌
박용
루나
Di
스파
##?
인간을
공채
미쿠
##IR
주민등록
후술
모순
이상하게
단종
아쿠아
장소에서
근로시간
카스
남아있다
일일이
##RC
레일
대회에
##곳으로
##파워
미끄러
연계해
실패했다
##재생
되니
열람
중이라고
개원
밝히는
##봐도
설명은
시기가
법정에
녹화
피난
동성
##AE
'2016
동향
==========
대도시
라인전
졸업식
자격을
산업통상자원부
뭐가
고기압
압축
태우고
##할만한
의원과
빨간색
문단
국가들
쏘는
##관리공단
행자부
수비력
필요없
##검사를
넘은
감사를
##경기장
##be
##페르
복도
##트리스
마리가
조율
나쁘
유용
노르웨이
DF
흡입
극단
##위생
호흡기
최모
단어를
직원을
걷기
소감
사이에서는
말아
주인공인
증거인멸
에르
관리가
펼쳐진다
공산당
국외
야수
익명
극도
입문
video
보고서를
오산
예산이
공무원들
안정적으로
휘하
나뉘
폐사
계속되는
##right
##카라
냉동
트롤
첩보
업로드
##mg
나타날
맺은
인정할
움직임을
여름철
내의
220
맡는다
만나고
돌아갈
공통점
##대책본부
##http
세금을
위해선
라이플
##있지
##2.1
배송
먹거리
##엔딩
##스팅
정직
방사능
고조
##Ch
적혀있
너는
역사교과서
1977
스탠드
결정이
고치
극중
조세
캔슬
넣을
벌인다
상표
따르는
볼넷
길거리
진료를
반영한
확대하고
않거나
이동하는
공정위
가라
JavaScript
드라이버
단백질
멜로디
좋아서
트리플
주의가
보도자료
적들
재수
정무
240
중동호흡기증후군
##위원회에서
그렇듯
##1.5
外
##게이트
차례로
##스토어
##대상자
순이었다
##액션
이산가족
원천
##여명을
총수
공무원이
발견해
2500
##베스
일제강점기
친구들과
주장한다
##테러
최하위
시카고
직속
축적
##중단
루카
들어왔다
설치되어
##RT
보상을
##컴퍼니
##ax
##워서
##감염
부모의
때문이었다
##ICT
신청한
조치가
올렸
we
##ign
벨트
##골드
제조업
운이
강제추행
아래의
부족해
기간제
##0.0
설립한
##민주주의
enable
독립운동가
양손
어머니의
약하다
Ver
이르렀다
풍부한
##sys
축복
##ran
당대
무효화
성경
과다
watching
##터스
누르
##kmh
##tra
기간은
소비자들
##주차장
못해서
115
밝혀지지
##지역본부
RPG
occurred
조희연
행위에
인천광역시
사회주의
스트리트
음란
##연령
필요로
힙합
정준영
정관용
##분까지
과자
##만명이
##앨범
비중은
변한
##KT
질주
DD
타선
UC
탈북
##공작
후보를
쓰러뜨리
사무실에서
##표준
즉사
표정을
빈번
건강을
AS
소화기
특징이
##SC
부스터
##임대
시선을
강동구
모니터
지원하기
뽑기
아쉽게
캠핑
관점
보이기도
##글로벌
출입문
특검팀은
##ster
##아스
##무사
사이트에
상품을
되어야
들어가기
간부들
주장에
말아야
돌며
감식
그러니
기호
기동전사
##법관
위안
사상자
모집한다
사교육
여긴
졸업하고
지나가는
##aw
disabled
막바지
맞추기
카지노
책상
##포르
##부담
확대할
돈은
지나친
참가해
않았으나
애들
에디
##머신
독성
미세
바른
browser
##CI
that
잉여
##대신
##남동
작품으로
##했더니
##냐며
겨울철
녹아
결정에
선보인다
##파이트
신학
사례는
회장과
주장했습니다
감자
공헌
근본적인
오가는
불법행위
##자료를
경악
Po
갖는다
발탁
가로막
##뿐이다
##기간이
사칭
##한강공원
기해
##ort
버그가
운영된다
##ture
우울
MF
합리적
한나라당
합계
근거리
높지
김유
쳐들어
##회전
그로
비판하는
그래서인지
살아가
시노
지목된
이뤄진다
규격
여겨지
영업을
##패로
경제학
여부가
심심
확대해
드릴
마약류
##모스
청계천
국무회의
문제와
극단적
아서
야마토
선정해
운행을
##청탁
##층으로
히틀러
서울메트로
비난을
123
수준인
훈장
MA
백작
쿠데타
일원에서
넘어가는
다닐
##TR
##측은
우크라이나
##월말
##친화
##틀리
##250
않았으며
경희대
육아휴직
비주얼
##카드를
지장이
갖다
과감
mm
##렀다
수요일
시작하였다
소외
멧돼지
여중생
계시
놓인
우주선
밥을
빛나는
장병
지냈
시합
좀더
##멘트
방식은
똑같다
##자본
마우스
엉덩이
마련할
##함으로
##NC
진격
BB
##코어
##ire
##6.5
일베
레인
되었지만
##이동
기탁
번식
가디언
요소들
예상되는
것들을
##평균
막혀
##폴리스
##사법농단
마블
활용하는
저자
전보
정점
초콜릿
방어구
버스터
잡으면
일자
원으로
##파괴
득표
평범
따뜻
절실
남지
정신질환
작품이다
##경전철
이용하면
상습적
장학
밝히기
모토
반려견
불거진
##릅니다
##협의체
##스텔
가득한
##산림
국민들의
##라이브
##합동
않음
미루
##ord
죄질이
생각한
빠르고
서울경찰청
##헤이
봉쇄
외벽
##클로
깔아
후쿠
나섰습니다
##리언
광주광역시
##상대
착륙
총격
##대책위
입자
행사장
농림축산식품부
유네스코
내다봤다
셔틀
발견돼
본명은
어렵다고
표정으로
사항을
금액을
##강릉
Sa
어울리는
##이름
자비
폭력을
안산시
과시
주입
말기
##심의위원회
벌어졌
##내역
구직자
위력이
##청주
가능하고
있음에도
##스톱
##때까지
묘사가
##unt
던지는
경력이
그러므로
민관
##엔터테인먼트
있죠
##bl
##ank
##병원에서
##졌기
짧아
개인적으로
약탈
준비해
안건
부적
##pa
##~12
잃어버린
요한
공동대표
괴롭
렌즈
PP
바르셀로나
태블릿
횡단보도
지리산
##참사
되어있다
음식물
폐업
##EE
##ib
서류를
적고
업무방해
##겠죠
##tro
##쓰기
덕분
관계에
수호자
##발생
모양이
##르드
콘크리트
반도체
넘버
기수
##교육원
no
보호막
모친
##dd
당한다
##태양
##라이프
관절
##시키며
쌓이
갔다가
스피
##교과서
실효성
자체도
##리즘
은평구
공판에
감사합니다
##재현
##엔진
루이스
특정한
꼬마
공표
##LS
GM
고용부
개막식
접근성
안좋
지역별
조선일보
캐스터
이목
적용되는
##미술
부적절한
상대는
##...‘
경복궁
오버워치
헌혈
##걸로
자사
차림
할수
로스
띄우
안타까운
요코
휴대전화를
주축
얻었
108
장소로
##MBC
##과정을
싫다
있냐
감성
스즈
순수한
못하도록
##갔고
느꼈
##밀리
통일부
반감
전수조사
정모
탈취
자체에
국민들이
감기
발열
발견되지
##∼6
플레이어는
Da
##사업단
발주
튼튼
넣었다
##ical
##영화제
##렉스
##AF
개명
포켓몬스터
진행해
정시
골프장
파산
발전에
달라는
##부작
표적
##정부가
마냥
마찬가지다
사체
임시정부
대강당에서
시세
기피
개발자
모습에
방안이
카타
외국어
It
떼어
##전력
##카스
지었다
이재민
시기를
일어
중첩
CO
접수된
지지자들
재차
##Qu
통틀어
다이어트
걷는
재장전
운전면허
##특정
스킬로
메디
그녀에게
##나간다
그려진
자신만
조금이라도
협의회
인식을
벽을
명백한
요청한
실종자
##연습
연구개발
사례도
높아졌다
서초
##수있다
##부장검사
지수
실세
무리한
이마
##차전에서
##놓는
간섭
복직
##규제
죄송
보러
버섯
스토리를
혼합
임대료
생기면
관계자가
원더
##(50)
##남자
시의회
대회의실에서
도미
업데이트로
배워
승자
진심
의문을
정부서울청사에서
동의를
제왕
던졌
역시나
하필
에릭
친구를
이승만
예쁘
법원에서
##정리
갈색
때보다
En
아가씨
고종
미드필더
학점
##건지
1948
미나미
##날씨
귀성
##지침
판례
맺어
괴롭히
배우고
봉투
##데이터
법적으로
##볼트
흡사
6·25
##하겠
1969
정리해
들어가지
양반
공판에서
##.27
기준치
암살자
어머니를
##120
##min
판시했다
직권
##MC
졸업한
불펜
적중
일본판
확보하고
성향이
침체
실험을
SF
공격속도
틈을
##놓는다
연사력
옮긴
기후변화
수익금
해외에서
행정부
##페스티벌
##무스
다큐멘터리
가라앉
토니
자수
##일수록
넘쳐
친박
##DO
동창
사천
벽돌
유관기관
##(49)
출입구
##지정
##버렸고
필요성이
##촛불
1.0
내용도
임종
달아나
레인저
막아내
대사는
묻지
실시간으로
7000
치아
공소시효
언데드
##아르
여수시
굴욕
깨닫
선동
##DB
거라는
메일
온몸
기반을
서포트
민생
한국경제
골키퍼
노하우
꼽히는
아이들에게
##하셨
진단을
록맨
아니더라도
##각형
메르
##버려서
##5.5
비웃
비만
LED
주장도
능력으로
추출
직결
엔젤
##.28
##임대주택
독려
알코올
나르
##패치
소환조사
원딜
빛이
##소문
문자를
놈들
아들인
극한
채용비리
편하다
예비군
이름과
환호
공장에서
그곳에서
##통상
김혜
블랙박스
떠돌
이뤄지는
등장하며
현대자동차
아이들은
##탄핵
운영할
부합
추진해
BJ
그루
채소
방류
##돼서
##광역시
생리대
아마추어
이런저런
파츠
##제도를
높일
##IB
##카타
명소
지갑
나라가
세무
##nc
비율을
형태가
CBS
제조사
##vo
문자메시지
지원자
##산역
##했을때
싶으면
기념행사
성분이
차례에
거주지
##프록시
##으라고
반론
밀수
운행하는
무선
##받게
동물원
바꾸고
광복절
출혈
세종대로
주니어
오후부터
산학협력
움직임이
변해
보이스
않으려
##리더
##영장실질심사
페미니즘
##저널
2030
퇴사
밑에서
승계
##플러
##위원장이
싱크로
낳은
미수
배우이다
##노리
흑역사
내년도
실수를
##적이지
대법원장이
오른다
물었다
부산항
처리할
##계좌
1963
전작의
자란
마시는
##블루
나가겠다
벗어
자존심
멸종위기
처한
##미스
우리나라에서
적절히
국기
교수와
여우
손목
보스전
거짓말을
같고
##KA
서남
목요일
생체
신념
##ris
반영해
부부는
##제조
보낸다
##스타일
부추
지녔
입금
##사드
찾았
두번
##∼3
싸이
승용차가
교단
##종류
##LG
출격
펌프
아내와
남양주
않으니
기각했다
박경
##놨다
교차
익히
워크래프트
송금
사물
##편집
ED
유래는
아이폰
균열
살아가는
차이로
세라
##스럽
비롯
전향
연결해
1800
저소득
섞여
중앙정부
##페어
##방안을
대미지가
부양
##토론회
씨앗
##버튼
공간으로
--
여기에서
미스터
##경기에서
올라갈
끼워
때린
애플리케이션
찾아가는
AD
받으면서
아침에
도봉구
되어버렸다
##세계를
##구속기소
생방송
##SK
만지
요소를
World
상태라
적당한
열흘
일으켰다
1967
조언을
##강전
살았다
저렇게
짙은
무너져
시민사회단체
일대에
DC
끔찍한
너머
성숙
후반부에
놀라운
돌아오는
##재료
공휴일
##계층
신고한
되므로
##스퀘어
대기시간
구두
음란물
##금리
상품권
##해외
##군사
튕겨
끊기
양대
변명
활발한
공짜
스티커
단풍
새마을
##실천
누군가가
말부터
흥분
##토론
##남성
실사
숫자가
위축
잔류
상류
굴러
조사해
보았다
새정치민주연합
공기업
상태이다
하였고
추운
환불
##심리
주의할
발레
##년동안
여유가
확인하기
##된다면
우측
경주시
단원고
##돼지
해결책
북한군
맥락
##었어요
마련하고
사촌
가능하지만
물리적
퍼즐
발걸음
것이란
인사말
공대
아랫
##ase
사용하며
##표시
받아들일
이루어졌다
##크루
등장할
어뢰
끼어
탐정
걸음
##라이즈
##런스
##우수
도깨비
목소리도
##5.1
가처분
됐고
요리를
보령
##메이트
방어력이
##평등
양양
돌아갔다
불과한
문신
##land
##면허
됐다고
##보전
일곱
##체육관
##여만원을
정조
##클라
##하더니
발판
디즈니
붙었다
##맥스
##도의회
##2006
쉽고
자사고
조폭
다목적
##할까
사무실을
인접
Ex
유동
의대
대변인은
곡으로
양평
조선인
키워드
야쿠
투표를
##학급
##목적
리콜
설명하는
싶을
중상을
교재
그렇
##반응
소나무
단독으로
국공립
여객기
서귀포시
메이드
빚을
사용시
팀원
카시
장시간
입소
##다던가
죽게
닉네임
##모노
Man
##que
플라이
나중에는
##소통
위임
코믹
시행된
녹조
남해안
적용할
스타트업
기생
초반부터
도지사
기여할
동아시아
어려웠
재선
적재
현실적으로
평상시
##바리
문구가
받았으며
병역거부
가입자
홍보대사
박찬
과잉
선별
방제
사라졌
고난
EU
보여줬
힘입어
끔살
남았다
##(61)
급성
##예비
수사하는
환자와
분담
##테니
삭감
450
##측정
드물
선수이다
##디지털
최씨가
##ton
◎
##마력
헤르
함락
혼돈
나루토
세종로
너무나도
항만
두들겨
##ble
먼바다
토우
부천시
전해진다
동점
패전
한방에
##성향
페이즈
결전
##중앙회
##테라
##스포츠재단
##아래
핑계
4~5
##특검
##사이버
나서야
캐시
유골
적시
주겠다
정도면
##mb
감독으로
오스만
쏟아져
합작
살아남은
쉴드
포탄
아바타
우익
모양새
##동아리
.....
퇴치
프라임
##전북
다쳤다
##이야기
헬멧
왼손
나타났
벗어난
강의를
유의해야
스펠
##폭풍
대조
사정을
김부겸
생중계
가결
##동욱
##잔치
##했거나
키운
##버리기
드러난다
실시된
하마
##신경
고증
스크린도어
1930
판결문
신도시
한번도
스티븐
대담
돌아간다
추종자
회식
만들겠다
사생활
##CO
최고위원
##ning
기승을
지정되었다
##동주민센터
장관과
옆으로
##됐는지
사이트에서
텔레
##JP
통째로
AKB
정신과
얻어맞
의미에서
세팅
능력치가
정석
방조
##니스트
심사위원
##문화제
##개조
신데렐라
깊어
##ure
입점
중량
치러진
옮겨져
설치하는
##gu
이전부터
##전반적인
신빙성
##창조
예비후보
빼앗아
묻어
장소에
주어진
##-4
쓸만한
김희
지급하는
사이트를
인해서
##res
부두
겨냥
시마
놀이터
##GO
##불교
번씩
로빈
사진과
인조
경산
매진
Ho
##jo
##플레
인종
장안
센스
불이익을
회사에서
잡았
파멸
선언했다
닌텐도
악취
##위원장은
트루
가이드라인
##번지
차명
##하죠
김윤
여직원
대법원에서
##요구
##충전
(4
저수지
등장하는데
설치했다
세균
레지
많으며
싸움에서
기장
##쇼핑
무시무시한
최악
놀러
국제공항
절차에
구급차
초보
##보조
나서서
Dr
도루
바꿨다
사람이다
위엄
헌재는
시작되는
패밀리
지난해보다
##쓰레기
##왔으나
##하니까
조우
일어나지
접대
절친
되길
박준
##충북
##특별위원회
모스크바
##사우루스
접어들
##(57)
없어요
##팩트
나타나고
이걸로
와카
바탕
뜬다
구르
##UP
쓰던
빠졌
원숭이
휴식을
환경에서
선호하는
차별화
화폐
발생하면
최상
포함된다
뒤덮
발각
보훈
개봉한
##oll
시기입니다
전달한
달라진
사용되었다
총리는
하였으나
있고요
간지
지지하는
정우
특히나
훌륭
발발
CS
실책
냉정
##|
한국도로공사
주유소
몸통
세인트
국회의장
##(55)
기사제보
##(51)
돕고
때리고
##ich
발리
한국판
포탈
남북정상회담
작고
##PD
EBS
##ner
토리
SA
피해자들이
인원은
명확한
관문
주식을
##수행
CEO
표본
마라톤
관객들
동아
내보내
수석은
울릉도
6.25
신전
##항목
교감
FM
소프트
옮겼다
폭탄을
##ds
건수는
등록된
강제징용
민중총궐기
움직일
트래
##비정규직
주관하는
똑같
출시되었다
에피소드에서
안겨
정진
협조를
거리에서
##ess
괴수
애인
징수
##아메리카
워커
##해지면서
진급
난방
입힌
##ING
##해져서
늘리는
탈당
일상생활
심폐소생술
설악산
##혁신도시
특화된
불리며
찍힌
##orn
법학
##net
명목
##중부
##dr
국정교과서
방법도
배웠
변함
맡는
하사
좋겠
돌려주
##레어
선회
몸매
트레이너
비방
##소프트
##징계
인파
되어버린
방심
##민간
관광객들
##클레
One
##다보면
추징금
테니
##모양
취약한
완벽
##선생님
김씨를
모르겠
##lan
##ze
수단으로
인간들
인권침해
헌법소원
에드워드
줄어드는
##노래
사법시험
농약
동결
##.29
나루
유대인
부르기도
한국여성
단행본
개인적인
##통계
공존
반납
법리
프로그램으로
엘레
도장
##경험
휘둘러
네임드
중후반
메트로
(2016
학생들과
시상
소식에
소각
1300
식품의약품안전처
스태프
리더십
풍부
민주화운동
로리
##분만에
##ins
키타
##전체
3.0
상정
이글스
프랑스어
##공유
월세
차세대
기부금
변태
보았
망명
##ka
위주
##신호
기법
홋카이도
당첨번호
건강관리
슬로건
##왕후
곡들
##위치
떠난다
개정안을
##uck
##워즈
격렬
김영삼
줄어든다
선고했습니다
누락
목동
성폭행한
히라
소매
않기로
베테랑
농어촌
이유다
아츠
##이었을
공산주의
가정폭력
초반부
##아프리카
듀오
죽으면
간담회를
##느니
올드
내린다
문무일
공정한
위험하다
프로그램이다
4.5
될지
최적화
휠체어
##(2016
발대식
겪었
영화이다
비닐
느꼈다
잃었
측과
케이크
나에게
때문으로
왕실
##2014
조희팔
정반대
종합적으로
내세우
##이사장
벗겨
뛰어나다
남동생
##학력
여배우
연령대
소나기
학자
GB
전기차
##보내
1965
통칭
동북
슈퍼로봇대전
오케스트라
만만치
##있으며
단어가
공식적인
##파운드
##ldm
매수
목소리로
믿어
바라보고
썬더
SW
하프
세뇌
되겠
마이크로
시위대
##ail
##SU
128
로또
살리기
재건
간단하게
예보했다
##~15
사례로
##사람들
조달
관련자
무공
##농성
나왔을
kg
회원국
베어스
한계를
조합원들
정예
달간
On
##ash
##클래스
##over
주머니
##응답
증거로
먹여
##州
태운
철권
저서
화력이
싶었다
##토르
절벽
설령
모르겠지만
쇼크
긴밀
1920
후반기
연습생
OCG
엑시즈
영유아
디아
심리적
피닉스
##낙태죄
활발
쉼터
##폭발
##먹기
봐주
만나서
인출
허브
##지르
##플랜
오프라인
키보드
##ple
PR
모티브로
확정됐다
상황이라
짚어
원격
##보병
##주의적
정신건강
샀다
퍼레이드
##(47)
테이프
부근에서
외상
열대
치른
루크
수돗물
백성
뜬금없이
기쁘
미쳐
찬양
부분이다
절차가
하셨
마틴
우연
##교차로
스케이트
BL
VR
목적은
여자아이
퇴진을
영화제
##ose
Fate
식용
소련군
제발
약속했다
국가인권위원회
엄격한
1940
##오토
식중독
##개편
성평등
둘러보고
##tal
##처음
주세요
거부하고
게이머
공동주택
##ef
판단하고
전통적인
선고됐다
##해주면
##그동안
고려할
##문화재단
호불호
조립
보건복지부는
연관성
##we
트윈스
욕설을
1964
##멤버
육지
##In
치열
##IO
서열
##OM
lv
동대문구
##았을
구형했다
Day
헬스
##천억
당국이
고통받
잔디
##ik
주최한
둥지
##119
신분증
주민들에게
이동할
마코토
후쿠시마
공기가
호텔에서
##가운데
##구름
당진
달리던
##night
성관계를
##퇴직
##춘천
나들목
가상화폐
얼어붙
##교도소
조형물
##종교
잭슨
둘다
##ull
4·3
모양으로
##BE
우르
보좌관
1962
보라색
김일성
##ger
교수님
설치돼
코트
내년에
!?
관통력
도널드
채보
샷건
하겠다고
주교
##겠습니까
초당
지도부
보좌
입장에선
스코틀랜드
영결식
한유총
충격적인
활주로
주석
수염
##che
무마
여타
##SR
비타민
지킬
##부정
노바
##불능
##대원들
그랬다
느끼게
##ev
싣고
반기문
믿지
운영진
##(56)
유가족들
말로는
남편과
경관
호감
USB
역학조사
천둥
요즘은
내구도
맞붙
심하다
신종
##bu
##ox
금호
세워진
금감원
이르기까지
효율성
들어있
가혹
상권
히든
고의로
데모
1900
문화재청
##특성
방영된
##여만원
의심되는
민선
##효율
##부키
##갑질
농민들
처리하는
풍선
##(48)
자녀들
인정해
프로리그
알려주는
##PO
많았던
솔직히
울주군
##마냥
핵실험
가담한
결과물
찍었다
##무효
찾는다
##현장에서
흐리고
밝힐
여지
생산량
작품에서
한겨레
인문학
이뤄졌
과격
이마트
바로잡
무안
오메가
숨졌습니다
##are
대금
##매우
##(35)
무차별
##돌아
이르러
유영
유니크
##<
##바위
재등장
설치할
황사
길다
이뤄지고
동정
SO
금천구
미숙
소방청
설사
섬유
##개입
##연료
커졌다
말다툼
콘솔
##ric
웃음을
관심과
역습
명명
##FA
결정적으로
히메
탄소
불필요한
성소수자
비공식
좁아
##놓으면
특례법
##ba
LP
광경
중앙대
##라디오
소양
##순간
싶어서
##부두
##ICE
제자리
네팔
##치카
##준희
##CN
보증금
엉망
##웃음
않으면서
##승환
희망하는
아바
##걸음
불출석
원주민
할머니들
호전
##(30)
신입
거뒀다
리오
이어가고
드레스
죄책감
간간히
##∼8
절약
토요
에픽
블라
##루트
New
일조
올리기
판사들
##홀딩스
양호
검진
협력해
실어
##원자력
안종범
사전투표
##버스터미널
토로했다
접종
장마
##ene
상경
지진으로
네티즌들
감옥에
줘야
달라진다
시행한다
##br
일컫는
광역수사대
빌린
##(54)
어이없
설문
(2017
자유로운
일련
안전점검
##거래소
##경주
02-398-4441(
악명
##추진단
어린이날
##(58)
예쁜
형사처벌
동대문
송치했다
케어
기술력
원곡
##해버렸다
##red
특징은
##훈장
##↑
자영업자
##부품
스텝
소속된
끝나지
신호를
##영국
하니까
가설
부평
##able
해요
보증
##수학
##되나
전망했다
욕망
수행하는
세르
지름
펜션
장려
면세점
패널티
##Co
공유하고
보이기
##(2015
스폰서
선진
유승민
##지방검찰청
누구보다
##원짜리
Part
당원
사업이다
1600
충분하다
##있는데
##ise
무용
선착순
누워
##(53)
연평균
##교섭
지원받
해병
신속히
##베르크
간편
움직이지
신흥
##노스케
현지에서
유선
홍수
오브젝트
트렌드
바른정당
공청회
킬러
소니
영화관
소극적
노릇
감면
소홀
##플렉스
##구매
돌풍
가챠
##복구
일으킬
무너진
무승부
왕비
투여
있으면서
사용되고
맞았
##초교
##드루킹
흠좀무
장병들
개성공단
사설
##블러
주방
불륜
교육감은
다니며
영세
평점
태우
되나
휘두른
구로구
암매장
구청장은
파울
좌측
승선
끌려가
##진행
당선인
초중반
재원
외치며
##겠느냐
##회담
빠지는
Korea
신곡
어머니와
아니야
##외국어
다중
KO
통행료
게시글
노인들
신청하면
##퍼스
1966
IN
전례
계속되고
##~30
분노한
어드벤처
세종문화회관
##MHz
##▶
##드래곤
##종합운동장
가출
급감
##롯데월드
극우
한국전쟁
가슴에
상대할
재난안전
권영
교육청은
##들리
유력한
NO
##ann
여성들의
##테마파크
##들처럼
제갈량
열풍
국과수
바쁜
레코드
토마스
##처벌
지내는
정유
남원
보구
기념해
감탄
지점에서
##2013
##ral
##cl
##대학생
리틀
개그맨
수영장
들어온다
##안내
도색
소망
하여금
선보이고
무실점
용암
시범사업
paper
휘발유
##페스
차지한
알리기
복선
질량
적들을
##홈쇼핑
상당수가
찬스
##성훈
도출
막으려
음력
강민
RE
남양주시
계신
저작권자
카츠
선수권
득표율
##cy
나왔고
퇴각
가급적
##모습
##브랜드
필터
##권리
존스
떨어지면
##많은
##호흡
공산
않으나
뻔한
발표할
신뢰도
스타리그
생선
냄새가
불안한
자발적으로
확장팩
얼마든지
딜레이
##텔레콤
낭독
##콤보
하겠습니다
##든다
다시금
RO
##청탁금지법
벌이다
화요일
##트럭
돌아올
소유권
고발했다
##연구회
없었습니다
해줄
##feat
UP
##골프
잡아내
다녔
타당성
메이저리그
때에도
되게
##ier
##(60)
##row
##ser
얻지
평택시
거꾸로
뷰티
개소
##자전거
머물렀
영천
속옷
테니스
고령화
깨끗한
산맥
##‧
디스플레이
동아대
민심
샤워
부인하고
그러고
추리
벤치
And
비자
태어났
올린다
짐승
루피
##상공회의소
야기
##(46)
##라운드에서
일회용
반포
##eb
사라지는
##여객터미널
초청해
자격이
기소돼
##―
삼성물산
죽였다
독일어
스미스
강력하게
남성들
대위
학급
물리학
있으
초능력
판문점
않습니까
강씨
오른손
보험금
일괄
##행진
1944
깔려
콜라보
낡은
까닭
들어서고
좋았다
애니판
깔끔
영서
응모
##턴간
묻고
반발하고
##mer
##und
왼쪽부터
##렸으며
오렌지
경영진
관계기관
식당에서
묘하게
##EF
성씨
다채로운
장탄수
조커
OS
##히메
##(45)
마물
##서류
so
후쿠오카
접견
묻혀
걸었다
밀린
##기획관
##잡기
구민
##테이크
기본계획
대세
떨어뜨리
##yn
고추
##강간
무엇보다도
##았으며
광물
남쪽으로
서둘러
고교생
올라간
인지도가
##최저임금
친정
웨이브
어젯밤
살충제
고액
활동했다
##건담
쳤다
검토할
석면
도와준
돼야
같아서
수컷
버려진
말해서
서클
##쿠르
예상했다
##줍니다
연결되어
분주
미달
용기를
대한적십자사
주한미군
##지훈
만들어야
##5·18
속초시
만난다
살해하고
몰던
##간부
하는데요
기내
놓아
콤비
사학
전달하고
전략적
단절
##(52)
탈세
##cal
히로시마
밝히지
어마어마한
자택에서
거두었다
도입된
드물게
사단법인
화학물질
##TRA
대대적인
다루고
##물류
##pl
친목
편인데
up
DS
직전까지
담았다
제조업체
도착해
맞지만
##시간여
시바
굉장한
북방
Su
실정
(02)
아케
##특구
휴가를
##하다보니
시험장
##공정거래
아이언
교량
법학전문대학원
살게
영장전담
진지하게
해머
ID
##크래프트
대전차
가졌
최적
##TI
레스토랑
유망주
##vel
##aster
관세
##헤드
나오지만
##천억원
Bu
1~3
XX
요구한다
기대감
YTN
##les
까다롭
강타
버틸
대청
예산안
틀린
뒤쪽
걷고
만찬
싸운다
의도적으로
##공예
샘플
시작하면
단행
신나게
어떨까
실정이다
클론
합의했다
##증거
직책
세븐
삼성그룹
안습한
진행되었다
우승자
줄줄이
##할머니
차지한다
방법이다
상수도
이끈
할때
교대
적용된
덜미
현실에서
동남아
붉은색
##정상회담
보상금
##서버
뿌린
##패턴
넘는다
##티드
##4.1
이날부터
금강산
젊은이들
##입학
괴롭힘
참여자
##나갔다
초록
##들한테
##NO
##low
##워치
민감
굳어
##운송
텍사스
##케미칼
스캔들
명예교수
유세
성차별
얘기다
##교원
##전담
필립
협의해
어빌리티
모르지만
밀어내
##ild
대왕
다르지
가족들은
소셜
소개하는
팔리
##use
에미
구매할
발동할
뮌헨
이틀간
안전처
상부
무리하게
##국립
풀린
헌화
나갔
듣게
개학
이르게
검술
실질적
버텨
북극
관악
관우
##ring
##갔지만
##ling
넘지
##pi
국정원장
필름
추천한다
크리스티
부당하게
sp
까다로운
주워
애칭
##란트
출신이다
노트북
인계
줄어들었다
담당하고
조교
남부지방
##tter
##하마
변호
넉넉
나폴레옹
불허
금리
너희
##플라이
문항
자발적
##왕국
수수께끼
퍼스트
낮게
청정
의원에게
원피스
특검팀
꼼수
##문화예술
##면접
기갑
##KO
긴장감
비밀번호
받았으나
##3.0
http
공간에서
가령
##버섯
내놨다
개입한
##ons
타이틀곡
여관
둘러싸고
통화에서
치어
화석
사소한
호감도
민법
데빌
##8.1
법조
끼친
##MR
침입해
증원
주식회사
보류
활력
안개가
고려했다
충격과
울프
백업
쏘아
칠레
이해하고
베리
##실태
오스트레일리아
리타이어
##~18
토시
##ale
##oh
수산물
##라던가
손님들
##한겨레
늘리고
편이고
접수됐다
##ga
매출액
##東
발현
##hen
몸싸움
명확
원문
##하든
골절
##성능
제기되고
중화민국
알렉산드
달성했다
간첩
상승했다
무능
바뀌고
##FI
개발된
날카로운
만나면
##까마귀
배분
재질
모아서
ver
##amp
##ina
바뀔
손오공
항공모함
FW
떠났
않겠다는
이놈
여가부
서식지
##폐기물
아스카
목재
##황제
공소사실
금융감독원
토마토
순간이동
담겼다
##해주세요
등번호
재물
##인데다가
##드릴
페트
##오염
실태를
##선발
막말
##』
##현황
쓰이지
현대중공업
무지개
전달하는
지각
##rac
출항
##해놓고
컴백
강해지
##프랑스
인정받아
쿠바
##지킴이
묶여
107
어쩌
##wi
기록물
죄송하다
##파이브
남짓
침착
일본대사관
지방세
1946
페어
##국제공항
논술
연행
보호하기
대응할
에이지
체인지
무색
모두발언
##겠어
공유하는
##브리핑
힘들고
##국립공원
물의를
영지
생김새
잃게
선관위
펼치는
##웠던
보험금을
복권
휴게소
찾아서
출연자
##입니까
연구결과
진료비
마련하기
공사현장
털어놓
때리는
후유증
못했지만
##파트
문양
뭐냐
단발
포터
청구할
묘역
##수도권
많습니다
빼앗기
정기적으로
골목길
##선생
조처
욕구
잇달아
##ND
##파이터
리버풀
돌려받
모음
줄여서
##inal
연다고
시군
저축
##ven
전제로
포크
칠곡
캄보디아
프레스센터에서
오키나와
어긋나
##였는지
##역학
1961
대구광역시
시작하여
##버스터
0.4
##대금
중국어선
보편적
염색
원활한
특급
훌쩍
실종된
체포영장
경기도지사
지방자치
장벽
##마약
천안시
깨닫고
더구나
커스텀
ᄀ씨
##NI
독감
잊어
##달리
사용해서
재즈
1956
최재
##층짜리
없어졌다
마스코트
스트라이커
기묘한
존재하며
연예
재계약
유용하다
##결제
Of
대치동
(2015
앞뒤
##WHO
##민주화운동
##경력
##공무집행방해
조양호
잡는다
전년도
청나라
알린
불이익
마인드
박살내
하쿠
유리창
매립
즐거움
프로게이머
내세워
##사업소
걸까
아프다
생기고
할까
수비수
제공했다
이해하기
월간
애용
##라이드
##복지센터
리퍼
끌어내
플래
나왔지만
눈앞에
뚜렷
표류
사전차단
불가피하다
##국정원
맞춰서
다양성
알렉스
##XX
않겠다고
메카닉
다뤄
창녕
누르고
사망한다
##(2017
누리꾼들은
##빌리
성취
##휴게소
##표현
la
회생
출입국
귀농
##조사단
몸무게
명령했다
장례식
표출
노동당
볼거리
Pr
여러번
조경
프린세스
피해자에게
과학적
주어진다
증대
참작
##재활
구성됐다
1919
팀원들
맞춤
간사
그레이트
신경쓰
Cha
##내륙
##되었는지
메시
카리스마
##클러스터
1.6
##ting
받아들인
여행객
섀도우
서울시의회
앤드
머무르
목걸이
수치다
수행할
크레딧
##소비자
KOF
뚜렷한
권고했다
터뜨리
패터슨
후배들
##호르몬
않으므로
##(38)
걸즈
재수사
##조례
나옵니다
돌아왔
민감한
가습기살균제
1949
유닛들
서방
괜찮아
관제
##추천
방지하기
조사단
맡긴
성공적인
스타디움
클리
시작해서
치마
##wa
이룬
합리적인
받았는데
Gu
##메르
고블린
동아닷컴
##품질
같았다
키우고
마족
날아오
지켜야
##VER
가족에게
효율적인
플레이어들
충청북도
오바마
코스프레
검찰청
모으는
초록색
##rr
구직
김홍
##안심
노가다
주목된다
##(33)
지하철역
##할수록
송파
밟아
다르지만
걸리면
##체육대회
추정하고
접목
들어주
보스턴
##하드
운행한다
낮아지
카풀
두개
업체들
사하구
철새
섞인
보여줄
##됐기
##스칼
않던
교역
매몰
아무튼
좌파
나눌
서울광장에서
천체
급하게
브라이언
빅뱅
오존
돌아온다
생리
##노미야
##졌으나
누리꾼
당연하다
미얀마
급행
##수색
##cle
분대
염원
책임감
##ctor
##양식
탐구
커질
10000
5.18
연세대학교
그늘
자작
##기상청
번지
진행되며
이룬다
알아야
열혈
김영란법
##(34)
마셔
경기북부
pro
취임식
잠적
지어진
교훈
##되니
직원들에게
소란
미궁
자부심
개개인
국민적
사무국장
##범행
##바이러스
만능
제공하기
총경
골렘
비로소
암컷
나쁘다
이때부터
사우스
상환
검거했다
트릭
##체육회
보여주지
##파업
##TL
##atch
선고받고
속속
타르
1.4
싸우게
코스튬
##vs
캐릭
##바야시
결단
탓인지
치료비
모드에서
내밀
##놓았다
##王
찰스
##들에겐
광선
벌어지고
멍청
몰린
불응
지상파
##매체
될까
##퍼트
종교적
진전
폐렴
추구하는
##PE
##남녀
모레
올라갔다
##목표
꾸미
Team
상고심에서
##ov
통하지
평판
않는데
대역
##묘지
의료비
코끼리
##글러
##크로스
엄밀히
오징어
무엇인가
부숴
불기소
##ml
있으니까
릴레이
아담
DP
1.3
발생했습니다
레이싱
##SL
몇번
서머
##댄스
보람
##중앙일보
정례
어업
헌법재판관
조윤선
레벨업
여교사
지루
상위항목
Time
호출
신체적
같지
##여자고등학교
##촉진
are
다가온
투자금
##예요
우체국
승합차
퀴즈
엔드
로보
리즈
뛰었
치료제
##지자체
협동
녹지
도의회
차가운
##보호구역
Windows
인테리어
만나기
줄곧
신동빈
정해져
도배
울려
힘들게
설탕
불편함
원칙적으로
##PR
##학번
##겠냐
굴리
아수라
원산지
것이라며
AFC
##렸으나
대쉬
시원한
사업주
들으면
누출
유성구
MOU
##(2009
파티원
##BB
밑으로
조성사업
##물품
##아침
기침
##shi
비상저감조치
어지간한
캡슐
만끽
대우조선해양
##블랙
않더라도
지내고
Copyrightsc
복역
오늘부터
##ike
##ju
실질
포함되지
파열
단골
넣으면
OVA
엘리자베스
벙커
특이하게도
특수활동비
알려지면서
손길
불렸다
사다리
위쪽
III
알레
지인들
서울고등법원
어려웠다
타이거
레이블
없거나
##SBS
멘붕
웹사이트
##발매
보육교사
##line
정치자금
넘었다
진주시
그려져
대학원생
처벌할
근로기준법
바이에른
챔프
공화당
임산부
##의약품
호기심
밤새
가난한
차종
소폭
플레이어에게
적용되지
관건
뭔지
본다면
##ness
가두
능동
황당한
from
휴대
유니버스
그쪽
##보건소
만루
차선
라이언
방사선
들어있는
중고차
노량진
되풀이
토큰
북쪽으로
군사적
##IF
취직
##경제적
##부담금
기사들
냉각
##마케팅
금속노조
수급자
##ana
##경찰관
가난
5~6
일가족
샌드
##교환
순찰차
남측
논산
트윈
사법행정권
인턴기자
아니게
놓았다
시집
##더라면
블리자드
한진그룹
장본인
들린다
다이아
##LC
##엑스포
이루어진다
파악할
난무
김성근
##NS
##복음
스즈키
적색
루프
직격
다양하게
엄벌
불확실
##커뮤니케이션
섹시
##리엘
혈통
잡혔다
학내
한국전력
횡성
원주시
사방
제치고
종편
인사혁신처
Ltd
메신저
덮어
다량
멘트
충무
##대륙
갑작스
드래곤볼
시뮬레이션
##출판
트로피
김포공항
교양
유사하다
감형
고성능
시외버스
##af
지체
##9.1
평창올림픽
신고리
배급
이륙
##방역
꿈꾸는
##매장
뺑소니
엄연히
달아났다
강림
나오자
신작
술자리
##해줬다
조언했다
해법
촉구하며
구성된다
진행중
겪어
##주머니
선거법
슬픈
1.8
바디
수강생
협약식
알려준다
'2015
##조사위원회
천국
뚫어
##졸업
부모들
첨부
호크
외쳤다
6·13
무한도전
양산시
또래
##2.0
나고야
칼럼
추측된다
Ne
한국시리즈
약국
편이며
계류
폭설
영원한
통보했다
무시하는
실시할
난리
압권
##솔릭
의욕
돌연
터라
연구위원
대기오염
##루루
##활성화
##감소
##ya
서울구치소
특수학교
##ara
최상위
고속버스
쓰러졌
알면서도
DMZ
입는다
열대야
멘토
##미션
입건했습니다
##해주지
풀이된다
묵인
##모르
다케
페리
##접촉
걸어서
케빈
##att
##KI
배구
라그나
하느님
시민사회
쓰이고
1954
미처
면밀
뿐이지
모른
인센티브
노숙인
포스트시즌
바나나
명나라
##자체
기본권
살포
서울중앙지방법원에서
남해군
1943
잠겨
서울중앙지방법원
주점
##ove
들어보면
거부했다
들어가게
중화인민공화국
공개됐다
거칠
행각
기록하였다
##(59)
행정처분
##조절
클린
헌정
##데스크
멋대로
1958
집결
태클
Season
##어떤
원망
체코
##ren
먹었
명확하게
목적지
포기하지
##거든
##횟수
비례대표
방문했다
말하자
##8.5
자칭
산간
펼친다
일하던
구미시
개구리
소실
튀어
커져
국악
조속히
깨어나
붙잡혀
양방향
매드
흉악
우린
산모
20~30
뿐더러
##lic
고시원
스피어
존속
재앙
병장
해저
외관
여포
AV
마계
반대편
##yo
##Re
불투명
스노우
연이어
달래
##.31
안정적
털리
##(31)
서강대
평년보다
##air
효과적으로
법조인
가깝게
북서쪽
빼내
분배
살처분
가치관
판교
논의했다
근로자들
삼았다
##아빠
내놓았다
어째서
서북
민영
##듯하다
##6.0
##탈삼진
남대문
옐로
여파
스케일
##설정
##~11
기껏
역설
구입할
무난하게
이영학
위자료
##ope
##een
건드리
약혼
##메트
##영훈
쪼개
##form
디오
막강한
날뛰
##대로라면
번호판
##바운드
세계일보
역임했다
스포일러
Up
검색어
겉으로
축구선수
Str
아사히
간식
##증명서
언급하며
유지하기
무엇
움직여
##DP
트윗
계약서
떨어지지
사무라이
빌미
변하지
##횡령
이해관계
공감대
##WA
지급하라
배차간격
##비선실세
저질러
안내문
월등
맹세
뻗어
넉백
Super
페르시아
유니콘
인접한
##other
초대형
소변
##부동산
밤부터
블레
##너무
건물주
발표한다
##책임자
오락실
챔피언스리그
마술사
지상역
촉수
##해지기
거주자
##org
메이커
1.7
평생교육
국제사회
##MIT
안녕하세요
타결
이틀째
바쁘
##장학금
범국민
연구실
탔다
##수습
엔지니어
순서대로
##구멍
껍질
##자율
고병원성
척추
통역
레이디
걸리지
총독
타이탄
있을까요
높아서
물리치
기울여
과징금
리처드
것이냐
불분명
생겨나
연말까지
LH
##직무
경로당
##시네마
0.7
신청자
##보컬
##ater
임관
BPM
건설사
번복
서울행정법원
컨퍼런스
흉내
특수능력
소령
##HD
회유
마도카
은밀
엑스포
지하수
넓게
지역별로
편찬
아이스크림
니콜라
정신력
광산구
##0.5
맞추어
##0900
##했죠
스티브
mo
##∼10
##(2008
창구
##프레임
취업자
##qui
EZ
##三
연달아
유격수
해커
심리학
분류일본
그렇습니다
증정
래퍼
숨기고
담당한다
##EST
이끌었다
##공학부
재평가
##bi
컨디션
##;
tr
넘어선
##ator
사무관
변호인단
쓰였다
익숙한
##배임
초기화
안드레
부당하다
뭐라고
실험실
동북아
비대위
맨체스터
도로교통법
OG
1,000
효율적으로
기밀
불평등
하와이
##합창단
Na
Ha
요코하마
높기
수수한
현실화
##장학재단
만연
소모량
##해줘야
고객들
다양하다
구성원들
그리하여
검출된
##커피
##(36)
##비밀
세웠
병실
한정판
불려
##범죄수사
##틱스
인맥
자리매김
피규어
승강기
종영
단말기
정면으로
실존
동래
NL
##ium
##댄다
천문학
방언
바론
##tur
합친
사표
수사단
레시피
점유율
미지수
몰아넣
동포
란스
##TER
##gen
싸운
텐트
평론가
예정이며
시작하면서
이래저래
재검토
##일만에
마주치
의뢰했다
탈환
백성들
##스럽고
체포된
##포털
다녔다
교리
산업은행
풍속
주사위
##협회장
성접대
그렇죠
##분쟁
엔트리
카피
##arch
##했나
##중독
띄워
##ress
분수대
##2.5%
유공자
##권력
유리하다
평소보다
아마존
다니던
읽기
다녀온
##학부모
은메달
다치게
별관
마음껏
낮춰
초상화
홀리
밝혀진다
##다닌다
종식
매칭
웃기
설마
내뱉
##평창
##형사부
단검
충원
##회째
위함
키즈
장기화
높아질
##bs
고혈압
심경
세션
0.8
야권
김용균
정립
재량
돌아오지
변장
풀어주
맹독
알렉
##(40)
보였고
입주자
플루
미안하다
떠올랐
한상균
##TION
하이라이트
##mor
##삼아
가능하기
유흥
헤어진
##oon
불거지
메이지
금융기관
창당
사무장
늘릴
민폐
김성태
억압
##베르트
가능하도록
##체육관에서
##oss
템플
화천군
에디션
##사회복지공동모금회
##있었
지장
산출
사건사고
발견됐습니다
고소했다
막힌
되돌려
과언이
벽화
##하였던
소생
무시할
확정되었다
위증
라틴어
관세청
쿄코
호러
존슨
서귀포
모녀
유튜버
##學
Dream
않느냐
##3.1
부사관
##전함
중랑구
개표
추경
터보
생기기
중간중간
##지원사업
##육아
‘2018
합헌
승차권
근접전
##해버린다
##GR
아메리칸
바닷물
이리저리
페르소나
월평균
나타냈다
##우리나라
Car
모으기
독자적인
칼라
어린아이
##아카데미
뒷돈
거제시
슈퍼맨
##ual
로스앤젤레스
샌프란시스코
컬렉션
스탈린
아테나
아리아
당첨금
마늘
만하다
##디스크
읽는다
감행
##해양수산
목욕
유우키
슬퍼
뒤이어
동두천
Vol
높아진다
드로우
통솔
상임위원
##보험료
먹히
심포지엄
햄버거
싫어한다
##혐오
넘겨받
0.6
한눈에
항공편
밤사이
들어왔
기울어
풍성
##천여명
공권력
##발언
전념
출몰
챙겼다
##3.2
군인들
포털사이트
때문이라는
사용하던
무면허
운영되고
시국선언
##qua
어른들
##교체
사망사고
부적절
주기적으로
##해봐야
##뿌리
저질렀
민속
##없음
##대법원
스나이퍼
맞물려
##(☎
성명서
작위
##중소기업
##으리라
클라우드
흡혈귀
히로시
##퍼센트
##프로젝트
보일러
##the
펼칠
무슬림
##城
1955
중환자실
무난한
재조명
페인트
##해주기
내려온
보내주
끼어들
두뇌
제물
Per
빈틈
세척
승려
서울신문
남는다
별개의
효과적인
철폐
삽질
빼돌려
##동음이의어
아줌마
자식들
분향소
##FM
##nn
##(29)
1953
생략한다
미루어
등장하기
떠오른
흘려
모델링
언행
바치
아스날
언급된다
본능
따라잡
늘어났
깔끔하게
폭격기
##했음을
##었으면
타협
##지원단
밀양시
제휴
특색
누리집
숨어있
일반인들
트위치
중징계
NBA
##시켜주는
계수
처벌받
##9.5
##강력히
공연장
뱅가드
사회부총리
와이번스
##기아차
##뇌물
선고받았
성주군
##연구센터
떠날
##5,000
푸르
은닉
느끼지
키울
말려
UB
상황실
단계적으로
##모바일
불릴
뚜껑
예방접종
허벅지
『
옳다
서울대공원
검출됐다
넘겨주
외교관
영국군
1952
즐겁게
##VI
보자면
입학식
02-398-4409
닷새
무작정
이정미
##만달러
##(62)
의정부시
인천항
유머
##베트남
##4.5
누구에게
정글러
갇힌
넘어섰다
추기경
대표단
마피아
##네거리
##검색
##캐스트
살았
연제구
마련해야
##체력
롯데백화점
코엑스에서
결계
높지만
##tri
달랐다
##하르트
늘면서
근본적으로
따왔다
스쿠
들러
##담배
##wo
##우먼
##4441(
블럭
올려놓
바꾸어
넘겼
상납
##러시아
묻는다
노회찬
요격
##HO
##해지자
태생
1959
##0.5%
배리어
여겼
뭐야
##닷컴
유재석
낳았다
지친
웨딩
혼동
페어리
조심해야
VIP
범주
##지원금
##카쿠
것임을
순천시
미소녀
수성구
전망입니다
##체험관
제주공항
##hu
둘러보
##었음에도
##블록
멈추지
현실적인
구울
돌연변이
아쉽다
수습기자
망토
공공부문
의료기기
##시키면서
느껴진다
왕족
##ONE
고충
실탄
##라곤
##니언
##패럴림픽
농작물
부탁한다
획기적
출동해
몰살
공속
참전용사
세르비아
스텔스
나이프
특별검사
밝혀져
##겠어요
Mk
부녀
직행
##납니다
거품
성벽
##omb
##SH
사이코
효율적
뿐이었다
시크릿
아이러니
경영권
##(44)
문법
알아내
유해성
인게임
##lor
잇따르고
사회관계망서비스
방과후
궁금해
전화번호
강탈
분야별
도시계획
'2019
것만으로도
##운전자
목포시
이어갈
천황
##셨습니다
심각하다
##꼬리
플라즈마
급기야
질타
##바흐
사립학교
완벽히
가중처벌
기력
입힌다
##있어서
##불안
모이는
국립환경과학원
리뉴얼
번갈아
공습
비영리
건설현장
선처
테오
예멘
라돈
증가율
빨아
Girl
무상급식
군부대
눈동자
워리어
##ough
##균형발전
러시
불공정
라스트
##las
##물론
##공격력
헤어지
남았
날아다니
하드웨어
복부
##light
고졸
모은다
안쓰
셰프
코엑스
학자들
내셔널
##×
##패션
적절하게
불법촬영
##app
직종
제국군
비핵화
챔피언스
여주인공
##UL
품종
맨유
효과적
이영호
리버스
합창
입맛
대대적
##공직자
신한은행
재혼
상대식
흐른
스텟
드물다
지내던
##섬유
TVA
겐지
사용가능
내려졌다
날려버리
스카우트
겸임
##정책관
능력자
로열
화제다
투명성
파기환송
맑고
때로는
##새로운
죽이기
인하대
맛보
블랙홀
노동시간
받거나
이루어지지
로펌
##PI
소홀히
리믹스
변질
##back
크래
love
인멸
낯선
억대
황당
##3.5
##ech
추세다
낙찰
자처
충실히
##몬드
##left
멀쩡한
초등생
따르지
학교법인
한가운데
##순찰
넘길
무섭다
여행사
총합
##남매
간접적으로
피곤
어민들
##시민들
##골목
태아
기동력
부딪히
솔루션
임진왜란
두가지
##되긴
어째서인지
모종의
노부나가
손잡이
숙청
시의원
안양시
재판장
꾸준한
성직자
엘시티
평창군
증가합니다
##었어
사람이라면
꿈꾸
대체적으로
눈빛
##했어야
오죽하면
##클릭
확보하기
##총괄
##폐쇄
교란
입주민
독보적
DPS
발견되었다
표기법
피서객
빙결
입체
비싸다
진도군
옮겨졌다
화약
##rit
##그래픽
맥도날드
콜롬비아
##특정범죄가중처벌
여름방학
오디오
들어와서
밀접한
낮았다
녀석들
인삼
장인상
혼혈
##6.2
2∼3
찌질
귀경
예고편
음료수
히가시
혈관
사진공동취재단
영장심사
다니엘
##도시공사
더빙판
##셨어요
1942
병합
##특산물
##032
창작물
행세
햇빛
남경필
동메달
다룬다
치명적
##eep
존치
##(32)
과열
아끼지
조계종
궤적
기초연금
Night
##잡아
##(42)
지적장애
##기본법
세례
영웅들
SUV
새겨진
소외계층
강렬한
내려놓
NH
만렙
##길래
Is
많게
인사청문회
튀어나오
대관령
털어놨다
임명되었다
애쉬
배출가스
무녀
뽑아내
비롯하여
아래쪽
응하지
당직
세종병원
국민일보
절대평가
죽이지
##항만공사
##흡연
##면사무소
##재훈
파밍
에버랜드
스피릿
홈플러스
수학여행
##갈등
의사결정
다룰
공공성
미녀
전체회의
##lit
태종
약칭
완치
충당
벤츠
1947
만들려
다스리
청약
아쉬워
하필이면
묘사된다
뛰쳐
덜어
##∼9
결정된다
##농민
전방위
전원합의체
##환경운동연합
펑크
할로윈
집무실
##아일랜드
폴아웃
도로공사
##이벤트
연고지
출하
성실히
일쑤
요구된다
회삿돈
사무처장
식재료
손녀
Your
졸라
초보자
##건강증진
빗물
표방
맞벌이
빌려주
어느새
##되더라도
아시아나항공
벡터
잦아
라인하르트
넘어갈
언제든지
not
BBC
##Me
일방적인
몰수
인텔
외압
빠질
팔려
더러운
괴로워
친애도
4·16
물대포
함장
##원칙
관직
날린다
제천시
압도적
말아먹
##음료
맞출
##유원지
성형외과
뮤지션
##음성변조
순차적으로
수상작
##No
##(37)
장기적으로
0.9
보건의료
항성
최우수상
타이완
자본주의
염증
##접수
선정되었다
##준혁
내뿜
형님
신공항
담화
구해주
조짐
##ration
디아블로
스컬
재범
의제
아름다움
개연성
울트라맨
폐허
##뮤직
누리꾼들
##kW
##IE
삼촌
수록되었다
높아진
마이너스
조류인플루엔자
혈중알코올농도
고맙다
무제한
트랜스
문헌
레온
실감
BGA
서울시내
##농구
루마니아
하청업체
정무수석
##보조금
##디언
받아들였다
키우기
테마곡
마쓰
##1.5%
지켜주
##ele
빅토리아
별칭
하도급
남극
멸종
용납
사탕
견학
지능범죄수사대
떴다
대의원
##(39)
덕후
can
##저수지
##다든가
좋겠습니다
능숙
체불
알몸
강력하다
들여다보
미스터리
쳐다보
준결승
지폐
진흙
##그러나
##먹는다
임박
황혼
##bb
최상급
받으려
##전망대
국정조사
탈바꿈
빌보드
의사소통
묵념
고려대학교
점심시간
‘2016
비롯된
압류
##∼7
티셔츠
서울교통공사
투표율
스케줄
바뀌면서
솔저
침범
##less
##~16
샤프
밀착
중반부
유난히
탁월한
의거
##추진위원회
##댓글
격퇴
##ESS
환생
추진하겠다
밝혀졌
어울리지
웃으며
유람선
사야카
오른팔
계략
수원지법
좋습니다
##구치소
별자리
불리기도
유저들에게
레슬링
미묘한
환급
가르침
손바닥
##무죄
가로수
휴가철
지검장
##주민들
쥐어
붙잡힌
환산
재편
프로모션
탱킹
아테네
레버
핸드폰
성기사
롯데마트
지나면서
##스톨
2017121
한라산
##메이커
맞으며
슬라이드
찾으러
춤추
희대의
자신보다
1957
스폰
##ᄀ
연수구
상당하다
야심
야생동물
퓨전
고발장
분석됐다
소유주
보잉
강습
전경련
수뇌부
환경단체
##블랙리스트
일으켰
회고록
스카웃
출품
스탭
연예계
##seoul
##구급대
무의미
1941
##충격
EV
농축
##스펙
각별히
최측근
놔두
극악
##평론가
돌아간
GSL
살린
우선적으로
마을회관
잡으려
Mon
우려된다
소꿉친구
##天
농협중앙회
크롬
##Sh
경유차
조지아
히드라
드러났
은혜
##1.0
골자로
##했었는데
애로사항
무방하다
각별한
7~8
스마일
총괄회장
건전한
소방공무원
사라질
요양병원
일꾼
출산율
부각되
##3.3%
깨진
##확보
씁쓸
행방불명
에밀리
적발됐습니다
팬티
입항
##몬스터
똑똑
레인보우
끌어올리
앨런
수록되어
##님께서
없었으나
넘어갔다
##투성이
주도권
사상구
##wer
법규
##dia
빠지게
특례
##bit
덴노
확산되고
브레이브
민사소송
김무성
셀프
찌른
##캠페인
낳는
스파크
##탐구
생후
과속
전년보다
공판준비기일
꼬집었다
파키스탄
센트럴
굵은
섰다
##피의자
폐교
##퇴진행동
올라왔
선고공판
NHK
임종헌
취항
캐치
##같다
##7.0
며느리
프로그래밍
Black
미쳤다
시각장애인
신경쓰지
차고지
충격파
들통
Hub
건데요
##ous
거센
선보인
응시자
점멸
멈춘
여대생
##생명과학
마른
##(63)
이해하지
살인죄
종점행
...?
시급하다
개막전
있겠습니다
덕수궁
사이타마
식별
깊게
여겨진다
##아무개
이태원
배추
특수부대
가능해진다
소액
##블레이드
한편으로는
대한제국
온실가스
세종대왕
외야수
쇠퇴
싶습니다
##배틀
하이브리드
잡몹
조력자
핵무기
주의하자
산하기관
보답
만들어져
함량
불합리
고마워
영동고속도로
건가요
예정이었으나
##컴퓨터
믿는다
##!!!
도덕적
1951
체질
사회봉사
##하다보면
없었는데
스파이더맨
특권
질책
##공공기관
##VR
이어지면서
그치지
두꺼운
재빨리
##징역
스타워즈
트리거
램프
##쳤지만
##DJ
휴먼
##선관위
이어갔다
임직원들
당나라
관광버스
##였으니
공교롭게도
맹활약
바닷가
팽팽
사악한
대자보
##함으로서
남동구
충남지사
##ode
관련자들
환각
3164
하나님
촉발
대리점
추모식
체내
프리미어
조례안
##푸스
짝퉁
야망
라이트닝
케이블카
정보공개
##1.3%
불거졌
외침
엉뚱한
버서커
정규시즌
꼼꼼히
당뇨병
군함
필요합니다
ATK
딱딱
##관계자
대학병원
있더라도
붙는다
국감
무너졌
##주의자들
신뢰성
조현아
렌터카
고령자
##ini
제기돼
메리트
합당
기소의견으로
서울남부지검
서울아산병원
저글링
특활비
비트코인
쌀쌀
동호회
단단한
##(43)
납입
가성비
헌병
###
포션
##아이돌
받도록
쿠루
부산경찰청
활발하게
조회수
##ward
태평
넓히
페루
노동시장
##(41)
##OECD
##저녁
##옵니다
잠재력
승패
##uch
어나더
컴뱃
유은혜
이철성
체온
있거든요
같았
아카네
##댔다
인플루엔자
tvN
입술
비닐하우스
안락사
어느날
이루어졌
##버닝썬
의경
앉아있
##rain
흑막
조현병
조선민주주의인민공화국
사투리
와이어
많아졌다
분쇄
동물들
콜센터
##쳤던
##슬롯
##top
지나가던
자이언트
츤데레
원세훈
무겁다
커플링
형제들
##fer
리플렉
탈북자
##sia
행정처
남겼
정치자금법
형평성
혈압
내렸습니다
##rad
여캐
##itch
청년층
##돌봄
증축
생겨난
이튿날
건강검진
회피율
이뤄져야
##히어로
수면제
홈경기
위키백과
특파원
인터페이스
때려잡
종합병원
##(2005
휴대용
LTE
에레
프로듀스
슬레이어
뇌물공여
전염병
처녀
손꼽
직통
한몫
##HP
활발히
산사태
달빛
증발
##착륙
수준이었다
직장인들
Content
독거노인
부드러운
rights
캠코
동남아시아
끝낸
빈집
##!
##平
##氏
##☞
##事
##•
##海
##떄
##川
##寺
##書
##一
##正
##義
##西
##–
##石
##長
##明
##ᄂ
##元
##됬
##宗
##京
##《
##院
##成
##陽
##地
##・
##光
##府
##〃
##田
##原
##都
##君
##生
##é
##小
##會
##神
##世
##洞
##部
##本
##太
##─
##經
##主
##島
##武
##民
##仁
##使
##@
##史
##德
##林
##↓
##立
##郡
##馬
##江
##縣
##官
##門
##司
##朝
##里
##敎
##相
##龍
##ᄏ
##春
##之
##漢
##聖
##下
##夫
##理
##所
##五
##古
##樂
##興
##а
##化
##校
##和
##河
##\
##同
##善
##臣
##四
##帝
##白
##淸
##十
##▼
##堂
##定
##±
##吉
##木
##有
##知
##禮
##ᄋ
##忠
##記
##羅
##內
##通
##昌
##松
##多
##華
##慶
##α
##面
##方
##갛
##孝
##尹
##趙
##張
##皇
##の
##ᄃ
##信
##師
##業
##名
##權
##永
##論
##時
##自
##о
##分
##物
##〈
##二
##圖
##宮
##集
##申
##將
##花
##и
##廣
##「
##身
##者
##見
##士
##福
##祖
##像
##愛
##功
##九
##基
##路
##字
##鄕
##度
##治
##合
##源
##建
##周
##孫
##Δ
##老
##陵
##萬
##殿
##守
##作
##ᄒ
##八
##е
##順
##驛
##死
##雲
##н
##詩
##寧
##侯
##號
##星
##寶
##等
##村
##鎭
##丁
##柳
##土
##章
##根
##宋
##議
##景
##體
##谷
##鮮
##火
##$
##承
##省
##臺
##式
##á
##科
##空
##動
##色
##實
##尙
##郞
##兵
##制
##直
##警
##判
##線
##利
##р
##界
##六
##思
##良
##^
##令
##曹
##秋
##賢
##★
##觀
##開
##濟
##工
##雨
##音
##眞
##典
##館
##к
##位
##ᄉ
##ー
##場
##玉
##ᅲ
##康
##別
##衛
##с
##節
##初
##◇
##津
##保
##的
##延
##歌
##氣
##左
##監
##戌
##命
##應
##錄
##情
##井
##貞
##壽
##智
##藏
##乙
##泰
##碑
##進
##達
##☆
##向
##憲
##酉
##奉
##族
##語
##意
##間
##說
##吳
##異
##齋
##副
##ᄇ
##修
##許
##形
##浦
##『
##▲
##ᄆ
##阿
##農
##七
##塔
##數
##′
##梁
##湖
##用
##運
##丙
##流
##頭
##秀
##弘
##口
##舊
##在
##陳
##儀
##如
##言
##夜
##商
##宣
##戊
##ü
##署
##亭
##出
##伊
##傳
##御
##敬
##∙
##造
##郎
##千
##ᄌ
##麗
##唐
##藤
##任
##關
##派
##力
##禪
##器
##報
##參
##姜
##區
##右
##沙
##ん
##舍
##橋
##加
##▷
##常
##、
##⁄
##い
##靈
##侍
##識
##種
##統
##志
##溪
##竹
##л
##冬
##ン
##∕
##共
##夏
##祭
##в
##類
##近
##畵
##電
##波
##遺
##亥
##朱
##鐵
##后
##私
##勝
##富
##半
##園
##護
##受
##ᄅ
##入
##從
##楊
##т
##務
##機
##己
##雄
##姓
##醫
##墓
##處
##│
##勞
##烈
##즛
##ó
##防
##想
##魚
##災
##手
##益
##察
##次
##交
##連
##傾
##品
##錫
##ö
##葬
##草
##徐
##禁
##植
##虎
##領
##惡
##д
##国
##紀
##ā
##刑
##뀨
##丹
##支
##茶
##嚴
##團
##瑞
##起
##池
##解
##展
##沈
##ν
##果
##ο
##溫
##굇
##因
##熙
##寒
##«
##í
##習
##表
##～
##禹
##食
##魏
##密
##休
##員
##↔
##岩
##廳
##滿
##豊
##我
##蘇
##雪
##極
##聯
##蓮
##至
##得
##陰
##局
##崇
##諸
##ᄎ
##岡
##晉
##術
##博
##可
##宇
##首
##»
##́
##晋
##未
##第
##ا
##佐
##目
##育
##伯
##榮
##鳳
##容
##象
##■
##苦
##{
##玄
##遠
##勳
##鍾
##恩
##群
##試
##泉
##始
##居
##惠
##齊
##提
##脫
##資
##營
##總
##觸
##客
##顯
##室
##期
##庵
##戶
##香
##뀝
##求
##職
##陸
##結
##ι
##ä
##閣
##遊
##獻
##最
##壇
##船
##房
##飛
##圓
##ス
##域
##爲
##舞
##仙
##友
##柱
##邊
##牛
##特
##▽
##珍
##曲
##覺
##訓
##恭
##普
##}
##м
##—
##嶺
##管
##調
##仲
##昭
##酒
##督
##と
##要
##咸
##り
##牧
##角
##σ
##淑
##末
##衣
##足
##倉
##再
##輔
##病
##辰
##改
##藩
##淳
##完
##翼
##選
##嘉
##哲
##燈
##慕
##坐
##尊
##彦
##ル
##β
##ρ
##≫
##境
##ς
##俊
##吏
##妃
##慧
##送
##孔
##庫
##律
##麻
##≪
##久
##板
##威
##臨
##致
##誠
##養
##巖
##蔡
##贊
##ラ
##超
##칰
##僧
##洋
##訴
##狀
##郭
##邑
##住
##而
##町
##少
##廟
##樹
##港
##球
##秦
##遼
##靖
##變
##轉
##○
##た
##兒
##孟
##聲
##深
##潮
##鶴
##お
##放
##鏡
##픕
##層
##峰
##感
##澤
##賞
##封
##範
##由
##盛
##質
##貪
##載
##う
##莊
##赤
##핳
##允
##€
##イ
##午
##蘭
##釋
##燕
##斗
##旨
##梅
##洲
##取
##τ
##尉
##樞
##賀
##쨰
##裕
##銅
##き
##具
##淵
##魯
##か
##靜
##ま
##し
##屬
##罪
##能
##藥
##黑
##輪
##隊
##屋
##毛
##執
##格
##餘
##ε
##今
##則
##喜
##精
##鳥
##冠
##台
##寅
##素
##邪
##單
##補
##計
##倍
##望
##ы
##−
##問
##洛
##系
##夢
##旗
##約
##若
##虛
##好
##淨
##聞
##卿
##慈
##暑
##緣
##襄
##〓
##彌
##財
##亂
##卯
##復
##汝
##環
##越
##錦
##雙
##貴
##学
##斷
##й
##露
##駐
##λ
##啓
##烏
##條
##葉
##難
##у
##龜
##衆
##岳
##隆
##κ
##釜
##à
##座
##强
##祠
##紅
##茂
##鉉
##點
##兼
##症
##以
##克
##爾
##浩
##な
##儒
##戒
##戦
##列
##ل
##型
##清
##落
##譜
##刺
##奎
##殺
##麟
##骨
##技
##量
##隱
##熊
##震
##魔
##伏
##刻
##辛
##歸
##迎
##弼
##害
##π
##ト
##呂
##婚
##指
##敏
##假
##案
##助
##準
##讀
##過
##那
##懷
##話
##純
##□
##δ
##也
##究
##陀
##帶
##洙
##胡
##г
##奇
##渡
##疏
##穆
##恒
##然
##設
##劇
##端
##失
##ᅵ
##み
##る
##筆
##藝
##リ
##内
##增
##羽
##剛
##祿
##紫
##磁
##策
##薩
##ッ
##⋅
##γ
##さ
##亨
##愼
##散
##邱
##ク
##件
##扶
##皮
##雅
##鹿
##卞
##徳
##隨
##欽
##滅
##会
##布
##念
##浪
##役
##だ
##壤
##幸
##惱
##離
##均
##宅
##曺
##移
##射
##微
##籍
##閔
##漏
##桂
##祐
##願
##欲
##浮
##쨔
##弓
##持
##敵
##鎬
##尾
##詞
##圭
##宿
##才
##葛
##逆
##告
##敦
##眼
##に
##追
##簡
##備
##軒
##價
##兩
##寫
##煥
##考
##製
##址
##謙
##希
##伽
##句
##ち
##降
##氷
##積
##뺴
##ᅳ
##廷
##影
##易
##甫
##脈
##視
##勢
##梨
##續
##舟
##銘
##巨
##珠
##契
##于
##も
##歷
##ᄑ
##血
##С
##裵
##坡
##庸
##畿
##ら
##照
##盟
##綠
##綱
##菩
##依
##擧
##回
##鐘
##衡
##錢
##è
##♥
##介
##懿
##攝
##晩
##留
##丸
##崎
##楚
##甘
##題
##細
##置
##鳴
##丞
##煩
##賜
##旅
##紙
##돡
##ᅮ
##乘
##卷
##妻
##歲
##創
##染
##熱
##え
##墳
##振
##俗
##杜
##米
##刀
##央
##夷
##援
##雜
##巳
##揚
##斯
##於
##슼
##헣
##曆
##服
##消
##灣
##蘊
##阪
##ч
##尼
##昇
##峴
##厚
##ç
##刊
##味
##و
##早
##桓
##潤
##評
##ī
##ア
##翰
##陶
##奈
##秉
##網
##孤
##フ
##幀
##際
##ド
##妙
##逸
##з
##干
##汐
##嬪
##宜
##帥
##摩
##犬
##碧
##講
##兄
##摠
##殷
##亮
##注
##頂
##◎
##蓋
##て
##障
##〜
##免
##漁
##坊
##庚
##梵
##紹
##誌
##앜
##η
##く
##姬
##料
##施
##燮
##獸
##破
##訪
##辭
##б
##季
##樓
##炳
##般
##蒙
##項
##あ
##是
##當
##盤
##眠
##喪
##솩
##ь
##꿏
##こ
##切
##壬
##弟
##潘
##規
##諦
##鼎
##低
##寬
##差
##条
##算
##編
##肅
##街
##課
##談
##邦
##序
##收
##裝
##恨
##附
##了
##配
##が
##限
##맆
##θ
##♡
##版
##革
##←
##丘
##勇
##示
##速
##ά
##ニ
##健
##叔
##毒
##略
##賊
##除
##戸
##磨
##織
##決
##程
##諡
##胎
##は
##査
##瞋
##穴
##졋
##촥
##ي
##庭
##栗
##標
##檀
##芳
##顔
##ū
##タ
##冊
##墨
##壁
##壯
##審
##森
##毅
##禍
##組
##萊
##還
##婦
##童
##ロ
##認
##鑑
##耳
##п
##。
##乾
##其
##っ
##耶
##シ
##演
##班
##菴
##つ
##ミ
##倭
##綾
##翁
##鷄
##鼓
##­
##ː
##奴
##惑
##県
##벞
##춋
##レ
##何
##区
##彩
##泳
##穀
##繼
##菊
##م
##終
##納
##謝
##階
##導
##耕
##僕
##カ
##マ
##匡
##俱
##챳
##â
##ê
##◯
##勤
##菜
##닼
##컁
##ш
##オ
##傷
##僞
##巴
##惟
##掌
##述
##훕
##د
##乳
##哀
##底
##愚
##操
##桃
##登
##背
##腹
##峯
##維
##肉
##袁
##舌
##※
##碩
##庄
##祥
##青
##鹽
##뜹
##왘
##ú
##ı
##ر
##拜
##琴
##睿
##租
##輝
##ñ
##僉
##匠
##堤
##材
##爭
##貢
##贈
##י
##兪
##必
##楽
##蹟
##宰
##頼
##縛
##迦
##冷
##凉
##忍
##蔚
##浙
##貨
##ß
##š
##έ
##伐
##級
##融
##譯
##偉
##固
##坂
##奏
##模
##ن
##他
##接
##油
##祀
##翊
##誤
##傅
##唯
##映
##祚
##沖
##〔
##癸
##け
##я
##れ
##蟲
##£
##ί
##劍
##岸
##甁
##疑
##裁
##遂
##К
##凡
##洑
##テ
##供
##戱
##撰
##構
##熟
##胤
##諫
##関
##佑
##佳
##券
##徽
##活
##禧
##給
##騎
##П
##や
##征
##⇒
##悲
##授
##É
##〕
##キ
##号
##推
##霜
##メ
##徒
##溝
##豫
##齒
##す
##仰
##例
##包
##吾
##昏
##淮
##築
##舜
##芝
##范
##藍
##賣
##飯
##ب
##坪
##岐
##倫
##屯
##紋
##羊
##チ
##慢
##憂
##ã
##ή
##∞
##よ
##駿
##걘
##돚
##æ
##享
##勒
##巡
##引
##整
##橫
##疫
##貫
##陣
##鬪
##齡
##뷁
##係
##秘
##藻
##請
##額
##黎
##段
##犯
##輿
##宝
##杉
##柴
##淺
##サ
##ό
##嗣
##υ
##瀋
##ᅠ
##ズ
##砲
##슾
##х
##▴
##ゃ
##塚
##璿
##賈
##쒀
##å
##喆
##席
##幕
##弔
##彫
##彰
##投
##束
##簿
##須
##停
##存
##庶
##曾
##朔
##祝
##答
##箕
##韻
##睦
##浚
##專
##М
##肥
##ィ
##跋
##亡
##旦
##讓
##默
##ł
##Ω
##▣
##又
##癡
##窓
##蟄
##驚
##됀
##춈
##큿
##횽
##ć
##候
##枝
##步
##潭
##爵
##砂
##豆
##週
##便
##召
##幡
##換
##牟
##著
##複
##賓
##漆
##赫
##沢
##燒
##退
##衍
##А
##ハ
##銃
##ω
##万
##丈
##堅
##姚
##괍
##캰
##函
##垣
##尋
##待
##票
##稱
##핡
##÷
##ひ
##儉
##卓
##唱
##広
##打
##泗
##率
##鍊
##鏞
##閉
##س
##ウ
##グ
##優
##哈
##塾
##幢
##彈
##暗
##朗
##湯
##炎
##蔵
##衙
##郵
##就
##減
##塘
##鈴
##་
##┼
##コ
##坤
##荊
##暴
##ガ
##卒
##游
##肖
##醬
##驪
##¤
##ع
##ャ
##ュ
##充
##幼
##癌
##短
##蜀
##遇
##뉩
##읭
##ş
##ə
##圈
##廢
##態
##掛
##旭
##莫
##ø
##幹
##弱
##教
##昊
##晴
##烽
##牌
##航
##軌
##县
##娘
##稷
##稿
##粉
##胞
##苑
##迪
##鴻
##覽
##勿
##呼
##幽
##崖
##輸
##站
##損
##ա
##謀
##宏
##戴
##経
##泥
##鎮
##्
##ô
##č
##ц
##ᄐ
##培
##嫡
##拓
##旌
##沼
##濱
##董
##訟
##꺠
##늅
##롈
##묭
##졔
##헸
##Á
##廉
##忽
##核
##止
##溟
##着
##鵬
##맢
##ت
##勅
##壺
##探
##敍
##曉
##盜
##禎
##遷
##卑
##去
##尺
##按
##旋
##梧
##煙
##罰
##腸
##卜
##荷
##蕭
##蔣
##ジ
##プ
##怪
##捷
##禦
##謹
##ず
##쒸
##Д
##ה
##捨
##棺
##狂
##鉢
##鑛
##깄
##꿴
##믕
##빱
##쏩
##ᅡ
##及
##婆
##履
##悅
##救
##樣
##橘
##番
##総
##萱
##뗌
##ж
##傑
##狗
##猛
##甄
##買
##隋
##훍
##凰
##寛
##床
##抗
##真
##糖
##黒
##乞
##億
##危
##各
##帖
##炭
##篇
##ほ
##覆
##繡
##宙
##雍
##バ
##ブ
##ノ
##悟
##肇
##で
##ビ
##毘
##絲
##χ
##Đ
##伴
##偏
##忘
##悔
##篆
##翟
##韋
##뗴
##®
##ō
##̋
##Б
##Р
##ו
##ソ
##寂
##昧
##片
##疾
##緯
##舒
##艦
##費
##采
##鋪
##멉
##챱
##ŋ
##巫
##彭
##徵
##拳
##播
##測
##綏
##馮
##홓
##哉
##採
##晶
##樑
##沃
##濬
##獄
##覇
##賤
##避
##ž
##ר
##撫
##栢
##酸
##駕
##堡
##邉
##鎌
##乱
##鼻
##慮
##此
##悌
##耽
##ē
##ふ
##恵
##滉
##陝
##φ
##Г
##ی
##ệ
##≤
##ゆ
##卵
##屠
##忌
##愍
##懸
##斬
##棟
##渾
##瞻
##窯
##筒
##菌
##薛
##諺
##豪
##負
##輕
##辨
##驅
##驗
##鬼
##븅
##읆
##쬔
##첬
##헠
##đ
##Т
##丑
##似
##劑
##升
##吐
##喬
##堯
##姫
##婢
##悼
##擬
##昆
##晦
##棒
##浜
##盈
##繩
##肝
##裂
##镇
##陟
##隅
##ど
##ね
##互
##宴
##将
##广
##每
##蔭
##鄧
##黄
##を
##楞
##●
##◆
##┬
##瀛
##ナ
##ᄁ
##垂
##杭
##突
##筑
##虞
##ა
##乃
##値
##冀
##冥
##割
##否
##殊
##穡
##貝
##貿
##辦
##雷
##ò
##ă
##ư
##‰
##☏
##♪
##ぶ
##仕
##傘
##怒
##攻
##渤
##濃
##瀬
##熹
##璋
##篤
##綬
##翔
##聚
##臥
##薰
##遜
##遵
##邵
##阜
##鞍
##頃
##顧
##鬱
##꽐
##랼
##맕
##몯
##뾱
##옉
##핰
##ه
##ば
##わ
##仇
##壓
##寄
##寮
##強
##急
##抱
##晟
##榜
##槐
##汗
##洗
##涉
##淡
##湘
##爐
##牙
##畫
##絶
##臘
##薄
##討
##遍
##飮
##鷹
##
##ɪ
##В
##じ
##ろ
##エ
##刹
##符
##腦
##阮
##云
##寿
##杖
##潛
##予
##為
##儿
##息
##ế
##ギ
##曰
##樊
##蔘
##託
##Ö
##̈
##奠
##燧
##瓜
##盡
##眉
##綜
##脣
##閑
##귯
##닠
##맠
##밷
##쎘
##ë
##Š
##串
##余
##侵
##匪
##吹
##峽
##庁
##押
##揆
##描
##擊
##敗
##曜
##札
##澄
##獲
##琛
##碍
##祉
##競
##筵
##粒
##脚
##荒
##跡
##軸
##辯
##適
##需
##魂
##녈
##눝
##몀
##햝
##せ
##倂
##括
##擇
##效
##沒
##灌
##瓚
##皐
##耐
##菱
##訥
##諭
##預
##ю
##含
##桑
##涅
##賴
##蹄
##鳩
##东
##寇
##桐
##笑
##遞
##殼
##応
##恪
##ダ
##凝
##暦
##⟪
##⟫
##め
##モ
##尖
##獅
##Å
##̇
##ი
##ム
##呪
##囚
##敞
##歐
##汎
##湛
##溶
##珥
##琮
##矣
##窮
##索
##蒲
##詔
##豐
##迷
##鄴
##霧
##껙
##롹
##슁
##캎
##햔
##î
##ś
##И
##ъ
##ј
##غ
##ょ
##ヶ
##亦
##債
##党
##凍
##勉
##叢
##媛
##寸
##嶽
##戀
##掾
##来
##汀
##混
##渠
##灘
##燁
##狄
##畜
##盆
##禄
##絃
##綺
##綿
##纂
##羌
##肯
##膜
##被
##註
##誕
##透
##酬
##饌
##駅
##릐
##ァ
##伸
##借
##倻
##側
##占
##参
##帽
##燦
##稻
##竺
##虹
##辺
##違
##遲
##醉
##鑄
##險
##響
##倒
##杏
##杞
##琉
##墩
##実
##謨
##粹
##箭
##珪
##奭
##デ
##ワ
##猫
##祇
##讚
##零
##ゴ
##セ
##権
##溥
##Μ
##ा
##そ
##憤
##戚
##滄
##瑩
##腎
##ả
##†
##▒
##◦
##パ
##僚
##償
##劃
##塗
##姙
##汪
##电
##禽
##稀
##竝
##聽
##肩
##衿
##醒
##釣
##뇐
##봙
##왤
##읇
##쟉
##촵
##푱
##흫
##ל
##ᅌ
##►
##ケ
##勃
##姑
##尸
##崙
##幌
##庾
##恥
##悳
##戎
##折
##晃
##殉
##汚
##污
##猪
##硬
##禾
##紗
##腫
##蛇
##誅
##謁
##責
##走
##趣
##鐸
##雁
##霞
##餠
##髮
##뎡
##뿟
##섥
##솬
##앟
##졀
##좃
##쬬
##쵼
##콯
##퓬
##卽
##哭
##奥
##尿
##弥
##循
##怡
##慰
##排
##斥
##旺
##昔
##柵
##浅
##漸
##猶
##珉
##確
##窟
##筋
##緖
##練
##縱
##裳
##裴
##郷
##鄂
##頌
##店
##彪
##抄
##抵
##暇
##殖
##炯
##皆
##揮
##温
##漫
##隸
##嵌
##怠
##ն
##र
##棄
##療
##Β
##ベ
##畢
##न
##読
##ń
##Ζ
##ة
##ᅦ
##∈
##♬
##凶
##増
##尤
##屈
##彬
##愾
##扇
##朋
##柯
##棋
##様
##翠
##苞
##茅
##荀
##詳
##逐
##逢
##邸
##굥
##댱
##덯
##떙
##뜽
##럇
##롑
##맻
##뫄
##삻
##숔
##싀
##쐰
##옼
##읎
##쩄
##쪙
##쬘
##퉷
##
##ï
##ğ
##Λ
##Τ
##э
##َ
##ს
##ᄊ
##ᅩ
##ầ
##♭
##】
##ザ
##ツ
##ネ
##ペ
##亀
##伎
##佾
##削
##吸
##圃
##塊
##塵
##奮
##寢
##崗
##往
##患
##架
##枾
##椿
##槍
##殘
##泊
##濁
##琪
##琳
##瑜
##畠
##疇
##痛
##皓
##睡
##矢
##祈
##祗
##聰
##臟
##芒
##蓬
##蕃
##蘆
##観
##賦
##迅
##逝
##鉛
##鱗
##麒
##걼
##곘
##봑
##엪
##찣
##훓
##Ä
##Α
##א
##什
##変
##妾
##峙
##恐
##更
##甸
##稚
##笠
##臧
##莖
##謠
##譚
##趾
##靴
##鞠
##頓
##黔
##ě
##ボ
##佃
##僑
##暎
##苗
##趺
##鄒
##針
##Σ
##ユ
##竿
##耆
##鉄
##雀
##頤
##爻
##懈
##├
##貯
##蕙
##槿
##ョ
##恚
##Л
##ご
##槃
##汽
##璟
##甕
##З
##ф
##ᄍ
##妄
##郊
##ù
##Χ
##ύ
##О
##び
##へ
##卦
##唄
##婁
##廊
##徹
##杯
##渴
##潔
##箱
##遁
##꺵
##룁
##멬
##쉠
##읷
##츌
##툿
##ˈ
##̃
##Ι
##ξ
##म
##≠
##┤
##♂
##♦
##ピ
##ポ
##兌
##坑
##埈
##嫌
##宛
##峻
##慾
##扁
##抑
##拉
##拘
##招
##掘
##斎
##晝
##枯
##楡
##涼
##澈
##濮
##焚
##爰
##璽
##瓦
##疆
##碣
##禰
##秩
##稽
##竟
##笏
##箚
##績
##蟹
##袋
##諾
##軟
##醜
##陜
##긇
##꽌
##넗
##덬
##륩
##밣
##븍
##쐴
##얐
##욌
##줫
##큣
##텻
##튱
##핧
##횻
##
##
##ב
##ح
##【
##付
##伝
##偶
##冕
##匙
##哥
##堧
##夾
##奧
##奸
##尚
##峨
##廓
##廬
##彼
##扈
##撥
##桜
##檜
##汶
##泓
##浴
##液
##添
##濂
##煎
##牡
##璘
##瓊
##祺
##笛
##紡
##繕
##蒼
##虜
##褒
##諒
##貧
##釐
##録
##鎔
##閤
##飾
##駒
##騰
##黜
##Ś
##ᅢ
##勸
##団
##墻
##帳
##撤
##数
##穿
##袈
##裟
##賃
##辟
##ف
##げ
##呈
##慎
##拔
##穎
##臭
##荘
##擴
##慚
##ո
##ヒ
##誰
##昕
##閭
##ე
##ゲ
##抽
##糧
##
##Н
##箋
##蠶
##Ч
##ד
##ك
##რ
##ᆡ
##剌
##姉
##已
##恋
##抹
##気
##滴
##点
##磯
##紛
##聃
##蝦
##誦
##遙
##闕
##隣
##馨
##鸞
##괞
##ɨ
##ψ
##Ц
##ע
##ש
##ک
##‚
##ヤ
##丕
##体
##円
##劣
##噴
##圳
##塑
##塞
##壞
##奕
##妓
##幅
##幣
##幾
##廈
##従
##怨
##惇
##把
##披
##挺
##柄
##槨
##沮
##滋
##激
##炫
##燾
##爽
##窩
##繆
##纏
##胄
##脂
##膺
##艾
##莒
##菅
##螺
##裸
##誘
##蹴
##郁
##錮
##鎖
##铁
##闡
##霽
##顥
##곷
##굡
##깉
##꿸
##녯
##눞
##땨
##떈
##뚯
##붜
##뷀
##뷕
##삣
##쎾
##쏼
##옜
##욬
##읠
##쟛
##졈
##짔
##쳥
##춫
##캿
##큡
##햑
##혤
##흝
##힣
##¡
##¢
##У
##ё
##ї
##ز
##द
##ु
##ო
##ᅀ
##ェ
##伺
##兢
##冒
##厳
##叉
##囊
##奘
##媒
##寵
##屍
##嶠
##庇
##徑
##快
##恂
##斜
##斧
##旬
##晙
##析
##柏
##楠
##欄
##欣
##欺
##歡
##滑
##漣
##爛
##琬
##瓣
##甑
##画
##磬
##縁
##纖
##羲
##肢
##芙
##蒜
##蓉
##衝
##视
##誣
##説
##鋒
##閼
##韶
##頸
##飽
##鵲
##헑
##ج
##ᅙ
##ざ
##乎
##卍
##対
##帆
##幞
##濠
##瀑
##瑛
##碎
##稲
##繁
##耿
##胸
##莞
##誥
##貸
##跳
##仔
##喩
##栄
##畏
##訣
##輛
##霍
##侮
##催
##夕
##杆
##静
##鮑
##і
##龙
##瀷
##詠
##圍
##掉
##諍
##勘
##焉
##窒
##顕
##懋
##刷
##幷
##罷
##Κ
##ㄨ
##枕
##籌
##ग
##ლ
##只
##彊
##憐
##澔
##셒
##쥑
##Ф
##ћ
##∠
##ォ
##ヴ
##慣
##敷
##柔
##毋
##疎
##盾
##祁
##綸
##耀
##苻
##薬
##蜜
##衰
##裙
##讖
##轎
##迫
##驤
##髻
##꺘
##솓
##썪
##쳣
##쿽
##훽
##휏
##§
##ì
##ý
##Č
##ė
##ņ
##ř
##ũ
##ơ
##ʻ
##Φ
##Ж
##կ
##ش
##ّ
##क
##ᅥ
##ễ
##∣
##┃
##♣
##ゅ
##ホ
##但
##侶
##俳
##個
##們
##偃
##兀
##兎
##叟
##吒
##垠
##堈
##奪
##娼
##屛
##岬
##弊
##恤
##懲
##懺
##戍
##批
##擔
##擦
##斌
##旼
##昱
##昶
##昻
##晷
##梓
##楷
##槪
##櫻
##沔
##淚
##湾
##濤
##濫
##灰
##熾
##犀
##狐
##玹
##琨
##瑚
##瑾
##璜
##畑
##盞
##矩
##礪
##竇
##籠
##糞
##级
##舉
##芸
##訶
##誾
##諱
##貊
##贇
##贖
##逵
##鈞
##鍵
##鑲
##陞
##顚
##駱
##驥
##马
##麴
##굷
##긤
##깩
##꼳
##끵
##냣
##넢
##뎍
##됄
##됏
##듁
##띡
##띱
##랲
##롮
##밐
##봣
##뵹
##뺵
##뽜
##샇
##쏫
##앋
##앚
##얔
##엙
##쟬
##캭
##탶
##텦
##펔
##퓽
##ő
##ɛ
##Х
##מ
##与
##兮
##匹
##卨
##坦
##奚
##妹
##宦
##崩
##彛
##旧
##某
##浣
##澎
##澗
##煬
##玆
##琅
##礼
##稙
##粗
##絅
##緩
##膽
##蜂
##蝕
##衫
##訊
##詮
##諏
##谿
##軾
##輦
##輯
##錘
##閨
##閻
##隔
##鴨
##읶
##ζ
##ק
##व
##喇
##奬
##寨
##幻
##弐
##拍
##拾
##斐
##歩
##瀅
##煌
##穗
##脇
##腐
##艇
##蚊
##蠻
##踊
##踏
##黙
##璃
##眾
##謂
##贍
##≒
##厦
##捕
##霊
##ि
##ག
##ர
##曦
##்
##ན
##ி
##☎
##◀
##嫉
##澍
##廂
##攸
##纘
##発
##ր
##濕
##ե
##当
##淄
##隍
##ร
##姻
##弾
##惛
##ぼ
##迹
##ʊ
##怛
##楓
##戈
##า
##თ
##弁
##愁
##斂
##械
##甚
##瘡
##簽
##苛
##웱
##ᄫ
##ḥ
##√
##ぽ
##傭
##旣
##沛
##浸
##涵
##研
##礁
##紂
##舎
##蒸
##袍
##誓
##謄
##驕
##魁
##鳶
##싴
##Γ
##ố
##„
##⋯
##僖
##僭
##凸
##呑
##埼
##塡
##孼
##憩
##杵
##漑
##炅
##爆
##琦
##臼
##銳
##閩
##陂
##뙇
##뜳
##뮻
##뱔
##뽂
##싵
##얺
##엨
##쫗
##픗
##헜
##Ø
##Ü
##õ
##û
##ż
##ʑ
##ʒ
##̧
##ג
##أ
##ी
##ᄡ
##ẋ
##ề
##ị
##‡
##≥
##◈
##々
##ぴ
##並
##侃
##偈
##圄
##嬴
##宕
##寃
##岑
##嶋
##廠
##弄
##弩
##恕
##悛
##揖
##携
##摯
##擾
##斑
##旻
##暹
##曄
##栽
##棉
##椅
##横
##款
##沆
##沐
##湊
##濯
##灤
##煜
##牲
##犧
##瑗
##礎
##祜
##禕
##稟
##罔
##肺
##胥
##腺
##芬
##芮
##芽
##苟
##莘
##裏
##誼
##譙
##賁
##踐
##辱
##逍
##途
##鄙
##鈕
##銓
##陈
##霸
##韜
##飡
##麓
##갘
##곸
##귱
##꺌
##꺨
##껒
##껨
##꾄
##끠
##넊
##넼
##뎊
##돟
##뒸
##딲
##뗘
##뗼
##뚀
##뜌
##뜥
##뜦
##뜪
##뜭
##랔
##뤤
##릍
##릏
##믾
##뱍
##벜
##벹
##뵅
##붖
##빍
##뻇
##뻡
##뻰
##삒
##삡
##삷
##섴
##섵
##쑴
##쑻
##쓔
##앖
##엵
##엹
##옃
##옾
##욍
##웈
##윶
##윸
##읋
##잆
##쟃
##쟘
##죳
##줜
##쨜
##쭁
##챂
##쳑
##츩
##쾬
##킈
##탼
##퉥
##튁
##팊
##팤
##풔
##픙
##핟
##헿
##횝
##힁
##
##ę
##œ
##ƒ
##ɑ
##ʃ
##ם
##ق
##ज
##∀
##む
##伍
##傍
##冶
##到
##剝
##却
##喝
##垈
##塩
##头
##姦
##姸
##嬰
##寓
##巾
##师
##幟
##廻
##弦
##忙
##怖
##怯
##或
##摂
##擁
##敖
##曙
##杰
##汉
##渭
##湃
##潁
##烙
##爀
##狼
##玟
##珊
##瑠
##瓘
##疹
##矯
##砥
##稜
##縮
##缺
##羨
##胃
##脩
##蕩
##襟
##覚
##豹
##賑
##赦
##転
##轄
##遮
##邏
##邯
##醇
##釉
##鋼
##閱
##陪
##隷
##雇
##鵝
##龐
##숮
##쎔
##홇
##Π
##כ
##إ
##ἀ
##乐
##刘
##囹
##堀
##売
##嶼
##巧
##惺
##梟
##樽
##殯
##澹
##濾
##瑪
##瓔
##甯
##皂
##盲
##硅
##硫
##礙
##礫
##祕
##窺
##竜
##絵
##翅
##苔
##萩
##覓
##賭
##跏
##辽
##邢
##酌
##醴
##鋸
##门
##鷺
##옺
##캼
##त
##俄
##吃
##壙
##廐
##斡
##柒
##梯
##狹
##玩
##珞
##薨
##衷
##襪
##驍
##鰓
##ɚ
##ེ
##ნ
##ぃ
##営
##尔
##樺
##薪
##叡
##沿
##མ
##┌
##凱
##拂
##ང
##ம
##餉
##氐
##繫
##愧
##稠
##ւ
##ヨ
##燥
##澣
##յ
##տ
##暮
##紺
##詡
##郴
##纜
##荇
##ぱ
##华
##埋
##毓
##濡
##状
##馹
##麥
##횞
##ῖ
##划
##蟻
##ǫ
##Θ
##ի
##ल
##做
##巒
##棧
##燭
##獒
##看
##线
##舺
##艋
##諮
##삾
##컼
##Â
##Ž
##ʾ
##Й
##ბ
##ṭ
##≈
##佗
##厥
##堰
##塼
##墟
##姶
##嬀
##宵
##岷
##巷
##拯
##无
##暖
##楸
##樵
##湌
##溜
##漬
##热
##煉
##猷
##琢
##畓
##筏
##繪
##脾
##艮
##蔓
##薊
##蛙
##蜆
##袞
##装
##裔
##賻
##距
##輓
##辻
##靺
##駄
##겝
##꾜
##먐
##뱜
##봌
##쓿
##앺
##읅
##읻
##쟙
##즤
##쯋
##췍
##풩
##핱
##훝
##¥
##¿
##ÿ
##Ÿ
##ǐ
##ˋ
##̄
##Ε
##Ј
##җ
##Ս
##ן
##ת
##ړ
##།
##ར
##გ
##უ
##ᄄ
##ᅪ
##ᅬ
##ᆲ
##ạ
##ậ
##↘
##∆
##┐
##♀
##➀
##⿰
##佇
##俠
##倪
##儷
##冲
##勛
##匈
##匣
##匯
##厭
##吻
##哪
##垓
##壻
##妊
##岦
##岱
##峠
##嵒
##巢
##巣
##忱
##恆
##恬
##愉
##愷
##慄
##憙
##托
##抛
##搏
##擢
##斃
##斤
##旽
##晏
##曼
##桥
##棗
##楮
##槽
##樸
##毖
##沅
##況
##泣
##淇
##湜
##滎
##灯
##燐
##獐
##獵
##珩
##瑄
##瑕
##瑟
##痴
##矛
##禑
##粘
##累
##縄
##胴
##芑
##蓍
##蓼
##蔥
##蔬
##藿
##証
##詐
##諶
##貳
##跌
##軫
##輩
##迂
##迭
##遡
##郃
##郤
##醢
##釗
##銭
##錡
##鏃
##閥
##霖
##鞮
##顆
##颱
##餓
##饔
##麤
##걺
##겞
##괏
##긘
##긜
##긺
##깋
##꺗
##꺙
##껶
##껼
##껿
##꼄
##꼉
##꾈
##꾕
##꿱
##뀰
##낓
##낗
##놂
##늕
##늗
##늣
##닪
##닸
##덄
##덌
##덨
##덷
##돎
##돨
##됍
##뒳
##뒶
##딍
##똿
##뚸
##뛘
##뜠
##뜡
##뜢
##뜣
##뜤
##뜧
##뜫
##뜮
##띁
##랃
##랒
##랕
##맄
##맜
##뭵
##뮙
##뮜
##벎
##벐
##벖
##벘
##벝
##볌
##볫
##볻
##봘
##뵂
##붤
##뷓
##빾
##빿
##뺗
##뺩
##뻨
##뻩
##뽞
##뽱
##뿕
##뿝
##샠
##섁
##섢
##셑
##솰
##슟
##쌜
##쌞
##썌
##쎅
##쎙
##쎠
##쎤
##쏸
##쑝
##쒜
##쓺
##앀
##엳
##엸
##엻
##옄
##왰
##욇
##웉
##웒
##웓
##웦
##읕
##잏
##잾
##쟐
##쟦
##졤
##줸
##짘
##쨀
##쫍
##쫏
##쫴
##쬈
##쬠
##쬰
##쵀
##쵱
##쵿
##췁
##캌
##캢
##컶
##컾
##퀫
##킄
##탞
##턍
##퉨
##퉫
##퉬
##튭
##틊
##팖
##펒
##펓
##펕
##펖
##펗
##펚
##펛
##푕
##픖
##픠
##핢
##핦
##핲
##핻
##햤
##햬
##홥
##홦
##
##󰡔
##󰡕
##Ş
##ʔ
##ấ
##∨
##剪
##孺
##廛
##懶
##捺
##棘
##澳
##炬
##盗
##穢
##繇
##翎
##聳
##腰
##葦
##蛤
##蟠
##酎
##銜
##齎
##갞
##곂
##깆
##깹
##넡
##닺
##뙥
##뚥
##맫
##믁
##붗
##쁥
##샆
##숖
##쑬
##앧
##얖
##퍠
##햛
##힜
##Æ
##ŭ
##Ż
##ɔ
##Ш
##ז
##נ
##ס
##श
##ት
##ờ
##‣
##仍
##兴
##准
##剣
##剿
##劒
##劫
##勣
##勲
##勾
##吟
##圉
##堪
##妥
##姪
##娥
##孚
##峡
##峪
##嵋
##帯
##悉
##悪
##惜
##掃
##摺
##晨
##杓
##棍
##棲
##楼
##歃
##殤
##毬
##漳
##濊
##熔
##爺
##牽
##猿
##珖
##琿
##瓷
##癒
##癖
##穂
##穰
##笨
##絡
##緡
##肋
##腿
##膨
##膳
##臂
##莉
##藁
##虐
##裡
##襲
##詁
##詵
##謐
##貌
##賛
##赴
##辣
##适
##邁
##鎰
##閏
##闢
##雉
##霓
##顒
##飜
##飢
##魅
##麵
##둗
##옒
##ʼ
##Ο
##ώ
##ტ
##ṣ
##ぎ
##ぐ
##且
##仏
##促
##凤
##刪
##娑
##宁
##宸
##専
##徙
##慷
##昉
##昨
##橡
##櫓
##汕
##汾
##沪
##湧
##漂
##潟
##煦
##燃
##琶
##盃
##砣
##禿
##穹
##竭
##篠
##糾
##綴
##股
##苯
##菖
##虢
##蝶
##螢
##褓
##該
##豚
##鉗
##鍍
##闇
##雕
##饃
##馥
##髓
##鯨
##鴉
##鶯
##듏
##췃
##兇
##嗚
##乌
##乗
##乡
##倧
##几
##困
##擺
##椽
##潞
##焼
##貶
##བ
##ཙ
##ལ
##ས
##啄
##宫
##属
##揷
##曽
##毎
##湫
##籬
##臚
##吠
##滝
##壘
##寡
##ུ
##ச
##冉
##垢
##匱
##洮
##舂
##Հ
##呵
##թ
##պ
##័
##ヘ
##倹
##圧
##憍
##諂
##貽
##憧
##医
##啟
##綽
##ป
##仮
##岭
##鑴
##鼐
##곖
##곲
##셊
##쵮
##헗
##្
##雩
##旱
##Я
##Գ
##ּ
##พ
##ย
##ี
##叅
##双
##叫
##唇
##拒
##搬
##撃
##涙
##漿
##眩
##磐
##胱
##脆
##膀
##艱
##엃
##콦
##ㄅ
##忻
##Í
##ǔ
##ท
##ᅯ
##∑
##ㄣ
##偽
##咲
##垕
##埠
##埴
##堺
##屎
##弛
##彅
##憶
##撑
##攣
##楨
##櫃
##泌
##泮
##滬
##煒
##玗
##筮
##簞
##紳
##続
##聘
##聶
##脱
##觴
##詹
##邈
##酢
##錐
##长
##鰲
##렎
##פ
##ẻ
##⓷
##习
##墾
##寰
##搜
##暉
##泡
##灝
##炡
##玦
##璣
##稼
##竦
##胆
##艤
##芥
##蒐
##蘿
##螭
##詰
##躍
##鄢
##鏛
##锦
##雒
##顶
##黍
##갼
##긩
##댬
##똟
##뻄
##죶
##찎
##휳
##흽
##È
##Ô
##ą
##ģ
##ň
##Ŋ
##ť
##ů
##ǎ
##ɦ
##ʿ
##ˇ
##ˊ
##̻
##Қ
##қ
##ң
##ү
##ө
##ְ
##ץ
##،
##خ
##इ
##ட
##ය
##ถ
##ད
##ვ
##ქ
##ᄔ
##ᅣ
##ᅤ
##ᅧ
##ᅫ
##ᆪ
##ᆰ
##Ḥ
##ṛ
##ắ
##ể
##ộ
##ợ
##ὁ
##‵
##₫
##↗
##∥
##∧
##⊆
##⊕
##▪
##▮
##◁
##♠
##❍
##❶
##❸
##❹
##⠀
##ぢ
##べ
##ㄥ
##㚒
##㝓
##丽
##义
##乶
##亘
##亜
##亢
##伋
##佰
##佺
##俔
##俸
##倚
##倬
##僻
##剩
##即
##厄
##厲
##叙
##吴
##咬
##哺
##唎
##喀
##嘐
##嘗
##团
##墅
##墉
##壎
##壱
##夔
##奐
##奔
##奢
##姊
##姿
##娛
##娠
##嬉
##嬌
##它
##宥
##寔
##尻
##岾
##崑
##嵩
##嶢
##嶷
##巻
##巽
##帛
##庆
##廆
##廖
##廚
##弧
##彙
##恣
##悶
##憫
##懐
##戇
##扉
##拐
##拙
##捐
##掖
##揭
##搔
##撞
##擎
##據
##敾
##旃
##晁
##晚
##晧
##暠
##曖
##曳
##曷
##替
##棨
##楪
##楯
##榛
##檣
##欠
##歎
##歴
##歿
##毗
##汁
##沁
##沸
##泂
##洸
##洺
##涇
##涌
##淀
##淪
##淫
##済
##渙
##渚
##渥
##渦
##渫
##満
##溵
##溺
##滁
##漕
##潝
##澁
##瀁
##瀆
##炒
##烘
##烟
##焦
##焰
##熺
##牒
##牢
##玎
##珏
##琓
##琥
##瑀
##瑃
##瑎
##瑢
##瑤
##瑬
##瑭
##璇
##璞
##璠
##璧
##瓮
##畔
##疸
##痰
##皿
##盪
##睢
##瞳
##硯
##碖
##磎
##磚
##磵
##离
##秤
##称
##稗
##稛
##稶
##箔
##簠
##粧
##糺
##絹
##綎
##緘
##红
##经
##罐
##翻
##耗
##聊
##肌
##脹
##膏
##膾
##舛
##苩
##茫
##荏
##莽
##营
##葫
##蓀
##蔑
##蕉
##薦
##虫
##蝟
##蠱
##蠹
##衢
##褶
##覧
##訂
##訌
##訔
##訢
##諷
##讌
##讐
##讒
##賠
##资
##踪
##軀
##軽
##轍
##达
##逞
##遏
##遣
##邕
##郢
##鄉
##酪
##醍
##鈿
##鉅
##鉤
##鋌
##錠
##鍪
##鐔
##鑒
##閈
##閘
##闈
##闍
##闘
##陋
##陛
##隄
##随
##鞨
##鞫
##鞭
##餐
##饅
##馳
##駁
##駝
##騈
##骸
##鯤
##鴦
##鵠
##鶉
##鶻
##鷲
##鹤
##齧
##ꡊ
##ꡋ
##갣
##갦
##갪
##걜
##걥
##걾
##겂
##겈
##겫
##겺
##겿
##곔
##곮
##곹
##곺
##굔
##궸
##귝
##귟
##귺
##귻
##귽
##귾
##긎
##긏
##긐
##긒
##긕
##긚
##긛
##긢
##긧
##긮
##긻
##긿
##깖
##깛
##깯
##깲
##깳
##깶
##깷
##꺀
##꺁
##꺃
##꺳
##꺴
##꺷
##꺸
##꺹
##껓
##껪
##껵
##껷
##껹
##껺
##껻
##껽
##껾
##꼀
##꼁
##꼂
##꼃
##꼅
##꼆
##꼊
##꼋
##꼌
##꼎
##꼏
##꾪
##꿄
##꿅
##꿊
##꿑
##꿾
##뀎
##뀵
##뀸
##뀺
##뀼
##뀽
##뀾
##끂
##끿
##낉
##낊
##낐
##낒
##낔
##낕
##낖
##낛
##낞
##낰
##낶
##낷
##낻
##냆
##냎
##냏
##냒
##냗
##냦
##넎
##넏
##넖
##넚
##넞
##넠
##넯
##넳
##놐
##뇍
##뇣
##눨
##눰
##뉃
##뉇
##뉊
##뉋
##뉔
##늀
##늊
##늏
##늯
##늰
##늺
##늼
##닁
##닂
##닆
##닏
##댸
##댾
##뎂
##뎄
##뎈
##뎏
##돇
##돊
##돖
##됌
##둏
##뒥
##뒯
##뒰
##뒱
##뒲
##뒵
##뒺
##뒻
##뒼
##뒽
##뒾
##뒿
##듂
##듒
##듔
##듶
##딀
##딁
##딋
##딏
##딣
##딮
##땊
##땯
##떇
##떋
##떏
##떓
##똁
##뙆
##뙍
##뙎
##뙭
##뙰
##뙺
##뛔
##뛛
##뛜
##뜔
##뜕
##랂
##랎
##랓
##랞
##럄
##럅
##럈
##럐
##럲
##럶
##럷
##렃
##렆
##렣
##롁
##롟
##롣
##뢄
##뢆
##뢈
##뢉
##뢷
##뤂
##뤢
##뤨
##뤩
##뤪
##륫
##륳
##륶
##릒
##릔
##릗
##릛
##릠
##릥
##릦
##릩
##맔
##맼
##먺
##멌
##멭
##몂
##몍
##묆
##묙
##뭏
##뭠
##뭤
##뭰
##뭴
##뭹
##뮉
##뮊
##뮋
##뮑
##뮛
##뮝
##뮣
##뮭
##믂
##믇
##믉
##믊
##믌
##믏
##믘
##믤
##밗
##밠
##밬
##밵
##밹
##밺
##밿
##뱇
##뱝
##뱱
##벆
##벍
##벑
##벒
##벓
##벟
##볡
##볨
##볮
##봊
##봲
##봽
##뵁
##뵃
##뵄
##뵆
##뵇
##뵍
##뵜
##붝
##붹
##붽
##붾
##붿
##뷅
##뷈
##뷐
##뷑
##뷒
##뷹
##븃
##븎
##븕
##븝
##븰
##븸
##빋
##빎
##빲
##빶
##빷
##빸
##빹
##빺
##뺁
##뺅
##뺒
##뺓
##뺔
##뺕
##뺖
##뺝
##뺭
##뺸
##뻭
##뻹
##뻿
##뼁
##뼝
##뽅
##뽋
##뽎
##뽝
##뽡
##뽣
##뽥
##뽦
##뽧
##뽷
##뾐
##뾛
##뾜
##뾝
##뾳
##뿁
##뿊
##뿎
##뿏
##쁙
##삠
##삱
##삳
##샂
##샄
##샏
##샡
##샼
##섧
##셷
##솊
##솙
##숤
##쉤
##슢
##슦
##싃
##싆
##싈
##싉
##싑
##싢
##쌖
##쌥
##쌹
##썜
##썡
##쎆
##쎉
##쎎
##쎏
##쎓
##쎕
##쎖
##쎼
##쏢
##쐇
##쐉
##쐑
##쑐
##쑖
##쑘
##쑺
##쒚
##쒹
##쓳
##씕
##씖
##씝
##씵
##앇
##앐
##앒
##앛
##얊
##얒
##얚
##얬
##엤
##엯
##엱
##엲
##엺
##옂
##옰
##왏
##왩
##왳
##왷
##욎
##욹
##욿
##웷
##웼
##윁
##윋
##윹
##읟
##읧
##읩
##읫
##잋
##잕
##잵
##쟋
##쟜
##쟧
##쟫
##쟰
##쟵
##젅
##젴
##졘
##졧
##졷
##좊
##좓
##좕
##좗
##좝
##좬
##좸
##죙
##죡
##죲
##쥤
##즄
##즇
##즓
##즞
##즟
##즨
##즱
##짨
##쨤
##쩟
##쩠
##쪟
##쬗
##쬡
##쬧
##쬩
##쬴
##쭃
##쭇
##쭎
##쮠
##쮢
##쮦
##쮧
##쮯
##쯜
##쯥
##쯰
##쯲
##쯷
##쯸
##찥
##찦
##쳌
##쳗
##쳘
##쳠
##촺
##쵗
##쵙
##쵛
##쵶
##쵹
##춣
##츕
##츝
##츫
##츭
##츷
##츸
##츼
##칟
##칬
##캆
##컕
##컘
##컳
##켙
##켭
##콁
##콙
##콬
##쾁
##쾞
##쿗
##쿙
##쿩
##쿺
##퀟
##퀨
##킇
##킏
##킐
##킞
##킟
##킼
##탒
##탚
##탛
##탟
##탧
##탪
##탳
##턛
##턢
##턽
##텆
##텬
##텹
##톌
##톑
##톓
##톚
##톛
##톼
##툢
##툻
##퉦
##퉧
##퉩
##퉪
##퉭
##퉮
##퉯
##퉴
##퉵
##퉸
##퉹
##튇
##튏
##튓
##튙
##튛
##튝
##틜
##팏
##팑
##퍒
##퍪
##퍭
##퍿
##펝
##펞
##펟
##퐄
##퐏
##퐷
##퐸
##퐾
##푙
##푛
##풙
##풚
##풞
##풣
##풭
##풮
##퓁
##퓎
##핓
##핣
##핤
##핪
##핷
##핾
##핿
##햋
##햖
##햙
##햠
##햡
##햪
##햺
##헭
##혱
##홐
##홛
##홤
##홭
##횓
##횥
##훟
##훢
##휃
##휈
##휍
##휝
##휦
##휧
##휪
##흞
##흿
##힑
##
##
##
##𐰸
##궆
##Ñ
##ᅨ
##㸂
##佩
##傲
##呉
##妖
##攵
##椒
##汴
##痘
##緇
##羞
##胚
##覃
##賾
##逑
##鍼
##閫
##隧
##걈
##댤
##룐
##먈
##봭
##샊
##솑
##솤
##쉣
##슽
##얶
##왯
##욯
##챃
##쵝
##칲
##킅
##탙
##톩
##풘
##홯
##ļ
##щ
##ח
##ذ
##ُ
##ِ
##ง
##ว
##ᅅ
##ር
##ត
##ṃ
##ṯ
##ớ
##ἄ
##₩
##ゑ
##亅
##佚
##你
##俑
##俚
##偰
##働
##児
##兗
##关
##冪
##凌
##剖
##勖
##叱
##喉
##喧
##园
##圏
##垸
##塹
##奄
##妬
##娜
##婬
##宍
##屹
##岛
##崧
##巹
##帙
##张
##悰
##慌
##慘
##扬
##拖
##拭
##挙
##挹
##措
##摘
##撮
##攀
##斛
##断
##暐
##暨
##暫
##枓
##栖
##桀
##梳
##棣
##榴
##櫛
##欌
##汲
##洌
##洧
##浄
##淙
##渋
##湣
##溢
##满
##滦
##滯
##滸
##漠
##潾
##瀓
##瀟
##瀨
##瀾
##煕
##煤
##牆
##琵
##瑋
##疊
##痲
##瘦
##癎
##盎
##盖
##砦
##碁
##稔
##窪
##笙
##笹
##筺
##粟
##粲
##粵
##紇
##絳
##緞
##罕
##翡
##肆
##腔
##腕
##膝
##膠
##芚
##芭
##茴
##藕
##藪
##蛛
##蝨
##裨
##誉
##謬
##计
##话
##販
##賂
##跆
##蹋
##軻
##连
##邙
##酈
##醋
##醐
##醮
##鈔
##鈺
##阳
##頻
##顗
##駙
##験
##髦
##魄
##鷗
##뚭
##봏
##쉞
##윻
##쮀
##켚
##퀌
##ḏ
##桴
##癩
##頒
##
##ĝ
##ʁ
##ʌ
##Έ
##Е
##Ӏ
##چ
##ە
##ध
##स
##კ
##争
##亲
##份
##僿
##剎
##坮
##埔
##墘
##墮
##孩
##尒
##嵯
##庙
##报
##曇
##枳
##椎
##檄
##毁
##渼
##潢
##瀣
##爪
##猗
##痕
##穫
##簧
##継
##緊
##网
##脊
##舶
##茉
##藎
##蘚
##袴
##譽
##豎
##貓
##财
##錯
##鍋
##间
##雖
##顎
##顏
##駛
##뀀
##頡
##Þ
##ہ
##圜
##堆
##箏
##誨
##运
##雌
##驃
##髪
##ா
##ྡ
##偷
##灼
##炙
##绝
##苏
##醯
##ஷ
##辞
##咄
##죕
##踵
##̊
##뭥
##딫
##쁩
##⊙
##▦
##©
##杌
##齕
##慳
##衲
##軛
##羈
##俶
##没
##纍
##誑
##鑫
##ជ
##ម
##យ
##រ
##វ
##挐
##櫟
##潽
##熳
##獣
##耭
##菓
##藐
##规
##諰
##鄆
##鵜
##읪
##ȟ
##Ή
##ָ
##จ
##ญ
##ิ
##ุ
##เ
##่
##ន
##ὡ
##ㄊ
##㽔
##㾐
##担
##挻
##朶
##朽
##柩
##环
##簫
##绛
##診
##跑
##闌
##隶
##낪
##¬
##Ç
##Ŝ
##ǽ
##پ
##ङ
##ჭ
##ḍ
##ḗ
##ṇ
##ὑ
##ㄩ
##凞
##労
##嚮
##嵐
##弋
##怕
##憺
##捄
##掩
##摭
##撝
##枡
##柑
##桄
##桕
##桟
##沌
##沭
##泄
##洽
##淖
##澠
##瀯
##炮
##狭
##玳
##盘
##眷
##砒
##硡
##簃
##糓
##紘
##罾
##翕
##苒
##萍
##蜷
##螞
##遥
##邀
##邇
##钟
##阻
##頊
##飄
##饁
##騒
##Ě
##ᄚ
##ᄝ
##ᅁ
##ḫ
##┘
##㼁
##丨
##丶
##丿
##乍
##侅
##俅
##冈
##叛
##咨
##唾
##塏
##娯
##媯
##廩
##怵
##扃
##捉
##捩
##捲
##攬
##昚
##昺
##晞
##晥
##樭
##歯
##滨
##澉
##濵
##瑰
##璆
##盌
##禅
##禩
##穠
##緋
##翬
##肸
##胝
##舫
##蕨
##輞
##邳
##钦
##隴
##鬚
##鰒
##麹
##龠
##떢
##뚞
##뛱
##밫
##봋
##붔
##븜
##쀾
##싳
##썖
##잚
##쥼
##쯘
##챸
##촏
##턉
##팉
##￼
##
##Î
##Û
##ð
##Ă
##Ĉ
##Ğ
##Ħ
##Į
##İ
##Ĺ
##ĺ
##ľ
##Ł
##Ō
##ŏ
##ţ
##Ŧ
##ŧ
##ų
##ŵ
##Ź
##ź
##Ɛ
##Ơ
##ƣ
##Ư
##ǒ
##ǝ
##Ƿ
##ț
##Ȧ
##ȧ
##ɒ
##ɕ
##ɡ
##ɶ
##ɾ
##ʈ
##ʕ
##ʧ
##̆
##̟
##̨
##ΐ
##Ρ
##ϊ
##Ё
##Ђ
##Ў
##Ъ
##Э
##Ю
##ђ
##є
##ќ
##ў
##Ҭ
##ҭ
##Ү
##Ӕ
##ӕ
##Ӟ
##ӟ
##Ө
##Ӷ
##ӷ
##Մ
##լ
##հ
##ճ
##ս
##վ
##ց
##ִ
##ַ
##ׁ
##ט
##װ
##ײ
##ء
##آ
##ث
##ط
##ى
##ً
##ٌ
##ْ
##۞
##अ
##औ
##ख
##च
##ड
##ण
##थ
##प
##ष
##ू
##े
##ै
##ஃ
##ண
##ய
##ெ
##අ
##ඔ
##ත
##ප
##බ
##ම
##ස
##්
##ා
##น
##ฟ
##ล
##ส
##ห
##ะ
##ั
##โ
##ไ
##์
##ํ
##པ
##ི
##ོ
##ྗ
##ྣ
##ླ
##၏
##დ
##მ
##პ
##ხ
##ᄈ
##ᄢ
##ᄣ
##ᄥ
##ᄴ
##ᄼ
##ᄾ
##ᅂ
##ᅎ
##ᅐ
##ᅒ
##ᅔ
##ᅕ
##ᅭ
##ᅱ
##ᅷ
##ᅸ
##ᆬ
##ᆯ
##ᆱ
##ᆳ
##ᆴ
##ᆵ
##ᇌ
##ማ
##ም
##ረ
##ራ
##ስ
##ቲ
##ኑ
##ን
##ኰ
##ዓ
##ይ
##ገ
##ጽ
##፡
##ᐧ
##ទ
##ី
##១
##ᵻ
##ᵿ
##ằ
##ẽ
##ỉ
##ọ
##ỗ
##ừ
##ử
##ữ
##Ἄ
##Ἐ
##ἡ
##ἤ
##ἱ
##ἴ
##Ἰ
##ὤ
##ὥ
##ὰ
##ὺ
##ῦ
##ῶ
##‛
##‪
##‬
##‱
##‽
##⁂
##⁎
##↦
##⇄
##⇆
##⇔
##∎
##∗
##∝
##∵
##⊂
##⊲
##⊻
##⌀
##⍁
##⓵
##⓶
##⓸
##━
##▢
##▧
##▩
##◉
##☉
##♋
##♓
##❌
##❻
##➊
##➎
##➤
##⟨
##⦁
##⨼
##⸮
##〖
##〗
##ぇ
##ぜ
##ぞ
##づ
##ぬ
##ぷ
##ゐ
##゠
##ゥ
##ゼ
##ヂ
##ㄉ
##ㄍ
##ㄐ
##ㄒ
##ㄙ
##ㄚ
##ㄝ
##ㄞ
##ㄟ
##ㄧ
##㙫
##㤚
##㦕
##㫜
##㮨
##㴐
##㴒
##䃏
##䅅
##䎙
##䛬
##专
##业
##両
##两
##丫
##临
##乂
##乏
##乖
##乭
##乷
##亟
##亳
##亶
##亻
##仞
##仟
##仪
##伉
##伲
##佈
##佉
##佔
##佖
##佟
##佶
##侄
##侈
##侑
##侙
##侧
##侹
##俁
##俌
##俘
##俙
##俟
##俭
##俯
##俵
##倜
##偕
##偘
##傀
##僐
##僮
##儁
##儂
##儲
##儺
##兜
##军
##処
##刃
##刈
##剋
##剡
##劦
##动
##劬
##劭
##励
##劳
##勑
##勺
##匄
##匿
##卉
##単
##卬
##厓
##収
##变
##叩
##叶
##吝
##吼
##咎
##咏
##咖
##咽
##哨
##啊
##啡
##喋
##喙
##嘯
##嘲
##嘴
##噛
##噫
##噶
##嚼
##囁
##囉
##囑
##图
##场
##圻
##坎
##坨
##坵
##垍
##垝
##垤
##埁
##埃
##埏
##埕
##埥
##堇
##堉
##堣
##堵
##堿
##塤
##填
##墍
##墜
##壖
##声
##壷
##壹
##复
##夭
##奻
##妍
##妟
##妲
##妸
##姈
##姨
##娩
##娶
##婿
##媽
##嫂
##嫄
##嬅
##嬢
##孛
##孜
##寗
##寯
##尽
##层
##屄
##屑
##屿
##岁
##岏
##岔
##峒
##嵂
##嵛
##嵬
##嶪
##嶲
##巂
##巌
##巩
##巿
##并
##庐
##庲
##廪
##廼
##廿
##开
##弉
##弖
##彆
##彔
##彿
##徂
##徠
##忉
##怀
##怜
##怤
##恃
##恍
##恢
##恺
##悖
##悝
##悷
##惘
##惰
##惶
##愜
##愹
##愿
##慊
##慙
##慨
##憑
##憓
##憚
##懇
##懌
##战
##戡
##戮
##戾
##扼
##抉
##拋
##拏
##拝
##拱
##拵
##挾
##捜
##捧
##掎
##掠
##揤
##搆
##搗
##搞
##搾
##撈
##撲
##擂
##擒
##擣
##攄
##攢
##攪
##攴
##攷
##敢
##斄
##旄
##时
##旿
##昍
##昝
##昩
##昷
##显
##晊
##晤
##暁
##暄
##暈
##暊
##暢
##暻
##暾
##曠
##朕
##杢
##杨
##杲
##杼
##枇
##枋
##枫
##枰
##枹
##柝
##查
##柿
##栃
##栍
##栓
##栱
##栴
##栻
##桁
##梔
##梗
##棐
##棚
##棱
##椴
##楔
##楕
##楫
##楺
##榆
##榊
##榥
##槌
##槎
##樫
##檮
##櫶
##欒
##欚
##歇
##歙
##歚
##歳
##殮
##殳
##殴
##汜
##汰
##沂
##沓
##沟
##沧
##沫
##沾
##泚
##泠
##泪
##泫
##泯
##洁
##洒
##洵
##洼
##测
##济
##浑
##浿
##涬
##涿
##淋
##淘
##淝
##淩
##淹
##渓
##渗
##渝
##渲
##渻
##湍
##湟
##湿
##溍
##溤
##溯
##溱
##滇
##滌
##漱
##潜
##潡
##澂
##澐
##瀍
##瀚
##瀹
##瀿
##灑
##灡
##灵
##炘
##炤
##烋
##烒
##烷
##烹
##煐
##煖
##煮
##熏
##熠
##燉
##燎
##燼
##燿
##爔
##爱
##犁
##犨
##狙
##狩
##猇
##猓
##献
##獺
##玀
##玫
##玲
##珂
##珌
##珛
##珦
##珹
##琄
##琇
##琠
##琡
##琫
##瑱
##璉
##璡
##璥
##璨
##瓢
##畋
##畛
##畧
##畯
##畷
##痒
##痹
##痼
##瘀
##瘋
##瘍
##瘟
##瘢
##瘣
##癘
##皋
##皡
##盒
##盱
##眇
##眈
##睍
##瞑
##瞞
##矗
##砬
##砻
##硈
##碓
##磻
##礬
##礱
##祬
##禊
##禯
##禱
##禳
##禵
##秒
##秕
##税
##稧
##窄
##窘
##窠
##竊
##竣
##笈
##筠
##筰
##箴
##篩
##篾
##簪
##籤
##籩
##粛
##糙
##糜
##紆
##紐
##紒
##紬
##紮
##絁
##絕
##絞
##絮
##綝
##綢
##綯
##綻
##緑
##緒
##緜
##緝
##締
##緬
##緻
##縉
##縊
##縝
##縷
##繚
##繞
##繹
##纓
##纔
##终
##绥
##缸
##罍
##羚
##羯
##翮
##翽
##耉
##耒
##耘
##职
##聡
##聾
##肪
##肱
##胜
##胯
##脅
##脛
##腄
##膂
##膿
##舆
##舘
##舸
##艅
##艶
##芪
##芯
##芻
##芼
##苾
##茠
##茯
##茷
##茸
##荃
##荐
##荳
##荼
##莎
##莠
##莨
##菁
##菑
##菔
##萃
##萌
##萨
##萼
##葩
##葳
##葵
##葶
##葺
##蒔
##蒯
##蓄
##蔔
##蔲
##蕁
##蕆
##薀
##薆
##薇
##薯
##薿
##藜
##蚌
##蚖
##蚩
##蛋
##蛟
##蜡
##蠅
##蠑
##蠣
##蠧
##蠾
##衽
##衾
##袗
##裤
##裲
##褊
##褘
##褚
##襖
##襦
##覈
##覲
##觚
##訖
##訾
##詒
##詗
##詣
##諝
##諧
##諴
##謖
##謗
##謚
##譓
##譔
##譬
##讜
##证
##说
##谢
##豁
##豕
##貘
##貰
##購
##贄
##贓
##责
##贤
##贵
##贾
##赭
##赵
##跪
##踰
##蹈
##蹠
##躁
##躅
##躬
##軆
##軹
##軼
##較
##輒
##輟
##轑
##轟
##车
##返
##迟
##逈
##逾
##遐
##遒
##遘
##遯
##邰
##郝
##鄄
##鄋
##鄚
##鄞
##鄠
##鄱
##鄲
##鄳
##酇
##酥
##酷
##醓
##醞
##釀
##釘
##釦
##鈇
##鉦
##銑
##鋥
##鋭
##錍
##錥
##鍝
##鍠
##鏐
##鏶
##鏻
##钂
##钜
##银
##铺
##锅
##锷
##閬
##闓
##闺
##闽
##阗
##陘
##陬
##隕
##隘
##隙
##隠
##雋
##雎
##雛
##雞
##霆
##霏
##霔
##霙
##靳
##鞏
##頀
##頔
##頗
##頫
##頲
##頹
##顓
##顛
##顾
##颖
##颜
##飈
##飴
##飼
##餅
##餮
##饒
##饕
##馗
##駆
##駘
##駭
##騫
##騷
##驢
##驩
##髥
##鬐
##魴
##鮒
##鰌
##鰐
##鰱
##鳧
##鴛
##鴫
##鵄
##鸣
##鸿
##鹵
##鹹
##麁
##麏
##麚
##麝
##麞
##麯
##黥
##龔
##龕
##龢
##Ꙟ
##ꟾ
##갅
##갊
##갌
##갡
##갢
##갥
##갧
##갨
##갩
##갫
##갮
##갻
##갽
##갿
##걂
##걓
##걝
##걮
##걳
##걵
##걶
##걹
##걻
##걽
##걿
##겇
##겣
##겤
##겭
##겮
##겱
##겲
##겳
##겴
##겵
##겶
##겷
##겾
##곀
##곃
##곙
##곛
##곟
##곭
##곻
##괒
##괙
##괛
##괝
##괤
##괦
##괬
##괰
##괱
##괶
##굌
##굑
##굝
##굞
##굦
##궅
##궑
##궕
##궛
##궝
##궡
##궪
##궫
##궭
##궴
##궵
##궷
##궹
##궿
##귆
##귇
##귊
##귔
##귕
##귙
##귦
##귨
##귪
##귭
##귰
##귲
##귳
##귴
##귵
##귶
##귷
##긂
##긃
##긄
##긅
##긆
##긊
##긌
##긓
##긖
##긗
##긙
##긝
##긞
##긟
##긠
##긡
##긣
##긥
##긦
##긨
##긪
##긫
##긬
##긭
##긯
##긲
##긳
##긵
##긶
##긹
##긼
##긽
##긾
##깂
##깇
##깈
##깑
##깒
##깓
##깕
##깗
##깘
##깙
##깚
##깞
##깢
##깪
##깫
##깭
##깮
##깱
##깴
##깵
##깺
##깾
##깿
##꺂
##꺆
##꺈
##꺋
##꺍
##꺑
##꺚
##꺜
##꺝
##꺤
##꺰
##꺱
##꺲
##꺶
##꺺
##꺻
##꺿
##껂
##껃
##껔
##껕
##껚
##껝
##껠
##껥
##껦
##껩
##껰
##꼒
##꼙
##꼥
##꼦
##꼮
##꼱
##꼲
##꼺
##꽫
##꽱
##꾁
##꾊
##꾑
##꾚
##꾠
##꾡
##꾢
##꾣
##꾤
##꾥
##꾦
##꾧
##꾨
##꾩
##꾫
##꾬
##꾭
##꾮
##꾯
##꾲
##꾳
##꿁
##꿂
##꿃
##꿆
##꿌
##꿕
##꿛
##꿝
##꿡
##꿲
##꿳
##꿵
##꿶
##꿷
##꿹
##꿺
##꿻
##꿼
##꿽
##꿿
##뀁
##뀂
##뀃
##뀅
##뀆
##뀇
##뀈
##뀉
##뀊
##뀋
##뀠
##뀩
##뀪
##뀫
##뀬
##뀭
##뀮
##뀯
##뀱
##뀲
##뀳
##뀴
##뀶
##뀷
##뀹
##뀻
##뀿
##끀
##끁
##끃
##끆
##끉
##끋
##끑
##끒
##끚
##끞
##끮
##끯
##끷
##끺
##끾
##낁
##낂
##낃
##낅
##낆
##낇
##낈
##낋
##낎
##낝
##낤
##낹
##낺
##낽
##낾
##낿
##냀
##냁
##냂
##냃
##냊
##냋
##냌
##냍
##냓
##냕
##냖
##냙
##냚
##냛
##냜
##냝
##냞
##냟
##냡
##냤
##냨
##냩
##냬
##냭
##냵
##넁
##넍
##넑
##넔
##넕
##넟
##넦
##넧
##넩
##넪
##넫
##넭
##넮
##넰
##넱
##넲
##넶
##넺
##넻
##넽
##넾
##넿
##녙
##녦
##녶
##녿
##놁
##놃
##놄
##놅
##놆
##놇
##놊
##놌
##놎
##놏
##놖
##놦
##놧
##놬
##놰
##놴
##놵
##놶
##놼
##놽
##뇎
##뇏
##뇑
##뇒
##뇓
##뇔
##뇕
##뇖
##뇗
##뇘
##뇙
##뇚
##뇛
##뇜
##뇝
##뇞
##뇟
##뇠
##뇡
##뇢
##뇤
##뇥
##뇦
##뇧
##뇮
##눋
##눎
##눯
##눷
##눽
##눾
##눿
##뉀
##뉁
##뉂
##뉄
##뉅
##뉆
##뉈
##뉉
##뉌
##뉍
##뉎
##뉏
##뉐
##뉑
##뉒
##뉓
##뉕
##뉖
##뉗
##뉣
##뉦
##뉪
##뉮
##늁
##늂
##늃
##늆
##늇
##늈
##늋
##늌
##늍
##늎
##늖
##늚
##늟
##늤
##늫
##늭
##늮
##늱
##늲
##늳
##늵
##늶
##늷
##늸
##늹
##늻
##늽
##늾
##늿
##닀
##닃
##닄
##닅
##닇
##닑
##닧
##닶
##닽
##닾
##댃
##댆
##댇
##댠
##댯
##댷
##댻
##댽
##덀
##덁
##덂
##덃
##덅
##덆
##덇
##덈
##덉
##덊
##덋
##덍
##덎
##덏
##덛
##덢
##덦
##덭
##덼
##뎆
##뎇
##뎉
##뎋
##뎎
##뎜
##뎝
##뎟
##뎢
##뎾
##돆
##돉
##돍
##돏
##돑
##돒
##돓
##돘
##돜
##돞
##돦
##돵
##돹
##됁
##됂
##됃
##됅
##됆
##됇
##됈
##됉
##됊
##됋
##됎
##됖
##됧
##됮
##됰
##됲
##됻
##됼
##둀
##둇
##둉
##둯
##둲
##둳
##둵
##둺
##둾
##둿
##뒁
##뒦
##뒧
##뒩
##뒪
##뒫
##뒭
##뒮
##듃
##듅
##듆
##듇
##듉
##듊
##듋
##듌
##듍
##듎
##듑
##듓
##듖
##듗
##듘
##듙
##듚
##듛
##듞
##듡
##듥
##듰
##듳
##딂
##딃
##딄
##딅
##딆
##딇
##딈
##딉
##딊
##딌
##딎
##딓
##딙
##딬
##딯
##딳
##딵
##딶
##딷
##딹
##딺
##딻
##딼
##딽
##딾
##딿
##땂
##땆
##땇
##땈
##땉
##땢
##땣
##땤
##땥
##땦
##땧
##땩
##땪
##땫
##땬
##땭
##땮
##땱
##땻
##땼
##땽
##떅
##떆
##떉
##떊
##떌
##떍
##떎
##떐
##떑
##떒
##떔
##떕
##떖
##떗
##떘
##떚
##떛
##떜
##떝
##떞
##떟
##떣
##떦
##떩
##떾
##뗅
##뗉
##뗗
##뗙
##뗠
##뗡
##뗢
##뗣
##뗤
##뗥
##뗦
##뗧
##뗨
##뗩
##뗪
##뗫
##뗭
##뗮
##뗯
##뗰
##뗱
##뗲
##뗳
##뗵
##뗶
##뗷
##뗸
##뗹
##뗺
##뗻
##뗽
##뗾
##뗿
##똊
##똱
##똵
##뙀
##뙁
##뙂
##뙃
##뙄
##뙅
##뙉
##뙊
##뙋
##뙌
##뙏
##뙐
##뙘
##뙦
##뙧
##뙨
##뙩
##뙪
##뙫
##뙬
##뙮
##뙯
##뙱
##뙲
##뙳
##뙴
##뙵
##뙶
##뙷
##뙸
##뙹
##뙻
##뙼
##뙽
##뙾
##뙿
##뚁
##뚊
##뚐
##뚚
##뚣
##뚦
##뚲
##뚵
##뚷
##뚼
##뚿
##뛀
##뛋
##뛐
##뛑
##뛒
##뛓
##뛕
##뛖
##뛗
##뛙
##뛚
##뛝
##뛞
##뛟
##뛤
##뛥
##뛩
##뛫
##뛬
##뛮
##뛯
##뛳
##뜂
##뜍
##뜎
##뜏
##뜐
##뜑
##뜒
##뜓
##뜖
##뜗
##뜘
##뜙
##뜚
##뜛
##뜜
##뜝
##뜞
##뜟
##뜱
##뜲
##뜴
##뜵
##뜶
##뜺
##뜼
##뜾
##뜿
##띀
##띂
##띃
##띊
##띦
##띭
##띲
##띳
##띾
##띿
##랁
##랅
##랆
##랇
##랈
##랉
##랊
##랋
##랚
##랛
##랝
##랟
##랰
##랻
##럃
##럊
##럏
##럕
##럘
##럨
##럩
##럮
##럯
##럱
##럳
##럵
##럸
##럹
##럺
##럻
##럾
##렂
##렄
##렅
##렒
##렗
##렞
##렡
##렧
##렫
##렮
##렺
##롂
##롃
##롅
##롌
##롕
##롚
##롥
##롫
##롰
##롷
##롽
##뢀
##뢁
##뢂
##뢃
##뢅
##뢇
##뢊
##뢋
##뢌
##뢍
##뢎
##뢏
##뢓
##뢙
##뢣
##뢥
##뢨
##뢯
##뢱
##뢳
##뢵
##뢹
##뢾
##룄
##룏
##룥
##룵
##룶
##룷
##뤃
##뤈
##뤐
##뤞
##뤡
##뤣
##뤥
##뤦
##뤧
##뤫
##뤬
##뤭
##뤮
##뤯
##뤻
##륁
##륂
##륃
##륅
##륆
##륇
##륈
##륉
##륊
##륋
##륍
##륎
##륖
##륛
##륣
##륮
##륾
##릁
##릃
##릆
##릑
##릓
##릕
##릖
##릘
##릙
##릚
##릜
##릝
##릞
##릟
##릡
##릢
##릣
##릤
##릧
##릨
##릪
##릫
##릱
##릳
##릾
##맀
##맃
##맇
##맍
##맒
##맓
##맖
##맗
##맚
##맦
##맧
##맩
##맪
##맭
##맮
##맯
##맶
##맾
##먉
##먒
##먙
##먝
##먠
##먯
##먿
##멏
##멑
##멖
##멛
##멝
##멠
##멷
##몁
##몈
##몉
##몊
##몋
##몎
##몏
##몔
##몘
##몜
##몪
##몴
##몾
##몿
##뫀
##뫋
##뫘
##뫚
##뫛
##뫠
##뫤
##뫧
##뫬
##뫶
##묇
##묊
##묟
##묲
##뭀
##뭓
##뭛
##뭦
##뭫
##뭭
##뭱
##뭲
##뭳
##뭶
##뭷
##뭸
##뭺
##뭻
##뭼
##뭽
##뭾
##뭿
##뮍
##뮎
##뮏
##뮒
##뮓
##뮔
##뮕
##뮖
##뮗
##뮘
##뮚
##뮞
##뮟
##뮠
##뮡
##뮢
##뮥
##뮦
##뮩
##뮫
##뮵
##뮹
##믃
##믅
##믆
##믋
##믍
##믎
##믑
##믙
##믝
##믞
##믠
##믩
##믬
##믶
##믺
##믻
##믽
##밃
##밆
##밊
##밦
##밪
##밲
##밳
##밶
##밻
##밼
##밽
##밾
##뱆
##뱤
##뱬
##뱵
##뱹
##뱽
##벇
##벉
##벊
##벏
##벣
##벫
##벲
##벶
##벸
##벾
##볆
##볈
##볙
##볝
##볟
##볠
##볢
##볣
##볤
##볥
##볦
##볧
##볩
##볪
##볬
##볭
##볯
##볷
##봁
##봍
##봒
##봔
##봢
##봫
##봮
##봯
##봰
##봱
##봳
##봴
##봵
##봶
##봷
##봸
##봹
##봺
##봻
##봼
##봾
##봿
##뵉
##뵊
##뵋
##뵎
##뵏
##뵑
##뵗
##뵧
##뵬
##뵼
##뵿
##붂
##붊
##붋
##붚
##붥
##붪
##붫
##붯
##붴
##붺
##붻
##붼
##뷂
##뷃
##뷄
##뷆
##뷇
##뷉
##뷊
##뷋
##뷌
##뷍
##뷎
##뷏
##뷖
##뷗
##뷙
##뷚
##뷛
##뷝
##뷞
##뷟
##뷡
##뷥
##뷧
##뷬
##뷭
##뷱
##뷲
##뷳
##뷵
##뷶
##뷷
##뷺
##뷻
##뷼
##뷽
##뷾
##뷿
##븄
##븆
##븉
##븑
##븗
##븟
##븠
##븢
##븫
##븯
##븱
##븲
##븳
##븴
##븵
##븶
##븷
##븹
##븺
##븻
##븼
##븽
##븾
##븿
##빐
##빖
##빝
##빞
##빟
##빧
##빩
##빮
##뺂
##뺃
##뺆
##뺇
##뺈
##뺉
##뺊
##뺋
##뺎
##뺙
##뺚
##뺛
##뺜
##뺞
##뺟
##뺡
##뺣
##뺱
##뺼
##뺽
##뻃
##뻉
##뻙
##뻞
##뻠
##뻢
##뻦
##뻧
##뻪
##뻫
##뻮
##뻯
##뻱
##뻲
##뻳
##뻵
##뻶
##뻷
##뻸
##뻺
##뻻
##뻼
##뻽
##뻾
##뼀
##뼂
##뼃
##뼄
##뼅
##뼆
##뼇
##뼊
##뼋
##뼌
##뼍
##뼎
##뼏
##뼙
##뼜
##뼢
##뼤
##뼥
##뼧
##뼨
##뼬
##뼭
##뼾
##뽃
##뽆
##뽇
##뽉
##뽊
##뽌
##뽍
##뽏
##뽚
##뽟
##뽠
##뽢
##뽤
##뽨
##뽩
##뽪
##뽫
##뽬
##뽭
##뽮
##뽯
##뽰
##뽲
##뽳
##뽴
##뽵
##뽶
##뽿
##뾅
##뾊
##뾌
##뾏
##뾑
##뾒
##뾓
##뾔
##뾕
##뾖
##뾗
##뾘
##뾙
##뾚
##뾞
##뾟
##뾧
##뾮
##뾲
##뾴
##뾵
##뾶
##뾷
##뾸
##뾹
##뾺
##뾻
##뾼
##뾽
##뾾
##뾿
##뿀
##뿂
##뿃
##뿄
##뿆
##뿇
##뿈
##뿉
##뿋
##뿑
##뿒
##뿓
##뿖
##뿗
##뿘
##뿙
##뿚
##뿛
##뿞
##뿠
##뿢
##뿣
##뿤
##뿥
##뿦
##뿧
##뿸
##뿺
##뿾
##뿿
##쀃
##쀆
##쀋
##쀍
##쀑
##쀓
##쀛
##쀠
##쀨
##쀹
##쀻
##쁍
##쁐
##쁕
##쁗
##쁟
##쁢
##쁣
##쁧
##쁬
##쁳
##쁾
##삇
##삋
##삕
##삝
##삦
##삧
##삮
##삲
##삸
##삹
##삺
##샃
##샑
##샞
##샢
##샣
##샦
##샧
##샩
##샪
##샫
##샭
##샮
##샯
##섌
##섎
##섒
##섟
##섡
##섨
##섩
##섪
##섫
##섮
##섲
##섳
##섷
##섿
##셂
##셖
##셟
##셫
##셮
##셺
##셿
##솒
##솕
##솖
##솗
##솘
##솚
##솛
##솞
##솪
##쇔
##쇘
##쇡
##쇬
##쇲
##쇴
##쇺
##쇻
##숎
##숝
##숞
##숵
##숸
##쉅
##쉉
##쉎
##쉡
##쉢
##쉨
##슀
##슅
##슊
##슋
##슍
##슎
##슏
##슑
##슒
##슓
##슔
##슕
##슖
##슗
##슚
##슜
##슞
##슠
##슡
##슣
##슳
##슶
##슸
##슿
##싁
##싂
##싄
##싅
##싇
##싊
##싋
##싌
##싍
##싎
##싏
##싕
##싚
##싥
##싲
##싿
##쌊
##쌋
##쌛
##쌡
##쌧
##쌨
##쌱
##쌲
##쌾
##쌿
##썐
##썘
##썟
##썾
##썿
##쎇
##쎊
##쎋
##쎍
##쎐
##쎑
##쎒
##쎗
##쎚
##쎛
##쎜
##쎝
##쎞
##쎟
##쎣
##쎩
##쎪
##쎫
##쎹
##쏓
##쏚
##쏞
##쏧
##쏬
##쏰
##쏵
##쏽
##쏾
##쐊
##쐏
##쐓
##쐔
##쐟
##쐤
##쐩
##쐫
##쐺
##쑌
##쑑
##쑒
##쑓
##쑔
##쑕
##쑗
##쑙
##쑚
##쑛
##쑜
##쑞
##쑟
##쑮
##쑰
##쑱
##쑲
##쑳
##쑶
##쑷
##쑸
##쑼
##쑽
##쑾
##쑿
##쒈
##쒎
##쒐
##쒑
##쒒
##쒓
##쒕
##쒖
##쒗
##쒘
##쒙
##쒛
##쒝
##쒞
##쒟
##쒧
##쒰
##쓀
##쓂
##쓆
##쓋
##쓐
##쓒
##쓘
##쓚
##쓛
##쓣
##쓥
##쓧
##쓮
##쓲
##쓵
##쓶
##쓷
##쓹
##쓻
##쓼
##쓽
##쓾
##씃
##씅
##씊
##씑
##씒
##씓
##씔
##씗
##씘
##씙
##씚
##씛
##씜
##씞
##씟
##씡
##씣
##씦
##씪
##앁
##앂
##앆
##앑
##앥
##앫
##앶
##앸
##앹
##앾
##얃
##얆
##얙
##얟
##얠
##얪
##얫
##얿
##엀
##엋
##엓
##엛
##엝
##옍
##옕
##옖
##옗
##옡
##옦
##옩
##옪
##옲
##옸
##옿
##왒
##왞
##왟
##왡
##왢
##왣
##왥
##왦
##왧
##왨
##왪
##왫
##왭
##왮
##왲
##왴
##왵
##왶
##왺
##욁
##욂
##욃
##욄
##욅
##욆
##욈
##욉
##욊
##욏
##욗
##욚
##욣
##욾
##웋
##웖
##웗
##웥
##웫
##웯
##윂
##윆
##윎
##윐
##윓
##윘
##윚
##윜
##윝
##윞
##윥
##윧
##윲
##윴
##윺
##윿
##읁
##읙
##읚
##읤
##읦
##읨
##읿
##잍
##잙
##잝
##잧
##잨
##잪
##잱
##잲
##잳
##잶
##잷
##잸
##잹
##잺
##잻
##쟂
##쟄
##쟅
##쟆
##쟇
##쟊
##쟍
##쟏
##쟢
##쟥
##쟩
##쟪
##쟭
##쟮
##쟯
##쟱
##쟲
##쟳
##쟴
##쟶
##쟷
##쟸
##쟹
##쟺
##쟻
##쟼
##쟽
##쟾
##쟿
##젇
##젗
##젛
##젦
##젧
##젰
##젵
##젶
##졂
##졉
##졐
##졛
##졜
##졞
##졟
##졣
##졥
##졩
##졫
##졬
##졶
##졻
##좂
##좒
##좘
##좜
##좞
##좠
##좢
##좩
##좯
##좰
##좻
##죉
##죖
##죨
##죰
##죱
##죴
##죷
##죸
##죹
##죺
##죻
##죾
##죿
##줃
##줎
##줕
##줚
##줥
##줨
##줭
##줵
##줶
##줼
##쥀
##쥖
##쥹
##쥾
##쥿
##즀
##즁
##즂
##즃
##즅
##즆
##즊
##즋
##즍
##즎
##즏
##즑
##즒
##즔
##즕
##즖
##즗
##즚
##즜
##즣
##즥
##즧
##즫
##즰
##즲
##즳
##즴
##즵
##즶
##즷
##즸
##즹
##즺
##즻
##즼
##즽
##즾
##즿
##짞
##짪
##짮
##짴
##짵
##짾
##쨂
##쨎
##쨕
##쨥
##쨦
##쨾
##쩃
##쩆
##쩕
##쩗
##쩚
##쩢
##쩣
##쩥
##쩮
##쩱
##쩴
##쩷
##쩻
##쩼
##쪍
##쪐
##쪑
##쪒
##쪓
##쪔
##쪕
##쪖
##쪗
##쪚
##쪛
##쪜
##쪝
##쪞
##쪠
##쪢
##쪨
##쪪
##쪮
##쪳
##쪾
##쫈
##쫉
##쫊
##쫎
##쫐
##쫜
##쫟
##쫠
##쫡
##쫣
##쫦
##쫩
##쫪
##쫬
##쫯
##쫸
##쫻
##쫼
##쫿
##쬑
##쬙
##쬜
##쬣
##쬤
##쬥
##쬪
##쬭
##쬲
##쬸
##쬻
##쬼
##쬽
##쭀
##쭂
##쭄
##쭅
##쭆
##쭊
##쭋
##쭍
##쭏
##쭠
##쭥
##쭨
##쭩
##쭭
##쭵
##쭺
##쭻
##쮑
##쮛
##쮡
##쮣
##쮤
##쮥
##쮨
##쮩
##쮪
##쮫
##쮬
##쮭
##쮮
##쮼
##쯀
##쯇
##쯉
##쯊
##쯍
##쯟
##쯫
##쯱
##쯳
##쯴
##쯵
##쯶
##쯹
##쯺
##쯻
##쯼
##쯽
##쯾
##쯿
##찒
##찗
##찠
##찤
##찪
##찫
##찭
##찯
##찵
##챁
##챆
##챇
##챉
##챊
##챋
##챍
##챎
##챏
##챐
##챑
##챒
##챓
##챖
##챚
##챛
##챜
##챝
##챞
##챟
##챴
##챼
##챾
##첌
##첟
##첡
##첰
##첱
##첲
##첳
##첶
##첷
##첹
##첺
##첻
##첽
##첾
##첿
##쳊
##쳏
##쳒
##쳙
##쳡
##쳴
##쳶
##쳾
##쳿
##촂
##촒
##촟
##촠
##촭
##촳
##쵐
##쵑
##쵒
##쵓
##쵔
##쵕
##쵖
##쵘
##쵚
##쵞
##쵟
##쵨
##쵰
##쵲
##쵳
##쵴
##쵵
##쵷
##쵺
##쵻
##쵽
##쵾
##춀
##춝
##춦
##춪
##춱
##춳
##춽
##췉
##췜
##췟
##췣
##췩
##췭
##췯
##췵
##췸
##췼
##츂
##츏
##츓
##츗
##츞
##츢
##츣
##츥
##츦
##츧
##츪
##츬
##츮
##츯
##츱
##츲
##츴
##츶
##츹
##츺
##츻
##츽
##츾
##칆
##칑
##칕
##칢
##칤
##칦
##칪
##칱
##칳
##칶
##칷
##칹
##칺
##칻
##칽
##칾
##칿
##캊
##캍
##캱
##캽
##컅
##컈
##컍
##컐
##컑
##컒
##컓
##컔
##컖
##컗
##컙
##컚
##컛
##컜
##컝
##컞
##컟
##컦
##컧
##컩
##컪
##컭
##컮
##컯
##컰
##컱
##컲
##컺
##컻
##컿
##켎
##켣
##켦
##켮
##켷
##켸
##켼
##콅
##콖
##콗
##콚
##콛
##콝
##콞
##콟
##콠
##콡
##콢
##콣
##콨
##콪
##콫
##콭
##콮
##콽
##쾂
##쾄
##쾆
##쾇
##쾈
##쾉
##쾊
##쾋
##쾎
##쾏
##쾔
##쾕
##쾟
##쾤
##쾦
##쾮
##쾹
##쾺
##쾽
##쿁
##쿋
##쿍
##쿒
##쿕
##쿖
##쿚
##쿲
##쿸
##쿻
##퀁
##퀆
##퀏
##퀛
##퀥
##퀧
##큟
##큩
##큮
##큷
##큸
##킀
##킂
##킃
##킆
##킉
##킊
##킋
##킌
##킍
##킎
##킑
##킒
##킓
##킔
##킕
##킖
##킗
##킘
##킙
##킚
##킛
##킜
##킝
##킰
##킾
##탌
##탍
##탖
##탗
##탡
##탢
##탣
##탥
##탦
##탨
##탩
##탫
##탮
##탲
##탴
##탵
##탷
##탽
##턊
##턐
##턒
##턚
##턜
##턟
##턠
##턡
##턣
##턤
##턥
##턦
##턧
##턨
##턩
##턪
##턫
##턬
##턭
##턮
##턯
##턲
##턳
##턵
##턶
##턷
##턹
##턺
##턻
##턼
##턾
##턿
##텂
##텇
##텈
##텉
##텊
##텋
##텗
##텙
##텤
##텩
##텯
##텱
##톅
##톆
##톇
##톉
##톊
##톋
##톍
##톎
##톏
##톐
##톒
##톔
##톕
##톖
##톗
##톘
##톙
##톜
##톝
##톞
##톟
##톻
##톽
##퇅
##퇊
##퇝
##퇦
##퇫
##퇱
##퇵
##퇸
##툀
##툅
##툔
##툕
##툝
##툡
##툥
##툱
##툲
##툳
##툵
##툶
##툷
##툸
##툹
##툺
##툾
##퉀
##퉂
##퉃
##퉄
##퉅
##퉆
##퉇
##퉉
##퉊
##퉋
##퉌
##퉍
##퉎
##퉏
##퉘
##퉙
##퉛
##퉝
##퉟
##퉠
##퉡
##퉢
##퉣
##퉰
##퉱
##퉲
##퉳
##퉶
##퉺
##퉻
##퉼
##퉽
##퉾
##퉿
##튂
##튃
##튅
##튆
##튉
##튊
##튋
##튌
##튍
##튎
##튒
##튔
##튖
##튗
##튘
##튚
##튡
##튢
##튣
##튥
##튦
##튧
##튨
##튩
##튪
##튫
##튮
##튯
##튺
##튻
##튽
##튾
##틎
##틘
##틡
##틹
##팇
##팒
##팓
##팕
##팗
##팘
##팙
##팚
##팛
##팞
##팷
##팿
##퍉
##퍕
##퍟
##퍡
##퍢
##퍣
##퍤
##퍥
##퍦
##퍧
##퍨
##퍩
##퍫
##퍬
##퍮
##퍯
##퍵
##퍷
##퍻
##퍾
##펁
##펂
##펃
##펅
##펆
##펇
##펈
##펉
##펊
##펋
##펎
##펣
##펬
##펯
##펲
##펵
##폀
##폁
##폂
##폃
##폆
##폇
##폊
##폋
##폌
##폍
##폎
##폏
##폛
##폟
##폣
##폤
##퐀
##퐂
##퐃
##퐅
##퐆
##퐇
##퐉
##퐊
##퐋
##퐌
##퐍
##퐎
##퐐
##퐭
##퐯
##퐰
##퐱
##퐲
##퐳
##퐴
##퐵
##퐶
##퐹
##퐺
##퐻
##퐼
##퐽
##퐿
##푃
##푅
##푋
##푐
##푑
##푒
##푓
##푔
##푖
##푗
##푘
##푚
##푝
##푞
##푟
##푡
##푩
##푬
##푭
##푳
##풐
##풒
##풕
##풖
##풗
##풛
##풜
##풝
##풟
##풠
##풡
##풢
##풤
##풥
##풦
##풧
##풨
##풪
##풫
##풬
##풯
##퓀
##퓂
##퓃
##퓄
##퓅
##퓆
##퓇
##퓈
##퓉
##퓊
##퓋
##퓍
##퓏
##퓘
##퓛
##퓢
##퓩
##퓮
##퓱
##퓳
##퓷
##퓻
##픅
##픒
##픓
##픝
##픞
##픨
##픯
##픾
##핃
##핇
##핒
##핮
##핯
##핶
##핹
##핺
##핽
##햀
##햁
##햂
##햃
##햆
##햊
##햌
##햍
##햎
##햒
##햓
##햕
##햗
##햚
##햜
##햞
##햟
##햢
##햦
##햧
##햨
##햩
##햫
##햰
##햱
##햲
##햳
##햴
##햵
##햶
##햷
##햸
##햹
##햻
##햼
##햽
##햾
##햿
##헁
##헆
##헲
##헳
##헼
##헾
##혂
##혌
##혍
##혬
##혭
##혶
##혾
##홅
##홒
##홖
##홗
##홙
##홚
##홝
##홞
##홟
##홠
##홡
##홢
##홣
##홨
##홪
##홫
##홬
##홮
##홼
##홾
##횀
##횄
##횎
##횏
##횑
##횒
##횕
##횖
##횗
##횘
##횙
##횚
##횛
##횜
##횠
##횢
##횣
##횤
##횦
##횧
##횩
##횵
##횸
##횿
##훃
##훐
##훚
##훜
##훞
##훡
##훣
##훱
##훳
##훸
##휁
##휂
##휅
##휆
##휇
##휉
##휊
##휋
##휌
##휎
##휔
##휖
##휚
##휛
##휞
##휟
##휡
##휢
##휣
##휤
##휥
##휬
##휮
##휯
##휰
##휱
##휲
##휻
##흇
##흒
##흓
##흕
##흖
##흚
##흛
##흜
##흟
##흪
##흮
##흼
##힀
##힂
##힃
##힄
##힅
##힆
##힇
##힊
##힋
##힍
##힎
##힏
##힒
##힓
##힔
##힕
##힖
##힗
##힚
##힞
##힟
##힠
##
##
##
##
##
##
##
##
##
##
##
##
##﨟
##𐰆
##𐰪
##𐱃
##𛀁
##🔑
##🕶
##𡸇
##Ð
##Ó
##Ā
##Ć
##ᅄ
##ᅴ
##Ẽ
##∮
##ヲ
##帿
##愈
##慟
##祦
##籟
##羹
##辕
##邾
##鈗
##頎
##꽅
##끟
##뇅
##닜
##둟
##똏
##렢
##롶
##쁴
##읾
##젹
##좉
##줒
##줓
##짋
##찱
##쵭
##콀
##톸
##퇑
##툑
##틆
##틩
##훛
##Ú
##þ
##Ē
##ĕ
##ĵ
##Ř
##ș
##ә
##צ
##भ
##य
##ह
##க
##ข
##แ
##ᆭ
##ሃ
##ኤ
##ខ
##េ
##ẓ
##ぁ
##ㄓ
##㫆
##仗
##仝
##仿
##伅
##伦
##佷
##俣
##俺
##倡
##倩
##兰
##冤
##冨
##冰
##凋
##刮
##剃
##剽
##务
##勵
##另
##咒
##喫
##嗇
##嚇
##図
##坰
##堊
##塽
##壊
##壟
##姥
##娄
##婉
##媼
##嫦
##孃
##孵
##宪
##屢
##岺
##崁
##巔
##幇
##应
##廁
##廃
##廝
##彧
##径
##怍
##总
##悍
##惻
##慽
##戛
##戟
##截
##户
##扠
##护
##拆
##拈
##捻
##掬
##握
##撒
##擲
##攘
##斉
##旒
##旲
##旴
##曝
##极
##枏
##枚
##柬
##栒
##栮
##梶
##棹
##楢
##榧
##槥
##樁
##樗
##樟
##橈
##橢
##殻
##毀
##毌
##氈
##氾
##涑
##涛
##渕
##滕
##潼
##澶
##瀕
##瀦
##瀧
##灆
##熒
##燄
##燽
##牘
##狎
##独
##玻
##琰
##琸
##疣
##皁
##皝
##皺
##盂
##盥
##眄
##瞿
##矶
##砕
##砖
##硃
##碇
##碌
##碗
##碾
##磷
##穩
##窗
##竅
##竪
##筍
##箇
##箍
##粮
##糀
##糊
##綫
##縫
##约
##纪
##继
##罗
##罡
##翹
##聴
##臏
##臾
##舗
##艀
##芋
##芹
##茄
##茨
##茹
##荻
##莢
##菏
##菟
##菡
##菰
##葱
##蓝
##蕾
##藶
##藷
##蘋
##虚
##蜘
##蟆
##蟾
##蠟
##襠
##襴
##訃
##謇
##謡
##讞
##许
##诰
##谦
##賰
##跛
##跨
##躑
##轩
##选
##遾
##郑
##酵
##酺
##釈
##鈀
##鉏
##銖
##錚
##錞
##钢
##闋
##阁
##隰
##顴
##频
##饉
##饋
##饶
##駟
##駢
##騅
##鮎
##鮪
##鯖
##鰥
##鰭
##鱉
##鵑
##鶏
##鶩
##黁
##黠
##鼠
##츅
##켱
##Ξ
##ც
##Ἀ
##ἐ
##Ἱ
##Ῥ
##∘
##➁
##ヌ
##传
##倣
##偵
##册
##刁
##厅
##压
##听
##啐
##嗅
##孖
##寤
##慵
##戢
##扒
##挑
##挚
##桶
##浒
##烤
##猩
##癬
##睟
##瞬
##竈
##统
##腥
##艸
##褐
##逃
##馣
##髄
##鰈
##엫
##朞
##ந
##ன
##ே
##ཕ
##འ
##ྲ
##娃
##样
##珣
##眭
##籇
##纲
##贸
##閲
##썁
##த
##ཞ
##啖
##崛
##脯
##忿
##潰
##躡
