[PAD]
[unused1]
[unused2]
[unused3]
[unused4]
[unused5]
[unused6]
[unused7]
[unused8]
[unused9]
[unused10]
[unused11]
[unused12]
[unused13]
[unused14]
[unused15]
[unused16]
[unused17]
[unused18]
[unused19]
[unused20]
[unused21]
[unused22]
[unused23]
[unused24]
[unused25]
[unused26]
[unused27]
[unused28]
[unused29]
[unused30]
[unused31]
[unused32]
[unused33]
[unused34]
[unused35]
[unused36]
[unused37]
[unused38]
[unused39]
[unused40]
[unused41]
[unused42]
[unused43]
[unused44]
[unused45]
[unused46]
[unused47]
[unused48]
[unused49]
[unused50]
[unused51]
[unused52]
[unused53]
[unused54]
[unused55]
[unused56]
[unused57]
[unused58]
[unused59]
[unused60]
[unused61]
[unused62]
[unused63]
[unused64]
[unused65]
[unused66]
[unused67]
[unused68]
[unused69]
[unused70]
[unused71]
[unused72]
[unused73]
[unused74]
[unused75]
[unused76]
[unused77]
[unused78]
[unused79]
[unused80]
[unused81]
[unused82]
[unused83]
[unused84]
[unused85]
[unused86]
[unused87]
[unused88]
[unused89]
[unused90]
[unused91]
[unused92]
[unused93]
[unused94]
[unused95]
[unused96]
[unused97]
[unused98]
[unused99]
[UNK]
[CLS]
[SEP]
[MASK]
[unused100]
[unused101]
!
"
#
$
%
&
'
(
)
*
+
,
-
.
/
0
1
2
3
4
5
6
7
8
9
:
;
<
=
>
?
@
이
대
있
##으로
##에서
지
##했다
전
수
사
기
한
것
정
등
가
있다
경
##하는
국
시
##니다
보
##하고
중
부
주
공
제
그
인
위
오
서
자
의
아
상
관
##이다
일
조
나
내
“
##00
##습니다
비
다
유
하
최
김
해
소
고
개
여
선
신
‘
발
모
##이라
연
강
말
구
통
않
안
문
방
지난
서울
원
있는
20
현
재
없
미
예
어
##까지
만
마
##들이
우
당
것으로
진
동
##한다
세
교
후
밝
도
추
불
무
##면서
실
##지만
박
장
받
성
##부터
때
결
확
대한
회
금
따
특
분
거
계
반
열
생
##에게
##다는
영
##통령
차
바
밝혔
노
출
한국
대통령
입
참
##적으로
올
청
설
##위원
또
검
##됐다
위해
##에는
10
##었다
적
##된다
201
밝혔다
##..
의원
정부
##적인
새
남
##...
더
##이라고
대해
매
##하기
건
말했다
대표
총
민
직
과
및
행
앞
단
증
감
평
##장은
달
판
법
많
##다고
운
외
피
관련
통해
학
후보
##하게
##자는
알
투
##들은
포
같
배
임
요
했다
스
##들의
북
집
들
국민
저
##사를
##장을
함
물
할
관계
##회의
명
##억원
높
문제
경찰
되
양
##만원
이어
역
이날
한다
점
우리
산
##장이
때문
등을
##000
협
##보다
처
취
지역
합
이번
파
업
못
오후
##기업
지원
위한
경우
활
##했습니다
경제
오전
함께
##도록
지난해
##라고
규
초
##뉴스
두
본
필
##하지
심
간
##았다
가능
변
이상
##은행
논
각
##하다
사업
광
11
화
진행
뒤
환
##졌다
작
##에도
하는
##혐의
##%)
기업
체
맞
12
국회
##입니다
##대로
19
##에서는
##해야
종
혐의
조사
A
아니
채
것이
삼
미국
##되는
농
사람
##위원회
##씨는
중국
프
기자
##기를
따라
##겠다
검찰
올해
목
열린
##였다
##20
##리는
게
늘
같은
이후
하고
30
국내
필요
예정
##르면
북한
충
근
살
200
##는데
들어
경기
창
##서는
부산
것은
상황
손
금융
결과
줄
계획
약
S
▲
교육
##으며
##하면
담
##라는
그러
따르면
##리를
설명
##부는
##이나
##들을
민주
##대표
치
최근
호
##──
대상
피해
정치
##시장
가장
##자가
사실
넘
생각
현재
홍
복
##누리
측
운영
15
찾
데
##하며
##성이
[
있습니다
국가
시작
관계자는
##지를
##비스
권
모두
##사가
##시간
##사는
돌
##성을
표
##사업
##센터
폭
때문에
사회
##운데
크
추진
##지는
##연합
것이다
발표
증가
드
발생
없다
##0.
가운데
정책
##(1
전국
C
투자
확인
사용
##리고
전문
##정을
세계
좋
##이고
사건
절
##경제
씨
승
##이라는
##력을
속
##민주
##),
특히
내용
큰
##되고
##하면서
벌
준
그는
##했다고
순
장관
삼성
최고
이용
보고
있어
야
만들
K
##지고
코
##화를
참여
일본
시장
걸
기준
항
군
이런
형
##와대
다른
##학교
접
##명이
리
식
알려
수사
편
확대
카
제공
언
마련
잘
##병원
독
참석
나타
##들에게
등의
판매
지적
##이라며
13
##교육
타
##도로
책
##누리당
완
태
브
##기관
##안을
하지만
것을
자신
##정부
이에
선거
온
될
주장
##0%
안전
토
##거나
전망
청와대
강조
##근혜
철
된다
##기에
갖
요구
당시
지금
오늘
범
허
친
없는
사고
14
질
결정
급
##명을
교수
시민
다양
최대
향
아이
새누리당
여성
##금을
18
##지역
낮
##자의
그런
##상을
##났다
##기가
메
평가
16
##연구
용
##리가
##원은
25
글
제품
원내
##마트
연구
번
날
강화
산업
금지
많은
국정
프로
인사
학생
##랜드
방문
규모
등이
국제
위원
소비
17
포함
##장의
첫
##서울
개발
이유
100
##회를
분석
눈
의원은
받고
##시아
에
##들과
##산업
핵
##원이
##관리
추가
##.1
일부
효
시간
##한국
했
의혹
면
않는
공개
##기로
커
수준
##니까
곳
한편
##재인
서비스
##왔다
##조사
현대
##라인
가격
있도록
##.5
누
##자를
기록
오는
##개월
##의를
송
다양한
##201
│
무단
전체
음
서울시
예상
있다는
이를
##장에서
##위를
##도를
예정이다
다시
##지원
아니라
L
설명했다
##단체
##나라
직접
##치를
##업체
박근혜
대학
주민
축
##(2
막
힘
개선
폐
사이
##합니다
##사의
정보
과정
지방
공동
##처럼
##인다
..
디
상승
고객
기대
24
백
##에서도
재판
대선
어려
해외
##경찰
##식을
##로운
인천
##동을
다음
##롯데
인터
하나
수출
책임
구속
특별
기술
##이는
그러나
##일까지
##그룹
있을
내년
##.2
##으면
##일부터
21
자유
해당
##스트
##인이
##하기로
황
##제로
받아
대비
앞서
주요
##배포
등에
윤
##기도
##금융
우려
업무
##렇게
않고
민주당
22
##레이
트
원내대표
##사회
##선거
기간
##장과
영향
않은
구성
보도
##원을
문재인
▶
정상
##페이
행사
##가는
23
##정보
##장에
많이
##주의
끝
##정책
B
##했고
논란
##료를
있다고
계속
##.3
논의
개최
판단
갈
##파트
##혁신
혐의로
##인은
의견
중요
정도
네
처음
##기는
돈
떨
압
징
적용
27
노동
휴
늘어
실시
##세를
경쟁
##했던
학교
동안
상태
예산
##원의
##문화
중소
천
버
지난달
##동차
##(3
탄
이뤄
##본부
문화
애
중심
##시설
준비
생산
모든
수도
응
##겠다는
##해서
26
환경
강조했다
대표는
관심
롯데
##(5
##렸다
28
관리
대통령은
지속
M
##스템
##으나
촉
광주
설치
빠
높은
부분
시행
##제를
구조
잡
##권을
패
##월호
##.4
c
상품
##개발
##TV
대통령이
답
##기술
탈
있었
거래
월
신청
떨어
##정치
활용
차량
로
##씨가
받은
##.7
I
각각
계획이다
50
분야
##자들이
제주
보인다
울
국민의
제기
##.6
등으로
육
##안전
신고
##한다고
적극
된
##.8
따른
가족
##리아
모습
기존
성장
##그램
외국
별
침
비롯
이미
희
선정
##(4
##하겠다
0.
##인트
잠
도입
##로벌
대상으로
여러
##도가
업체
몰
##인을
##자리
비판
경영
중앙
##이었다
평균
##년간
나오
헌
됐다
△
##거래
직원
만큼
드러
합의
##중앙
29
##명의
##력이
길
##.9
찾아
관련해
쓰
확보
개인
##%,
##%),
경찰은
정부가
##무원
재배포
##불어
일반
개정
건설
지지
새로운
만에
전했다
감소
##서를
##민주당
##전자
경기도
대응
##린이
어떻
없이
얼
##공사
대구
##30
인정
알려졌다
숨
있고
##관계
긴
##────
아파트
해결
##연합뉴스
##이트
건강
부담
매출
상당
##지방
##부가
##보험
##라며
고용
불법
어떤
집중
베
아닌
볼
미래
##되지
앞으로
방침
악
고려
검토
사무
더불어
##대를
대책
##달러
발전
##BS
유지
##자로
어떻게
##라도
공공
영업
##국민
난
##환경
대통령의
보험
놓
40
##분기
있었다
효과
변호
하락
##원에서
##밖에
##부를
관광
맡
발언
남북
##동안
##점을
사진
##복지
...
또한
기념
##원에
만들어
지급
선고
##인의
브랜드
##투자
경남
##하려
##co
위반
전문가
국회의
##지가
퇴
주택
글로벌
##겠다고
##대책
정부는
세월호
강원
만나
크게
않았
출시
##위는
보면
돼
##선을
참가
행정
엄
공식
않았다
홈
때문이다
##주는
역할
공정
반대
얘
##인데
밀
여야
활동
생활
자리
G
##시키
##수를
발견
먹
##회담
가능성이
협력
뉴스
##학생
조성
##시에
은행
##회견
대부
기획
과정에서
인상
촉구
귀
##사에
통합
극
덧
떠
◆
전달
##했지만
느
##겠습니다
역시
프로그램
자신의
근로
외교
제출
##한다는
의미
방송
##업을
물론
중소기업
##사고
##회에서
##동산
나타났다
##소득
어린이
싶
대출
회의
회장
정부의
덧붙
이는
하루
사망
공급
나온
골
병
대법
##카드
병원
##보고
성공
31
##는다
##민국
기자회견
##자인
테
##너지
스마트
##사에서
기소
핵심
##수가
."
이야
##사와
기관
뜻
문제가
◇
##정은
전해
##지에
석
##로부터
요청
##시는
##10
되는
라
##50
대형
전략
풀
처리
##물을
##머니
##포인트
##가지
##느냐
##협회
##청은
##치는
##됐습니다
더욱
중인
청년
대해서는
현장
먼
마음
도시
좋은
##의회
자체
있지만
##이며
##별로
##수는
돌아
소득
방식
더불어민주당
##이었
품
격
##했다는
##전재
##냈다
인근
##하여
이같
##주택
##당이
넘어
반면
##월부터
수입
민간
한다는
##노동
국무
혁신
이렇게
무단전재
##운동
캠
##하도록
##과의
키
우리나라
##의도
밝혔습니다
투표
##반기
##약을
##er
대부분
착
교통
검찰은
의원이
노력
지적했다
##행을
##증권
F
납
##(6
##품을
주장했다
소비자
##르는
##두고
##문을
혐의를
##이어
갖고
씨는
##들도
우선
##도시
덧붙였다
##km
감사
소속
조직
##연금
그리고
하지
않을
달러
어렵
본격
그래
보여
##진다
##철수
혼
가입
아직
국방
입장
##씨의
바로
방안
주변
언론
자동차
`
##발전
##년부터
2012
이동
나서
##계를
##공단
대변
##당은
##위원장
##성화
##통신
의료
##NS
제시
목표
##훈련
##가족
있는데
중단
인터넷
##율이
출신
강남
결국
쉽
해야
끌
둘
2014
또는
##움을
##기간
방법
##ww
반영
봉
##www
얻
수익
내려
##쇼핑
대해서
2013
부동산
##만원을
##되면
이사
##공항
확정
측은
존
##식품
##명으로
즐
선보
없어
##차를
##상이
아니다
코스
##비를
너
##대학
필요한
선택
지도
뿐
##과학
보호
이해
2015
##감을
P
소방
것도
구축
취업
성과
가능성
입장을
##소를
대한민국
재정
블
차지
##·1
내부
이전
구매
##대회
##서비스
##대가
최종
##드는
여의도
##전히
전환
##원으로
왜
##소년
##지도
시스템
##규모
울산
않아
최저
당선
##일보
높아
이들은
##억원을
사전
다만
##.0
뉴
일자리
플
##on
##하거나
2011
위험
##건설
채용
지하
그런데
##총리
##씨를
열고
##가를
##후보
##권자
후보는
##제가
종합
사례
문제를
먼저
붙
##나는
이와
앞두고
대표가
##도는
제대로
D
LG
좀
##위에
각종
##장으로
##이익
수요
##실을
공무원
징역
##치고
##조정
온라인
안정
국토
이제
시설
풍
제외
중심으로
머
여론
##재단
##위가
복지
즉
##수사
있으며
##대에
판결
##러스
받을
##한국당
##하다는
##됩니다
##전을
유통
##다가
##케이
받았다
개혁
작년
팔
잇
SK
터
장애
지정
60
##계획
올라
##신문
##거리
펼
전년
##율은
홍보
두고
##가가
##부장
회사
##생활
##in
과거
비용
점검
설립
낙
##반도
##실에서
##화가
##수수
비해
관한
##회사
등록
실제
겨
199
수석
기본
파악
##마다
기능
##성장
##ht
##세계
국회에서
##교통
전날
사태
통과
##부에
##스로
근무
##지법
##지로
##',
##개혁
대전
##포토
부족
##TA
##하자
전남
방안을
##자와
방향
컨
##성과
말씀
구체
그동안
희망
거쳐
##스크
##ri
##통합
영향을
최초
제한
콘
제조
받는
출마
##이터
##항공
범죄
비교
##하던
견
제도
보유
##되면서
##대의
##관에서
그렇
E
조치
창업
화재
겪
이하
##스를
##관이
조선
주목
홈페이
##쳤다
안철수
체결
##종합
불구
목소
##섰다
할인
이름
##관은
##국의
청구
향후
제안
불가
반응
역할을
##정이
##자금
이른
도로
소송
##년을
##대한
##혜택
신규
##없이
총선
은
점을
전기
##구조
##벤트
상대로
유럽
꾸
2010
##세가
합니다
비상
경북
정당
대기업
##명은
내용을
##활동
##더라도
부정
주식
##협력
앞에서
##회가
한다고
통일
##이번
우수
##5%
새정치
##등학교
회복
줄어
##가구
##전문
##or
회원
헌법
2016
카드
##위기
언급
규제
있게
비중
너무
##에선
##부의
##임을
분양
##kr
나라
확산
##했으며
모델
단체
경찰에
신용
##차례
보이
전재
질문
처벌
##디어
이들
##BC
사회적
##평가
뛰
##건을
체험
##리스
이같이
##화점
외국인
##량을
계약
##)'
몸
예방
경험
##사진
밤
와
##어나
##학과
중구
##림픽
대신
##사로
북한의
택
자유한국당
보수
의견을
##관광
세종
평화
가까
##펀드
##업계
사과
##지막
않다
이벤트
##지지
##임금
맞아
열어
녹
##대는
##사일
##회의에서
##19
##40
종로
실적
##주시
이달
소개
내놓
##스코
##자들의
후보가
토론
지나
항공
통한
조정
##com
##지검
않는다
사람이
총리
최고위원
놓고
정확
장기
##바일
담당
##우리
야당
중이다
노조
그래서
인터뷰
##하다고
##이기
등은
아시아
교수는
방침이다
하면
불과
인수
법률
##무리
사실상
보였다
##==
이재
남성
##부와
##an
##대출
##이를
대화
유치
건물
##수석
연합
협의
선언
최소
특검
클
일이
바른
##규직
##분을
연결
못한
SNS
보내
긴급
##국은
이유로
돈을
차례
##.5%
##움이
##졌습니다
투입
숙
진술
##액은
일정
김영
##대학교
##량이
출석
T
있던
캐
위치
보건
업계
##촬영
자금
가지
##이가
마지막
##안이
##인지
전시
사실을
오른
빈
국민의당
제작
##경영
##국제
연속
약속
재산
공천
졸
서울중앙
##르고
어느
부인
##단을
중요한
갈등
##율을
##워크
활성화
강력
레
바람
어려운
혜택
##자에
##마을
같이
##년까지
장관은
##80
2009
##회장
##인으로
정권
##자원
달라
얘기
가구
비롯해
예비
전통
것이라고
##25
##하겠다는
자료
집행
받았
있기
회장은
##제도
꼽
진출
것이라는
의무
맛
조사를
##라이
밝혀
작업
##대전
사퇴
##관을
해양
무엇
적발
옮
##포츠
##범죄
찬
##산물
얼마
했습니다
쪽
역사
##는데요
##들에
##심을
##회에
상대
국립
만든
반발
##11
기초
##자들은
형사
##와의
##식이
보는
잘못
현지
##조합
규정
##받은
매우
신뢰
변화
시험
발생한
같다
##갔다
##자에게
KT
##분께
뇌
전자
비롯한
인도
##직원
2017
##랐다
거부
통화
##기구
법무
##안에
되고
##버스
인해
##ght
듯
검사
##대통령
##(7
원을
##리핑
##명박
##세대
정의
##op
##의원
그러면서
##500
출범
번째
스마트폰
500
##회는
##기준
##시스템
##지면서
70
##폭력
충분
”
N
##월까지
자연
##세요
죽
##하기도
없었다
충남
나가
암
논란이
필요하다
##리지
기자가
에너지
##하지만
갑
전해졌다
##리에
상황에서
기반
흐
스타
수도권
둔
##스타
##되어
##조선
##있는
움
##12
##제품
지켜
현실
러
능
빼
##연구원
지시
누구
광고
전북
빌
나선
겸
조금
2008
결과를
한미
TV
전망이다
추정
모바일
씨가
비서
##린다
##위의
■
##는지
##재판
##시민
##었습니다
나온다
주도
##작권자
창출
인권
사업을
##60
##자치
##하겠다고
듣
단계
달리
사랑
정신
고위
치료
기자회견을
##어요
##음을
##국이
##격을
##행정
가정
##세먼
흔
1,
##투표
아울
나왔다
자녀
알고
보장
빚
기획재
수밖에
한반도
##히려
300
청소년
계열
엔
##점이
낸
심각
KBS
자산
##단계
##검사
여전히
국회의원
어제
##보호
임명
종로구
증거
##보는
##률이
##차가
##지사
공간
헤
##점에서
##으로는
탄핵
묻
움직
페이
##상에
표현
됐
##속도로
##자체
##일을
빨
##리기
##정당
둘러
그룹
##케팅
##명에
##피해
수상
선물
▷
##금리
취임
스스로
금리
호텔
당부
##해양
이상의
삶
##하라
부문
##보다는
잔
##right
참석한
배치
정도로
부모
몇
2000
##르게
##스는
가계
##정상
##년에
퍼
매년
##)’
모습을
##세청
운전
아동
##과정
김정은
특수
##롭게
챙
아니냐
##.3%
딸
1000
##상품
고민
아울러
공사
##으로부터
변경
삼성전자
##.7%
##이사
못하고
서비스를
##지털
##연구소
동시에
대북
##감독
인한
그렇게
##순실
'201
벌어
무역
가능한
##단은
##부모
##부산
##르스
##시켜
무료
대체
기록했다
상담
전면
##.4%
##.2%
오히려
사장
특정
##결과
##공원
##.8%
임금
원칙
영화
없다는
규모의
정치권
##.1%
사상
상임
##증을
##.6%
##억원으로
이야기
해서
##었던
보다
##이자
##위로
원내대표는
살펴
늦
##했을
접수
##럼프
한나라
##방송
밝히
##200
##축은행
깊
##al
마무리
##법을
##스럽
여행
##코리아
예상된다
##국가
2018
이러
처음으로
부과
##북한
인하
##15
출발
모집
홈페이지
이명박
좌
##미래
끊
북한이
발표한
전용
수행
전화
공연
자기
응답
소환
R
공모
##.9%
불안
##상의
##도의
##70
싸
고발
재판부는
소통
책임을
##2)
가진
겁
##법인
가지고
해소
임대
기준으로
실제로
부장
서초
낮은
##다면
가능하다
집계
##성에
놀
충북
시도
##opy
##하는데
##en
##┼────
입주
벗
공직
관심이
걸쳐
##opyright
연간
##자동차
##바이
자세
비슷
##구를
정기
##대상
수수
##장애
배우
피해자
간담
서울대
##란다
##어야
##번째
임시
##학년
의혹을
셈
보이고
법정
상황을
술
추천
것에
식품
Copyright
그것
##회의를
필요가
완화
##젝트
##체육
그대로
미국의
열리는
##드시
찍
아무
##동의
경선
절반
##수록
많다
##사무
꿈
##아야
안보
국정원
문제는
##왼쪽
##텐츠
되면
대변인은
형태
##금은
독일
주는
관심을
하는데
##23
공유
잇따
지원을
##기획
##시험
##전략
##항을
##무역
깨
수사를
##특별
대법원
염
##등급
사법
##노조
관광객
옥
##만에
정보를
수원
권한
J
훈련
##감이
졸업
##만큼
사실이
##자산
여부를
##인가
##단지
작성
취재
##..."
억
봐
지금까지
##사건
##까요
말을
폭행
기부
단속
일을
정상회담
##인과
대해서도
피해를
연합뉴스
##조원
##습니까
우리가
넘는
##수산
서로
변호사
생각한다
야권
##위원회는
##요일
개편
##지난
##지구
밝힌
유출
명예
손해
전혀
##(-
위원장은
##1)
못했다
##봤다
결혼
직후
##트남
유엔
영상
##치가
##호텔
35
전력
##제는
##적이
FTA
행복
화장
##면서도
##앵커
##운영
O
구입
소재
##검찰
##개를
명의
제가
냉
이번에
마을
페
이루
나누
##레스
지자체
횡
이른바
전에
유명
##었고
##역을
여름
이끌
##진흥
나오고
##률은
수는
운동
##개의
근거
◀
##수의
아침
연장
공공기관
추석
것과
##기의
안에
연계
편의
##씨와
위협
##려고
활동을
##구청
반드시
직장
##시가
기여
프리
##금이
실질
##공업
러시아
대규모
음식
##수수색
관계자
##공동
신설
의원의
출연
철저
협상
##명과
동아
시각
인구
망
##24
뛰어
##서에
##고를
##민주연합
위해서
##18
젊
팀
의심
쏟
공약
##로는
포함한
시절
거의
차별
디지털
나섰다
트럼프
곧
##액이
검찰에
바란다
취소
##주년
##현지
미세먼
바탕
##경기
상반기
##훼손
게임
걱
브리핑
##액을
매각
##13
통신
바이
기업의
답변
##식에
믿
##비용
##진을
##되며
왔다
압수수색
##가고
대통령과
##당의
##22
##키로
해도
제재
단일
탑
##’,
##으로써
##했으나
##단이
##분이
사건을
##소비
##났습니다
접근
늘었다
##화에
##스러
많아
장관이
##상공
김정
워
프로젝트
위해서는
강제
합동
원전
증가했다
33
##소에서
##이드
##화문
구속영
폐지
위안
##상황
##인터
지방선거
경찰이
##원순
나와
##형을
내일
공감
전반
과학
##장관
구간
때는
상황이
맥
외부
##지의
통계
검찰이
##월에
##(0.
비난
법인
버스
##됐다고
앞둔
해석
이러한
##프로
독립
누리
불편
회장이
##박근혜
초청
쉽게
##기와
##률을
발표했다
한국의
도움이
호소
어디
H
기획재정부
##겼다
##주고
##가격
##영업
##당을
마케팅
##여성
주거
등에서
의사
##안보
나머
일단
지키
잃
대학생
Δ
##16
조합
10%
명이
주제로
36
##안은
웃
##대에서
이익
##화된
사람들이
연말
관측
##의료
제품을
김현
축소
저는
주최
친구
##긍정
정치적
##도에
법원
분명
##at
추가로
농협
현대차
50%
겨울
늘어난
넣
수용
허용
새정치민주연합
##체를
지속적으로
이용해
##오는
방식으로
힘들
##주기
주말
2007
##실장
캠페
회담
##대문
군사
비판했다
우려가
##통상
정확한
##였던
찾은
자격
주차
##경찰청
##14
선박
##노총
방문해
적극적으로
없다고
##신을
##려는
살아
힘을
내린
새벽
##백화점
##서관
##무현
##협의회
인식
##받고
증권
뒷
앵커
김종
##리한
##번호
##가스
##니스
##보를
##정한
가져
##트를
반응을
##프라
##경찰서는
김성
끼
관련한
베트남
주고
압박
겁니다
장애인
##하우
참석해
##수도
드러났다
쇼핑
채권
동반
80
강원도
개입
코스피
주문
##억원의
기상
말했습니다
쌓
##,000
감안
##론을
##리로
디자인
바탕으로
##씨에게
이틀
##소에
##올림픽
##랑스
피의
##비가
##였습니다
##디오
휘
체포
지진
##벤처
##re
부당
현행
##ou
##기고
청문
##일에
##물이
긍정
##분의
맞춰
##무성
##(8
측면
덕
영국
정말
노인
커피
부실
자본
##했는데
##이란
##mm
##무를
선발
부처
##건으로
시간이
##스북
##EC
메르스
기다
불러
젊은
거듭
촬영
##부문
"(
행사를
##주민
##오늘
설계
외환
내용의
##21
CJ
##준표
##정규직
차원에서
봄
##하이
분위
U
급증
##소가
##플러스
위원장
타고
MB
푸
이것
경우가
춘
##포구
동의
쿠
현금
34
미만
한나라당
선임
수가
씨의
시간을
건축
##구역
없고
시청
실패
##내는
##하려는
비대
불구속
뜻을
희생
##일이
도착
##.0%
##으로서
범행
##적을
후보자
##거든
자신이
##달라
##아이
감염
마감
오픈
##가량
##천만
하반기
##해도
광화문
##평화
##촛불
##17
사드
보이는
##나고
삼성전
##로를
##시부터
운행
되지
개헌
주로
선진
왕
유일
##세로
특허
##미엄
진입
메시
##개국
거론
##년생
나눠
##조사를
보니
##이너
아버
돌파
돕
##29
뽑
##만명
20%
질문에
##가의
##시키는
달성
허위
인력
업종
왔
##지와
##길을
##이지만
꾸준
거주
##5000
입건
들어가
것처럼
실무
어렵다
##트워크
만족
##정의
인기
협조
##거든요
진보
관련된
끌어
소유
최순실
##기자
이행
영업이익
페이스북
서민
##27
창원
택시
##돼야
##량은
집단
점에서
최초로
안내
자료를
정책을
최저임금
뭐
30%
##판매
절차
사람은
상장
이내
##받아
##프리
##일간
실종
만드는
##'(
##공개
쏟아
##다른
담은
김모
채택
##건이
##로서
부회
평창
##스터
연휴
들고
언제
##처리
##용차
정리
##계약
나왔
부사
박원순
##만을
##심사
셈이다
아래
없을
조사됐다
##영상
신임
조치를
맺
##하나
후원
위기
호남
##생산
등과
##저작권자
꼭
후보의
환자
좋아
##앞으로
신속
다음달
단순
티
싱
땅
##교육청
지하철
##금지
김동
동원
##건강
38
등장
것입니다
미사일
대표의
##받는
##2%
않으면
##소는
45
##계가
##인권
Q
##제한
##26
법안
의결
일으
##원과
대우
##으니
있지
##점에
인증
존재
완료
##연대
등도
얼굴
첨
남아
기재
##직을
발행
##센터에서
않도록
##이지
하기
민주통합
##파크
밖
이슈
시장은
받지
발굴
##등록
육성
봉사
넓
교체
##표를
구체적인
액
착수
실현
나머지
##중국
인재
심사
익
가동
철도
##"...
친박
당부했다
당초
##주가
작은
##함을
##여명이
감독
특징
말이
조작
##지수
강한
내용이
##예산
스포츠
일자
선수
##활동을
내고
선출
교과
흡
자리에서
가맹
##군은
주재
##분야
농업
벌금
바꾸
신한
운영하는
일어
##수원
##~3
##년이
검증
##사인
##려면
사고가
친환경
회장의
혜택을
##겠지만
발사
포함해
##전에
자동
꽃
##폭행
용산
##대행
공격
##현재
학부모
저희
얼마나
사라
##댓글
입법
강남구
맞는
이정
탐
##에만
새로
##프트
##호선
할머니
##적이고
초과
여기에
수술
여기
홍준표
37
##28
중국의
##총장
프랑스
##시장에서
남편
##is
대폭
한국은행
역대
##우고
통상
민생
가는
꺼
올랐다
탓
##됐고
높다
흑
기소된
쌀
실천
살해
휴대전
##아요
교사
##경을
못하는
##예술
##웠다
붙잡
자율
##과장
##므로
##자력
물가
증가한
앱
##류를
다소
##90
재개
##스가
조기
죄
##년대
전쟁
색
혹
##에게는
##우는
##ar
검거
##점은
##플레이
구제
프리미엄
해운
기사
의해
##자기
##식에서
##곳에
##으면서
징계
크다
주의
행동
기온
바뀌
품목
하며
충분히
지역의
##시킨
사는
##기금
흉
##어서
무상
동해
금감
추모
##1%
김씨는
##일에는
가치
한번
경찰청
##소송
떨어진
##국회
기억
개성
마친
##청문
뿌
SBS
대책을
출입
나갈
##만원으로
항소
198
들여
적이
##없는
확인할
##철도
있었던
##현지시간
보도합니다
##에너지
##보가
불이
도발
삭
경고
수립
가격이
단독
펀드
##신고
맞춤
효과가
진상
고소
##질문
직무
##선이
##체계
기업이
##100
균
후보를
포기
했다고
옮겨
배출
촉구했다
국민연금
##자료
##엑스
##면을
빠져
영등
걱정
##승민
바다
##건축
노력을
효율
##부채
품질
##봉사
##물질
취약
슬
##3)
혈
##당에서
숨진
쓴
자리를
조사하고
그의
관람
##해진
##평균
애플
##닷컴
##약품
주력
했지만
무죄
##판사
##인들이
##삼성
사기
내가
##기지
KB
##해를
미리
통보
##제에
수능
##kg
##데요
##주를
##구가
##고요
##시켰
이야기를
부여
##군의
##기사
##시를
해상
대중
##실에
##내고
솔
44
악화
헬
t
파견
진단
기회를
##위원회가
흘
시작했다
계기로
##점으로
상태다
나아
낮아
승객
총재
여부
촛불
콘텐츠
##조차
획
굉
##le
##호를
##it
##진보
매일
차단
보상
##선언
보건복지
유족
하면서
원하는
많았다
##이라도
내용은
##라면
##어를
블랙
폭발
##5)
가능성을
베이
재무
효과를
##과는
케이
##어도
김무성
성과를
##98
##테크
##감사
이유는
##법상
퇴직
리더
쉬
##포럼
##중공업
따라서
##3%
많았
##법에
비리
어린이집
정비
시민들이
구성된
제공하는
찾는
##기록
가로
성남
자원
##구의
##EO
고려해
흐름
##년에는
##만원의
당첨
욕
충돌
##단의
임직원
##정에
##점검
지분
##방을
##지면
포스코
##매매
골프
##이즈
##위원장이
불구하고
답했다
뜨
댓글
##고용
정부와
##조직
돌려
##티즌
##피스
부채
받아들
미세먼지
##기념
노무현
하겠다
당내
##주로
있어서
조세
서울시장
사장은
##한다면
도전
시는
##됐던
##간의
##체가
태풍
##이크
##====
##화와
취득
##추행
만난
짓
예측
굉장
비정규직
##천여
지적이
평소
알아
본다
##곳에서
한국당
여론조사
##받을
##되기
넘겨
##추진
39
형성
대표와
##분쯤
##카오
여당
##지에서
헌법재판
##뿐만
현장에서
##었지만
모아
글을
##문이
##베이
아니냐는
쉽지
##티브
비슷한
수준으로
다르
서울시는
##건의
##행위
양국
시작으로
궁
문을
##시스
신분
##(9
##든지
하다
##일로
##가로
줄어들
작용
연금
꼬
서초구
상대적으로
국토교통
경향
시기
##'...
##4)
평가를
운용
##화학
쟁
인물
섬
상황이다
폐쇄
게시
##제의
##데이
류
씨를
훼손
##이던
어려움을
강릉
네티즌
지식
카페
##원장
##사법
포항
##심에서
도움을
32
##대사
정무
진행한다
##거운
유도
못해
칼
계획을
##보면
기울
제공한다
##심의
##대비
AI
극복
결의
적절
시내
##일본
##혔다
문제에
##자유
일각
##들로
##수로
##중에
높이
업무를
음주
대기
저지
걷
합격
굉장히
해명
저녁
IT
시장의
제외한
연락
##중한
영어
덜
확인됐다
5000
내정
##실험
##운전
##IC
대한항공
##기소
##스러운
안팎
마찬
##져야
48
##지금
사항
접촉
틀
##별로는
융
어머니
보조
수색
세무
재난
던
##만의
지역에
든
캠프
광역
절차를
차관
표시
##동에
한은
노후
부진
슈
서해
##8)
##공정
근로자
위치한
손을
뉴욕
옆
사이트
국무총리
노사
불가능
비핵
##7)
중에
컴
공시
서울중앙지검
가까이
영장
협약
꾸준히
세금
반복
빨리
##위원장은
##처분
##있다
150
펼쳐
살인
과정을
등이다
객
##경쟁
프로그램을
내세
건립
자주
자살
##소속
국세청
금융감독
시대
상당히
##시티
출근
##분간
목소리를
참사
##국장
대통령을
마찬가지
법적
##최근
##대구
국민이
훨
##사업을
##까지는
발언을
상호
##위원회를
##스토
이상이
##정상회담
비가
내다
심각한
석유
최선을
춘천
고령
결과가
생각을
한화
체계
스트
##공간
작업을
##일은
듣고
나올
이탈
##9)
##근로
##행사
##력과
해경
##이버
##준비
##7%
##시킬
정황
##서가
V
진행된다
공정거래
다가
##액의
훨씬
열린다
##선의
##세종
##위에서
##사랑
##치지
고양
##실이
##상은
65
W
학생들이
##어진
불가피
100%
개방
의혹이
총괄
시범
현황
잇따라
주관
의한
##관용
모르
흔들
사이에
국방부
민주통합당
저렴
지연
임원
느끼
부담을
##은행은
##만이
주한
##인당
개별
##처를
##산을
##운용
##상담
##6)
##비는
##협정
##리의
보완
곳이
##언론
나는
시작한
집회
김용
동일
동물
##간담
##해온
방지
쌍
##지게
인사청문
##이에
##뮤니
유가족
본격적인
##4%
당연
상품을
공무
했던
엘
에어
분위기
##대와
##개선
##당한
##인사
가능성도
고통
피해가
기조
##보건
##소방
##받았다
나오는
요구했다
##·18
배제
##다운
예술
향해
전세
습
중요하다
전주
##책임
연기
이들이
북미
의지를
의뢰
중간
횡령
##목을
사유
개설
공장
단지
보입니다
##재배포
이같은
화물
데이터
##6%
평양
아주
공항
##이용
백화점
바라
##준다
뇌물
위안부
회계
MBC
##더니
즐길
43
##권이
포인트
부산시
코스닥
결정을
하이
찬성
오래
자치
즉각
##나무
토대로
지원하는
##에서의
##공무원
부상
면세
Y
자체가
선호
패션
흥
자세한
##위터
##가능
결제
콜
참고
##인에
읽
##트로
본회의
##조치
##유예
권고
시장이
##합의
예고
유승민
매매
권력
강력한
복합
반박
##보증
밑
##도와
##함으로써
당국
초기
창조
빅
계좌
속에
나눔
##제보
##재정
##ing
훔
##cm
심리
##오른
됩니다
##ic
당장
되어
반도
매장
매입
김기
##령을
앞에
새롭게
갤
지출
채널
바른정당
##",
분류
합리
연구원은
##소로
밖에
전문가들은
##립니다
##월드
부총
외교부
##문의
신세계
이처럼
입학
인사를
천안
받는다
##적이다
가까운
달하는
2006
개성공단
폐기
산림
##목으로
400
##’(
우리는
담배
늘고
##하고자
##기기
한강
CC
##자치단체
##자들
농림
##역에서
내에
가격은
##이라면서
##es
90
##해왔다
##향을
침해
##권에
##생을
##DP
##이어서
##식으로
바른미래
넘게
확실
이웃
##메라
생각이
옛
이모
기각
멀
유사
보안
##세에
분석했다
##──────
##IS
대리
##수요
배경
알려진
김경
개막
##44
시장에
##스의
##신청
풀이
##협의
정의당
##올해
직업
##군이
국내외
구조조정
줄었다
##체험
사건이
##부처
박영
##여야
##계층
##9%
##담당
##미사일
##전이
시작된
##아시아
##판을
마음을
##문제
##권의
생태
##모델
제조업
그러니까
김해
해수
##만여
##구는
55
##억달러
##명한
심의
당사
Copyrights
갖춘
대해선
기술을
트위터
끝에
##관에
코리아
피의자
##문재인
저축은행
##사항
##시까지
회의를
##화로
원내대표가
냈다
총리는
발의
비례
##8%
3000
앉
음악
새누리당은
강하게
집계됐다
납품
좋다
테러
최대한
##만달러
##세월호
부품
제일
산하
##용품
##능력
지배
굳
있는지
한진
##생명
싶다
안타
##조건
GS
진행된
##발언
경쟁력
##가에
##리스트
벽
##구에
보도했다
아들
##만으로
상무
##설팅
##단에
##본부는
46
정규직
활용해
가을
##보니
인프라
수정
##텔레
##고속도로
##하라고
##협약
##리와
##본부장
##국정
수치
고급
아내
모양
의원과
갖추
연령
벌이고
원의
성폭행
수주
속에서
치료를
40%
이어질
바꿔
##분에
대표적인
맞춤형
##드를
노출
대선후보
면담
##인데요
피부
김상
올해는
##년도
써
수십
##축제
기능을
열었다
이용할
##대교
경우에는
둘러싼
상황에
##ws
개통
태양
##효과
마치고
행위
차이가
이주
##인도
##CC
고속도로
##관의
이게
올림픽
기대한다
봤
인기를
통제
괴
나섰
입찰
메뉴
싶은
##유통
##종의
비중이
##말을
문제로
치열
시민단체
적은
도심
질병
##연을
유력
##시의
요구하는
##면적
내리
47
담긴
##35
##이었던
가량
적극적인
##션을
##스럽게
파업
70%
##놓고
옷
##퓨터
상당의
양성
소송을
##ed
헌재
참여하는
변동
재판에
대외
완성
##당국은
##팀은
##통일
##스티
##천만원
생존
당일
##법원
내렸다
유해
##줬다
벗어나
##람회
확장
의사를
##재산
##저축은행
‘201
##전거
이름을
들어간
어려워
##토론
##교안
##2000
##차는
##이라면
##사실
##업무
시장에서
센터
말고
##기능
여객
비행
말까지
무소속
재벌
측이
지역에서
상위
송파
시장을
절대
사진을
무기
##개로
요즘
참여한
가해
##참여
김진
##시키고
신경
##통상자원
동기
수급
##즈니스
##짜리
저소득
받게
##선에
눈에
##성은
서울중앙지법
물러
보육
근본
##관련
빠르게
##원들이
대로
##해운
수수료
방사
만들기
엄마
장학
##진이
계열사
##바로
최우
발급
추락
##청사
목표로
##명에게
##미국
사용할
수사에
##중소
시사
제정
다니
중부
##했기
미디어
반도체
오르
##청이
보인
##았던
##지자
명확
출동
##십니까
실태
나설
##억원에
##랫폼
폭력
##작업
##곳을
묘
했는데
의원을
한정
##차로
부분이
##미나
##법이
##혁명
성폭력
##인천
머물
순간
발생했다
모색
환율
##투자증권
시급
##됐지만
교육감
비상대책
##신이
##외교
##해주
들어서
피고
불거
교육을
학습
때까지
##창업
대처
##수익
제거
최소화
MBN
완전히
실업
빠른
##측은
침몰
끌고
진행하고
아이디어
선생
##마켓
이마트
김태
수준의
무슨
원유
차기
##자들을
2005
간부
개정안
거리
도와
전원
##당국
대회
아닌가
일제
쏠
올려
##다시
##월에는
환영
2020
브라
폭염
점포
확충
사고로
상생
경비
##씨에
지상
사이버
##이하
2,
CCTV
##게임
갑자기
이들의
예산을
조사한
모여
감소했다
##질이
의견이
모임
이외
상징
화장품
##지기
사람을
##창조
들었다
##니터
##대변
총장
##기온
전망했다
신입
##경찰서
참석했다
목적
##FTA
거짓
부탁
##위원회의
법무부
##기업의
##됐다는
소식
있어야
내수
진정
향상
복귀
얘기를
초등학교
여자
유기
올린
##0)
발효
##질을
남은
##법은
산업통상자원
항의
가스
문의
요금
##정지
수습
충격
사업에
청주
동참
보통
김대
하게
교류
기회
“(
##유치
새정치연합
편성
종료
처분
##마저
이중
##300
신문
##ECD
##--
일대
종목
내달
핵실험
작품
##상태
##공장
돌입
눈길을
커지고
짧
외에
##청사에서
결과에
##)·
농촌
곤
##년의
보유한
과도
##한테
전월
우리의
최고의
명절
개인정보
##함에
##청에
##적으로는
##되자
구속영장을
회동
##스포츠
##자들에게
##주년을
##이면
시스템을
##전쟁
##인력
대표를
49
교통사고
##히는
##책을
정체
세부
유리
남부
##질환
##세는
의장
##건에
##시께
##관과
##팀장
있는데요
경제적
##사이트
제주도
##지주
보기
추경
세상을
필수
##통화
위로
배당
조언
현재까지
부적
박지원
누가
공판
누리꾼
주주
##인들의
진료
지금은
##았습니다
##일과
##시장의
##됐으며
아름
기준을
승진
##재생
용인
커뮤니
하나로
설문
동부
성추행
##요금
이용한
##학규
그림
##규칙
##경북
##여행
##관계를
##자본
원인
부담이
##2-
레이
전당
##웨어
##공사는
겪고
이종
적지
차지했다
규모가
분리
투자를
수시
##미널
지휘
막기
장례
예정입니다
일본의
계약을
점이
##웨이
통해서
##현장
##45
결론
##영화
##장기
##oo
##리며
##확실
##대화
##경향
관세
대피
누구나
증정
루
고용노동
예금
곳은
##개가
##축산
##니아
민주노총
이르
인명
##대응
##부총리
##분석
떠나
황교안
있다면
굴
##800
길을
##럭시
##계의
라이
홀
##타임
필리
##정부가
국회에
##900
북한은
수요가
제도를
승인
지지를
검찰의
했고
보관
##층의
이로
위원장이
점차
간의
##등학생
내에서
데다
##봐야
##작용
##데이터
##달라고
##처벌
있으면
##이상
오피스
보고서
화학
##렀다
평가했다
##31
##리오
응급
멈
휴대전화
##ED
디자
단기
대화를
면접
##차량
##었다는
철회
가치를
##과학기술
##공을
##중인
##방안
유입
합병
##하려면
줄어든
전담
행사는
이끌어
##수에
##공헌
영향으로
늘어나
##프리카
분명히
##실로
구청
##사령
움직임
120
혼란
정상화
해군
인공
1%
도내
보증
##IT
목포
##차이즈
비밀
주인
카카오
설득
##고도
시정
##설을
가슴
신용카드
##고기
분야에서
거죠
##MW
과제
##배상
특혜
키워
쓸
활용한
##ha
유가
김재
부회장
집행유예
만약
즉시
들이
예비후보
묵
##겠느냐
뿐만
##심이
평택
낼
그때
추진하고
##유가
방문한
민주당은
탑승
붕
##공천
만들고
구제역
규탄
##하려고
자택
특별한
성적
철거
신흥
방향으로
##그룹은
수준을
##ne
수험
규모로
##안정
보험료
##포르
##리트
선도
영등포구
52
##나가
검출
검색
조현
##600
대형마트
축제
##랜차이즈
##he
귀국
##네요
일정을
##연합회
탈당
##비아
d
##ion
등급
##타워
사무총
##께서
##진의
##유의
현안
모니터
컴퓨터
무산
주가
바닥
##소의
조속
청탁
원인을
##청소년
##장애인
##평양
##들어
물류
활발
##시고
자랑
##급여
겨냥
##경환
v
##리어
생명
197
##(10
달아
따뜻
아마
몰아
기자들과
입증
부총리
미치는
##65
적합
##경남
##렸습니다
##억원이
건의
##상으로
보낸
말한다
운영하고
동료
##ent
##광주
소상공
없습니다
상태에서
설정
투쟁
##전력
곽
단축
##재를
충청
제출한
납부
청와대는
##네시아
##라마
교환
이유를
##현대
##신용
##바다
##고객
5·18
##회계
마련된
실험
’
##만간
##성화를
##위와
후속
북측
분석한
판단했다
채무
59
##심판
격려
혼자
실시간
조달
신동
유로
입원
서울의
출산
첨단
##음에도
##계올림픽
노래
금액
지구
때마다
육군
##ub
네트워크
설명이다
##졌고
이자
이상을
후보자는
전개
경상
이사장
승용차
자영업
비례대표
##~4
플랫폼
현장에
##광장에서
강경
유동
변화를
42
철저히
사건의
밥
하늘
사례가
사용하는
여성의
##체육관광
##미터
바른미래당
자문
목소리가
##시장이
컸
기아
저작권자
##정부는
동남
올렸다
##였고
불확실
차지하는
##3000
인천공항
급여
안산
집권
설명했습니다
일자리를
봐야
지역구
손학규
포럼
체육
통합진보
직원들이
교육부
##시켰다
##연맹
규모는
##줘야
정부에
무엇보다
그러면
##청년
영하
띄
##사태
가상
추산
표준
운항
풍부
##도에서
##OU
불리는
##공제
상승했다
?"
직전
사람의
급등
##국내
##케어
매달
전투
형태로
서류
소식을
위축
신고를
투명
##교사
범행을
##망을
경쟁력을
민정
예약
알려져
지방자치단체
감시
당의
나타나
발생할
##권은
저작
##아동
이뤄진
##종을
시중
라인
발생하는
119
##복을
##주일
협박
컬
이래
문자
##공공
실시한
##방향
고교
이산
정착
##민주화
##하면서도
##그러
회의에서
이씨는
##많은
##부담
##아파트
##8000
##41
무시
##9000
배포
리스크
포착
재배
캠페인
##DI
같습니다
자전거
##가포르
목적으로
홍콩
남성이
만한
##인에게
좁
##대학원
##순환
관계를
절감
##결을
여수
초대
##해주는
계산
증언
측근
##위원회에
##바른
##나다
벤처
일방
부분에
##법으로
##보수
##확인
운전자
왼쪽
길이
이어지고
경찰의
##대강
기타
##회관에서
병원으로
본격적으로
점도
수여
무려
그가
2019
지목
팬
##6000
##비서관
맞은
추세
앞장
관여
##스와
의미가
추진할
##이션
기자의
새해
치러
탈북
##형이
해제
##평등
출국
똑
올랐
##37
이건
수준이다
한국경제
##4000
제공하고
##400
외에도
##니어
CEO
일시
정유
것이란
빛
5%
인터뷰에서
2004
동영상
##장비
##치게
더민주
교수가
원장은
##비리
##PC
신청을
##놨다
붕괴
##텔레콤
변호사는
성매매
과태
손님
##...'
풀이된다
중동
##수준
높았다
썼
만남
##위원은
뒤를
배상
센
대거
과연
박정
##교과
뚜
처음이다
이벤트를
##─┼────
##제주
41
낳
뉴시스
##미를
##징금
##글로벌
김포
##치료
방한
논의를
##오른쪽
필리핀
준공
했다는
##시쯤
된다는
비율이
민주주의
##쇄신
##전한
이유가
##타운
바람직
척
##했다가
아니고
##처는
간담회
까
##취업
##변호
원장
##위원회에서
건강보험
그냥
비율
##il
수업
##조작
##센터를
무너
끝난
그린
입은
파트
전직
##가정
##주주
한일
금품을
지사는
비즈니스
무더
사회복지
##st
높게
노선
##단과
##정부의
제시했다
##(201
##심히
##만한
##호텔에서
질의
##여개
공동으로
##사들이
장비
여성이
의원들이
급격
시가
이루어
사회공헌
상당한
##수입
##수지
##계에
중도
원자력
##(19
웹
##세트
김현정
##온라인
코레
대상이
단일화
방해
조사에서
중심의
##값이
내다봤다
80%
꼼
##자료를
미칠
명품
농민
##수출
텐
조건
현장을
PC
53
가격을
##급식
종사
따로
상향
##남북
입장이다
부족한
휴대
아예
마약
##화하고
유죄
600
##se
정해
섭
전망된다
무게
목숨
보급
##하자는
공부
##부터는
사고를
##~2
##면에
##자도
한전
민원
부분은
##석을
힘든
조만간
공익
축하
##구속
##7000
##리즈
안에서
##역에
진행할
##TE
좋겠다
자신을
이르면
사용한
강행
참여해
오랜
결정했다
떨어져
해당하는
남녀
57
##어가
강연
사업은
56
밟
우수한
늘려
##복합
내는
##년째
##특위
호주
산불
##사람
경우도
관계자들이
차량을
부분을
##지방경찰청
챙긴
인턴
본부
법조
신년
육아
올리
일은
지속적인
영양
##농단
개장
##수한
마치
원으로
주장이
떨어졌다
경우는
남자
기대된다
##잖아요
농가
누적
못할
이뤄질
폴
곧바로
##서트
소형
잡고
끝나
##~5
##국인
나누고
선고했다
청약
##스피
개념
기자간담
##자문
바이오
##감한
분쟁
##라스
의혹에
##48
재발
##상에서
카메라
사진은
메시지를
##았고
하자
IC
무료로
분노
##화하는
모습이
높였다
수집
모두발언
##임대
##국을
##SI
##시장을
##허가
짜
##바이오
##르신
##농협
인도네시아
비용을
과세
60%
실행
##구나
##여대
장병
검토하고
필요하다는
##고가
털
신선
##같은
##ro
재직
부작용
##TBC
사안
이하의
오피스텔
해양수산
##.201
기존의
월드
사건에
##었는데
전무
인용
쓰는
##시장에
##보장
느낌
추적
##프로그램
재건축
미국과
##동물
논란을
점유
##동이
감축
말한
편의점
활성화를
잘못된
##센터는
지원할
프랜차이즈
비서실
##량의
증시
낭
대표이사
==
기계
##교수
오염
슈퍼
서명
공동대표
대사
분야의
때도
비핵화
인간
발전을
북핵
비중은
경찰과
부부
##1000
철강
가득
##각을
이르는
##물산
가계부채
상환
엇
##지대
아르
수험생
##새누리당
여러분
쪽으로
##청와대
승리
여파
있다며
요청했다
세워
중고
국내에서
손해배상
##말로
잠재
##집행
##장치
가맹점
##AI
간편
주장을
없애
국산
트렌
후보와
그럼
본인
기회가
물을
##ab
맞이
참여할
##공급
싱가포르
동북
##회관
##울산
지표
이석
##성의
시상
능력
##**
허가
돈이
내지
청문회
세대
잊
##늦게
##원전
63
##시설을
테마
성능
후보로
보이지
녹색
현역
벌인
실내
☎
##심은
##인터뷰
권한대행
##47
##비로
수리
냈
##실은
면제
아니면
##지수는
브라질
통화에서
빌려
北
##어린이
연대
컨설팅
경주
##케이션
설치된
금강
##은행의
조례
##기관의
부총리는
히
75
김병
##조를
입고
##이런
##서의
금호
받아들이
스페
사흘
표명
무관
매출이
동작
병역
##ac
맑
개선을
##bo
남해
이제는
발령
##MF
우리나라의
사전에
생긴
정밀
낮추
달했다
커뮤니티
소셜
리더십
##화폐
해임
수백
##함이
동양
방법을
의미를
입을
다문화
##(20
필요하다고
소요
협력을
추구
연루
인천시
모으
성격
##구청장
정도의
이사회
##시대
##신의
크리스
##인터넷
민족
그만큼
##희망
##인증
##학을
##대한민국
니
식으로
시즌
##상승
##물가
##개월간
보좌
##·4
##드러
긴장
깊은
##음이
근절
##천시
美
58
생각하는
담보
##협상
사업이
##소장
금품
마련했다
위에
세미나
★
제약
##(15
임기
농식품
국감
##일자리
쓰레
##스플레이
내놓은
성장을
태양광
구분
##희정
미래를
구체적으로
닭
전화를
초반
##지인
추진하는
존중
창의
좋지
대통령에게
"'
경험을
당분간
변화가
열렸다
##회의에
서부
##사용
별도로
##인상
##학년도
순으로
인적
비율은
그쳤다
그게
차원의
##천억원
대체로
을
경계
##랍니다
설비
현직
마련해
재보
것이고
적립
주유
팽
맡은
기록한
자진
전체의
======
##스마트
양산
정지
강요
한국인
상가
내외
##오고
하락했다
성인
##층에
안심
##회로
강화하고
##보겠습니다
##조트
어린
드러나
시위
##36
##계좌
자금을
나아가
일환
##출산
b
어려울
건조
달한다
사람들
민정수석
국민을
서대문
권리
##중소기업
창립
여야가
숫
정부서울
##정으로
디지털뉴스
이번이
하나의
있으나
##년과
대비해
##┤│
빗
본격화
연봉
전망이
침체
공개했다
지역을
##경원
갚
쇼핑몰
기업에
맡고
신체
##었다고
##자재
묶
공포
이혼
도박
##식은
##tp
워크
패키
제고
포함된
##이로
맹
한마
##예방
사립
집을
늘어날
정세
##여서
말씀드
계기가
잠시
용의
시점
##38
잡아
##세한
선거구
협의를
진행됐다
구현
세력
##라우
서울고
중순
강서
##동조합
##천억
##터미널
기념촬영
함께하는
지지율
확인하고
##스티벌
질환
진행되는
대법관
##제와
##일의
##만원에
지낸
갤럭시
문건
측에
신호
##토록
입장이
기업들이
역량을
곡
고성
세금을
##퍼스
파트너
통일부
##”,
방치
##트리
##행동
경력
몰려
있으
##이스
54
수렴
##//
방안도
JTBC
준다
미국이
##당시
##단독
수사가
소외
##전형
##소와
##http
##럴드
조사에
##상정
##수급
분들이
판결을
경제가
제품은
비교해
##란드
##클럽
##된다고
##농업
##700
없도록
##류가
정책위의
이승
유포
##포트
종교
##권과
사실은
##담보
지사
높이고
청와대가
##역사
국정감
가중
시행령
##마크
##다음
궁금
공략
##이었습니다
강의
측의
강도
앞으로도
진영
농산물
##://
연방
일어나
발견된
##행복
##푸드
직원이
##힌다
##남부
매수
직권
상관
깔
연다
세종시
##당에
##서도
왜곡
주민들이
득
봤다
진화
선관
아닙
##속보
나무
##전국
체감
비공개
연구개발
증인
0.0
##먼트
전후
##분양
특징이다
당원
##박물
탑재
##방해
혹은
자리에
##캠프
경제의
국무총
라디오
다수
##릭터
논의가
열심히
##선은
##억여
강화를
##직자
탓에
##기본
##하다가
더해
##하시
가능성은
전형
##학습
합의를
분석이
##55
안전한
원활
노동자
덮
가공
바랍니다
##TF
결정할
공기
##호기
갖춰
전공
묻는
##국민의
융합
고정
##ch
쓰고
고문
런
거래를
진행했다
국민들이
연설
##일인
소폭
부장판사
##”...
그간
##파이
최경환
직장인
예를
유권자
부각
##동구
##사회의
열차
일상
##유를
##비서
삶의
##된다는
##금으로
##내가
내년부터
나타났습니다
상습
생각해
제공할
##NG
3%
##이기도
방향을
폭로
삶을
##차례에
KTX
명시
칠
##네트워크
탁
천연
김대중
##나요
다녀
##방안을
된다고
알려졌습니다
눈이
명을
##지어
아무런
유형
선진국
예산안
광복
씨와
화성
생각합니다
배달
갈수록
선포
반기
항소심
##나눔
##39
##터리
위조
##선수
경찰관
##낙연
간호
것인지
농림축산
않을까
문화체육관광
##운동을
행위를
성향
##차별
##예요
판매한다
사무실
착용
잠정
##뱅크
해고
보도입니다
가수
곳에
측정
은퇴
전략을
경제부총리
경위를
반대하는
이영
한해
대안
불출
상태로
대우조선
##곳의
기름
##됨에
끈
공방
##아버
목격
다행
##계획을
##TX
속도를
##지난해
과정에
##시장은
##광역
롯데마트
##교육을
아니라고
협상을
##팀이
갔
먹고
위탁
하던
결합
발인
부지
51
집에
인지
복원
##물로
##규제
##가치
##사기
총장은
한국과
##정책을
네이버
시신
심판
의식
북한에
2003
방법으로
방역
유치원
##곳이
국회가
새누리당이
방식을
행정안전
바이러스
방침을
기자회견에서
85
##·13
촉구하는
영남
##탄을
고객이
나선다
##소비자
##은행이
법제
##부로
##도급
유발
비교적
##모임
휴가
##자금을
걸어
높이는
지원한다
2002
김한
가야
##학회
구형
말씀을
핀
면세점
담아
##계는
연예
그만
##궐선거
모니터링
##미애
사건은
한우
##목의
행사에
##심한
분위기를
지역은
전부터
##주식
##단장
복잡
이란
토지
정식
응원
엇갈
##재난
가이드
##방지
##세력
##정신
독도
##리도
감소한
기대하고
##어난
전격
가짜
한때
일관
한중
##보기
본사
##ll
##그룹의
감면
교섭
참여를
태극
##여명의
실효
어르신
발부
벤
목숨을
대국민
롯데백화점
250
##전남
한국에
##배를
##2,
##전기
원고
경제를
##란히
박사
엄청
66
학생들의
고속
지원하고
##습기
하더라도
들어갔다
##내기
선보인다
##들로부터
제보
아베
##로드
실질적인
개정안을
균형
조항
또다시
고등학교
탄생
##집을
진행되고
셀
##광장
비준
2%
편리
경남도
이낙연
##른다
##레이드
국가정보
지도부
별세
공기업
일고
평생
##봅니다
##미디어
체제
##하라는
##브랜드
발휘
하락한
##루킹
##세훈
##하세요
##위험
##청에서
##천원
캐릭터
현상이
##자들과
##기한
##스에
가졌다
적용해
애초
영입
양도
심화
##보안
안정적인
이재명
##국대
##발을
보일
명령
아이템
##과정에서
##단으로
감정
수익을
보유하고
이탈리아
##청구
##받침
이익을
활용할
삼성전자는
##결제
##진은
##고등학교
방위
공개한
##십자
점점
특파
집에서
68
##기반
나서고
##34
것인가
##개정
중국이
받기
##절한
정동
##지며
로봇
수학
매체
캐나다
밀양
분당
##치의
음성
제기한
대출을
철저한
이밖에
해킹
##채권
다짐
##부동산
매주
상봉
##문에
재미
##월말
일부를
##바마
##스쿨
포털
후보자가
환자가
##전시
##.5%)
의원들은
경제성장
해결을
신제품
신뢰를
##화는
중대
##사이
이송
o
노하우
##위안
##mb
저렴한
고향
##지표
추첨
벌였다
##수와
기업은
기간에
##로그
84
국민들의
##소시
돌아가
##겨레
##han
통합진보당
##비와
별도의
##싱턴
##리면
확대해
이용하는
입국
##HA
##68
##면으로
##었을
700
됐습니다
지적도
사람들은
지명
##층이
양측
의원도
진술을
의존
선정된
강조했습니다
게재
관행
감찰
국세
있었지만
##회복
확진
##운드
##금리를
##료가
창조경제
국민에게
인양
성범죄
##뉴얼
##개편
과학기술
값
##절차
첫날
이어졌다
##교육감
모두가
나타냈다
빙
OECD
오찬
##교류
##라면서
군산
퇴진
개발한
판문
기업을
요구를
##우디
이들을
##례를
구속기소
가서
배려
서구
신중
##시간을
홈플러스
##그런
당한
##췄다
청소
##졌다고
가시
##투쟁
NH
##면이
보여주는
높여
일각에서는
소녀
##마리
##안철수
숙박
##유럽
전달했다
##.3%)
드라마
출마를
스위
상승한
##75
##경련
##최순실
##광고
지난주
멘
리얼
##사무소
##행위를
문제와
기반으로
##작업을
뒷받침
자제
연출
신분으로
회장과
확대를
몽
아버지
##(11
--
##여명
엄격
항상
풀어
中
삭제
##MC
쇼
##견을
숲
맞추
64
##해왔
##앞으로도
##간다
상업
영상을
##신한
##전용
환경부
주목된다
축구
예정된
물어
##평을
담겨
그리스
##검토
부대
##(-0.
##나마
훈
베이징
초래
반려
##시와
대표이
##홈쇼핑
이어지는
가전
세계적인
토론회
흘러
이뤄지지
세제
수차례
##점과
완공
받아야
부패
스토
##위원장을
의원총
특파원
남양
##피아
원에
부친
순매
사내
##프라인
##브리핑
##연한
##부대
##전환
##판에
##서로
않는다는
측면에서
##어로
##69
회장을
먹는
##하우스
안전을
##나갈
남북관계
##공연
##비율
제시한
대변인
명목으로
느낄
재판을
다이
충족
지침
촉진
않게
뒤늦게
떼
사장이
맞서
주장하는
##녹취
차량이
착공
휩
코엑스
높아지고
참가한
##박람회
급락
##리면서
이번에는
회원들이
삼성물산
업체가
유병
##··
둔화
독자
항목
800
과도한
가격에
저장
##해질
빠진
전국의
따뜻한
##서와
선보이고
금감원
##하신
불참
닫
전부
않습니다
##·2
한층
##원자력
않다는
용역
정관용
빼돌
현대자동차
##상과
중국인
최근에는
##길이
없지만
##·3
추미애
농림축산식품
##내용
샤
##OC
갈등을
##같이
최악
##주간
소프트
##일반
능력을
국가의
밝히고
시달
마련됐다
##설계
마음이
중학교
도는
##특히
의원들의
당국은
##처가
재활
아름다운
정책에
##물에
##드로
카톡
대치
##놀이
신축
다운
발견됐다
기상청은
상속
반성
오리
송파구
접속
방어
##├────
이산가족
영역
##졌다는
기온이
뭔
며
##면세
공정위
회수
제안했다
나경원
##.4%)
확대하고
취급
윤리
##∼3
##방위
이상으로
장을
##개입
노력하겠다
체납
##중앙회
느껴
##.2%)
브리핑을
재배포금지
##대변인은
의장은
최소한
복구
한국을
##그래
동결
조심
박상
충분한
자료에
대부분의
자유무역
##법과
##전문가
##료로
국토부
이화
병행
접한
##대회를
##제일
##최고
주식을
불공정
위헌
##물의
달려
헤럴드
진실
미군
동생
항공기
##해달라
단행
##디자인
매출액
##어촌
##일리
##IP
북구
##년만에
식당
통행
아웃
조합원
재단
사건과
전수
당연히
소개했다
준비를
판사
##멤버
논의할
유의
vs
방북
마쳤다
계획입니다
있느냐
뚜렷
기소됐다
67
##파업
##두환
관람객
한국은
조명
원래
##채널
##필요
일하는
##체인
장성
##업종
미흡
##.7%)
##과세
최적
##주도
##67
적정
##질의
##(12
##르지
진행한
자회사
처분을
맞게
우려를
사례를
포장
꼽았다
세탁
EU
구름
대통령에
##석이
한달
방안이
긍정적인
##초등학교
쓰러
자원봉사
입장에서
도주
야간
이병
정몽
구글
규명
행진
##층을
월급
##.6%)
공조
##보도
##.8%)
열려
소상공인
부근
이메
훔친
90%
##화의
이성
론
##해외
딱
섭취
국정조사
행사가
이완
##국제공항
##.1%)
검사를
##콘텐츠
사찰
점은
대만
##49
판단을
역량
쾌
긴밀
무효
꼬집
남북정상회담
##화한
공사를
##설명
##사업에
##(18
위법
회사의
정도가
##되도록
아프리카
##교육청은
##커피
내년도
##(0
##노인
네티즌들은
제품의
##졌지만
상한
흡연
동구
##세무
기후
얻고
최고위원은
진짜
##희롱
높이기
##대체
힐
사이에서
요구하고
확인했다
##보조
짚
해체
##청장
##강원
##개인
##군에
예상되는
돼야
최신
조절
후보자의
○
조사할
서울에서
##et
선거운동
##류의
수강
년
중기
살고
##론이
맨
진도
김장
지난해보다
##금속
번호
##회의실에서
연수
##계열
가게
시작해
임종
목표를
규제를
제기됐다
주지
수영
뒤에
##세의
연내
갈등이
간단
소장
##와는
이재용
노동당
##님이
경험이
여권
벌써
##TI
##~6
##하겠습니다
##선으로
4000
##go
쇠
술을
가속
규모를
펴
가고
논란에
맞지
가르
##카페
로비
결론을
오바마
장관과
둘째
정치를
증여
진행될
집회를
증가하고
##~201
행태
야외
실적을
기업들의
나타난
마련한
##통을
부르는
체크
유세
맡아
미래에
제기했다
관할
생각하고
아이를
줄여
확인한
##체제
간담회를
있었습니다
발간
##채용
청와대에서
확대할
##전망
##하기는
박모
달라고
..."
예정인
끌어올
##성도
##군을
사업의
##공사가
반기문
BMW
저지른
요구한
조사결과
##SNS
계파
##상환
##국에
##출을
##친다
##교조
열리고
작동
##벨트
반박했다
문제의
##EU
##명이다
인민
두산
##벤션
이곳
야당의
모르는
전과
성실
르
##산업의
고객에게
##주에
특별법
주행
##제재
2~3
서울시가
테이
겹
##명에서
현상
##의약품
##선진
미술
朴
역임
계란
경매
사후
##서비스를
법원은
말해
##신도시
##개사
보건복지부
##제조
이인
금융위기
대상은
##경향포토
용산구
만기
##스럽다
건강한
남구
결과는
있어요
##관으로
##가입
##였지만
협력업체
진행하는
마포구
==========
하향
발표할
##집니다
총리가
현대중공업
별다른
공인
빅데이터
김성태
대대
국내에
##가락
##.9%)
자발
관계가
반등
분야에
이전에
내릴
文
예상했다
위원장의
매월
응시
##:00
##레인
알게
##지점
##지하
앉아
##실질
##대선
##나라는
사용해
한파
김수
차를
입사
훌
펜
끝까지
수많은
##규칙에
대가로
##증이
##상공회의
##탱크
노원
정례
의류
도쿄
받아들여
##부품
웨
##33
공통
구미
자극
수준에
결코
안타까
##금액
##집회
고객의
※
민주당이
머리
##화재
##해지고
강화하는
적절한
발생해
김동연
##안과
대한민국의
여부에
판매하는
관리를
동대문
많고
##홀에서
##you
거래일
동시
환경을
##담보대출
늘어나는
##금과
부정적
쏘
아직도
다하겠다
##달아
##루션
##정보를
동영
다르다
##전화
구상
##am
##de
일환으로
p
진상규
국고
아이폰
당대표
휘발
파이
##~8
##체의
발표하고
##통신사
영동
##도어
힘입
해운대
세계일보
군은
##사항을
의도
##주차
저작권을
##잡고
막을
조회
찾을
유아
##식과
점이다
##석유
의원에
구성해
집중적으로
관측이
찾아가
이사장은
일산
이준
비전
렌
##차관
##실적
보복
속도
순환
##피고
매도
정책이
##지역에
##하더라도
국회를
##인구
##지요
##양을
해명했다
시민들의
찾기
공군
원이
사람들의
추정되는
민주화
참배
법인세
##소한
스타트
대립
필요성을
그에
##폭이
##SS
거치
●
##범위
주민들의
##고한
##야말로
##연구원은
근처
##산이
열릴
##처장
입점
날씨
성장률
##두에
##홍보
##her
##NA
파리
위기를
##노동조합
전날보다
분기
전기차
정치인
정부세종
깨끗
##진과
사회의
이뤄졌다
취지
확보한
##기관이
##스탄
##일까
전당대회
나이
##지원센터
곳에서
위기에
의혹과
야당이
##하셨
##화해
사태가
씨에게
인사말을
개의
##물은
##그룹이
중점
치열한
무인
전파
적자
##술을
##자연
교과서
태국
별도
공직선거
##수하고
발주
개시
고위급
##···
기원
상인
부정적인
##제약
문화재
##지능
##번에
양적
영향이
책임이
갖추고
프로모
있었고
동네
##iz
떠올
가능해
##쪽으로
선대
종전
동아일보
본인이
##95
##and
##할지
말하는
유지하고
뒤집
치킨
##리게
법원이
##과거
심사를
##견기업
프레
##스테
호흡
불을
분위기가
##아직
그렇다면
뮤
##치로
##사장
의정부
창당
앓
분열
주변에
신용등급
##포먼
장례식
새누리당의
대량
타이
어렵다는
##금의
##완화
있음을
인건
투입해
획득
판사는
사전투표
불과하다
당정
##LL
기념촬영을
##’...
##히고
운송
음료
이었다
77
##기온은
1.5
객관
##방에
당기
완전
되기
편집
타결
잠수
##들과의
비중을
부착
배송
경제협력
안희정
##ews
고시
##지역의
지점
않습니까
개발을
중에서
연세대
전인
약속했다
호응
행사합니다
수출이
않기
##발전소
고의
##안의
깊이
선정됐다
경호
##온라인신문
풍부한
##연수원
##끼리
벌여
서면
##이용규칙에
디지털뉴스이용규칙에
##바이트
참석자들이
##심으로
물품
아이들이
130
##변화
이례
함유
살균
##퍼런
있겠
##치기
처벌을
##뷰티
대목
##기계
공론
드러난
##과제
##테이너
학술
뛰어난
지주
원산
쫓
만들었다
국채
알리는
면적
들어갔
15%
##63
펼치고
국가가
식약
##마스
##근무
순이었다
금리를
##타이어
##수당
##환자
##선에서
처리를
전까지
소방당국은
조율
국회의장
한국이
GDP
아닐
##재해
일주일
##구로
##사드
##연설
장착
##able
행보
예외
거세
분석해
케
임용
##-1
시민사회
##mbn
송치
쇄신
분이
경제정책
파괴
##병우
##이제
##했는지
경유
##BM
전통시장
박재
##학원
힘이
정보통신
##르기
##끄러
w
전액
어떠
##사단
##우리는
미뤄
##64
##주지
힘입어
때문입니다
빠져나
예보
##을까
##스에서
##반기에
전세계
세트
넥
동향
##달라는
멤버
얘기가
떨어지는
오토
아쉬
만날
국정농단
구직
주장하고
시공
명동
기준금리
##ap
나오지
현재의
정작
##려야
학생들은
누군
표창
과장
##주행
제기되고
##인재
판결이
72
명백
얘기다
##기관에
대단
광주시
박정희
마찬가지로
물리
배정
제외하고
##리드
인상을
향한
식사
아빠
육박
단순히
초등학생
□
69
삼성동
순천
##아웃
##가요
##SA
02-
##je
공개된
상하이
감안하면
##명령
앞장서
매출은
상시
##시각
지역사회
퍼포먼
보고서를
제기된
겪는
회사가
##건은
않겠다
##천군
##TN
이기
김종인
##문학
언급했다
나서는
아는
##주의를
생활을
외식
##(14
##플랜
##자격
치매
##보육
블루
기간을
##양의
##시마
##공학
##병을
##포를
##소통
##간에
전경련
그렇지
##듯이
##부대표
##장인
구속영장
주기
비박
연일
혐의가
얻을
##졌던
계획이라고
메모
##생활을
선거에
재해
역사를
##되었다
##경필
모은
##대우
대행
북부
##보고서
이른다
나누는
수산
##시키기
예정이라고
연관
청산
##층에서
주문했다
##군요
62
개최했다
##진구
비판이
주인공
조종
동북아
아시아나
꿈을
##88
기업인
위험이
담고
내비
내내
불편을
소리
외면
내놨다
않았지만
형태의
포함됐다
위촉
##경비
특강
중국은
전산
제휴
##법률
대결
많았고
선제
##저는
늘어났다
성희롱
휴대폰
주류
만찬
대답
이때
##승을
##는데도
가치가
인근에
동행
걸려
##단속
##생이
충전
수확
선을
누리꾼들은
브리핑에서
##학기
개최한다
선원
축산
가능성에
공제
틈
희생자
뚫
그랬
##법의
저소득층
출연해
관악
명칭
##용한
모금
쟁점
아니라는
내야
국가안보
언론에
수거
소규모
혐의도
넣어
통영
않았고
##거래소
##유아
냉장
분석이다
운영을
##어는
##바지
마련할
잦
##하느냐
근거로
##(13
파악하고
환급
다음날
게이트
나왔습니다
##교과서
##당국이
규정을
##ube
지역경제
##홀딩
##어붙
총선에서
유권
적폐
따져
판정을
포함돼
몰래
도움
투기
##중심
소화
그래도
않았습니다
미국은
골목
줄이
경로
담합
취지로
두려
총수
정부에서
줄이고
불어
없었던
사무총장
in
정확히
원천
시리즈
일이다
참여했다
억울
관련해서는
##팀을
##(17
여야는
그걸
##연수
##교섭
맛을
추진해
선보인
실적이
같아요
##우기
유일한
##주와
무죄를
살해한
##선거관리
##즈를
지적이다
해마다
거예요
워싱턴
개발에
공정위는
실시하고
접어
공원
널
##유출
61
최초의
진로
실시한다
팔아
부회장은
반대로
조치가
강화해
##년으로
딜
수면
정한
한다면
안타깝
고용노동부
선거를
임신
경기가
합의했다
전국에
##la
꼼꼼
이후에
차세대
옹
##료는
일본군
##방문
자유무역협정
가습기
전국에서
##널드
25%
어울
##한데
유병언
##시코
부딪
##는가
협약을
##하지는
##그동안
김부
##원식
##오염
서울역
##났다고
##메시
시대를
같아
##보상
##청의
동원해
심지어
구로
회사는
고려대
##GM
털어
죄송
與
규정하고
중장기
##년보다
이해찬
뿌리
저질
##력은
기재부
점에
##활성화
##력으로
여성을
않아도
##회와
##97
##표준
지원이
##결정
단원
##진단
##형사
합의한
속초
##체계를
##돈을
잠실
감안해
엔진
저희가
병원에서
##면허
심상정
높일
공약을
##kW
기금
##(16
몸을
이미지를
간에
주가가
180
공시했다
빼앗
##메르스
흑자
소식이
##받지
흐름을
##국회의
여성가족
페스티벌
선착
광장에서
이것이
##레이시아
TF
전년보다
섞
##ve
전보다
##미세먼
상황은
범위
논쟁
소집
마지막으로
치솟
극대화
##고는
괜
##어져
주간
비용이
미니
유니
건너
수령
##호가
남측
제조업체
지분을
##기까지
부서
가질
##시간이
##돈이
갖는
요리
##gy
도입을
법원에
뜨거운
수산물
##지출
##자고
##동부
고객을
일어난
##타민
##업자
마감했다
##협약을
##동강
전반에
청계
##용으로
##테인
도덕
옳
대상을
##테러
상정
도중
1∼
한창
출신인
?'
대장
##편의
희망을
기념해
꼽힌다
택배
되도록
##행사를
##상호
가뭄
##국세청
이수
##SK
얻어
##AE
##보훈
보강
##체에
##ur
기간이
유관
##만원이
원인이
실정
2001
반영해
꼬집었다
기사제보
있을지
##마케팅
##기부
관해
개척
##끄는
##ong
##유산
기증
##순위
##동향
드러났습니다
편입
위생
대가
컸다
의문
작가
지나치게
노력이
끝내
하도급
관세청
##역이
경향신문
공무원연금
연평균
##과장은
자사
일제히
떡
승용
한경
합류
비싼
##제도를
##om
##보유
체류
보냈다
났다
수준인
없기
권한을
합리적인
선전
무조건
짐
산정
줄일
결정에
시기에
그리
##내년
보행
1990
##택시
경제에
발달
않았다고
땐
중립
##직한
▦
벼
##모든
##국으로
느낀
##검찰청
인근에서
인기가
금융위
화제
발표를
평가가
성사
위장
88
##작전
110
김형
부사장
스트레스
조사가
##엑스포
##놓은
보니까
##길에
생생
##"(
##66
마이너
##기아
부장판
##뒀다
##소재
##기업이
귀가
정진
##게는
득표
수혜
소비자들의
##빌딩
비판을
김관
난민
소식에
##었으며
##마를
그것을
곳으로
멘토
시설을
3,
요구에
##주류
되돌
##드린다
##ation
##서부
☞
사태를
중국과
지원해
조속히
생겨
기여할
##도서관
로드
표결
##익을
돕는
장관의
격리
##객이
##다니
이념
방법이
##발표
##겠습니까
폭으로
최고위원회의에서
##57
곳곳에서
주시
편안
보존
##생아
햇
제공한
쥐
시작됐다
##에게도
김광
##북부
##공원에서
활동에
##멕시코
소매
충실
출판
개인의
엉
1500
압도
##선물
일으키
공적
결심
##한미
부활
문화를
확인해
##이미
비자금
##여름
대다
있을까
줄이는
행복한
쓰레기
초점을
신당
99
투자가
##이었지만
수출입
##카데
마이크
##사들의
##동원
충격을
동반성장
싫
분들
##위원장의
머니
얻은
##되기도
커질
서대문구
특성
이어진
페이스북에
산업통상자원부
유예
설치해
일대에서
##고교
국민적
노조는
눈을
해주
소비자가
고조
그럴
입장에서는
내렸
다섯
78
##LG
##58
새마을
##동계올림픽
음주운전
##오후
##루즈
경쟁이
##영장
##문에서
오를
없게
억제
탈락
모았다
##어버
김문
말로
##ona
업무보고
스크
청원
호소했다
들어가는
가족이
차이
기반을
만나는
의약품
현대백화점
클럽
강화할
있으니
여성은
개소
학원
마리
지수는
##망이
##터를
총재는
와서
민주당의
스타트업
박씨는
##세안
발송
전국적으로
해산
사육
##ce
동일한
기업과
시민이
깜
일선
국정감사
##트랙
과징금
##박스
중이던
##99
밖으로
국토교통부
질문을
매장을
그것이
##됐을
이내에
떠오
e
판문점
##트라
챙겨
강북
##경영자
전두환
중에는
타격
샌
크지
##주군
한글
분산
합의가
숨졌다
##화장
##둘러
과일
시민의
LH
먹을
행사에서
자체를
가능할
모범
##았지만
##후군
##청원
실장은
##관계가
##바람
약속을
금강산
봅니다
구체적
불만을
##분과
##였다고
##태평양
출자
살펴보고
##박한
정상회담을
마스크
##민의
##적한
##살을
당기순
도약
맥주
인테
##----
##설비
간접
김명
사건으로
##if
이로써
##실장은
지원에
##MB
와인
시원
늘어나고
주장했습니다
컨테이너
기준이
##심과
중국에서
##하되
문화예술
##대리
##국장은
모의
##32
작업이
##정산
주최로
이상인
##조달
##un
##목적
대표하는
추진한다
진정한
피해자가
·
##대병원
자칫
1~2
체결했다
##NE
##사회적
두번째
##더라
##창조과학
해안
##금융지주
밀려
짧은
구호를
##계약을
불황
##TO
##유치원
##온라인신문협회
74
국토부는
한국온라인신문협회
영등포
##조치를
##자회담
때부터
신청할
아르바이트
대중교통
##다리
##kona
##해수
블록
##(25
바람이
정세균
어려움
막아
##대회에서
분할
증명
##최저
장소
콘서트
판매를
유망
후배
중진
설명을
항만
김씨
거친
이후에도
##리조트
전략적
##분부터
##스키
##공약
급식
선정해
곳곳에
게다가
##도미사일
선보였다
상고
찾지
정수
소홀
www
내리는
남경필
##았다고
결정이
##센터에
불이익
고려하면
##풍이
어려움이
##명도
상실
##튜브
##화할
대상에
수감
바뀐
je
##트는
때보다
워크숍
##고에
##고속
##지사가
해결할
별로
##만원씩
수치다
##예정
가산
前
##절을
김치
jebo
##남용
비교하면
중국에
靑
최악의
예산이
박영선
##아리
빚어
법안을
주택담보대출
취약계층
말라
기록을
##법안
수석은
##통제
##대책을
보지
협조를
들어갈
물량
인접
찌
업무협약
패러
95
미국에서
##년여
##학대
연체
등록금
올바른
##옵니다
사회에
입지
사랑의
차장
각오
운영한다
제출했다
남한
원칙을
올리는
습관
경쟁을
몫
내각
우울
금속
양승
제품이
변호인
민사
준비하고
부산지역
##생태
공감언론
낙찰
##항만
##기상
찾았다
##완종
롯데그룹
##플루
##퇴근
##월과
“‘
손실
주민들은
홈페이지를
한양
##시오
##우여
해병
##...“
배임
탈출
대응을
사항은
않으
여파로
프레스
않았다는
중소기업의
##방이
개관
우리나라는
##융합
##DB
올해부터
깎
매장에서
##수습
##추천
영세
대권
인식을
주제
##정비
##정권
##위원장과
성명을
##재가
파손
원내수석
##저축
##지진
야구
##로의
조리
인력을
현재는
캠페인을
걸린
##나들
서울과
##청과
행사에는
신고가
위주로
야당은
##구매
당이
개혁을
협업
머리를
##부장관
정부를
MOU
제목의
##일째
되는데
이은
최우수
6000
##다만
했을
과태료
차별화된
울산시
##PS
##시스템을
포괄
##감과
##77
##LS
명예훼손
여부는
한국에서
둘러싸
국제사회
학생이
##차에
##서울시
##계와
가축
외치고
모습이다
보내고
##식의
대학교
보전
박성
드러냈다
지속가능
##수막
일괄
##블릿
##해가
업체는
##양이
소중한
주어
주한미
##PG
##원이다
그랜드
##남기
##품질
시간에
리콜
##지노
로또
케이블
엄청난
##구에서
투표를
핫
패널
##경이
언급한
판매가
앞당
않지만
조류
시신을
##리티
장관을
도서
당국이
안양
정부서울청사에서
국민일보
받으
태도를
마라
북한을
##선택
끊임
지식경제
사퇴를
훈련을
##건설은
나가는
범위를
김한길
환율은
작전
대책이
마시
##불법
##장학
선거에서
말레이시아
등산
##지니어
제품에
정책의
완벽
대선주
엘리
##왔습니다
믿고
도출
##현직
후반
Se
안다
##당과
이완구
꺾
112
상승세를
재산을
##정과
때가
여기서
매출을
##군사
모인
석탄
##배에
##성한
민주평화
뉴시스통신사
증인으로
무선
##무기
실종자
학교에
하셨
일치
상담을
붉
출시했다
원주
안전관리
##동맹
의지가
##미술
빈곤
후에
박용
못한다
##진영
어디서
행동을
##IN
##악한
반환
재개발
##되거나
타당
런던
##카데미
##렸던
가이드라인
##동에서
즐기는
있었다고
손해를
김경수
생길
내륙
국적
박종
##인수
바라는
도널드
관련해서
##카이
불과했다
사업자
돼지
세입
수시로
##효율
의원에게
취업자
##아트
면허
테스트
外
김정일
잡은
##센티브
화려
공간을
##부에서
##된다면
투자자
##로로
아무리
저축
##부진
##강남
생기
##전선
바꾸는
늘리는
부산의
독려
##일자
이어가고
양극
##라우드
##협회는
합쳐
확대하는
작성한
##~20
##총회
구속된
말에
우대
성공적으로
##사들은
않았던
87
유감
##본부장은
거절
##서치
연료
0.5
한계가
##쳤습니다
소프트웨어
비서실장
달러로
##응답
슬로
##as
번째로
##조에
대여
##친구
감사원
조언했다
##봤습니다
병원에
경제민주화
정우
##디아
진상조사
계속해서
점검하고
##한반도
3.3
법원의
##들에게는
이견
절실
지수
코레일
##통계
##룸에서
마련을
증가하는
##실과
논문
배럴
세상
##선관
제품으로
##호한
##PA
##풀이
##목이
금융기관
회사를
본인의
꼴
컬러
##.0%)
재차
숨지게
차질
운동을
강력히
수소
송영
핸
공청
참모
##하였다
때문으로
대부분이
줬
##력에
##드립니다
퇴임
헤럴드경제
고가
##위해
##였으며
##지급
##생의
개정안은
##조원을
전교조
우리은행
흉기로
71
추정된다
##비전
청와대의
소위
찬반
확립
들어선
##권도
중재
##유공
##프라이
부가가
기념식
나중에
##업체가
구호
다루
##로가
m
기술이
밝혀졌다
##들인
소득이
이름으로
신고했다
##관리를
##특정
##미가
김지
##61
오늘은
물질
요양
지금도
교육부는
나가겠다
##투명
##별한
##소리
##로에
튀
나섰습니다
은폐
급격히
시세
##취를
독점
모친
크고
준비하는
발생하지
##프레
지지율이
##원인
과반
양보
##감시
논의했다
##방에서
가족과
자연스럽게
선체
상처를
초청해
나흘
브로
지내
줄이기
##59
##북도
##심리
오늘의
모으고
##지부
신속하게
##과정을
##이동
##위원회와
관내
트럭
연동
##캠퍼스
참가자들이
##한을
조국
##반대
##강화
##트롤
심한
횟
##업계에
한국전력
터키
##ol
출동한
방송통신
##세기
사외
유효
##함과
토로
송도
##┼──────
배후
알리
##더라고
주석
추궁
염두에
어렵게
##부장판사
상용
##회찬
성명
미래창조과학
##모를
유리한
주부
부의
선생님
대검
'2018
동영상을
##진흥원
##398
문제도
##그러나
듯한
##닉스
한류
##TS
##~30
덕분에
살려
책을
넘어서
침수
중복
양육
없었
바람에
이윤
##장에게
##지방선거
##태원
지경
쉬운
정권의
낚
특화
김일
뼈
1980
주민등록
답변을
한진해운
유류
수준이
가담
##물류
문화체육관광부
파기
##OS
거제
##기관인
##리즘
구조를
##로도
삼성전자가
##겠죠
벌어진
칭
##만원에서
휘발유
실망
분담
##대사관
보궐선거
##국방
하겠다는
고통을
##머스
음식을
긍정적
##균형
보고서는
김씨가
박람회
살펴보면
조문
헬기
선사
앞세
##선과
입시
저도
셋
사죄
모자
교수의
##등을
##실업
##UV
##가며
장마
##~1
물건을
책정
##까지도
층
##음식
다이어
98
안된다
73
하거나
국무총리가
국민과
##PP
##마자
##항에
출신으로
재검토
##소프트
남겨
부양
방안에
나라를
아니지만
자유한국
사회를
##일부
보십니까
우려도
##연히
놀라
아프
새누리
속여
##업체의
차량에
유일하게
##의사
##장도
경우에
공소
시청자
공고
조업
올리고
앞으로는
패키지
##모집
요인
있고요
남용
되었다
유인
후보에
회사에
##김영
부천
X
감지
리포트
##사고가
노트
가결
후임
만족도
금융권
##국에서
##맞이
조짐
금융감독원
확인된
국방부는
유가증권
그럼에도
어린이들이
단위
유지할
지향
##락을
지인
##~7
벨
당사에서
##총생산
확보를
##점의
파주
블로그
##수산물
이철
거기
설문조사
교역
담당하는
LED
자유롭게
76
차명
것이며
강조한
금감원은
불만
성수
##비상
탄력
##수학
##투데이
붙잡혔다
##벤처기업
공연을
내리고
보시
안정을
##귀포
임의
##우리가
사망한
혐의에
산학
고리
공정한
운영에
##기간을
유성
수송
견인
황우여
대법원은
협상이
찾고
것이냐
콩
아산
일종의
##있게
##보자
재능
선착순
지리
##ald
사각
들어오
성형
보조금
세운
인천국제공항
##공유
조용
혹시
##DS
아닙니다
##느라
에어컨
사과를
소비자들이
##마는
##진핑
선배
디스플레이
##스바
느끼는
명의로
당을
##해졌다
유명한
소액
들여다
##윤리
79
##드가
주장에
##DA
인센티브
##했다며
흡수
이야기가
##지원을
신재생
##든가
##면의
##가와
##민간
##북한이
##사업의
면밀
제도가
##차의
권익
##안전처
##사업은
##시안
비율을
IMF
##됐으나
##시트
차관은
의지
과잉
전국이
내걸
##46
발전에
##벌이
했으나
멕시코
변화에
계절
능력이
플랜
불량
이정현
분석된다
금액을
##해경
군의
부당한
##박물관
##호흡
##민족
보내는
140
관리에
##자녀
인공지능
##호남
꺼내
4%
끌었다
얼굴을
한마디
직원들의
썼다
보도에
##월의
정전
양해
##.25
##분으로
##∼201
진출을
간담회에서
##함께
임상
기존에
늘리고
동맹
냄
창원시
대구시
사람도
##들이다
동아닷컴
무리
장기간
괜찮
시위를
비싸
원인으로
##방어
연말까지
못하게
##변호사
##cc
거주하는
##기술을
조희
1997
비닐
##모델링
기장
멋
수원시
청장은
신속한
검은
여론이
여학생
스탠
제안한
하겠습니다
셰
중개
사랑을
연계해
아이가
##세와
모델을
마음으로
##유플러스
##~10
야생
고양시
##·25
주목을
##과도
추돌
어떠한
국정감사에서
박수
고등
세종로
이미지
만들어진
원내수석부대표
##그린
판단해
음란
내년에
에스
무력
##업체에
청렴
막대한
지급하는
항공사
취재했습니다
성공한
정신을
잃은
것인
올해도
우병우
##시설이
손실을
시기를
드루킹
##(24
세수
않다고
멸
주장한
인사말
분석을
STX
않겠다는
여름철
담뱃
지역으로
김승
진술했다
##회사의
저출산
##41(
##면에서
부검
연평
지역별
유사한
신형
인명피해
비타민
정론
##398-
추억
매몰
왼쪽부터
##혔습니다
있나
그를
싶어
02-398-
고려할
##제철
찔
밝힐
##(22
발족
기관이
##기사문의
##혐오
|
##산업단지
연습
갈아
유연
자금이
##러리
##herald
일으킨
##허브
##스피싱
그건
기다리고
우유
과다
전용면적
상태를
하천
승무원
##세포
##청을
인테리어
이뤄지는
##역으로
혁신을
뜯
##천만원을
안녕
##지방법
상관없이
거기에
기관은
생계
사업으로
##시다
재외
##야구
상상
여는
##해지는
##억원에서
##biz
사람들을
모르겠다
해상에서
첫째
황금
##레이션
들어온
삭감
홈페이지에
개표
수술을
악용
전해졌습니다
##%)│
아끼
미국에
정원
안돼
##전은
돕기
들어서는
출구
근본적인
##우스
'2017
##.11
일에
##테인먼트
도모
납세
리스트
달러를
토요일
학생들에게
마련하고
문제점을
(0
일방적으로
##선대
조현아
##검증
성남시
늦게
'1
법을
##ea
친박계
걸고
의회
유로존
시나
워낙
강서구
자가
가깝
김학
말도
캠핑
이유다
임직
청와대와
구성됐다
##김정은
IS
##편이
늘리
##사퇴
##43
대우조선해양
친노
유행
장거리
불거진
사망자
법령
여부가
학생들을
좌우
조금씩
정권교
불필요
##53
절도
곳이다
해결하기
##미세먼지
블랙리스트
재학생
고도
이름이
##하실
##87
반영한
준수
##(21
동서
##폰을
마이
##구간
즐거운
마땅
##코올
1999
##(23
규모다
기대를
현수막
직면
고객들이
##시픽
가벼
##설이
중반
##군수
절차에
##영향
휩싸
의견도
단말
주재로
##참모
카드를
##로서는
웅
##슈퍼
골자로
##수산식품
남긴
가상화폐
공범
편의를
진주
최근까지
마주
이하로
양천
##GDP
##(27
##거리를
모두발언을
화재가
##가운데
삼아
##새로운
정무수석
관리하는
싼
##업체인
##지역에서
출하
사면
중대한
호텔에서
##자로서
계획이
##재로
결정한
발표된
종류
교원
지도부가
주체
##창출
##증후군
수를
이외에도
가면
나타나고
금융투자
##림을
금리가
있었는데
##강도
법사
위원장을
임차
대표적
##리카
사람에게
##진에
소음
##정도
방법은
남성은
##사원
극단
진행해
##측이
국회는
선언한
##채무
막판
경부
7000
곳을
갱
신청한
우원식
공중
켜
##텃밭
검토할
##정관용
##제품을
높고
##모레
많지
미치지
의무화
##연의
짙
공안
##기초
##만대
방침입니다
가처분
##모바일
못하면
##패를
드는
고기
출신의
그나마
"201
##광역시
##노동자
개정을
날을
밀집
부합
부풀
##되지만
널리
응모
##밸리
##주인
##저히
차가
연준
##신문은
후보자에
##랫동안
##BK
동남아
저항
하나금융
기간보다
##담배
복무
##전자는
원화
##수술
野
적발된
전시회
##ood
태블릿
회원국
##부부
드론
##부족
##예금
##재료
##(30
질타
##화될
##형으로
##성공을
##이었고
홀로
장난
산업혁명
##물과
뻔
##여러
선택할
압수
침입
세계적으로
##플라
기득
접견
특별수사
견제
어선
서귀포
##음료
##리다
##스바겐
퇴근
났
변호사가
2030
말할
하나가
빵
다음은
직접적인
절차가
##매출
##여론
날인
주무
가계대출
만만
겨울철
스티
보면서
##유로
최우선
걸릴
##살인
##야당
교도
짚어
정보가
증정한다
##erv
##조세
8000
거래가
중산
진실을
금액은
당기순이익
인식이
##.18
##겨울
##국정원
ICT
##포스
상태가
대한민국을
##합병
##51
평화의
herald
##위반
총리의
heraldbiz
알리고
##셔야
플래
CBS
시가총
경우에도
찍은
부회장이
##하십니까
a
가려
##하시는
접목
정치자금
순이익
##공화
걸로
포상
##줄이
한계
##으로도
산업의
올라가
##MZ
##따라
##(28
소송에서
##도까지
##히지
일찍
##특수
브랜드를
조계
박주
올해로
방통
##노무현
종업
f
애로
지능
김부겸
##향후
미래에셋
들어와
맞고
##더라고요
##단체장
일본은
학교폭력
##시했다
이것은
받았다고
막고
##너스
숨져
뜻이다
##기준을
잇는
정몽준
나쁜
서비스업
동계올림픽
종이
청취
160
개발해
반응이
떠난
민간인
##에스
모양새
측면이
말은
물이
사회가
상해
비춰
##62
##ml
납치
##민주주의
##다이
이상은
늘면서
인터뷰를
크리스마스
피해는
설명하고
LTE
라고
낮춰
해지
조건을
##상황을
발언에
2.5
오프라인
##이냐
##gye
오르는
파악됐다
##비의
##외국
촉구하고
유럽연합
국외
##으니까
반발하고
인사가
##골프
노회찬
농어촌
기능이
##렸고
##미니
##억원대
하위
카카오톡
##색을
정도다
건강을
다니는
이민
화합
데는
##재단은
텐데
요인이
##사업자
채취
질병관리
##청탁
정도를
패배
##건전
신공항
실시했다
IP
위해선
직원을
있었다는
문자메시
꾸려
김씨의
전일
GM
##집단
##꺼번에
##기간이
##ay
안성
숭
영업을
뭘
본회의에서
맞물
##기관과
할지
다수의
##아가
이렇
##일에도
석방
##았다는
사령
비난했다
건전
회피
부모님
소비자의
여객선
##기업에
선언했다
부가
철수
##(26
이어져
##특검
어깨
증가할
근무하는
천안함
요인으로
통화정책
사이의
업체에
플레이
지시를
##연이
학대
!'
운영할
클래
보호를
홍영
##52
##터널
상임고
임대주택
##검사를
역사적
주차장
타이어
송금
##여명을
투약
추후
##곡동
가능하며
보고를
유흥
이어갔다
폭이
총장이
성북
오른쪽
##에어
중국을
나서야
파워
##내일
것보다
정동영
##블록
##테이
##질랜드
##자리에
다행히
고개를
the
##너지를
하나인
됐다고
종합적으로
법관
시일
점수를
##없다
점심
<<
든다
언어
##업소
작업에
##소시엄
##HD
##밴드
만들어야
##분기에
서버
백운
과정이
##-2
확보해
대강
지금의
여전
이뤄지고
재계
노숙
특별검사
약간
##고와
턱
흰
안동
##ER
재확인
##FA
스페인
##소방서
감사를
한꺼번에
도민
월평균
##추가
지배구조
증권사
영업이익은
되면서
##산에
빚을
영광
신흥국
##전의
요소
세계에서
월드컵
떨어질
법원행정
##회원
##투어
##백을
심장
최씨는
노사정
##(200
않기로
리모델링
'3
발언하고
지키는
도서관
권리를
정황이
김기춘
##매장
말이다
국내총생산
##대원
##음악
입력
한국노총
전했습니다
최장
나간
##좋은
##우리나라
뭔가
실질적으로
수법으로
##(-1
시간은
##시장과
옷을
덧붙였습니다
##리케이션
##퍼런스
계정
공직선거법
양재
##심사를
##연휴
재원
맺고
크루즈
무상급식
학과
몽골
##CEO
##드림
##호의
##전철
##센터가
선호하는
김영란
##데다
##공무
대선을
재임
속도가
있죠
전반적으로
며칠
매뉴얼
##조한
시진핑
시인
급감
적응
내용에
##에요
건네
삼성전자의
참석하는
확인하는
##수수료
제안을
정국
##국립
명확히
콘텐츠를
세웠다
공화
##이게
방송을
##서울병원
시내버스
##비행
낙동강
##ut
이한
사항을
현실을
##하니
필요할
##LED
제공해
81
대입
동의를
정성
##시간에
##영진
##EA
권역
##센트
##천명
마포
##풍을
보냈
##유기
일본이
여건
아들이
입건했다
적합한
국정운영
의미다
총선을
그것은
관계없이
1·2
##MS
아시아나항공
##케미
없으면
정리해
마음에
겨냥한
서서
##치에
1996
이틀째
1998
##면세점
선보이는
우회
##만명이
판단이
구매할
물결
물에
느꼈
은행의
빨라
순찰
##들었다
바닷
강구
##지상
것인데
쌍용차
기업으로
##전담
청와대에
##두를
檢
엄중
싸움
내용으로
YTN
##정보통신
##OP
82
##중이다
##캐피
시대에
타격을
승소
장남
일도
배터리
행정자치
봉사활동
##합동
않는다고
##경선
##디션
##위인
누릴
판매한
##위생
##사관
##훈련을
##노트
##퍼시픽
지적에
##oT
건수는
달간
하여
이뤄진다
인사청문회
##했는데요
발탁
요청을
오랫동안
금연
경위
##터테인먼트
한상
##공단은
전반적인
##대형
근거가
명단
수익률
##보통
드라이
대응할
강수
##은행과
##성장을
초등
양형
##협동조합
##~9
신동빈
조사는
지불
질문에는
마트
빌딩
##중학교
눈물을
##쉽게
신상
##수행
나빠
##고시
Segye
양식
나를
요구하며
업그
신도시
##남도
##에서만
##공립
업체의
극심한
스트레
해양수산부
시키
가격으로
계속되고
##이의
##가루
협력해
##층은
지시했다
발언은
##내외
사로
##정기
론칭
것이라
나눴
아나
제천
여신
##여객
정면
##nt
##숙한
정치권의
##퍼니
우편
혜택이
##∼5
이틀간
특성화
정론관에서
##양호
휴게
##기존
즐거
민관
분석도
펀
온실
##씨도
배제할
장학금
단계적으로
##세다
적발됐다
##감은
붐
키우는
테이블
요청한
##(29
꿈꾸
비대위
##성년
소수
꼽히는
양자
높아졌다
사업장
되찾
참여하고
선행
벌이는
of
##고령
사태에
분위기다
##담을
답답
원내대표와
올릴
바꾼
안전성
두드러
##자에게는
뒤로
##학부
만이다
평화와
##여자
개최한다고
##개에
##감에
유상
부장검사
돋
의원회관에서
##특별위원회
모른다
경찰서
폭우
6·13
##백여
해당한다
##라스틱
중부지방
단속을
##팀장은
수출은
배추
특례
##실의
섬유
아까
물론이고
이메일
일명
##FC
##경찰서에
아우
##하기에
협동조합
##사한
글이
중독
##켰다
총력
900
골드
재생
##역과
##첨단
"1
차이를
지시한
##현황
환자의
메시지
기준금리를
대륙
출시한
##기인
##이명박
스피
납입
최고치를
유튜브
하도록
##전으로
악성
외화
4·1
##무장
인선
보이스피싱
마이너스
아니었다
##목표
인증을
자꾸
전망입니다
진학
조속한
신혼
노동조합
##이노
##플루엔
##농가
숨지고
장악
선택을
고스
기관의
제품이다
97
##사도
##음에
하나는
##사자
시점에
늦어
고액
가로챈
체제를
중요성을
스위스
단순한
##덜란드
여유
제주시
중증
일부가
##42
##겠고
손상
##결과를
김문수
대법원장
##문제를
##셔서
반입
##양은
브로커
안전사고
업무상
탈퇴
당첨번호
당직
83
##용지
정상적인
보여주
알선
자녀를
앞바다
낡
성분
##적십자
날씨가
##왔던
모델로
##머리
##웠던
십
광장
지역주민
##균관
보도자료를
##변경
연구위원은
벗어
##인프라
김민
바꿀
##북한의
패스트
##되어야
사우디
미혼
헌법재판소
##퇴직
정황을
동해안
날짜
##인치
나름
징계를
출석해
##성동
환수
선물세트
s
은평
개선에
가볍
확정된
발언이
업계에
##블랙
##얀마
과제를
기준에
##켓을
설명회
정책과
##우지
설치하고
##플레이션
확보하고
상주
최다
##치킨
취지의
일요일
##르트
##사업이
개최한
##공식
##단일
기아차
이경
현황을
국토해양
체계를
베스트
모욕
안팎의
##듬해
국민들
정당한
##학적
##코스
울릉
##병이
지어
나면
신발
후쿠
목소리도
##였다는
##매를
갔다
수의
진단했다
##AD
손에
소지
##권익
민중
##판이
##중독
선고한
토크
원가
##외과
##MOU
일부는
윈
뛰어넘
##사회복지
##ct
본부장은
##범죄가
한도
##근로자
##CI
국책
듣는
메이
##아라
##1,
방문을
출제
양해각
##동포
##카드는
재활용
##지휘
공론화
커졌다
막는
##∼4
월세
여지가
원장이
면역
힘들다
이들에게
지정된
##비에
##해당
##OECD
고려한
끊이지
대기업의
##유지
0.1%
갖게
이원
##평창
속속
의무를
곳도
##곳은
이듬해
정우택
##군과
뇌물수수
정통
발대
89
전임
적어
성장할
증액
발생하고
뮤지
트렌드
##성으로
설립된
거라고
##배우
종편
구성돼
승인을
86
서울지방
잡았다
보낼
##TR
##여건
내놓고
이동통신
근로자의
##제작
디자이너
팀장
##치며
##셔츠
나옵니다
예정이며
2022
조선중앙
승리를
##어업
솔루션
원료
##트코
자동으로
##호는
중소형
쏠리고
전복
매출액은
##lo
##사실을
프로모션
개정안이
##권력
후보에게
신장
##지니어링
문제다
가족의
##독교
사진이
저하
진압
##업계의
업무에
연구를
예전
앞선
여가
다툼
스크린
메르
행위가
치고
##냐하면
##곳으로
당국의
스키
지난해에는
##간접
상당수
##실천
묻자
인사들이
참고인
##십시오
자신들의
##콜릿
##성적
판교
플러스
캡
뭉
공산
원심을
추출
##.7%,
덩
지속될
##걸음
##건설이
도착한
조직을
나라가
받으며
##자동
##구와
마련해야
평창동계올림픽
공사가
##부상
##av
소방관
그다음
상의
##에서부터
##감찰
##포털
머니투데이
##백만
##만원이다
적용할
인출
쌓아
기숙
홍영표
주방
##.12
##차적으로
##실태
멈추
높아진
주도한
나타날
관련이
##버그
농축
어쨌
##베이터
스타일
보도를
행정부
하겠다고
콘셉
개회
가입자
##.13
부인했다
검토해
##아무
대주주
가방
민감한
생각에
오르고
지닌
공공부문
이걸
광고를
##케미칼
##침해
구급
상품은
##디지털
##시한
##자산운용
##.2%,
업계의
최재
##모씨
##에서다
##KB
All
원인은
대선에서
##텍스
후퇴
##im
아이디어를
연말정산
차지하고
실시할
냄새
##토지
술에
행보를
놀이
공천을
근로시간
표현을
거다
##IST
고객들의
먹거리
##배로
이어가
취해
잇달아
설립한
부위원장
부추
광산
증상이
것들이
영향력을
하기로
##파가
안정적으로
##탄핵
##.1%,
관심과
기온은
세계적
##.5%,
무엇을
받으면
재고
산업부
##배가
##래도
##교실
##분쟁
##개혁을
인정하고
사람들에게
코너
선고받았다
사격
이의
재현
노하우를
##.6%,
안전하게
인원
뇌물을
##아산
##튜디오
퇴출
일정으로
##지역을
##───
##포지
##.4%,
받았습니다
예산은
##문화를
시술
깜짝
폭락
기업들은
##했다면
라이프
경영권
군인
고수
##사정
실시간으로
금전
광명
민심
대표에게
우승
실형을
끊임없이
##정동
한명
결정하는
증거를
사용자
획기
##경찰청은
##하기가
다르게
이화여대
저가
##.3%,
##포토뉴스
##상공회의소
##호영
스타벅
어른
집값
분석됐다
씨에
핑
소통을
서울지방경찰청
##현장에서
##조정을
직원의
자세히
홈쇼핑
##신문사
##이재
불복
회담을
동작구
감사합니다
식품의약품
조건으로
당권
##정원
##연료
본회의를
확보했다
돌며
##번호를
지역이
공급하는
기초연금
##패션
상공
이거
미용
기간은
―
채워
##충남
외환은행
몸에
CN
관료
적힌
중학생
행정안전부
생산하는
신도
노란
되길
##.8%,
한시
부산에서
도피
앙
##우수
도입한
##본부가
국가정보원
팩
##구성
공직자
##만명을
사용하고
갑질
##절차를
피해자의
굳이
열람
원칙에
아픔
선보일
터널
회동을
확보할
##예고
##의견
and
##메달
##거리에서
긍정적으로
당선인
닥
세액
중지
싱크
확인됐습니다
##마이
##CD
보훈
##옵션
##밀리
지고
특성을
확대될
엿
화제가
급속
##해서는
마산
움직임이
##입찰
대정부
옆에
다름
정상회의
잊지
앤
##시켜야
##됐기
##전지
##성향
우호
휠
위반한
의미한다
국민들에게
의사가
만들겠다
이뤘
##창원
유동성
뿐이다
많을
"4
##채를
##동력
건넨
높아질
아파트를
이지
말부터
관점에서
인턴기자
신청했다
원내대책
##컨설팅
여겨
성과가
##렉스
김선
관찰
협의해
##종이
팝
##홀딩스
故
달에
인제
지원하기
##모레퍼시픽
크기
##ig
축사
확실히
##바닥
##54
의원들
기록하고
이번엔
유전자
##당국의
##거부
백악
적었다
순방
허가를
건데
접수된
성공했다
##국토
중앙선거관리
무릎
##운송
##팀의
소득세
구는
그러다
보며
지난해부터
##총괄
##화되고
##업에
##식에는
한국수
출발해
생기는
고장
진심으로
역할이
공영
분야를
나란히
확정했다
뷰티
기사를
없어서
선물을
##드리
봤을
##78
특위
인건비
##시행
거점
나라의
등에게
합법
내용도
Co
관계부처
정확하게
##보다도
청주시
##감도
맞춘
음식점
최상
롯데월드
공표
서초동
그려
##매김
##동기
##배당
##생물
정문
아래로
곁
##브리드
고스란히
##대기업
##촉진
도달
업무협약을
대학의
국세청은
전체를
납득
그녀
일축
연결하는
차례에
대포
오해
##탄소
지위를
파문
##시하는
좋을
##세상
윤상
##만은
인구가
##헌법
오름
일자리가
관광객이
350
위원회
위원장과
미루
둘러싸고
자리매김
장점
열흘
이뤄져야
##개발기구
노력하고
행위에
취한
주유소
##ry
##신은
##고래
부드러
도입해
코엑스에서
불리
신선한
한국은행이
경기를
시나리오
미친
94
형식으로
불합
##위권
##컨벤션
##체포
유지하는
국민의당은
경과
서울에
업그레이드
대회의실에서
##회사가
##하자고
기록해
주소
참가해
방식이다
않느냐
##신탁
부사장은
##56
3~4
필요성이
적어도
방문하는
살리기
서울고법
산출
감당
날이
##증권은
지진이
##준영
선별
갑작
이색
포트
이해할
##어떤
사무총장은
아이들
스마트폰을
경북도
##공모
준비한
하남
깨고
##객들이
전망을
불편한
##()
대표로
'4
재선
보편
##방식
해수부
지사가
이것을
알바
삼성서울병원
역설
노력할
문체
정도는
th
뛰어나
##디스플레이
공모전
얻었다
수질
표본
넘어섰다
점거
전락
신속히
벌어졌다
##고의
삼성그룹
걸친
교황
원내대표의
당했다
단식
##되던
다할
들은
요구가
파격
##졌으며
당선인은
세무조사
##돌이
봉사활동을
##카드를
##대금
작용할
##법무
##결혼
봐도
태극기
관계자가
병원을
다해
92
전문가들의
잡는
신촌
적용한
줬다
우리나라가
넓은
추세다
기본적으로
연초
상임위
##만족
##제공
향하는
출시된
높다는
##체적
##산에서
##.9%,
##들고
##겁게
판단에
##지하철
##싸움
영장을
합의에
신고리
취재진
자매
이대
회의실에서
회의에
##현실
불필요한
전제
비과세
on
우려했다
취하고
경고했다
##워드
##품이
추구하는
캄
평가다
##시위
조성을
스테
희망하는
치안
패러다
미안
##수리
유지했다
##반을
과천
강동
곤란
독특
##금리가
배럴당
##님의
##연봉
소장은
치유
활용하는
이룬
기자간담회에서
안고
##소유
수수료를
세일
단위로
4,
##영수
인생
##욕장
저금리
줄고
미국을
##조로
이건희
데려
닿
폭탄
교통안전
증대
제재를
조사해
##우주
매력
##오전
파티
대대적인
##동해
물가상승
멈춰
데이
무장
##사례
##환경을
삼척
지적을
네덜란드
민주평화당
##지역으로
상영
파면
태도
참여한다
가입한
##보며
선정했다
중앙일보
방식의
##인민
날아
연구원
창출을
합작
도로에서
식물
중국어
살균제
화이트
보이며
자영업자
누리과정
##베스트
웰
이후에는
진행한다고
한겨레
선거법
내려진
다음에
##했었다
맺은
폐업
아직까지
이어갈
헬스
전달한
부가가치
부문에서
예상보다
##플루엔자
권유
##웨덴
컨트롤
##그라
위험한
군사적
##경쟁력
지사의
##폐기
하다가
##현충
##이슈
##트가
##독립
##갈등
##단에서
##쪽에
시험을
##진출
주장은
산은
전제로
하는데요
##5·
자립
##체로
##부정
덴
교수와
났습니다
##보좌
?)
붉은
라는
##이와
##단체가
헤어
이끄는
행안
##치면
##데일리
##하루
##었기
##제일제
안으로
졸업생
돌아온
시중은행
##us
##onga
남동
##소득세
아웃도어
어긋
위험을
승부
모텔
뉴질랜드
영업이익이
대림
실용
진행자
반납
5·
소리를
한인
밝히는
지혜
팀장은
컨소시엄
있을까요
어쨌든
##콘서트
##블루
거짓말
서울시장이
주민이
##.3%),
현충
제도다
##징계
마크
서식
붙어
걸림
170
##****
##임에도
정하고
##의회는
중이라고
양승태
점검을
예상됩니다
젖
##졌을
UN
거래소
고유
신라
아나운
증가로
##지식
문서
로스쿨
추진을
조경
활동이
논평을
판단하고
사무실에서
##폭탄
김연
공장을
##사업으로
재가
인문
구축을
학교를
##청산
평화를
##구제
정유라
##장려
93
찍어
증거가
금요일
##.5%),
##기업인
된다면
##통은
대학원
경희
대통령도
보여준
신입생
전라
출마한
##인멸
몰고
박차를
청사
##기간은
쳐
소극
##가격이
##하에
##해지
본사에서
추징
##화물
몰랐
##호흡기
##위안부
공식적으로
과감
##새정치
파산
덜어
폭행한
가혹
씻
과열
##상인
바꿨
분주
##모직
재보선
줄줄이
홈페이지에서
에코
북한과
그렇다고
상품권
##병원에서
日
착수했다
소년
##카메라
서류를
제로
김창
##조리
정부도
수사권
침묵
##사망
카지노
낫
시의
7%
증세
만료
##라크
##체는
고객들에게
확산되고
NLL
##중처벌
##처에
연석
반문
눈높
부친상
국제사회의
호응을
기대했다
투자하는
원자재
##센터장
이석기
해외에서
적법
자리가
##뱅킹
2.0
유독
난방
##지사는
밸
##플래
해경은
환율이
엠
체결한
나타나는
대선후보가
보류
과제로
##조가
패소
내세워
베이비
##차장
규칙
조윤
##란스
실세
국장
타임
##소송을
성균관
성공을
##피크
차원
두루
말아야
선거가
범죄를
확실한
##월을
놓은
발병
최소한의
##나이
대상에서
사교육
##셔널
##리얼
방식이
##84
적용된다
##erved
##정배
김영삼
늘릴
총파업
각계
오늘부터
파는
서둘러
1200
##0.0
귀농
코스피는
매니
등록을
##구치
##해줄
SM
녹취
##해요
고소득
##만원까지
했으며
##능력을
레스토
##사진을
정부조직
##도서
물러나
바로잡
##원칙
##오롱
3·1
처방
의총
##최저임금
##면접
이순
이슬
##월한
각국
##내야
##벚꽃
외교통상
많습니다
반영된
넷
대안을
검찰과
임금을
예방을
부르
현안에
##사상
받았고
##개교
레스토랑
##CN
산책
이어지
##공사의
법무법인
실물
##수도권
유학생
못했던
좋아하는
##사이버
태어난
기자간담회를
0.2%
AP
시간당
세우고
집으로
송환
합리적
시민들에게
확대에
명으로
0.5%
교육청
운영해
##단위
##.8%),
##.7%),
다각
방사능
불과한
정권이
어렵고
미달
데이터를
##되게
##은희
같은데
매진
맡았다
너무나
회생
##.2%),
##철을
##이한
나도
##전통
##단계로
가정의
에이
가구의
비서관
즐기
##형은
헌정
가리
파행
1995
##받는다
##관리에
##겠나
검찰총
간사
##력발전
##할인
##공학과
아세안
##해달라고
나눈
전환을
신한금융
대북제재
시흥
##업체를
국비
강좌
##.6%),
주변의
간다
안을
싣
##어린이집
피할
국민은
##주얼
지냈다
현지에서
전신
##공직
사물
일반적으로
강세
국군
서비스가
##상품을
보험료를
아기
실시하는
어렵다고
형평
태스크
##록을
##모금
추첨을
뚝
현장의
시한
##경정
장려
폭넓
금융시장
전남도
##결의
도시재생
탄도미사일
##았는데
업체를
주한미군
내놓았다
추진하기로
감사의
토론을
##res
되풀이
르노
맛과
반값
재편
이태
중이며
원활한
##.4%),
담았다
명단을
세계경제
##남미
부장판사는
체결했다고
##동과
넘겨진
위안화
얼음
##기업을
##쇼핑몰
##보전
판정
만났다
아이들을
넘어선
흉기를
##이니
공무원이
푸드
받아들일
전문가들이
전망도
등재
끝나는
##만개
SUV
많다는
텃밭
##비용을
##소환
주관하는
자율주행
캘
불꽃
박물
ᆞ
예의
땀
한국당은
배경을
환불
한복
사용을
승강
##득을
처리할
셋째
##겠다며
총기
출생
##가격은
실질적
일반적인
나쁘
학생들
6·25
이정미
대강당에서
##부분
존경
##버거
당국자는
##의혹
##IB
익산
않겠느냐
최영
190
##통이
없으며
##한겨레
지키고
리얼타임
절약
##두로
is
##났고
브랜드로
출퇴근
보도자료
신성장
##치다
가족을
학생은
도봉
않자
우주
충남도
##자다
젊은이
빼돌린
프로젝트를
가라
온도
##ir
지갑
##두산
광화문광장에서
농도가
훌륭
일일이
떨어뜨
##우러
##공시
대전시
##정부와
주민의
##담당관
궤
대검찰청
유보
수사의
확신
다리
시민들
의미로
레드
넘긴
##신당
돈은
본질
불평등
##유업
##.1%),
##우며
여당이
##기관을
해석된다
사례는
최고경영자
라면
쌍용
감사원은
차례로
국민건강
거시
화려한
신생아
논의하고
##DC
향상을
타협
##내지
donga
김진태
그렇습니다
##석에
나들이
##값을
##자나
홍삼
사정이
조기에
압수수색을
개선이
##1%)
##소식
마시고
않나
##대장
관리가
거래일보다
참조
화장실
##배치
엑
트위터에
목소리
미얀마
##렸다는
부적절한
양적완화
가능하도록
##경기도
고심
점유율
것이었다
남성의
생물
생겼
##ide
영유아
색깔
피고인
##지침
사용하지
불확실성이
시대의
##-3
##톡톡
표기
직권남용
최대의
가족들이
건물을
부결
양양
##맞춤
전체회의에서
핸드
만인
판단한
##희상
입양
전달하고
동성
시민들은
##범죄가중처벌
아모레퍼시픽
다채
##고리
##커스
연루된
보고서에
도매
##사령부
약속한
짓는
없다며
##세권
형사합의
장비를
전송
크다는
줄을
LA
전달할
여사
확산을
시계
차량은
##이면서
홍성
##고발
불투명
##IG
애국
자국
##ES
가벼운
달라는
로드맵
##센터와
경향이
##외국인
대비한
강제로
##건물
##주영
진전
어쩔
##pt
법무부는
미성년
읍
식의
##경은
##마토
##님은
자정
부산시는
##책이
박탈
##종으로
##접촉
##주거
사업비
##로지
격차가
##개월째
you
결집
외무
내용과
##매수
환자는
산업은행
제공된다
식량
##포터
성공적인
백신
응답자의
##주교
맞다
그룹의
수료
##활동에
발표하는
남산
오고
##민생
강진
##키스탄
전병
##수단
##으려
할아버
##안군
##요구
##죄를
##79
##들여
지키기
5,
##르크
장면
시작할
##레일
##금액은
정규
마련에
강조하고
만든다
만만치
채소
##출자
생각했다
##인하
엄정
탄핵심판
설치한
복잡한
피해자를
개최를
##6%)
수요를
시너지
##역은
수위를
특성상
초대형
객실
2500
91
##로스
발언하는
##의무
작품을
고사
##보디아
##되는데
인재를
계속될
불가능한
연락을
##문은
유일호
아이들의
1970
차량의
확인되지
##하늘
농장
됐고
스케
##개소
일원
허브
징수
서비스는
##릅니다
서울을
##으로서의
여부와
##금지법
##형의
생태계
##경제인
##예비
나오면
현안을
##.9%),
##휴직
전주시
##2%)
금액이
이론
국어
##가게
일반인
관측도
##나들목
##코드
패턴
겉
번도
수업을
##리자
측에서
인사는
편이다
##ge
달아난
특유의
지키지
##AR
배가
##만으로도
거두
탐방
똑같은
위성
공작
이사장이
골라
정해진
공단
합성
##기간에
꼼꼼히
언급하며
오세훈
힘들어
공유하고
비전을
주장도
가끔
마찬가지다
##손해
일할
진술한
##∼6
자격증
본관
백지
상표
디자인을
유산
##(0.0
무한
시속
식사를
당당
##4%)
95%
참가자
시스템이
정씨는
거리를
DNA
하시
탈세
불만이
폭언
남겼다
산재
속도로
측과
고맙
구성을
##상가
입금
추징금
여론을
차질이
현대차는
초콜릿
##능력시험
기본적인
##409
##됐는데
디젤
바이어
면에서
늦은
영구
중에서도
어업
여러분께
##조의
현실적으로
##자세한
예결
시작한다
여행을
##EB
순위
준비가
계류
못하도록
다를
##5%)
##부지
"3
우상호
##서민
소개하고
##관세
원산지
일로
적도
킨
강력하게
국가를
물량이
복지부
교섭단체
법학
##(50
영장실질
분석하고
기록하며
명에
야권의
##3%)
법제사법
보험사
이용자
국토교통부는
차등
검사가
생각은
##영리
강원랜드
##하산
법안이
정신적
펼쳤다
멀티
다이어트
한경닷컴
상태에
민감
장외
내놓을
##대책위원회
단체는
벌일
직원은
제어
사장을
크림
##난을
표를
##버랜드
신한은행
지도부는
##매우
소멸
##오리
모르고
위해서다
부평
골든
원격
소감을
.)
예정돼
##방한
영업정지
김동철
이진
사장의
요건을
##대통령이
웃돌
갇
원대
##GB
출장
흙
테크
공급이
##에이
입장에
##폴리오
유학
총무
대학에
세법
샀
##테일
수사하고
학교에서
##름이
##창조경제
##휴가
##스카
##회의가
붙잡혔습니다
분향
장모
##휴일
화가
온실가스
꾸며
검찰총장
뚜렷한
불출마
##이야
##직업
제의
로켓
요구할
##지않
기무
논평
아닙니까
거취
##ot
아동학대
##총선
최모
보험금을
중견기업
겨우
시켜
띠
주먹
##연습
물었다
##라리
닦
짝
##서에서
비트코
기획재정
흔히
전기요금
프라이
##미한
금융당국
광범위
속에서도
##부패
밝은
경품
→
##발의
##사회를
헌신
사업이다
이혜
주최한
정시
교육과
소설
돕고
##────┼────
##CO
증가세를
재료
처우
실시해
일당
협력사
돌봄
사로잡
손으로
웨딩
##레드
무사
낮았다
##종범
입맛
쉐
##하길
혈액
농성
화상
실시한다고
##공사에
준비했다
1.
물건
앱을
'2016
##공동체
정책은
플라스틱
협정
아닌지
사무실을
##졌기
누락
증가해
이용객
발을
##성폭력
각자
국민은행
신고한
##89
##맥주
통계청
##연금을
박영수
나은
냉동
업체들이
김준
##연도
비용은
여야의
제출받은
돌아오
##캐피탈
소외계층
쓰지
신재생에너지
##news
##발생
##축구
모터
감추
입당
우체
건국대
##red
주택을
직원들은
동거
##행위에
자격을
포토
촛불집
모델들이
그들의
후에는
논의하는
빨간
구성된다
대변인이
최고기온은
강세를
##레저
손쉽게
전체가
운영된다
##통장
##전에서
심해
##학술
##최대
되겠다
하느냐
바라보는
##달러로
##베이트
입었다
##냐는
경제협력개발기구
##점검을
##산업을
대표도
1,000
체제로
과목
##사범
계신
##경험
상처
스웨덴
공백
적자를
금천
##폭을
화제다
광양
지방세
높을
##...‘
분식
관여한
선관위
깊어
낡은
##파일
변형
설치를
가파
##협회가
낮다
간첩
주장이다
그날
││
무리한
터져
공을
구멍
선택한
##3,
생명을
룰
사임
##가장
##조사가
산업단지
##인원
집무
##포지엄
학생을
제기된다
인수위
받았다는
##빨리
##지역은
대면
커진
단호
##평가를
투자해
##집에서
##세무서
##방의
안정적
움직임을
2.
당뇨
왜냐하면
연결해
정운
어우러
인사하고
회사채
오류
연중
청정
수석대표
출범한
선장
튼
후에도
##수용
##론에
이관
소독
인정했다
조치로
인정한
주민투표
##복무
부부가
##속에
구입할
독서
실시된
사정
증진
돼서
명확한
##스톱
안보리
##사랑의
부자
##동반
연평도
실정이다
##AT
철저하게
공동주택
없던
멀리
##체제를
##황식
재판관
##라이프
##년은
##편을
행위는
이창
중국산
##이든
돈으로
무게를
##출입
##측근
복수
조선일보
것이라며
##중단
##관장
##란을
고졸
참석할
##범죄수사
굿
교수를
고민을
참석하고
##방법
##거리가
밖에도
말하고
화해
참석한다
암호
있겠다
##선박
실습
열악한
드리
하이브리드
노조가
판매하고
##추적
중형
##더불어
만성
시작하는
국내산
녹음
##이었으나
집안
임대료
하청
합참
철폐
경기침
자신에게
학생의
눈물
면담을
향하고
우려된다
국빈
겪은
핀테크
증가율
##국과
##임이
##2·
핵심은
체계적인
훔쳐
하니
##소화
##리안
##자로부터
경신
혐오
끈다
화면
##분위
성분이
기초생활
질의에
##났지만
승차
현실화
##유공자
##(55)
##증가
##스토어
시연
##중계
풀려
##렉시트
보도가
거액의
무서
손잡고
중랑
전역
96
국가인권
##만금
├────
##aper
##타협
일정이
규제가
##데이트
##업계는
##개헌
##공사와
구속영장이
넉
부재
##것도
길어
마침
방화
An
애플리케이션
##돼지
초부터
한은은
주춤
이해를
신청하면
탕
넘은
토로했다
명령을
##부장검사
공개적으로
이뤄지
나가야
##링크
취재진의
지적했습니다
참가자들은
취약한
##오프
면밀히
시급한
그렇기
You
하는지
붙여
##차와
##친화
it
검정
형제
##요양
기도
릴
##발전을
##치면서
중단을
##인척
##코노
심야
##국회에서
경쟁력이
프레스센터에서
고립
거리가
##해상
##였는데
적용되는
혜
추가적인
##참사
직속
##트럼프
맞았다
총장의
한국거래
도망
의석
이날부터
##베이션
현상을
느끼고
율
신조
##아침
명백한
혼잡
회장에
걸렸다
##(+
분수
들려
##라이트
##오늘의
한식
영수
##가야
##리더
촬영한
취할
머무
##행한
사옥
소비자물가
소지가
계속되는
탔
##1·
떨어지고
적용하는
주장하며
브랜드의
활성화에
전력을
서울대병원
내보
'5
처리가
교육과정
줄어드는
보다는
##렸다고
보험금
방지를
빠졌다
상품으로
단원고
재판이
##시청
강화하기
유력한
잡기
##점유
충주
전달하는
정상적으로
국민참여
##가공
특별히
##영철
디저
사저
없지
삽
##어제
과실
무엇인지
영도
인상에
##효과가
##메뉴
위주의
임시국회
독거
##미는
이겨
##신청을
않는다면
##크림
아랍
군이
샘
김희
하드
기대할
속출
의혹도
드림
##인식
사람과
봉투
##끄럽
유전
##명씩
보고서에서
민심을
주가는
놓여
##회장은
##본부에
제도적
전년대비
간사인
국가대표
##궐기
##컴퍼니
LNG
전체적으로
##ICT
기기
제네
성완종
여건이
산업혁
대표에
예상하고
떠나는
까다
##대중
밀접
##기관으로
##상업
##mg
##현안
시국
##본다
소명
##─────
유용
취업을
구축해
불로
무혐의
독립운동
동포
##경보
분야는
다음으로
폐쇄회로
해운대구
꾀
개원
##였으나
##진료
판단할
공매
발전소
##디스
기능성
변수
피하기
이희
위치해
담겼다
##태경
연안
##입니까
금리는
프로세
김석
답을
##분권
##미로
연쇄
회고
하나다
##~19
뒤인
월요일
시점에서
고무
##박람
오너
총리와
느낌을
혼란을
겪었다
다쳐
선정한
해소를
자세로
인쇄
허리
없는데
등기
##만으로는
시기가
##ow
##상수
환경부는
##일수록
물량을
##엄마
관객
조카
외곽
##est
괴롭
##정책과
##마당
창작
##교회
서강
기획재정부는
##했으면
정진석
##호에
독특한
##연구원이
코오롱
서울시의
충당
제작한
금융위원회
살인사건
서울시교육청
칸
##심에
갖췄다
그러자
##임대주택
구워
할인된
##가계
공동체
##감으로
아들을
증가에
밝히지
경기도는
지난해까지
수서
뜻으로
##중개
총력을
공채
진지
소주
어민
후보자를
들을
##그렇
##판에서
마련하는
살포
도시락
캔
부모가
Con
직원들에게
수성
형식
##오일
수협
##값은
발견돼
구치
수중
##과학수사
##날을
##시설에
서산
답한
1.2
죽음
금융회사
신원
사의를
##리포
뜯어
받아들이지
##로서의
일본에
시작되는
드러낸
##클래
기상청
국무회의
심재
##호흡기증후군
필로
위에서
불이익을
기내
##News
늘었고
넘기
정모
달콤
상세
주의를
지원과
대통령직
기여한
나의
막말
처음부터
폐기물
재판에서
강경화
환경이
##요원
간편하게
##분할
항소심에서
##공직자
경청
##지나
돼지고
##월에도
수입이
or
번영
##급을
##할까
이해가
한쪽
대단히
##...”
지지하는
##표가
쿠키
##한국의
##산림
신종
험
오늘도
원내대표를
어젯
전셋
의식을
부회장의
##전문대학원
##CHA
통합을
##공사를
총학생
사랑하는
구성원
연계한
하려고
대상자
진행되며
해결해야
##atch
상반기에
탄소
##년간의
l
수익성
해병대
듀
##억원이다
##명예
영토
김은
김병준
동월
원내대변인은
혁
정부세종청사
##변을
것이기
들어간다
전체회의를
여성들이
펼칠
조원
갓
우세
보수단체
PD
벚꽃
장성택
주목받고
경제는
##언스
과징
규정이
기술개발
알뜰
환자를
쌓여
방문객
##용역
혁명
고공
ᄀ
문희상
간단한
급증했다
건보
맡겨
##409(
미르
그중
다가온
입소
##플랜트
##%)││
##비정규직
프로그램은
##회사를
결국은
명은
맑은
편리하게
심의를
위원은
아트
삼성바이오
주변에서
연탄
효과적으로
후쿠시마
용납
뽑아
보여주고
최선의
관광객들이
시장과
귀성
적혀
##나게
프로그램이
직거래
내정자는
인상이
과거사
##ook
토론회에서
##72
##양성
##대기
##신저
다양하게
한국어
이종걸
##문서
##변동
자치단체
기동
제일모직
##증명
고지
연극
규제개혁
모른
##석으로
##렉션
김상조
##전북
결정은
'2015
꽤
버티
##았을
##연장
몰라
건국
시행하고
홍익
외교부는
결과적으로
주범
정계
특사
기지
김진표
##정희
끝으로
김혜
##(52)
보자
얻는
때문이라고
힐링
한옥
##주의보가
##현동
고등학생
##설에
자부
불가능하다
박람
##위원이
성별
아무래도
##AS
천막
번에
##일랜드
응답이
##대학생
부산항
왕복
##모터
의장이
행사로
이광
##동욱
학생과
##조는
경제성장률
맥락
##상거래
새누리당과
잘못을
판결했다
2021
밖의
##팅을
애니
태백
전문성을
긴밀한
##AP
결정했다고
##]'
걸리는
##받게
수천
김홍
부상을
장치
##확대
꾸준한
기대감이
##살이
##연대는
보령
결과로
##냈습니다
##노이
됐다는
청구했다
저의
한라
논란과
골프장
넘었다
강화에
##부고
##는지를
태스크포스
위임
엽
이주열
사태로
##협력을
##친박
휘두
주의가
특조
그것도
반발이
일하고
수단으로
금호타이어
판시했다
그야말로
늘어난다
국회법
##열차
부분도
처한
국민권익
##사과
##역량
출근길
##개월만에
조사했다
##85
##하기를
주당
입장은
둘러보고
생리
고영
피로
한국지
살처분
##믹스
##크라
밀어
##개월에
##프가
현대상
##영어
##코리아는
사용이
활발한
##급적
당연한
선대위
이재오
사실이다
대부분은
최적의
##분은
증거인멸
일간
이슈가
##hanne
##리그
강정
프린
빚고
있거든요
교보
수단
시가총액
서해안
수신
리조트
출간
사단
##93
되자
연예인
대다수
아이디
한명숙
공보
결산
노동개혁
진상규명
##재무
내면
잡을
사모
김황식
##브란스
##름을
윗
##게시
연락이
제한하는
해결하는
뮤지컬
이곳에서
맛이
컵
되며
##한강
##자유구역
딸을
대내외
한국형
교육과학기술
곰
##라디오
낭비
기대가
##oodNews
최후
내세운
덴마크
감상
##소매
잦은
협상에
사실과
사고는
민주당과
통과한
종북
자체적으로
세우
##요타
0.3%
달라진
춤
입건했다고
보여준다
땅을
헌혈
##실장이
경선을
캄보디아
하락세를
##~12
효과는
##중이
세종문화
앓고
자치구
일회
계획에
건설을
수상했다
일주
##이행
높인
어떨
반해
서울시청
유상증
##아지
기다리는
적게
##CHAN
김정숙
바꿔야
경제학
롤
내용이다
##지방법원
퍼포먼스를
"5
태평양
평등
구입한
도입된
"2
성장세를
구두
종결
잇단
##둥이
염려
상권
박경
공간으로
##art
하수
##모비스
##작은
사라진
생각하지
##NEL
있어도
투표율
줘
##터카
##관리공단
즐겨
주도하는
정홍
국제금융
##네스코
##CS
문화가
건강에
##신고를
국가와
##(53)
##강제
강조하는
배를
##만명의
##차게
대응하기
##질서
반발했다
##증시
##조원에
##스런
함양
통상임금
##8%)
일본에서
인용해
달해
비방
부드러운
##기업으로
근육
물품을
이유에
남쪽
추도
와이
##-0
키우
부적절
특검은
##먹는
##교부
##ichanne
게임을
##중견기업
##HO
국가보훈
##ichannela
##(49)
환승
피력
##CHANNEL
##파워
cCHANNEL
##었으나
중점을
결과다
중장
계층
##청래
##리콘
끝나면
외국인이
낙관
중고차
일대에
##충북
##기만
하루에
활짝
집필
권력을
휴대전화를
본점
정했다
##하고도
중견
쪼
사실도
사용되는
받았던
창고
##인정
##수능
##가에서
##분리
##7%)
##으론
다스
##죄로
##부양
##류에
##과대학
##회사인
##거래일
깨끗한
자산을
자아
소비가
##악산
명예를
##처음
뺀
시설물
##(50)
영결
부당하게
소환해
이명
변론
정년
효성
압력을
주된
지원한
##파는
믿을
##민이
##방재
검토를
이어진다
김우
이번에도
비주류
축적
신사
##쉼터
북한인권
##외환
제시하고
추진된다
파급
사직
제조사
##카카오
##씨로부터
##가전
##방어체계
##눈에
부족하다
안전에
##압의
en
알지
외국계
안타까운
갖는다
기탁
국정화
정치에
마신
확인을
구속하고
학계
해외로
##개년
구리
매립
##여만원을
상품이
일어날
##구니
순수
101
포트폴리오
효과적인
##시간은
천정배
빚은
아파트는
심각하게
다음주
헤드
##국적
중단하고
휴식
피자
##렸지만
##사전
임진
닷
양질의
“201
그해
유공
##bp
철학
청구할
도발을
그쳐
않았을
자유를
설치돼
자발적으로
##챔피
##해진다
기쁘
##장이나
서울남부
〈
내부에서
구매한
고쳐
‘1
성립
알려지면서
줘야
상태였다
##집중
유기농
3.
광진구
학생부
장면을
##jo
##ra
##만원대
연구소
찾아온
걱정이
엄격한
파생
알파
없었다고
행운
##피해자
##엔지니어링
전보
##조금
터뜨
여당의
##라엘
##스타일
호우
들어보
장기적으로
정부서울청사
##(54)
획정
랜드
##타이
##지정
레이더
##번지
법이
대의
##페이스
포용
심리로
낚시
가로막
수출을
관계에
유모
개인이
많은데
모친상
더불어민주당은
이용하면
##주기를
##버린
선보여
전에는
8%
경제와
석유화학
신문은
여성가족부
통진
작년보다
맞물려
##하러
##세탁
유치를
장시간
휴가를
중요하다고
그러한
후폭
넣고
##토리
9000
사장과
##분까지
##셨다
짓고
추진한
거센
##Sc
40.
코스피가
기저
물려
실수요
정서
##기에는
##EX
없었고
!"
스페셜
영국의
##.19
자격이
##레이크
##명령을
도로를
임무
활약
105
호소하고
그렇다
##지속
##결산
##수학능력시험
리베이트
##특허
정윤
##해양수산
원로
스튜디오
##파의
마비
혼인
체험을
대상이다
서거
담배를
##증거
연합뉴스와의
##소연
노선을
수사관
##나와
##지수가
##주면
##고생
거리에
수익률을
정치권이
##치사
실어
정권을
우정
의도가
##봉투
장례식장
당선인이
##MI
무책임
마케팅을
챙기
차로
##보험료
##영장을
입수
영향은
숨겨
졸업한
원리
##집에
김일성
가난
국무조정
##겁다
약화
고객은
고민이
##(57)
되기를
지목된
자녀가
이어지면서
금융감독원은
제공하기
1.6
##um
국방위원회
효율적인
일일
선거인
지켜보
달걀
축사를
차관이
일행
나뉘
##(51)
밝혀야
곳곳
대남
다친
##령이
예매
들어서고
도마
공개하고
김관영
순회
때에는
장중
한다며
6%
워터
좋고
상설
개봉
정선
참관
중소기업이
##계선
유착
##94
피서
날씨를
##기업은
강풍
목사
your
##베트남
구속했다
##출연
프라
연다고
이룰
해주는
미수습
재산피해
부산저축은행
아이스
팽팽
손가락
##작년
##(56)
인정할
##마일
1994
paper
바꾸고
가구가
대한적십자
어디에
사업과
횡단
[201
북미정상회담
인정하지
남지
소나
정상화를
요건
굽
##활용
포격
추가경정
압박을
##와이
해온
##석은
##프를
##야권
##장터
목을
##yout
국제기구
실태를
##현지시각
만취
사형
내년에는
##톨릭
신세계백화점
##범한
등록된
즐기고
통계청이
내놨
오산
전문의
그렇지만
이스
결렬
##oc
3.1
상품의
모래
무거운
확보에
탈북자
성주
유진
성폭
##교육지원
##종은
박사는
소비자에게
노트북
##퓰리즘
##HAAD
컨벤션
크다고
개정안에
##경제연구원
증폭
상습적으로
##가구가
강기
두는
위기가
바삭
추석을
교수님
##교도
해석이
신차
것이죠
근접
1987
재학
과태료를
차에
휴일
##토론회
오지
##교환
춘천시
##중부
족
분명한
위치를
연임
##트럭
공장에서
잃고
몇몇
역사의
##ace
최근에
대출이
화물차
##승인
이루고
개최하고
쇄
촉발
투신
##메이션
건넸
양해각서
취지를
공급을
기술과
참여연대
벌어지고
dis
구축하고
회복을
##문화재
참여정부
다운로드
제출할
##취소
최씨
촉구한다
파주시
메뉴를
##산업이
책임자
##시죠
커지는
종사자
##학과를
##스러워
한반도의
플라
결정된
청계천
비대위원장
알코올
바닥에
지원했다
정병
학업
이해관계
위하여
정책위의장
리서치
this
##리라
소비자들에게
고령화
받던
중남미
폭행을
본부장
의원총회에서
##금고
오가는
합산
냉장고
##사찰
인정하는
##소득이
달할
항해
##에게서
폼
##문과
정당이
##종인
말씀이
리비아
##플레
고추
##시설과
크레
확정됐다
수상한
##시피
아픈
조사됐습니다
얽
논리
강의를
다짐했다
프로그램에
어젯밤
##파를
끝나고
화폐
캠퍼스
##구조를
있으므로
##재벌
1.5%
교육감은
행진을
개발과
지켜야
직영
양측은
자존
또다른
감자
성동
초고
원장의
브랜드가
평창올림픽
##96
##이사장
촛불집회
반포
치즈
아냐
조각
##보고서를
##정책에
톤
민영화
저렴하게
국립과학수사
##동의안
전병헌
중소기업에
문건을
성동구
##주자
##el
이자를
바다의
##OMC
계획은
아무도
LS
소셜네트워크
##74
눈치
구속됐다
들어오는
치명
##등의
변화와
비하
쪽에
##:30
협회
##잠수
제기돼
미지수
기독교
창업을
의정
메인
##주심
##∼8
정쟁
전동차
정치가
실태조사
출시를
내란
당황
하이트
비난을
직결
사례도
탄탄
시대가
##기후
##지금은
순매수
##센터의
민영
##입법
양상
자식
##특보
##리츠
됐던
클린
##욕을
총회
나주
주저
모습으로
공사는
##트의
##개념
국회의원이
##있던
전분기
##보호법
대응에
이외에
##해져
권장
명문
기해
투자에
급격한
##IMF
있겠지만
상식
박주선
국공립
법조계
이천
##널리스트
발생하면
##산업은
딸이
##부도
운반
##만히
마찰
설립을
악수
겨냥해
##마리를
이씨가
나타내는
##효과를
##퀘어
자구
후보들이
바쁜
아이스크
거대
중계
네트워크를
공개할
------
써야
##(10.
##개발원
##td
##의결
생겼다
한계를
난다
은행권
##(58)
보상을
##색이
##몬드
##ul
닷새
김미
KDI
그쳤
성산
아이의
##회의는
오후에
있다가
유죄로
##날인
숫자
우리에게
##강릉
이정희
순차적으로
말씀하신
사료
강화해야
##소니
가까워
신경을
##정책의
조윤선
과장은
김윤
수용할
##사업본부
##회사에
##수사를
바람을
일감
##리랑
사외이사
공격을
경찰청은
찾아가는
기한
선고받은
공수
원에서
효율적으로
변신
농림축산식품부
##ia
##충제
다채로운
당해
저해
DMZ
##개월을
돋보
소방서
엄중한
개최된
법정에서
##리던
원금
대박
당협
잠수함
지자체가
여러분의
##셀러
##소수
##드루킹
하니까
무분
##ity
##학력
##THAAD
영종
##실무
법원행정처
두바이
나서서
알렸다
어쩌
학교가
있거나
지지율은
시민사회단체
##여당
요청할
도보
생각할
전망치
##스턴
중심에
신율
전북도
대학수학능력시험
늘어나면서
##인들은
정의화
기후변화
전대
설치하는
##갑니다
##년제
##해준
배포금지
부문의
##년차
수준에서
거부한
##해준다
서울로
##특례
것들을
##절도
금리인상
##김정
자리잡
바뀔
던진
개발하고
농식품부
##all
엔화
가입할
발견했다
국제적
받았지만
##포항
규정한
정책위의장은
##론가
동아시아
국정원의
당신
마켓
메이크
##격이
본연의
##전과
##4441(
솔직
02-398-4441(
##MA
원유철
##저가
자유한국당은
##3·
박기
지난해에
후유
근로자가
논란은
대통령선거
포항시
검사는
교직원
##기업과
##나쁨
##국회의원
##err
##정치적
정치개혁
이슬람
학력
한두
##개와
찍고
정기적으로
맘
지방선거에서
미만의
##방지법
자세를
##ive
감수
업주
정책으로
폭을
##볼라
목적이
배분
의무가
종종
공간이
대담
##동생
±
##동으로
##업체와
부지에
두려워
##그림
드린다
##기온이
신중한
##식당
##73
##안내
근본적으로
##직무
##.,
싶습니다
비리를
상황입니다
하자는
고부가
차분
건설업
도대체
##체와
형사처벌
3.0
모습은
성장이
스펙
붙잡아
##(48)
무궁
외신
이익이
훌쩍
인터넷에
카드사
기구
여의
산학협력
사표를
비판했습니다
뽑는
삼고
제명
##본을
##해결
표정으로
임박
용의자
다뤄
##겠어요
##운전을
##시로
##ideo
끄
내부의
##youtube
##안심
##았으며
해가
건축물
##만약
몸이
선고했다고
##라기
방송된
##금자리
검증을
버려
포르
내려가
##어머니
제도는
소득을
김인
중으로
##CB
일본과
구속했다고
안종범
정치의
상황과
발표한다
##여만
조정을
이르기까지
그다음에
책임은
잉
성장률이
관계자들은
일정한
노동시장
대리점
공무원의
##보지
##RS
##ight
108
금통
##지배
사무처
##재단이
준비해
성폭행한
변호인은
##ver
한수
맡게
신기술
송전
##가구로
##병원에
##6·
##4·
잇따르고
국립공원
##·15
발표에
명의의
퇴직연금
치밀
##ava
공문을
##이후
##id
이렇다
최하
##고도미사일
교장
마라톤
##측의
엘리베이터
정홍원
불은
첩
임금피크
잠을
콜라
##9%)
뜻이
쉽고
##오면서
##정수
지원사업
##일으
체험할
##배나
모레
열대
더욱이
앞세워
In
밀어붙
화재로
닮
보건복지부는
##두는
이끌고
증가율은
승마
견해를
서청원
개인적으로
##권으로
기습
##원으로부터
특수활동
기재부는
촉구했습니다
요청에
대한상의
현대모비스
지붕
##교육과
있는가
관건
##지자체
인삼
종가
##오석
##이거나
환경에
##공공기관
##나가는
언론의
없었지만
##규정
종업원
흐름이
과거에
회의가
##으려고
##총연맹
건설사
야기
##형태
럭
힘쓰
학사
##비밀
답하고
##종과
대목이다
직격
if
보름
차려
외교안보
규정에
##등은
한국여성
##atching
당진
공지
끓
활력을
비정상
김명수
사안이
20~30
무렵
고생
원내대책회의에서
정보기술
기승을
##ript
##으로서는
장기화
##해주고
동래
##.0%,
아들의
부족해
공유하는
##암동
준비에
상승을
아버지가
##강의
환산
##성공
결정될
반려동물
##회째
등장한
금융위는
##세일
미분양
유네스코
##벽을
실장
여당은
도로교통
케이크
##시도
가능하다는
시행할
사회에서
한동안
##증으로
해법을
자산운용
별점
평일
간주
나가고
세번째
경부고속도로
확대되고
│├────
나지
이번주
자본시장
나머지는
누출
기조를
##률도
##Tube
불가피한
수행할
##닝썬
##희룡
아시아경제
##련의
프랑
##메이
떠넘
복지부는
오면
##개월이
220
불가피하다
이보다
##~200
일가
효능
확보하기
경찰에서
약한
통학
원칙적으로
삼성증권
양대
해외에
어버
남대문
단독주택
최고위원이
시의회
##공작
패스트트랙
##설명회
0.2
쿠폰
##한화
각국의
##8·
우리도
확대와
개선과
끌려
##베리
##로봇
##통신은
할부
프로그램으로
##경제적
##멘트
햄
저를
##공간을
##러스터
##은혜
김제
일삼
확보하는
구조조정을
##만명으로
나타났다고
bro
둥
##7·
댓글을
시행된
##error
##시험을
수입차
세력이
##업체는
시리아
##소시효
수석이
##소추
##도심
노원구
해왔다
##업체들이
>>
지수가
압축
##특별법
국정원이
GoodNews
정도에
얘기도
occ
결론이
부인하고
요금을
장점이
생각하면
##급한
충북도
##례가
떠오른
##박사
##난방
낮추는
실패한
##(31
한숨
##처분을
진단을
error
##내에
그친
연세
##국민의당
##품으로
질을
Java
신입사원
복용
##나도
로펌
YouTube
0.4%
자신감을
구명
occur
##Script
적극적
아끼지
지식경제부
승계
르노삼성
넘어가
occurred
새만금
##연은
석사
한국도로
JavaScript
쾌적한
특혜를
##비선
##이었다고
깃
하태경
서울시와
서울대학교
일병
키운
출석한
강사
유정
사하
##층과
##병원성
공공기관의
화천
스파
전망치를
보이콧
있었을
민주화운동
투어
시선을
주호영
국가에
동탄
통보했다
빌라
이씨의
신산업
video
##품목
양당
낮게
집중되고
특검팀은
균열
윤석
수임
성적을
##승용
##테크노
2∼3
구간을
##퍼트
국장은
양국의
조치는
##선도
한국무역
##남동
대기업이
지나친
클릭
국민들은
낯
##리포니아
지급한
인원은
진출한
마련하기
##내셔널
무엇인가
굵
분과
주민들에게
불에
스프
나타내고
허위사실
enable
계엄
부모의
독재
부터
##임금을
##불안
##abled
watching
스타벅스
심포지엄
##난다
##wser
Try
1988
450
경험과
조성해
##회생
to
성장률을
당선된
방문했다
몰랐다
교육의
##증진
처벌이
browser
##MD
바람직하지
disabled
한방
용인시
앞당겨
##업계가
들어설
네이
해소하기
교사가
모집한다
경복
##완전
##했어요
##대북
이준석
당선인의
국경
##II
##지다
변수가
대의원
이견이
키우고
마이크로
저감
위배
위상을
적용된
산악
식당에서
교육부가
그칠
멸종
든든
##지기도
민병
##것이
케어
역학
거대한
판결에
내기
화답
무능
트레이
결성
##지마
장수
교육문화
##답게
##작물
##.15
##방송통신
혼합
비판하는
##반도체
##듭니다
북상
##시즌
##(45)
연면적
변호사를
커플
판매량
강간
움직이는
모델이
평가하는
승용차를
래
어두
##오던
세상에
임기를
##주세요
외출
##9·
법적으로
핵심인
##행위가
##고사
당론
특별감찰
KO
은행이
국민대
남편이
##형에
최고위
마련된다
꿈꾸는
비영리
것일
##관제
레저
정책적
물의를
세계에
##로워
이력
친인척
##공화국
##더불어민주당
없어요
불러일으
##영향을
조장
지냈
업데이트
민자
나이가
##층으로
멜
허위로
##여고
첫날인
태안
##직접
##RO
것임을
연방준비
밭
트랙
##76
권오
연주
좌파
##호성
##천안
##사스
어버이
스트레스를
포털사이트
제도의
지급한다
소득공제
##포장
원안
50.
가기
##대회에
##운동본부
공감대를
재취업
화제를
##이었는데
기술력을
##청주
광복절
올라온
구매하는
소리가
240
투자할
훌륭한
편리한
##차도
마스터
낙태
정치적으로
권영
사칭
##전체
기소돼
대졸
페이스북을
차별화
거둔
불발
희귀
상무는
메신저
계승
배우자
대부분을
##범죄가중처벌법상
평가는
버리고
차지한
일각에선
공주
인프라를
##체육관에서
##동아
수사는
벤츠
키즈
농림수산식품
넘지
경감
타입
알리기
발견해
승용차가
될지
김포공항
1.7
벡
스킨
##비대
하려면
폐지를
##중을
수사와
조항을
##거티브
##브라
산지
##프레스
3.5
어찌
후손
확고
대기업과
이뤄져
불신
돌려보
조치에
학교는
만전을
임기가
박태
김씨를
사각지
사무총장이
부러
넓혀
‘3
않거나
못했다는
최측근
##닷컴은
##투자가
Ltd
축산물
전자상거래
이라크
증상을
방식은
한국사
분야별
##급으로
소재를
개최되는
운전자가
댄
문학
강릉시
##린다는
기록했습니다
이씨
국무회의에서
의무적으로
##겼습니다
##문화예술
포천
##치와
'2
공약으로
지방자치
직원들을
넥슨
생긴다
없다면
투자한
진흥
경제성
서울경찰청
접어들
##념을
##남녀
##특구
시에
공세
클라우드
##비즈니스
입법예고
##항쟁
소녀상
##성기
오토바이
눌
마시는
대세
하반기에
##메트로
푼
##매각
주변을
전세가
##주요
철원
지나면
반대하고
##거리는
안타깝다
줄곧
발표했습니다
미국산
----------
##orea
##식물
정청래
끝날
교정
나오면서
복권
##조명
법원에서
##페인
초중
아파트에서
없었습니다
##위원으로
한반
##로에서
져야
##등급을
군수
왔습니다
동문
##단기
##창호
##우선
압류
지방선거를
견해
그림을
##엔터테인먼트
추가경정예산
판로
가늠
할당
##khan
##파리
최태원
심어
##92
들면
박병
산림청
제한적
##월께
##(100
입주민
파악해
##연령
결핵
높다고
한국수력
정기국회
##타임스
##(61)
##지역본부
##86
불법으로
원룸
시민과
담보로
서울시내
여사가
탄압
##신뢰
##구호
사이트를
원세훈
체결하고
360
악수를
본청
간호사
##발이
새겨
##연설을
경제활성화
터미널
퇴진을
평가하고
##운행
지식재산
못했습니다
판매량이
##도날
건데요
지위
##네트
긴급체포
토마토
건전한
비행기
##롭고
##막이
제품과
보세요
할머니는
##(60
기관에
##갤럭시
교회
열풍
##메리카
태어나
방과
농식품부는
체계적으로
도청
근거를
##∼1
##페스티벌
추진하겠다
소모
##경제를
##보험은
##프로젝트
나눴다
##pp
양의
느낀다
비선
##전문점
갈라
구름이
##네이
비위
파일
파라
##개성
대학을
##.0%),
##보드
##내려
김상곤
전방위
설치할
공개됐다
개각
35%
부작용이
##일간의
무대
조영
정치권에
##함은
앨
채용을
육성을
배경으로
이집
##직으로
##관계자는
세련
개를
지정해
조형
다룬
여성들의
실명
##이번에
##혈압
출전
불출석
##항이
소관
기준은
##시에서
임종석
한양대
##휴게
##디스크
호소하는
투자자들이
바가
선점
시원한
##MO
자료가
산업을
않겠다고
말했다고
멘토링
동향을
사태의
불허
대화가
선거운동을
시각이
아카데미
각별한
협의회
##물량
쓰러져
노력해
건지
##보복
지역과
##손실
##춘천
관련자
총재가
##당원
##님을
수제
전략공천
삼성의
시설이
산업부는
지원금
기록했다고
##인한
KEB
정부세종청사에서
최선
이스라엘
부당이
비만
고래
##교를
치러진
분들은
##비도
##이죠
증시가
##업무를
찾아야
곱
현금을
##대결
구조적
결단을
예정대로
얼어붙
법과
고집
##킴이
미래의
##UN
양극화
##금리는
조양호
##가구를
##가을
##.16
방사성
##멘텀
중앙은행
##으려는
##(60)
6·4
##데스
단정
##갔습니다
자랑하는
대학이
오후부터
##착륙
##화력
##강을
생애
뒤에는
-0.
대사는
기피
##~40
사안에
제시하는
하에
##원한
양쪽
홍문
UAE
##조사는
투자자들의
박재완
감싸
게시판
속으로
##동성
아이돌
##여명은
확인하기
꿀
시간대
한눈에
업체인
교실
지켜봐야
##(☎
연기를
##(47)
##∼20
##──────────
유럽의
재심
양천구
누구도
우울증
##병수
##아카데미
되살
고발했다
##노동당
기울이고
외교장관
기쁨
차입
프레임
##문제가
남양주
실제로는
보장하는
톱
적격
중소벤처기업
역임했다
캠코
##전략을
뜬
단백
상여
기록할
고마
일당이
韓
##진로
성장에
역사교과서
##스팅
넘겨졌다
##산의
운영한
공관
펼쳐진다
과도하게
최문
구인
김주
##커뮤니
이럴
##장관이
빌린
알아야
진료를
퀴
##부총
넣은
장소를
관철
##기관에서
인정받아
송구
남부지방
그거
국정기획
임무를
리얼미터
감염병
거뒀다
파이낸
##하이닉스
필요로
폭스바겐
##세서
만나볼
##즈는
##상무
##...1
철새
##러시아
더블
##단지를
시장점유
##∼10
##등이
국내로
##조원으로
년간
##~11
외환위기
가라앉
기술로
##방학
##망에
주총
지니
##컨대
김도
민선
##기관은
IBK
웹사이트
0.3
행자
되어야
##구리
공소시효
방위사업
때려
심하게
##감정
##초를
##무효
범국민
장면이
깎아
걸맞
##시절
(02)
##박원순
사물인터넷
소득주도
##오스
##섬유
##긴급
1300
욕설
##국회가
동화
보장을
##년에도
손수
트리
공세를
주민들
부부는
##주유
올해의
##제과
102
##한도
열기로
방류
##했거나
애널리스트
일상생활
고인의
찜
일과
호전
개발이
보건의료
##용량
운세
지속가능한
뜻한다
##낸다
##동은
언론사
강화했다
감안할
대응이
분양가
딴
##커머스
경쟁률을
법정에
##박이
선거는
보좌관
각광
반쯤
##졌으나
징후
표출
헌법소
덤
둬
동호
도시철도
한국농
성장과
세븐
성능을
양국이
탁월한
놓인
재도
이벤트는
자녀의
##협은
적용을
##통화기금
연이어
부도
소재로
좀처럼
기자들의
##와대로
인명피해는
##어치를
수행하는
책임지는
폭력을
##까지만
있기를
업무방해
연휴를
##SC
현오석
긴밀히
제고를
##아들
거쳐야
혐의는
##시안게임
조성된
##조례
주목할
##보라
일본을
전술
자산관리
밑돌
강화하기로
취지다
장학금을
기소했다
##역의
뜻하는
수입은
##육성
##수업
때와
##매일
인물이
전염
관행을
크기의
##곳과
법에
##경제의
##데도
수호
과거의
##71
대조
사례로
##커녕
전기를
이례적으로
해적
가능하고
산사태
떠났다
추진에
양국은
인식하고
적임
##공동모금
세균
##구름
##협의회는
##이러
##위치
논란의
근로소득
##달러를
##선관위
발표가
##조사에
소개하는
양평
급증하고
새정치민주연합은
톡톡
단독으로
의견으로
통지
##회장이
##지연
아무것도
효과도
소아
##스포츠재단
대표적이다
데리고
돌입했다
##넥스
있었는지
논의한다
엑스포
헌재는
##창수
삼성전자와
집중할
더는
전투기
박스
입구
추격
실현을
받도록
제외하면
싱글
국조
##전단
윤영
i
사범
김정은의
인원이
##TC
채널을
아우디
##롯데월드
강성
그렇죠
악영향을
##년전
증가율이
넘는다
이주영
전문가가
주중
##침을
##전당
입지를
##세제
쇠고기
PB
사진과
지속되고
막걸
묻고
박찬
김세
완전한
숙명
##시에는
##긴다
##상해
의구
##형과
정하는
불고
이해하고
흠
##개동
검사장
강연을
##독한
튼튼
##버드
주사
##이라든지
##스레
해요
대책은
우려하는
##투자는
불쾌
달라질
국민의당이
1.8
검토한
정당의
##공인
주민과
디저트
범죄에
처리에
##셨습니다
KA
한ᆞ
고려해야
이벤트도
벗어나지
오래된
상승에
회장에게
수석대변인은
##겠는가
대화의
부응
DJ
약세
##의학
강조하며
국유
의결했다
제치고
수입을
##우미
춘추
잡지
티켓
대법원이
##이노베이션
##사카
##호우
무기징
거부하고
전국경제인
##석희
현대건설
##시간여
서울은
냉각
공방이
상당수가
김중
##챔피언
혐의다
무엇이
##항에서
지상파
##직에
커져
##한나라
당부했습니다
##너무
대응해
##마리가
통장
소공동
만났
식약처
##행정부
포함되지
모듈
잠깐
돌파했다
만약에
소셜네트워크서비스
##외선
##프는
VIP
부산대
조세일보
일각에서
##사고를
부하
방지하기
누군가
증상
여론조사에서
경제활동
##(46)
걸음
개인정보를
시신이
공판에서
세계를
##(40
쌓인
문성
##산은
대화록
##가칭
##종목
육아휴직
##인플루엔자
##동시
외국인은
졸업하고
##중지
김두
연기가
##대표이사
상륙
아직은
추측
문체부
수순
미소
무더기로
하라
선진화
##텍사스
##매입
교육이
학교의
상품에
##답을
권위
국가주
창설
최저기온은
넘치는
아파트의
파악할
##제도가
##버리
##실세
코트라
결단
적용했다
죽은
방안은
온갖
할머니가
동력
하기도
정상은
유영
인간의
정보는
쓰이는
전하는
##저우
비치
탐지
해달라
중단된
대타협
##아는
화학물질
정직
##자영업
여론의
안전과
인터넷을
##보조금
우리금융
##년에서
이뤘다
인정된다
##로직
지킬
##시리즈
보인다고
교내
새정치연합은
길게
특임
##콜라
참석자들은
##KT
아이스크림
##지청
##특보가
##.2018
자격으로
성격이
위협하는
깔끔
수사하는
상수도
이동하고
보석
소비를
등장했다
유료
고충
접촉을
건수가
부사장이
수돗
##사법연수원
##국민이
김정은이
##복제
##ment
개입한
데도
인허가
단계에서
확대됐다
발언으로
중앙대
##시기
줄기
##세계를
관계자와
정책조정
##연계
자기자본
##(59)
123
단절
##태우
스카
시간과
©
##척을
대명
시중에
##개월여
##협회장
박진
##사업과
선언을
용도로
##민원
##회장의
.."
취임한
철도노조
##부인
번복
방문할
한수원
2.5%
매일경제
인준
##개는
개선해
##작가
사설
공부를
##뇌물
##선진화
1992
높았고
##고도미사일방어체계
일가의
아이들에게
접근할
##끄러운
원희룡
구조개혁
개선될
##내륙
길로
청담
파장이
중에서는
높아지는
##군인
##께서는
##인간
싸게
동국대
응하지
직후인
12%
아파트가
통계를
##합을
기간제
캘리포니아
##배임
인성
민경
##만원과
보겠습니다
##청소
##종에
##경과
위반으로
낙마
숨어
겁니까
##공여
##크리트
무작
이후로
##사격
내려놓
유혹
토익
##여분
민주주의를
고창
재래
벡스코
마련이
개인적인
##드로이드
의료비
문제점
거론되고
헛
##두언
릴레이
고병원성
##SR
##세액
출발한
##결국
기득권
##투표를
##CNBC
김현미
##충청
##저널
조성하는
논술
상징하는
일시적으로
업계에서는
가족들은
##왔고
초선
도지사
정재
제철
구원
##플라자
##세금
팽목
저질렀
##일에서
230
혁신적인
##대생
증세를
빈번
##실습
될까
4·
세이
국무회의를
한데
생중계
실효성
오전에
조사하는
##있고
##수영
때문이라는
악재
##타르
눈앞
단장
맡았던
태우고
영웅
안상수
보이면서
단말기
##하긴
이행을
주최하는
지역별로
##소생
##이전
##권에서
감각
VR
사용했다
##자이
##uk
만남을
한국지엠
컷
##폴리
이끈
협의가
상급
##석의
넘을
##91
넘겼다
추운
##전자가
##로와
##본부를
블록체인
노르
박수를
지켜보고
##연결
대금
취득세
1993
##KO
보게
##음성
##바이러스
상하
되돌아
##다양
출입국
관계자들과
한국소비자
거론하며
평가에서
##버트
교사는
##th
멍
##모가
문턱
권고했다
해결에
저수
지는
인사하는
##.27
서남
##작업이
##테스트
은닉
타당성
하나를
내놓지
비판도
##개방
사태와
양심
조희연
##표시
보조금을
해법
가세
거창
유감을
타워
##만명에
##으로만
지지층
공개하지
##팀에
중심이
처리하는
##소개
##협의체
한참
##시간으로
##신라
주의해야
했기
불안한
부작용을
감정을
##스타그램
##되나
##마련
마사
올라왔다
##아니
합동으로
부진한
기부금
소나무
##∼2
잣
##ard
##선한
활동하고
물고
빼고
지적한
체크카드
##있어
경보
주식형
지도자
지지율을
박선
1.4
4~5
토종
##논란
##총회를
##뺑소니
##월이
근무한
만나고
국회의장이
##인데도
##차익
##서류
심폐
삼성은
모양새다
장이
갱신
똑같이
뭐가
##하려다
##농민
언론이
4.
##농산물
##량진
##과학원
##오프라인
편지
감금
새끼
Cont
##당선
성금
##건에서
그었다
##화장품
##갑질
영주
삼성중공업
업계는
농약
청와대로
파업을
##개발연구원
##토지주택
##진한
주관으로
##바게
푸른
국무총리는
홍대
선순환
##성모
생일
##자산관리
서울중앙지방법
국과
지검
외국어
소식통은
##저장
않으면서
돌연
기반의
등급을
것만
연상
첨가
성균관대
없이는
다자
##하듯
순매도
인력이
친이
도저히
확고한
수수한
직원들
하나도
관련해선
경선에서
초록
보충
##하지도
##번째로
##적이지
##코노미
추정하고
##종일
조지
리뉴얼
좁혀
공청회
이현
출발했다
우리나라에서
주최하고
지장이
발굴해
진해
동창
생산성
김천
대관
즉석
##간부
외국인의
##발적으로
전월보다
드러내
텔레
방영
수익률이
##론은
##∼30
위협을
##세이
누진
공기청
일본인
이장
##걸음을
##산동
양호한
##병으로
커지면서
해수부는
유선
추세를
나노
마늘
옹호
이마트는
원자로
사이트에
##어스
##비율이
“1
지주회사
##소리를
전략이
##티나
강하다
개선하고
기분
##등록금
1.3
##유는
1∼2
설문조사를
했는지
##SB
##불량
회의는
경복궁
발목을
아파트에
4·3
작년에
실전
당헌
생명보험
큐
확인이
증가했고
##강한
##(44)
만의
달러화
프로모션을
##크로
##지금까지
김관진
고민하고
방향에
금지하는
잘라
모를
##패스
청문회를
흔적
단어
집회에
##교육원
LIG
도착해
##상권
오일
과징금을
지원하기로
출고
의미하는
슬픔
##선언을
닛
줄어들고
##방울
##83
휴식을
##하진
다르지
벤처기업
도입하는
역삼
##시경
그들이
##책으로
서울지역
통보를
발로
##검진
농협중앙회
성실히
1991
싣고
##트리온
##납세
사용된
대법원에서
운행을
기본계획
윤병
##취재단
전문위원
탈루
경우를
외래
다중
발전과
##치인
신청이
##헬스
보증금
모멘텀
점수
도의
표류
생산한
##유니
채팅
불리한
##으로의
2,000
나라는
바람직하다
##날씨
선수가
바깥
##위원장에
타깃
자기가
협의체
##삭한
##다란
강화와
돌아가는
집중하고
최씨가
##피의
사고에
당사자
우위를
이노
금속노조
운영되고
오신
의료기기
##갈이
학자금
불응
##마저도
관절
더구나
일으켜
경영을
##연구소는
##업의
내실
가격도
연행
##시설의
약정
##로또
##전투
##조류
반경
지방의
##루미
##워서
박희
인정해
하반기부터
##었어요
##국장이
바라보고
명목
산란
상장사
자라
간판
##사고로
전가
낮춘
##복권
견디
살피
허술
##자율
활동하는
영농
조립
##서울대
이젠
이혜훈
혈중
이사회를
이어서
전체회의
핵실험을
찾아와
참전
결혼을
##화성
자신들이
법안은
담화
근로기준
모두에게
맞을
브렉시트
##음모
거치지
농성을
##여년
남기
식중독
##창고
출신이
여주
부산에
그저
##아름
경선에
있습니까
##식장
노조의
물놀이
##자리를
효율성을
파란
문자를
맡는다
고백
신병
청구한
세계의
##직에서
##서구
맺었다
총리를
균형을
결선
안건
시작된다
론스타
발생한다
##연구원에
##량에
위스키
본회의에
##국민은행
다목적
##중동
전면에
##전공
http
을지로
들어선다
탱크
믿는다
##등에
웅진
##여개의
##미수
9%
독일의
에버랜드
적십자
##김치
##보에
LPG
국면
MSI
이길
한국은행은
파트너십
저성장
법학전문대학원
영역을
곤두
개혁의
차질을
절반을
은행에
청와대를
쉴
St
통화를
일축했다
세포
노벨
맞벌이
구조가
75%
등장하는
##도시철도
용기
칠레
자유로운
##비례
##요즘
목적을
섹
##막을
결함
##협회에
##를린
당에
##페이오
재테크
올랐고
흑자를
사실에
과정은
##(42)
출석하고
##추석
우려되는
전진
공방을
개그
살리
배수
돌아갈
비극
##트와
##명품
##시키지
반응은
박범
산하기
임직원들이
버스를
관리하고
이규
##졌는데
한국수력원자력
정경
있었기
차이는
남의
##제도의
##이수
장소에서
##-4
강동구
##근한
투자와
수석부
##작을
내비쳤다
과감한
양이
금융상품
휩쓸
##자마자
국제유가
바뀌었다
##왼쪽부터
구성하고
옥시
선거관리
한진중공업
사유가
공존
글에서
나눌
몰카
한미동맹
확대한다
##도시로
송전탑
최첨단
법정관리
고소한
내역을
##월부터는
관제
##EF
##대출을
물결은
이사는
심도
도래
여건을
청년들이
삼성이
대우건설
##게시판
건물에
선고를
##김영란
정규직으로
급변
탄핵소추
##관찰
조직의
지점에서
서민금융
오차
유가증권시장에서
부유
해남
##리에서
어디서나
##개에서
의심되는
개헌을
이루는
##내역
걷기
같은데요
사망했다
재무장관
보은
퓨
숨졌습니다
국민건강보험
유의해야
표절
죄질이
참가하는
사회적기업
소진
스캔
언니
##월로
평년
##텔레콤은
외환보유
보람
많게는
이곳에
표했다
파업에
광교
절반이
개발하는
개선하는
##병원은
운영한다고
임산
신영
이한구
시기는
영화를
지역에서는
##oul
하야
점진
유출된
##경의
발의한
대응하는
##나나
회부
차림
박창
대하여
##분향
교차
수석의
시행하는
기대감을
관악구
티셔츠
파고
##CJ
심층
국가적
한국관광
개최할
인체
노동자의
##SBS
참여가
이용이
길에
시상식
건가요
행정자치부
후원금
##가맹
##에미
인사혁신
성관계
##총연합회
##냐고
최씨의
해를
##수요가
기성
한발
##파이낸
가져야
##불을
희망의
##받기
문구
인도적
청해진
##북한은
##라운드
##승진
묶어
과시
살아남
##국감
대치동
내역
단계에
##들만
건강기능
보이지만
##여론조사
해외여행
##도발
##투자를
##티드
방제
의문이
제작해
설명하는
검사의
비록
금메달
...'
입문
지체
##물가지
신중하게
##상도
바꿨다
실적은
편향
국가는
##율도
않았기
대회를
##취약
김해공항
쿠키뉴스
롱
이바지
삼청
단체가
국민안전처
평범한
공동대표는
##수정
##.10
여행객
정상이
남짓
자사고
##ID
애니메이션
키울
찰
##계로
남기고
전력이
발목
국방장관
서울광장에서
##os
##잡이
##쓰레
##부서
틀을
비공개로
충실히
##협회와
##격호
##생명은
충청권
##으므로
서서히
구본
벤치
드릴
##억여원을
##감면
##위원을
대두
##제안
##해지면서
결정적
부속
서울서부
##선거구
##르다
##서해
##전주
옮겨져
궁극
시그
##경희
네티즌은
밀착
손실이
구성했다
실수
안건을
신청은
##혜원
1.0
5.18
##김현
거래되고
내주
조찬
우선적으로
후보도
랩
던져
##당했다
추진해야
##인력을
논의에
##동네
늘렸다
변화의
##다툼
목표는
북쪽
꼽혔다
시티
##티스트
만점
전문가로
평가해
가던
재연
한진그룹
속한
사실로
5·6
##섰습니다
특화된
상응
육상
##됐다가
쏟아져
반문했다
더한
건물이
상승으로
이달부터
##거래를
##들에게도
핵무
지원은
전문가를
##우회
##대회가
##척이
선택하는
권리가
메가
천주교
도입했다
##-5
##장일
##우면
택시를
장미
김영란법
성추행한
지리산
잇따른
보였습니다
철회를
##자살
##건전성
무리하게
가져올
잃어버
NS
내게
초미세먼지
통관
미국으로
##군에서
조직이
자신과
원스톱
##82
Res
1960
것이지
가다
연구팀은
사고와
우리나라에
회견
내부에
기대에
지침을
##대부
반전
최종적으로
##발사
의뢰해
가급적
청구를
소신
식품의약품안전
국제통화기금
##르며
후진
날로
방학
##비용이
받기도
103
의하면
by
##밖에도
보도한
살리는
인물로
형을
의원들과
##운동연합
조성한
트렌드를
띈
##무상
##LO
작성해
특허를
수년간
처음에는
근간
사법부
##어선
투명하게
열쇠
신약
청년실업
촉구하며
생필
##자전거
부산을
##조원이
계기
나름대로
교복
롯데홈쇼핑
##보이
브랜드인
토론회를
수익이
업황
소중
##사와의
##조원의
경영진
부지를
편안한
##어링
불가피할
##슬러
일부러
##미노
수뇌
우량
포퓰리즘
##단체의
6,
급증한
##논의
##장관은
##변에
약물
흥행
예산결산
##라디
##생들이
삼성생명
이강
대표이사는
##권리
정화
스토리
##법관
##적폐
1~3
업체와
인권침해
##ad
확대했다
피해자들이
미수습자
복직
비결
우리를
경제민주
##들기
##녹색
##당국에
IoT
심리적
국도
프로그램이다
무제한
자수
##공장에서
학생들과
##폭은
오리온
비자
##바꿈
##유엔
ETF
운전면허
##정밀
내연
데뷔
차익
##문으로
의제
##증과
여성과
##속도
흐리고
##지던
특가
개최하는
안전하고
사고의
홍천
강화한다
사업계획
##타당
영상이
일한
##잘못
##인인
검출된
울주군
집어
무시하고
북한군
생산자
전방
##교원
늦춰
증설
얇
에너지를
##창을
편하게
홍보를
##관리법
당국에
랜드마크
아닐까
헌법에
하나은행
##일이다
유관기관
양측의
##기자회견
##민주화운동
소홀히
퇴원
해결해
수락
##비한
실형
경찰청장
##이민
##발찌
걷어
##애플
##장치를
국무부
판매할
오른다
##만달러로
##축을
##치료를
스마트폰으로
강점
미래창조과학부
##환율
부동
##일정
만하다
일으킬
한국산업
달린
'2014
국가보안
금융통화
일정에
##여행을
7,
백운기
##데타
취항
아쉽
##방식을
##르면서
관리할
예능
언제든
일어나는
합격자
횡령한
##김해
걷고
품목을
유시민
나고
##모두
조사와
대주
##공단이
끼어
칼럼
##용이
##의장
마련돼
보금자리
구역
주인이
전년도
##서야
사회부총리
헐
##투자증권은
##북핵
제주항공
외압
정오
##렸을
정체가
##상황에
상승률
##용수
##지거나
공식적인
전화로
하나하나
사무실에
##협상을
바지
못했고
것이어서
역외
시간도
지자체의
##사회가
경기도지사
자료는
포스터
그분
생산된
조직개편
백령
##아프리카
별개로
국민행복
의문을
찢
##친환경
##평생
정신과
##육아
##겹살
내진
중수
번의
##창의
사은
특성에
남는
##테마
답변했다
##라운
차남
들어올
덕분
오락
막바지
벌어지는
##랑이
설명회를
이산화
안드로이드
편지를
##홍준표
미미
중소기업을
##속을
소각
몰린
##나타
##비율은
##ilbo
사안을
행사장
확실하게
개최해
한가
##감치
달리는
인스타그램
##책임자
##총회에서
구경
제목으로
##일레
가입을
##환경이
유세를
찔러
##사다
실리콘
##충돌
양은
쪽에서
방미
##매체
추대
확인하실
115
감소로
대학은
역동
##소상공
포함된다
많지만
성북구
비무장
##열을
데이트
##마의
##ine
지은
늘었습니다
##입학
우즈
우려해
수당
지뢰
##공감
허용하는
임명된
##시간의
어디로
분배
##추경
퍼포먼스
치아
:[
##회담을
집계됐다고
정읍
##LA
##병에
띄는
##(-2
무마
##만큼은
이슈에
오르면서
##징용
줄인
서두
원씩
업체들은
##The
극히
백악관
버튼
집중호우
총영
문구가
뒤에도
자택에서
지급할
##량과
##느냐는
목요일
흥미
직원과
##롭지
규모에
디지털뉴스팀
않아서
싹
리퍼트
##억원과
선두
의혹은
##있습니다
##살균
친일
##버스를
2.4
교류를
탄력을
웃도는
흩
사거리
맡는
정보공개
##접수
더이상
반영하는
##민구
안심하고
진입을
농촌진흥
##림이
##오픈
안경
구워낸
1,0
구청장은
뜨거
##능력이
기록하는
돌아섰다
직원들과
미투
##∼7
공무원들이
단단
동계
##부실
월간
어디까지
##이렇게
금융당국은
운수
##:1
놀이터
##는지는
인근의
주력하고
대미
어획
공급할
전원이
구형했다
태워
배경에
수직
##방사
고의로
##화했다
중동호흡기증후군
방사선
생각도
플랜트
떠오르고
##드럽
유저
붙은
점과
가사
오후에는
북한에서
커다란
##료품
약세를
도시계획
##봉사단
국내에서는
마음의
의미에서
##교동
SS
##보좌관
일방적인
사적
여섯
응답자
##대왕
때만
중의
폴리
대표단
사업도
##편성
##(40)
옛날
심폐소생
뺑소니
중요하지만
파문이
의원님
기억이
시민들과
컬렉션
요청하는
관세를
위원회는
노무
일원에서
논의하기
타는
예상되고
##폐쇄
코레일은
당기순이익은
대사관
##천동
조건이
동지
그치지
밖에서
##오지
연합뉴스가
읽어
음식물
탈바꿈
아이들은
##들께
##립대
##장으로부터
##년마다
교육은
셀트리온
##스트라
미주
법의
본사를
있음에도
낮추고
워킹
재미있는
얘기는
커뮤니케이션
역전
##찌감치
0.8%
부를
발견되지
##성남
대선에
##년부터는
##집이
병사
벨기에
소유한
이통
##어떻
비용으로
정면으로
##헬기
서울신문
나타났
남북이
지나지
##행사가
이들에
##고용노동
SC
포즈를
KDB
금고
제한을
시행한다고
생산을
##라든지
계좌를
못했다고
정치적인
투쟁을
##조절
기장군
박물관
사의
외교적
##측에
104
연제
관계자들을
격차
운영하며
조모
세금이
알았다
조금이라도
##관계에
단일화를
##레이터
나가기로
경인
폐사
##바게뜨
##아무개
남학생
드물
봉하
실손
106
##(35)
기관과
찾아볼
돌아와
##편에
참석을
드립니다
법규
할까
##페어
##라시아
완성차
##사령관
##물품
0%
딸의
위험에
관세청은
단속에
사정을
##용석
대회는
활발하게
선고받
시선
기획조정
##경력
윤종
갯
##정책이
보호하기
극복하고
한성
남북한
##MBC
##적으로도
다루는
##농도
연설을
있어서는
샐
##로이
장기적인
계곡
국영
##∼9
용도
행렬
용이
눈으로
각별
비관
회의에서는
한은이
시행을
완벽한
살기
참전용
##(32
주어진다
##불이
대정부질문
차장은
##없음
칭찬
##대변인
행보에
잡혀
에볼라
##량으로
SBSCNBC
특활
성매매를
##토지주택공사
도발에
##데일리안
좁은
서귀포시
하동
상반
시사했다
##CF
##정화
논의한
##어떻게
운행이
비서관은
전통적인
유한
강남역
지역별로는
125
산타
압력
아침에
##의료원
비로
종합대책
기숙사
Hub
펜션
0.7%
##경향신문은
클래식
신청서를
직원에게
필요는
이동하는
전념
##까지의
##격으로
상품이다
##로만
제때
노골
했어요
얼마든지
네거티브
까닭
##상한
종일
##판결
##PM
##복구
방침에
전사
이대로
기밀
품고
##em
대란
##자유한국당
동아리
표명했다
푸틴
##하다며
##징어
세종대로
채용비리
##스틱
기자들에게
국무위원
입니다
서울이
##도스
##성완종
서울시의회
강화한
뛰었다
심리가
의료진
계열사인
##룸버그
거부했다
주기로
##대통령의
공헌
##기아차
##하므로
##시킨다
좌석
사이로
송영무
##하시기
##일레븐
근무를
부과하는
견본
##PI
##되더라도
재산이
##명대
##내부
0.6%
귀환
낙하산
##국민연금
간이
주목하고
욕설을
전력수급
주장한다
산업통상자원부는
악수하고
##정에서
외환시장에서
호황
배우고
##위성
금융사
때의
부산진구
##지사의
박준
고유의
부품을
##주의보
인질
환경에서
머물고
투표율이
승합
Content
##파견
밝히면서
서비스에
부드럽
국가에서
비핵화를
컨트롤타워
헤지
##하려던
4·13
파악한
##ure
##장으로서
##물질이
부분에서
부족으로
참석자들과
##패드
바삭바
활발히
##검찰이
##교육청이
불어넣
조류인플루엔자
##제출
낮아졌다
이슈를
번역
대통령과의
정두언
잡힌
처벌할
배터
주파
##심의위원회
보태
보고했다
재난안전
##대상은
##횡령
올해보다
한국으로
##정책연구원
##고위
전략이다
제도개선
책임지고
경남기업
바다에
##미투
기운
악취
가해자
지정한
진정성
경력을
##LH
##가리
기회로
바람직한
의혹으로
##변조
장점을
외에는
의학
##사업부
##(43)
고부가가치
##TM
병무
심문
거둘
민원을
언제든지
신기
커피를
만화
범정부
딜러
자유한국당이
##나의
휴업
##GS
‘4
비유
##현장을
##상생
가금
네팔
대원
시점을
있겠습니다
개편을
##노선
노량진
주민들을
##반의
대신해
##기록을
제압
매칭
비박계
리더십을
유신
총선에
##로선
##)"
##명인
정상회담에서
실버
성향의
##위원장인
흡입
국제유
##가량의
유은혜
피부에
여중
동남권
##(33
세우는
없애고
부장은
높지
북극
##반이
##해보
아픔을
깔려
##갑을
##지사와
경사
분포
반영할
서비스로
##규모는
빠질
높아져
시점이
보호무역
재정부
성장의
연차
##공원을
투자는
왔던
개발도
##거래가
주신
##명이었다
돌아오는
가담한
창출에
##신동
##쳤고
##했음에도
동대문구
##종환
잔류
안착
아쿠
에디션
현상은
유통업체
##여부
서비스도
보신
걸림돌
불안감이
##공기업
좌절
경상수지
분야로
##투스
성공할
구간에서
못지않
생활용품
107
선정돼
전형적인
당시의
기각했다
애플의
참으로
지원도
범죄가
품질을
문의하면
전문기업
연방준비제도
거는
현금으로
농도는
전망은
이전을
우리나라를
바삭바삭한
조성하고
##(35
말하면
조화
##평론가
취업준비
##이스트
다주택
시의원
##공동취재단
평가한
##영국
자백
##대도
척결
##네트웍
태운
##정의당
##간호
진술이
학위
고가의
TPP
##CA
고구
국회와
res
환전
시찰
고혈압
교훈
밝혔지만
명확하게
언론은
자랑한다
접경
##상황이
달고
##회사는
바른정
##kuk
등지에서
##.24
선고받고
제시할
##달러에
사생활
##말라
바뀌는
범행에
패러다임
##2(
외제
이집트
우체국
안전성을
##하는지
장교
경기회복
##저희
메이크업
##RT
전문가와
내몰
장소로
사람들도
경희대
수은
백남기
언론을
공개를
말하며
다투
간절
한도를
권성동
조선업
폼페이오
가볍게
표현한
단지는
반대를
기업은행
출시했다고
받으면서
수단을
사과했다
EBS
미사일을
주상
수석비서관
당시에는
##(34)
지도부의
확률이
확인해야
방송에
아나운서
무섭
심재철
필요성
금융지주
김해시
통과를
정용
펼치는
##.2017
가능하다고
가능하게
본선
##~15
##더스
급성
##유승민
있으니까
알릴
늦추
신뢰가
옥션
##호점
##하겠지만
격차를
꽉
##우나
응답은
서울동부
##경찰이
역사와
##국무
국민안전
노력해야
안녕하세요
##과목
##에미리트
##박을
##친박근혜
##덩이
좋겠습니다
기울여
국가기록
교재
행태를
##CE
증시는
판매되는
내일부터
'2012
##스토리
##렬한
정태
댐
##되기를
벗어난
##적이라는
하우스
활용하고
##지향
##(62)
중앙당
긴축
##이었다는
교육감이
최근의
이르렀다
##죄가
바뀌고
##시설로
권한이
무상으로
메모리
투자의
많기
재판부가
아름다
장관에게
외벽
기자와
강화된
느낌이
김여
설치했다
쪽은
뚫고
사학
좋다고
##방은
##기관리
▼
윌
##점포
확대된다
불확실성
김정남
여유가
이곳은
중국으로
지급하고
계약이
콘크리트
위기의
싱크탱크
실린
유도하는
아르헨
증가세가
참가했다
##내용을
없는지
국세청이
세모
##우산
1800
무차별
공개하는
##일까요
판단된다
옮기
##하이닉
망언
늦어도
장식
방송에서
월성
##자흐
교육에
반면에
무단복제
전환하는
##대란
##산물을
명절을
버린
##상봉
사채
불안감을
제지
업소
실력을
##inews
남을
14%
1100
목포신
##세미나
실소유
기점으로
종류의
거론되는
휴양
이내로
##혜택을
헌법재판관
##세율
풀어야
예고했다
##요청
##kukinews
그들은
성장했다
힘으로
##독도
중입니다
주도권을
세월호가
##북미
필기
##주차장
##정치를
착한
가치는
겹쳐
어머니가
##─┼─────┼────
##이므로
나와서
환경노동
##비드
ELS
부정부
포도
펼친다
대화하고
##하니까
이견을
##예약
호조
행사할
##실련
윤병세
증가하면서
##콘텐츠허브
싶다는
##-7
##(38)
##조성
가닥
##보험에
털어놨다
##5,
옐
##행사에
행위로
##대표는
흘러나
##랐습니다
않았습니까
##정리
인권위
##심리가
어울리는
비상대책위원회
##한다며
금융위원회는
##왔지만
규명을
SPC
##상대
##농장
##어지는
MD
##ak
압구
김원
박인
##쳤다고
벌인다
렌터카
선고됐다
.'
##군으로
미세먼지가
##편으로
미쳤다
교부
##.30
##르몬
짙은
출품
##민석
민원이
경영에
##비즈
성관계를
조씨는
일찌감치
알겠습니다
전동
이상한
사단법인
뒀다
서쪽
대화와
취지에
##조선해양
##상태를
하려는
##열에
청춘
말씀하셨
정보통신기술
##파티
감동
##편집
##사절
##기능을
다시는
##꾸로
여론조사를
선제적으로
태권도
여기까지
검역
변동성이
합창
인물이다
##NLL
기술은
번씩
인사청문회에서
살펴볼
##음주
태어
해피
노래를
수준은
45%
##호수
##년층
##학자
##었으면
명도
오직
이재민
인수를
##마을에서
옮긴
이상이면
##RE
이랜드
대학에서
금융당국이
블룸버그
##겠냐
보너스
##작업에
되새
##하락
한국거래소
수자원
##임시
공언
도로에
##이고요
신용평가
요구했습니다
최고급
패밀리
그릇
없었다는
##무일
개최된다
##배출
##세관
의식한
프로야구
홍보수석
출석을
다들
정차
좀더
신격호
대구경북
##농촌
##폐지
##감염
제공했다
개선하기
##으려면
밥을
외치는
행정관
##소음
##요금을
행사도
##해군
괴산
##등한
대한상공회의소
투명한
위해서라도
개선할
##NK
##렌즈
대공
우려의
아마존
##계산
교차로
적절치
증원
바라본
전반을
잠복
끝났다
##후보자
앞으로의
킹
##량도
##영동
##아가는
택시기사
참여하지
유지해
##제표
드라이브
초에
동력을
구제금융
방식에
저작권
##협회의
##교육의
다이아
원자력안전
제보를
##들까지
##ss
인원을
상승률이
사진공동취재단
싫어
##병은
금정
11%
모양의
재정위기
획기적으로
홍수
휘말
사실관계를
배석
인사에
##하기에는
청소년들이
111
굳건
통일부는
##배추
고강도
회사에서
전액을
입어
기념식에서
##이에요
당무
대마
한마디로
필요합니다
달성했다
##book
구도
##민정
노린
모임을
##관계장관
##아의
2.7
분노를
국정원장
연애
양상을
전년동기
가열
국제선
국정원은
##선생
여사는
제출하면
웹툰
입항
예컨대
비교할
산간
목격자
이하인
##편한
법리
운운
부담으로
첨예
##모의
포부를
##력의
##우유
여직원
신탁
##대고
##실질심사
제주도는
공정거래위원회는
추천한
회전
내장
기다려
##산업에
중간에
"20
가구는
인하를
##세트를
##년엔
##소녀
우선협상
인센티브를
일대를
값이
매트
달래
대한적십자사
##층짜리
성평등
##전입
최성
##제조업
##명당
MS
가전제품
대접
악순환
##선미
##내에서
상황으로
##NY
밴
총괄하는
제외하고는
라이브
지난해와
미래가
장치를
##땅콩
이밖에도
달성할
##스퀘어
270
##아라비아
경비원
하노이
공정거래위원회
인가
중시
##월세
114
됐으면
확보가
경찰관이
침투
##워야
##성능
피켓을
최문순
##상위
흔적이
##BI
##타당성
일들이
보일러
딸기
##사회에
가량의
시행에
통일을
돼지고기
낭독
##난이
##대포
##교수는
만장일
돌아왔다
전향
"200
##구도
해커
대안으로
대한민국이
살던
의왕
드리고
조화를
예상한다
모녀
승무
일조
컨셉
##러리아
체질
선풍
반론
##수익을
사과와
##오션
사외이
210
구의
치과
##조치가
입힌
들어왔다
자생
했는데요
기업가
대책에
선물로
##분경
“4
쉼터
듯하다
2.3
안산시
한국철도
##하겠다며
당선자
청탁을
주도로
담임
부적합
##통운
##(33)
발견됐습니다
개점
띈다
키워드
##스테이트
바퀴
##모로
2.8%
2.2
일베
##항으로
변화는
##아주
##장소
흉기
전체에
형이
##문제에
지도부와
공립
대기업에
귀를
샌드
##~50
제정을
수장
제기하고
##릿수
주축
##개월의
국제회의
아니겠습니까
##와도
유골
동안의
##용을
부부의
##필드
##크라이나
투자유치
##서쪽
외부에
##록에
순조
앞을
##단체인
지정을
right
##리스타
##ate
거둬
예상치
강모
싶었다
행복을
구로구
##진대회
자발적
적대
계획하고
맥도날
경기지사
나쁨
'2013
2.6
인문학
##행위로
존재하는
실종된
여부도
##기념관에서
급여를
증거로
순직
견본주택
##년새
한나라당은
##평택
재수
##유세
주민센터
신빙
##케이블
발암
휠체
재원을
차이로
까지
손꼽
토목
시공사
김영철
##급이
지문
##드려
밀접한
수납
전체적인
1600
회담에서
##경주
제기하는
선정하고
내렸습니다
##지원과
##KDI
##일단
##.20
의해서
정치자금법
##카드로
인연을
##아시아나
돌고래
##기호
##맞춤형
##이어야
차명계좌
국가안전
##납부
삼성바이오로직
많다고
인권위는
중소기업중앙
배치해
적잖
벌어질
익숙
배운
분실
무단배포
적발됐습니다
4.5
##아서
고문은
선에서
보직
전문성
무난
##했나
##대학교에서
행사에서는
사건에서
회삿
선고했습니다
암호화폐
##이라면서도
##마음
삼성화재
지속할
##펌프
선출된
브리핑룸에서
##라톤
신화
고대
답변이
##영장실질심사
##리스크
개념을
한국산
감소할
한국개발연구원
##소위
반출
가슴이
##단체와
예산안을
레벨
##가상
##조기
전량
이동해
실력
야당을
공업
만끽
최소화하기
##가기
방안으로
취하
언제나
일어났다
지시에
##끔찍
##학부모
산업이
##차산업
나서면서
결정적인
번째는
##다양한
마리가
##설턴
##경제연구소
수해
각자의
종신
표현이
##르지오
##기념관
어플
평소보다
시도한
차량으로
양파
서로의
보답
여러가지
후보들의
합의로
터치
초당
야당과
완주
절단
이시
##(30)
##∼12
가득한
서강대
##법적
##상장
잔여
한전은
전하고
##일만에
원내지도
옮기는
수배
문자메시지를
##취재
생명과
선보이며
취득한
##집행방해
##유도
5~6
문구를
122
##해고
통진당
고려하지
김태호
산업용
의원들을
##되길
##착한
시행된다
##미안
자의
피해자는
##성실
##에다
자율적으로
예방하기
확대로
##미국의
##프리미엄
##요리
새우
##일로부터
잠겨
사유를
퍼져
무더기
가격의
##산업개발
그루
##경제협력
연도
##규모가
##(29)
##투자자
대한항공은
남성을
밤에
##항은
변호사와
경제수석
쟁점이
##터가
##태세를
판촉
들었습니다
칩
##돼서
카운
출연한
굳은
##안으로
##우리의
기아자동차
시각도
눈길
불교
몬
이춘
##US
물가가
성추
얻기
##방송을
##IA
업무가
##었는데요
지금까지는
아니기
반찬
##젊은
##신규
분위기는
##끼를
중산층
예의주시
뉴스를
농수산물
언급을
제기되는
##기본법
##상품권
사이즈
조언을
해보
전무는
피해자와
##지회
대덕
포획
기록했고
##연구원의
증가했다고
국방부가
안전행정
끊은
폭설
영리
3.5%
##드리고
아버지의
메디
북한산
서울광장
나갔
화성시
관계자의
##프란
역사상
##냉장
텐데요
##SDI
금지하고
##기에서
탓이다
##세까지
복당
늘린
생생뉴스
살충제
##(36
직선
역내
##식간에
제소
테마파크
상회
추천을
예보했다
사흘째
##┼───
소문이
##게이트
CG
수사할
##팩트
부여하는
출판기념
게시판에
지나는
셔
무너져
##가짜
담뱃값
컨퍼런스
상근
구성한
사라졌다
##시설은
논란으로
최상의
모임인
멸종위기
목동
얘기하는
웃음
자체는
##공격
##귀촌
듣지
선택해
슈퍼마켓
임기는
도입할
와중에
달콤한
씨티
윤곽
전쟁을
서울행정
##단순
감옥
끄는
면접을
창출과
##하나은행
##스닥
##산단
##그래픽
해방
당신의
##말이
결과와
벌써부터
##번가
영월
조망
매각을
아내가
대상인
신개념
특검이
쉽다
분들도
발표하면서
떠올랐다
기관장
가속화
##(34
참석하지
##분배
전후로
한자리에
서울메트로
세종문화회관
기금운용
세액공제
본래
서병수
SOC
##제에서
역할에
미흡한
시장에서는
무궁화
워크아웃
겸임
##차피
상품권을
나오자
인수한
도로가
청해진해운
##호로
성찰
rights
##놀이를
등락
강북구
주재하고
발생했습니다
엔저
운전을
##IoT
오해를
##충격
일정은
##수지는
##재원
나서기로
유통기한
운영되는
조성에
##심원
알기
부담은
##의식
##상시
임의로
분류되는
##브란스병원
다녔
##개선을
한국전쟁
##사면
##합격
##과잉
할까요
선발된
파리바게뜨
재판부에
##6,
선택의
녹지
챙기는
멧
이득을
조직적으로
##미의
수치를
데에
서울고등
영장전담
줄어든다
걸었다
개혁에
역설했다
##그런데
줄어들었다
LCD
전략으로
재정적
죄송하다
체불
##남성
뭐라고
##(41)
했다가
인플레이션
논평에서
인구는
소환조사
##혈관
됐지만
대통령께서
물밑
##ark
온다
##싸움을
전적으로
##판으로
##────┤│
제도로
취지에서
60.
##사건을
##삼성전자
연인
##곳이다
부산국제
들어갔습니다
격상
부근에서
콤
CD
절충
자본주의
살린
계획도
스티커
거리에서
있는지를
##4,
열을
##금액이
박승
##달을
'2011
완화를
노조원
오로지
관측된다
##스트리트
소개한다
다하고
저조
읽고
아우르는
##진도
개정해
정보와
안전점검
전자담배
불과해
변호사의
02-398-4
이튿
패권
오늘날
높아지면서
여력이
개교
창녕
##사관학교
##이제는
개혁과
고개
반발을
4441(
실려
02-398-4409(
##현행
총동원
지을
무이자
##수기
신호를
개가
경축
점쳐
##전도
##드라마
사람에
훼손한
고용을
정신질환
##러드
다단계
##네마
내구
##─┼──────────
##학사
아라
##하죠
##손해보험
가출
대금을
사천
##대표가
강씨는
보수를
승선
##체적인
변경을
건강과
PK
가구를
위협에
제작된
##문화재단
##원대
reserved
달리던
상당을
요청이
은평구
경기부양
비서실장이
##리서치
배울
##81
남아있는
지도부를
들지
비하면
##천연
무대에
적용하고
##해볼
실속
인계
##사회는
열병
##노조는
거부하는
일련의
촬영을
##방역
같았다
나와야
##검사가
전문가의
##개사가
부풀려
인사로
##봉주
방안과
달성을
빈소를
주승용
2.7%
회복세를
논설
대도시
키움
##중기
구청장
##범으로
개발했다
더위를
##제도는
6.25
‘2018
시작했습니다
##파인
‘2015
비판한
데서
판단이다
2.6%
땅에
적고
##오토
세분
##색으로
가하고
초기에
고흥
아파
##여부를
심리를
##이라든가
결의안
##가명
표지
학기
##ort
김영주
올라와
##스럽고
위주
사유로
입는
발길이
조종사
파크
목표다
현물
다리를
##러블
버락
증가율을
SW
목욕
##전시회
올랐습니다
안개가
모두를
달여
##임원
가정을
프란
보여줬다
라운
센텀
安
거라는
간소화
특별조사
여기는
친화
##공장을
매장에
화상을
윤상현
강제추행
평년보다
##성분
아랍에미리트
0.4
영업익
문제제
##인사를
##태양
집회가
비상이
##고등
##이해
##구조조정
정책금융
##매가
맛있는
웃음을
일으키는
미래전략
##20)
##오드
특집
블랙박스
쓰러진
330
의혹의
방산
근대
##ew
##브로
다큐
뒤따
##외국어
##운수
성형외과
현대차그룹
대선개입
##양식
비트코인
##움과
때문인
기사가
##한일
연금을
##(02-
##중앙일보
계단
##지분
후회
당시에
이유도
상승세가
전속
##종교
거듭나
되나
임종룡
롯데호텔
장관에
승객이
코드
방송인
감성
1.3%
주어진
##증은
청량
양측이
##환급
뺏
다우
걱정을
안되는
구간에
결정됐다
의료기관
한시적으로
##ib
현대제철
##교직원
##사업단
규정했다
세탁기
성과연봉
##-9
좋게
##코스피
##(37)
협력이
전국동시
##아빠
몰리는
미끄러
초과하는
명단에
법사위
않더라도
확대하기로
다가오는
감소하는
길은
논의는
유치에
피부를
정현
노력에
위메
OLED
##김영란법
##정말
##계획에
직장을
찾는다
시급하다
능동
설을
위치에
초빙
취향
의사결정
수록
박지
가평
표면
강등
밝혔다고
지급을
##성군
노르웨이
aT
성장하고
스미
##류는
입주자
급속히
붓
##(31)
유지를
연구위원
세븐일레븐
##납니다
로스
##(36)
손님이
뛰어들
성탄
친구가
##대인
조짐을
##강수
260
빛을
도입에
1989
예우
자살을
갤럭시노트
모순
##과천
펼친
22%
국정과제
극동
헬스케어
썰
브레이크
##DR
다문화가정
쿨
1400
결합한
블라디
구태
주요국
혼란이
0.1
##숙박
됐을
전망하고
##명만
후보들은
해설
봄철
하신
공사에
##한국은
소비자들은
생기면
조항이
##결과가
감염된
##본부의
한미연합
초유의
권역별
환원
135
##.26
전문점
##기구인
도의회
시행한
검찰에서
구제역이
##아산병원
마음대로
버거
파격적인
나뉜
최대주주
경제지표
상승할
올라갈
공정위가
##비고
관광객을
접수됐다
군부
##렌지
##∼19
##원까지
비상장
##교대
생산이
폄
##파로
갖췄
전화가
공판에
협업을
감소하고
있겠느냐
◎
거꾸로
모두의
핵무기
화면을
구축하는
지지부진
##어드
##생활건강
##억달러로
요구해
관계자도
넉넉
선생의
##휴양
국정을
감추지
##경제가
무상보육
##~29
성공적
군대
산업에
고성군
달부터
##스위
##프랑스
치는
##인구가
가지는
신용대출
팝업
##(32)
폭염이
##TRA
정병국
구독
밝히며
지적하고
주머니
##버터
신혼부부
##금에
##포스트
금융위원장
##배송
##장한
##산화
더불어민주당이
김근
##소형
도시가스
됐는데
컨설팅을
##독재
##였을
##추어
국한
280
설립해
불합리한
자회사인
##다문화
##왔다는
##어치
##우드
일본대사관
사우디아라비아
최고치
롯데쇼핑
탈당을
열립니다
동조
옵션
서명을
동일하게
109
대법원장이
##통에
마다
체력
##마루
듣기
배우는
##총궐기
##의가
기술의
사람들과
등으로부터
"6
시장으로
보험료가
회의록
##face
현실에
##개성공단
성장하는
같고
실패했다
##클래스
전수조사
이용섭
해외시장
척추
식약처는
정신건강
알아서
위협이
알려주는
어린이가
##농성
##산과
치른
선발한다
구간은
달러에
먼바다
##RI
참패
-1
정준
시스템은
비판의
투입된
대성
##문일
예방에
칼로
기준치
인상은
휴가철
##추위
상납
##즈니
##폐합
당은
부동산을
전자발찌
베를린
빈소
소니
존엄
양국간
##티스
경험한
순식간에
따르
활성화와
수위
대략
움직임에
건강기능식품
끝내고
##본부장이
서울시에
진상규명을
후계
##체류
영문
##주변
위대한
태극기를
##티지
도울
##검역
##jose
마디
명칭을
부담해야
참담
자선
##가면서
하죠
##개특위
가정폭력
##joseilbo
##인가요
가동을
공무원은
##위한
사회적으로
적폐청산
성장한
##리라고
0.9%
나타나지
##중진
개인적
맛집
실험을
##유총
홍보대
전문인력
전입
##년물
양재동
내건
용어
턱없이
친구들과
직격탄을
주면
서영
##강사
교육비
감액
##수렴
##카르
세션
안팎으로
##카고
방문은
해서는
##권한
##차원
미스터
정정
못한다는
뿌려
무사히
신뢰수준
새누리당에
요원
버닝썬
낳고
##UAE
출소
##월보다
2025
◆...
광역수사
구상을
살아가는
출항
의도로
스쿨
항목을
##방과
##베네
점검해
발견한
부산시장
경기도가
더불어민주당과
"19
미세
한목
당혹
연장을
착륙
도덕적
검토하는
먹은
양호
반성하고
##접대
##계탕
##간다는
이미지가
TK
가족에게
카드로
수도권과
##불황
후속조치
솜
계좌로
경로를
시작될
이동할
##생각
##하자면
줄었고
대를
구축할
##nter
사업자가
##여객터미널
우려하고
부문은
대북정책
##분기점
운영이
등이었다
진열
밴드
인접한
시작돼
기적
접근이
서비스의
##항의
구민
설악산
원내대표도
멋진
##연구위원은
감행
고양이
문의는
추억을
##이러한
먹으면
채권단
소망
##루미늄
조성할
김유
for
##서초
잔디
박광
##실장을
##폐기물
##려다
모씨
롯데호텔에서
외무성
무산됐다
불안정
##재는
카테
성장률은
트위터를
혁신도시
##FP
사무실로
연결된
##운전자
고려했다
흐르는
##부장은
기반이
짧게
고기압의
아버지는
전광
1950
몰던
남편의
##단절
##부르크
중소기업과
재킷
인상으로
##설립
##해서도
되지만
배치를
제안에
신부
##노현
각별히
맡기
함정
##통과
대동
전망에
해외진출
강남의
번호를
2,0
문제점이
##허가를
문의가
##반응
창구
안정화
마구
막혀
##아세안
##웠습니다
단골
조명균
히트
플랫폼을
수분
##특별시
예방접
센트
실은
숨을
힘써
의결을
노동자들이
복지를
만드
사용자가
부행
가치와
주자
낮고
그런데도
돈의
##검색
남양유업
외교통상부
반발해
벌금을
단계로
추행
##몰이
증가와
사태는
얼굴에
유실
개정된
선관위는
공감을
생각보다
걷는
##민주당은
좋습니다
##심도
##연말
##플랫폼
##114
묵묵
정치권은
성황
장사
석유제품
##셔리
뒤집어
##ip
특검을
##공원에
문화의
웬
느꼈다
떨어진다
예비후보는
사흘간
포기하고
##신호
덕에
대지진
호흡기
일부개정
##무엇
체제가
##중앙은행
##렸는데
치료가
생각이다
##행사에서
조치다
해저
끔찍
속의
논의될
기술적
회담이
달러의
3500
밤새
가톨릭
13%
##글로
청년들의
융자
청장
##컴퓨터
경력이
##교육지원청
무척
##트륨
노영
과정의
모집에
미납
##프로그램을
관계는
갚지
공사장
낮췄다
속옷
김양
가족들의
스피커
##부두
국고채
열렸습니다
아닌데
청탁과
현실적인
##지점장
##이웃
##간담회
##구급
##클리
정관
##매니
전국을
치러지는
##학의
명분
##초가
주민을
##법정
##과정에
공연이
##어려
적시
서울중앙지검에
그러면서도
참가할
양주
주재한
유무
지원금을
##환송
수익성이
##예우
남원
대가를
##해수욕장
한민구
##금도
##억대
시뮬
가슴에
도착했다
##법인의
화요일
##월은
##Hz
차종
기업체
동상
의심을
환자와
##증세
설탕
##시스코
##실적을
정립
부산과
정보보호
##장례
##라인을
울릉도
갖춰야
재발방지
복역
벌이
영원
##현장에
공모해
##만인
예금보험
##가슴
수준까지
프로그램도
고민하는
##조업
의약
##모닝
##대상자
회장으로
펄
이만
중요하게
인사청문회를
##팀과
결정으로
사항이
범위에서
##독일
있는데도
따돌
지친
##-6
##밀한
처리해야
디자인과
가공식품
윤창
##본부에서
작용한
허락
##이주
원서
콜센터
##기야
고발한
제설
달러당
##SJ
풍경
##ights
입건했습니다
송영길
성과급
##·30
인사와
용기를
젠
우크라이나
가만히
##저감
점검할
정답
##가량을
피해자들의
누워
지사를
대한상공회의
모시고
중요하다는
##파트너
조정이
##병원을
주도하고
일가족
의원총회를
보여줄
정무위원회
방중
세정
##탄도미사일
관람객들이
생성
충무
유용한
차지한다
안행
성격을
##명이나
초래할
포인트를
많았던
롯데마트는
##확보
정치권에서
##칙을
소통의
유지하기
마약류
완도
중점적으로
현지에
공화당
도운
분은
어학
##iv
국민에
##신도
##조회
##관계망
인사들의
17%
##(39)
발생했을
고교생
예산으로
상승률은
최저임금을
##-8
비판하고
설명할
이식
##카드가
밤사이
관계자를
보도했습니다
상고심에서
표정
##총을
##피자
7~8
조성된다
과거와
##출마
끼친
##온다
주입
##허위
기초생활수급
##었죠
태평
안겨
여성신문
은행들이
탄핵을
권한대행은
남해안
자유선진
##해달라는
만나서
##7,
요소를
문창
거고
##(38
‘2016
손해보험
##발굴
##ian
넘길
##지검은
안에는
동성애
##해산
발열
부스
칠곡
화를
##런트
##체크
요약
##도도
처형
해소하고
##고려
정교
벌이다
업체들의
규모와
국회로
증정하는
이케
수행하고
가방을
내놓는
##정보원
낀
##오쇼핑
고객들을
김의
##뷔페
제공을
수준이었다
차고
혜택도
당사자인
가구에
5.
지금보다
제막
참작
##공간으로
2.8
##버섯
막상
##보증기금
피고인이
한국토지주택공사
##대희
노동계
##물질을
##산업과
멤버십
전성
으
각오를
보편적
사들인
벌금형을
저런
주에
탄원
고객과
최연
##글라
넘으면
이재현
공용
장군
응답했다
꼼수
##대책위
##월초
공기가
알레
한결
가계의
미지수다
공공기관이
‘2017
안전행정부
이학
원내수석부대표는
대해서만
##유입
공동선언
줄였다
구조로
더했다
매번
##ram
나타내
입주기업
접종
초까지
우려에
인권을
##치즈
게이
##출소
방조
원정
##공대
##구속기소
한국당이
입에
석면
계속된
당첨자
##렉트
##연락
메시지가
의장의
교사의
분량의
결의대회
받아왔다
새누리당을
##역대
현실이
강변
가리지
여기에는
이언
##하느라
비어
집착
삶이
정종
싶지
넓어
삶에
겪을
빼돌려
신변
학위를
##절벽
무너진
출현
수색을
쏟아졌다
종합적인
보호하는
MC
##자흐스탄
보라
##세력이
꿈과
소통하는
부른
옮겼다
비상대책위원장
가지를
삼청동
##협의회를
접수를
수교
팔고
냈습니다
책임져야
##트니스
##아울
##일께
이양
대기오염
##일부터는
##마약
질서
감동을
중앙정부
##올해는
대안이
귀순
##용품을
##안산
일체
어린이날
적용될
무시한
웰빙
김남
예로
##용산
##시위를
휘두른
##가구에
든든한
“3
홍종
유명하다
청문회에서
##경대
맡을
합헌
수사로
용역을
├──────────
전망됐다
던졌다
어렵지
##ET
##승희
밤부터
##의의
뮤직
내걸고
심상
시에는
금품수수
낮출
##발전에
내에서도
사모펀드
요구된다
##GO
투표에
##영양
장터
영향력
##치스코
##뉴욕
사인
등에도
징벌
##개국에서
유정복
솔로
영남권
고용부
동남아시아
여고생
3∼4
아니며
사법처리
##(37
범위가
##리나
장의
집값이
정상회담이
##재단과
죽음을
일이라고
준비할
구할
Z
##금강
지킨
##지난달
제목
의뢰한
자동화
한반도에
품목은
##종북
페이퍼
행사한
만일
백두산
현대증권
##세인
##워치
1.2%
##례로
##외부
고작
표심
재정을
가정에
아이파크
##방향을
열정
세대의
18%
저희는
이국
한국가스
##강간
##렌트
회동에서
##정상회의
남아있
폭넓은
꽂
부임
해석을
이코노미
##통합을
행진곡
##서장
해수욕장
회원이
한국석유
##어느
접근성이
파악하는
128
가이드라인을
천명
부위원장은
영화관
막아야
하락으로
시군
##실장과
혁신과
정몽구
##보레
##병의
활주로
감기
외모
않으며
이웃을
박범계
마련한다
전체회의에
얼굴이
필요해
##구입
사례다
자체에
##잡기
불기소
정산
광화문광장
##회째를
걸까요
원칙으로
##증에
발표는
##롬비아
인지도
##기구를
##스마트폰
지속해서
방침이라고
조폭
늘었지만
선호도가
세관
표현의
##치유
금융권에
연구에
##미에
##표현
지칭
황사
##정상화
##해수욕
내리지
말라고
최강
아티스트
장충
최병
동쪽
출정
있었으나
지원하겠다
기상청에
소비자를
근본적
무주택
무분별한
세척
##상태에
고위험
##페라
총장을
##ter
주민은
델
추정했다
──
응답한
독거노인
끼쳐
아이템을
##토크
감독은
##누가
##중근
경산
침입해
##알코올
##가구의
##틀을
때린
Rights
##행이
불린다
해역
거기서
관계기관
집결
##개발을
##해야만
놔
남았다
살펴보
뽑은
특강을
주식시장
수출에
##프닝
머물렀다
임직원이
달이
표방
유방
사람으로
건강하게
전지
역세권
첫번째
운전기사
국회의원을
간섭
그렇고
가족은
##관실
각각의
계기를
주민들과
개최했다고
선택이
김효
친척
이용하고
측에서는
##호주
부수
모델은
공짜
건수
##수당을
귀경
##미술관
인정받았다
눈높이에
##들이는
선거의
포기한
과제는
##두리
##one
을지
녹취록
##리거나
일었다
##탄이
##부인과
필요성에
인형
수월
마스크를
몰아주기
바쁘
이면
성명서를
세련된
##~16
공간에서
동두
##부자
아일랜드
어두운
형평성
공감대가
이야기는
##전자의
##주신
BB
제품인
같아서
헌법재판소의
액세서
견학
수위가
발행한
##기보다는
강제징용
조원진
##진흥공단
##코리아가
##경호
##SDS
##(63)
시작을
홍문종
괌
자금조달
적재
##나지
조롱
판단하는
찍힌
위해서도
표명한
문정
열었습니다
관련해서도
시골
검은색
표정을
##깨비
소통과
생생한
연령대
쌍용자동차
##진해
인류
정부조직법
이후의
공급하고
##단일화
숨은
선정했다고
캐시
경총
극우
내로
고금리
##안타
방청
제휴를
'6
고질
노사가
곳의
말이죠
자는
##자와의
섰다
경주시
양을
의견은
##연준
행동에
##INT
##기술원
저질렀다
발표될
분식회계
##주의료
노릇
후폭풍
##범을
자전거를
##라서
영암
##병원으로
고용창출
엄벌
인맥
##facebook
보육교사
이례적인
전문적인
가깝다
귀금속
도입하고
수박
중시하는
중앙선거
영향력이
움직이고
##그렇게
##역할
공휴
원조
진화에
지역에는
사명
관리와
고성능
가꾸
인격
충격이
##물인
##ang
공동연구
##엔진
##지검에
풍성한
##타는
부가가치세
##ff
모습도
아르헨티나
손질
많았습니다
부모와
있다면서
그늘
쥐고
방탄
포스코는
중소기업중앙회
##비율을
##영향평가
##신임
뭐냐
파헤
권은희
빠르고
난항을
기획재정위원회
계시
물리적
한국해양
배신
바짝
##대성
##문일답
"10
발전시켜
##미화
사연
양념
부처가
##ee
오사카
점검하는
##오를
##DD
다국적
삼겹살
만세
가구당
정윤회
개도
변동이
의뢰했다
##마가
숙소
학교와
신원을
사표
포함될
다닌
##정신을
불안을
116
##서스
하얀
서울구치
##광장에
생활에
재가동
반려견
교통사고를
마무리하고
코트
후문
##금액의
조정하는
적다
##이나마
해수욕
##up
다녀온
##길은
스승
달랐다
##천억원으로
쏜
경의
민생을
##실종
##난에
##보장이
개발할
환호
단백질
사회주의
##(28)
상을
등교
가맹점주
득표율
분들의
의원실
반사
만족도를
자사의
판매에
반부패
##수신
담당하고
안타깝게
##직구
광주에서
사립학교
인수합병
실적에
##면과
진상을
영산
연비
개개
##~18
##짐에
울진
##2'
##시공
그와
신동주
해결될
##길에서
주를
##맛있는
추진한다고
홍보대사
낸다
한림
##소송에서
정리하고
##김성
##년형
개발된
##제원
공인인증
성적이
##인출
역사가
공정성
최룡
착각
이름은
사법행정
##통일위원회
롯데월드타워
##PF
##공익
##주말
##원주
##...2
전달보다
통상교섭
쪽방
##받아야
##직은
머물러
예상돼
순이다
공동성
문무일
어제보다
국익
이해하기
청년층
쌀쌀
발대식
보고한
서포터
확인하지
##기강
총선과
실업률은
의결권
##노위
애도
##속으로
전관
해줄
수요에
알려지지
##이었으며
##고법
##인으로서
떨어지면서
규모인
불안이
설비투자
억류
이세
시민을
강석
잃었다
##관광객
##충전
는
##고성
건물의
성취
무관한
증시의
도와주는
이야기도
##KA
김철
대청
##본부와
소개한
쪼개
##루션을
교민
전철
수원지법
##그룹과
모은다
##조각
대선주자
대설
중화
투명성
건을
진작
우즈베
나아갈
매출액이
만들겠다는
##위기를
극단적인
대지
색다른
챔피언
약식
##휴게소
간담회에
정체성을
##노사
되느냐
눈치를
했으면
질적
추진키로
아내와
인접해
탄탄한
그에게
제한하고
##왔다고
정연
##살해
WTO
경위와
주상복합
인위
##투명한
##검사는
##실현
박은
식재
Reserved
고객에게는
========
스님
##복귀
##적금
##정차
원활하게
현저히
감독이
##바바
##거를
표본오
상태입니다
드문
4.3
임시정부
파기환송
회의에는
##사항이
조정했다
위험요
##계절
부위를
##NI
뛰어넘는
상황이었다
샴
거야
지급하지
말만
인물을
기가
레시피
##월말까지
##케이션을
##하반기
떨어지
##제일제당
##고로
압박했다
비자금을
온라인으로
북적
##번의
압수수색했다
평가도
무기한
스토어
장애가
치료제
117
국악
업종별
발간한
회복에
##장과의
##당규
의외
항암
##소비세
수첩
폭넓게
‘2
카메라를
할머니의
##마지막
시민에게
평가할
부족하다는
호송
대체할
의향
##:00)
신인
금리인
##추진단
무리가
남양주시
파열
113
파이낸셜
검토해야
##브리핑에서
##액도
잡혔다
페루
범죄의
숫자가
만족도가
해역에서
##프란시스코
##오면
핑크
오르며
##출혈
내홍
현대화
평가한다
걱정하는
##째로
이사장을
##서에는
언론인
회고록
##운동에
성분을
장담
광안
##정운
##재현
장하
공무원을
유지하면서
전장
종식
특보
##사유
혁신의
주차장에서
선거제도
직접적으로
등록한
성장동
힘겨
##.29
객관적인
봉합
낳은
##산업진흥
시승
받거나
원주시
물어야
##작품
전화통화
##진짜
차이나
부정부패
식용
약을
##점수
베네
365
이동이
나스닥
엄격히
이사장의
세울
출사
지방은
##후배
##기준에
당에서
흐름에
이호
나뉘어
##강점
생활비
낙후
집주
##는지에
온천
정착을
##확한
##플렉스
##주권
고위공직자
형편
위례
추세가
##공제를
쿠팡
다쳤다
두께
박명
##고양
##키는
부문에
폐막
구하는
없음
향상에
과감하게
주거환경
##행선
온몸
도시로
방향이
관계자들의
증가를
##전년
기대하는
행복주택
내부적으로
연속으로
살림
##단계에서
상승해
##스틴
경협
##걸이
##휴업
##처리를
「
##이달
##이은
수요일
제과
기호
자리로
소문
경제학과
열대야
행동이
##강좌
##성형
준비해야
달을
요동
상생협력
유언
##우체
지적하며
여성에게
##취득
85%
투여
##웃음
교육청은
노동자들의
##9,
공조를
##연합회는
비판에
##발행
이유에서다
##할머니
그래야
도시의
##3%),
인증샷
##후원
인천의
정권교체를
원두
지역민
실감
관심은
팔을
##문제는
##일지
안해
끝이
##그럼
##외식
##급의
출원
##>(
경찰을
드러날
자동차를
이곳을
넘어설
##특별자치
보합
구성하는
억울한
현황과
확정되면
##우려
나타난다
목표가
국가보훈처
##인기
페미니
이분
##활동이
없이도
##보험을
발전할
부산지방
서비스산업
##티슈
중소벤처기업부
포함하는
얹
꽁
‘5
토양
심정
1.1%
강신
나오기
새벽에
미처
부분이다
채로
대학생들이
특급
자원을
##인데다
도전을
바이러스가
##경식
단장은
누구보다
##직장
탐사
##연구센터
##겠고요
엉뚱
삼양
##어민
어머니는
첨부
쌓은
제이
엇갈린
거론된다
한나라당이
내의
램
##철강
대개
견지
급성장
##솔루션
무게가
떼어
죽을
##선거법
경기에
##입장
##챌린
##김무성
기록이
시대적
예상됐다
1.9
##절감
공모를
보건소
성폭행을
##합리
자재
##신공항
법정구속
특권
##진호
##병호
번째다
고려하고
##협의를
제자리
세대가
당과
전년동
##판은
점포를
식민
증가가
포괄적
끌어내
훈련은
서비스와
##PO
##워킹
부채가
거짓말을
이행하지
양도세
음악을
##여건이
##단지에
8,
입수한
항로
##트에
활동가
리스크가
갈등의
신의
발굴하고
구축에
성토
##보존
##메디
치닫
여자친구
수도권에서
##항공사
질타했다
##반은
문책
위증
이승만
##금융권
봉쇄
영덕
경남지사
시행한다
전당대회를
##스쿠
광주지법
매력을
부연
##영화제
체포된
적자가
지시로
##도박
##시민의
일어나지
판매량은
##설명회를
정할
하라고
회식
##열린
시킨
외상
##베르
요소가
정신이
초과한
뽐
킨텍
협약에
##약한
몰두
어지
미만인
##건조
##달라며
보시는
##경고
유람
살릴
다가가
상대방
개발사업
##ess
거리로
글로
자처
##살균제
1.7%
넘쳐
편법
맛볼
##김기
항구
기쁘다
업종의
##문화가
##펀드는
##년이다
비슷하다
쯤
모아지고
최정
##문자
남편과
증언을
모니터링을
##EM
유일의
##경비안전
회항
##재활
기조가
##주체
조용히
만들어서
건립을
불출마를
용서
지역인
올들어
수도권에
모습입니다
126
못하다
##묘한
##재선
수강생
물꼬
##안정을
여당인
혁신성장
낮아진
대응하고
즐거움을
##명하게
불편이
셀프
짐작
열사
미국인
요리를
제공하며
##마킹
##자금이
시기와
##성모병원
살펴보는
개인과
주장해
##평소
양립
##드릴
우수사
##벤츠
문제라고
이륙
방문하고
다음과
디도스
유산균
수익률은
0.7
공수처
차라리
물동
시행되는
지방정부
##져서
##닐라
쉬워
후보들
축제를
핀란드
##골드
과자
1.4%
##마드
고전
살아있는
항공권
##어의
##위탁
##인승
조금만
표창원
지식을
행안부
행동으로
사망자가
하루빨리
않았나
장벽
편견
##꼼수
사들
운영하면서
16%
사망자는
##분담
맡긴
저희들이
실시된다
금산
소방방재
##윤근
맞서고
받았으며
엔터테인먼트
거세게
책임질
##제이
##학교를
무관하게
엎
사자
##소득은
##반입
##관계망서비스
개정에
시도를
시간제
##(27)
은행에서
출시한다고
흰색
조준
##드레
변수로
##훈장
후원금을
표현했다
납득할
118
공유할
최고인민
##명에게는
##KBS
폭의
##이슬
경제적으로
제한이
전화번호
방출
없음을
지나고
농가에서
임대차
에어부산
김모씨
개연
사법시험
총액
##찾아가는
전국으로
##였기
##됐는지
인체에
의원회관
##DMZ
쪽이
##프린
틀어
나이에
전문가는
##경영을
##스크바
##억원은
사장에
##4%),
수사팀
주차된
인멸
##스트는
방향은
평가에
##혁신도시
식별
##쓰레기
말다툼
##.28
받아온
끊어
티몬
박민
어촌
활동한
##공영
상승하고
대항
사회로
내밀
알림
사립유치원
피해자에게
부인한
회사로
불분
받아들여지지
재판부
##┼──────┼──────
공평
모닝
드리는
확산될
나섰지만
자진사퇴
냉방
기관을
##생계
이목이
격려했다
룸
글과
##스탠
##>>
##과를
##은택
피살
증여세
윤모
어떨까
강수량은
채택했다
투명성을
씨도
황당
##2%),
차량과
개혁이
##시민단체
##석과
백수
올레
##원석
중단됐다
받아서
##포로
펀드를
많아서
확대가
해양수산부는
해변
스카이
##배달
전환이
짜고
사기를
민주주의의
유래
곡물
단기간에
##그루
##하네
캠페인은
##.00
##피니
모집한다고
국립중앙
풀고
시스템에
##아버지
도요타
세력을
황당한
목소리로
방법이다
레이저
표창을
도축
희망이
경질
장소에
비대위원
젤
장인
재미를
##시중
본점에서
법제사법위원회
결정한다
이야기하는
추진하겠다고
폐암
가중처벌
파악하기
초코
##연하게
보수의
♧
김복
협의할
프란치스코
서훈
높여야
##구청장은
쉬는
##공정한
##안에서
신념
근절을
##인터내셔널
상황에서도
창의적인
기회에
##가지고
경전철
하고요
##했어야
하나씩
있었으며
CU
##교체
##사회에서
배출가스
삼는
극복하기
민속
기원하는
시야
엄격하게
임명됐다
립
지급된다
바나나
듭니다
지진으로
이외의
##다니며
필로폰
##대까지
자질
정영
##대금을
##되지는
휩싸인
인구의
##기동
고향인
환경오염
##만건
야권은
자외선
제언
금액의
2.9%
대관령
자신은
매출의
올리면
사용하면
성숙
동반자
농가에
전월세
식품의약품안전처
의사결
구간이
##공고
매니저
##BA
한국일보
샀다
##-15
탐색
감리
기분이
공격적인
희망한다
70.
초점이
##인방
##참가
검경
##기대
쓰인
예정이어서
상태인
강조하면서
##·16
신고해
썩
그래픽
포함하면
탈원전
달리고
##개발사업
함부로
증빙
##지오
부채를
##한우
과감히
보온
이슈로
금융소비자
##경제에
거액을
근원
320
정치는
인상과
##문화의
가락
근무하고
##각각
부인이
##솔린
건설에
오징어
외국인과
를
급히
전한
햄버거
##VR
##투기
출력
탄산
무책임한
호수
달보다
전환했다
꼼꼼하게
##적이었다
대법원의
특약
##조사에서
출입을
안장
진행을
노점
도교육청
참석차
신제품을
주목됩니다
##커뮤니케이션
헝
##바퀴
넘어서는
오픈마켓
메리츠
##미르
주력할
선거사무
##동남
상용화
신설해
##분기에는
어렵지만
특별위원회
원까지
복수의
오찬을
##에셋
##연구회
##소상공인
원심
집중된
규탄하는
##.17
어려웠다
비대위원장은
갇혀
낙선
##공예
겪어
##태풍
우선순
외교관
수시모집
소외된
지지자
콘퍼런스
거래됐다
##사하는
공략에
작가의
##기타
##보세요
##비용은
의원직
##실제
오르면
클린턴
장점이다
팀을
투표가
역임한
그동안의
홍남기
##게이션
##지역인
##집권
충원
예결위
출동해
지원으로
촉각을
들어가고
돌발
외치며
세상이
엄마가
##뿐이다
##'"
부통령
채권을
무산된
공무원과
건전성
##그때
비축
##가능한
지켜보는
##행진
임명했다
커버
##블릭
우연히
시민들을
언제까지
##불가
파탄
1.6%
##관절
##주의적
##대원들이
날은
완벽하게
##범이
내정자
친구를
시식
총리실
교감
답이
발전의
1.9%
##일시
행사다
##사당
가슴을
물량은
열기
바뀐다
##ers
전도
진도군
주장과
##에프
제기할
##디언
AS
국회의원의
당면
정식으로
뱃
##한은
##(39
##습을
경기장
이회
말과
##일까지다
플로
연천
##주의에
핵안보
도시를
##기금을
선박을
앰
문경
검사와
박현
##금액을
시설에
권혁
위험성이
전날인
공석
추이를
내렸다고
##원내
##불교
##진행
##택배
착수한
분의
시범사업
##선인
##럴림픽
쿠데타
##”(
안이
브루
산다
##식당에서
쭉
상승이
구성되어
돕는다
반짝
##경제자유구역
호기
진행하며
시각을
가족들과
##적이라고
일어나고
##전세
연례
맡길
##뉴스팀
정권에
자리에는
지켜본
맑고
나서지
바다로
열차가
##득이
##보증금
협조해
뻗
##사로서
##방한계선
CGV
##폈다
##타기
행적
교체를
급기야
최대치를
배부
소동이
결정된다
참석하기
한국당의
발사한
##급인
태도가
##그래서
아쉬운
청사에서
평가된다
##(45
상임고문
의도적으로
꽃을
전기가
덕수
세로
시니어
추가해
주역
##홀로
게시글
##길래
비리가
##act
유대
저조한
고맙습니다
##물가는
팀이
밑으로
내란음모
삼각
코카
아들은
남미
절반에
광범위한
사라지고
육박하는
##부장관이
링
##.10.
강소
계획대로
오전까지
##고고도미사일방어체계
서민들의
##청장은
억대
##위크
##생활에
쫓겨
##법원은
절대로
##했죠
센터는
하시는
파인
유재
옮기고
에티
프로젝트는
##토피
##버렸다
해소될
##무가
끝나지
##기억
지역구인
꼽은
도난
주요뉴스
읽는
##해선
관계자에
##여만원
될까요
악화로
치를
체결을
##가방
FOMC
##브리
런칭
기아차는
비중도
##하셔야
문화관광
##출신
공동선대
##한중
##놓을
줄었지만
오만
파생상품
자고
윤씨는
이용자가
##지방경찰청은
##계약서
접수한
함으로써
혐의와
##소득을
##수호
맞섰다
##하를
개선된
생각으로
선고공
유라시아
검거했다
똑같
민노총
인사들을
악의
신정
조희팔
외주
전단
한국투자증권
##수송
당선됐다
심판을
순환출자
##가던
##강연
##(21)
고용노동부는
##비핵
해주고
업무보고를
##시계
가지로
##살리기
역사에
민주당을
지자체와
3,000
##기일
봉사단
정도였다
편의성을
##케스트라
경연
현관
##통신이
대부업
애로사항을
질병관리본부는
재개를
당하는
1.8%
집이
서울시민
##터는
0.25%
##가운
##경제민주화
##ore
가정용
엄정한
##미콘
“2
실장이
##마을을
민족의
내려졌다
##재의
돌아서
##이탈
##볶음
무서운
전환할
##라의
##이체
##센터로
하락을
씌
##원씩
CP
샤워
진천
판단은
일교
밝혀진
##...3
법률에
여권의
정의용
##석유화학
사회는
이인제
국민투표
복리
박용만
잔액은
없어도
민주통합당은
##쓰고
농장에서
대선이
뜨겁다
여동생
특징을
##컨벤션센터에서
##이도
카이스트
##과제를
수단이
증시에
계열사의
정의당은
##(48
장르
##(26)
선수들이
문화와
부적격
해명을
발걸음을
확정했다고
급부상
가정에서
명예교수
정형
폐렴
##식사
##최종
영예
침대
쏟아냈다
##만톤
안팎에서는
서울아산병원
마일
##라든가
가지가
##가량이
결의를
집행을
타격이
##송파
발휘할
##아를
##유발
잠적
교량
##(64)
조작한
대구에서
체코
##공수
아시
##정보시스템
##5,000
겸직
최종구
공동대표가
##재난안전
국가보안법
24%
확정할
확산에
다문화가족
##연평
한동
김학의
같고요
ICBM
알았
식재료
형성된
##성장률
개발도상
한빛
거냐
사원
원인과
발견하고
##분한
##메가
소방차
크레인
액수
##버스가
출생아
권력의
무죄로
##나물
불법사찰
주관한
촛불을
사이에서는
##스킨
##영역
제공되는
웨이
0.6
순서
기업들
단계를
전문직
아버지를
##표로
야권이
##미경
만장일치로
장으로
##갤럽
부회장을
재무구조
사이트에서
간식
##촌동
아꼈
##PD
부정한
##화합
청탁금지법
미중
미만으로
##릭스
##지원단
노숙인
실수로
것일까
통폐합
헤지펀드
임금이
127
작용했다
먹기
2.4%
국민께
신한카드
조선족
##쾌한
##시대를
맞이해
특수활동비
활동은
컨설턴
하여금
부스를
민심이
##사채
사연을
생활이
놀라운
허위사실을
재보궐선거
3.1%
##주의가
이르게
소통이
상품과
설비를
섞어
모이는
기자는
늘리기
원리금
지구촌
##제어
##징수
단어를
부산일보
선동
##)”
##여성의
시행규칙
요구한다
동반한
벗어날
지방재정
삐
121
전국경제인연합회
##즈의
오스트
책임감을
포스코건설
물질이
점령
##시장으로
지속되는
##회피
감소세를
정찰
해양경찰청
지름
일방적
노리고
진출할
이상득
대대적으로
##출동
변함이
수렴해
광물
폭등
용품
백지화
특례법
부합하는
내년까지
밀수
이순신
합친
관계로
인사말하는
김영환
##의사를
“5
의전
트래
창의적
##평가는
바디
일하던
소행
아시안게임
관저
부영
향했다
이근
김영우
전후해
돌아갔다
##밥을
이씨를
알면서도
김씨에게
자동차부품
산청
UHD
최저치를
##최초
전반의
진정성을
서울중앙지법에서
부끄럽
안치
##외노조
걸림돌이
필요하고
넷째
무엇일까
주체가
확인돼
##사리
일용
##절기
회복이
백두
대책도
고소했다
##경계
부처의
##1%),
헌법재판소장
##각한
천안시
소득은
벤치마킹
한국금융
##시킨다는
의원직을
러브
양성을
주도적으로
##진상
산후
종합해
우수성을
이루어진
개선해야
되기도
##차기
##속에서
금융거래
앞바다에서
잎
첫해
##는지도
논문을
박씨가
용접
이름과
중환자
취하지
휘둘
옳지
침범
노력하는
솔루션을
##레이트
적당
##일러
##창구
연휴가
상승률을
유발하는
국민연금공단
##진압
층간
본다면
시스템으로
##상속
제출해야
##골든
원외
대회에서
부담하는
영서
노리는
불균형
치르
##시면
합계
##(65)
4.5%
동영상에서
테크노
##대피
##목포
##경기가
##시사
청문회에
나눔의
오르내
발동
캐주얼
영상은
##∼200
근로자는
##강력
관통
급격하게
##김포
가자
문이
마무리할
농도
전폭
분석에
##출금
##심리지
인생을
패션쇼
객관적
펀드는
##실패
애를
##인지를
없으니
선고하고
셰프
750
부실한
##지사를
고위직
쇼크
##변화에
이언주
않았는데
교육문화체육관광
올라가는
전해진다
##8,
추락한
이날도
알루미늄
야당에
##년동안
대화에
실업률
대법원장은
걸린다
오전부터
왔는데
가져다
여수시
점유율을
수출의
이상일
되돌려
##줄을
묶여
원하지
실증
##여겨
공간에
디자인으로
갈등과
경쟁률
적발돼
제출을
턴
##세데스
##정유
결정하고
지적한다
##영남
주권
##보험의
##책은
##계리
핵과
방해한
역할과
##ue
팔려
노력도
에서
아이는
##바른정당
##발전은
협상의
삼계탕
##seoul
##대상이
보행자
강해
안정성
대학과
롯데백화점은
##여의도
은행과
사장으로
김두관
##여수
=========
재건
다양하다
일으키고
해결하고
묵인
##하기보다는
개정으로
뒤덮
한낮
##지사장
##랜스
장안
##임스
광주의
에너
불안해
자격증을
문형
##┼──────────
활력
1985
보여야
생필품
##미리
##질서를
향응
장인상
##관리가
##용인
##감사를
KAIST
다닐
시위에
##장려금
민주노동당
방과후
##자원개발
거거든요
럭셔리
##정치의
개조
금천구
##이건
##출판
##신세계
##한진
예민
자위
판결은
있더라도
것과는
##연구소장
무너뜨
정운찬
##차관이
극복할
채동욱
##뿌리
경각
업종은
물은
##회사와
인천시는
##비난
##업이
##상임
서로를
근속
대상자는
간병
그치고
##령은
입대
위자료
##료와
##분열
구체화
판매되고
중소기업은
##St
웃고
경위는
##지방검찰
##니를
마음껏
솔직히
최우선으로
때리고
차지했고
백혈
##증여
은행은
함께한
공정거래위원회가
##업은
장난감
##프랜차이즈
이목을
##실적이
늘려야
경기도의
단일후보
도둑
##포인트를
해소할
2.3%
각오로
##작권
클러스터
한국공항
##목동
거쳤다
성장세가
선정됐다고
임금피크제
##ly
대검찰
깨닫
집계한
##사업장
투자은행
##에겐
두달
유도할
샘플
##능한
방향과
움직일
하려
춥
##나노
##류와
##FM
격려하고
##빌라
안팎에서
##드라
효율성
실업급여
협치
임모
잃게
소요되는
최고위원회의
하락할
##하천
붙인
섣
##기업들이
##10-
눈여겨
기능도
지자체에
들러
충성
3.8%
시카고
##베리아
김재원
뉴타운
기금을
유씨는
행장은
강조한다
경제적인
##중고
##흡연
##될지
뉴스쇼
바다를
129
구하기
##령에
##섭니다
과제가
근처에
해당하지
##날이
3.0%
##인턴
##어리
공정하게
기여하고
하버드
##서울신문사
##색의
카자흐스탄
자기소개
##성장의
엑스
분야가
5,000
어워드
바닥을
3.7%
지혜를
말씀드린
##대회는
교도소
가겠다
통해서도
뒤에서
국민청원
신속하고
##차례나
시정명령
검토하겠다
늑
뉘
##재준
##이라서
의원총회
요인을
당했다고
예정으로
실패를
서비스다
##가지를
드레스
##경기장
생기고
소송에
컷오프
응용
연결돼
##범죄의
일손
##축제가
##감소
예비군
##+1
##관한
사당
갈등은
논산
박근혜정부
관광지
사라져
선정을
이철우
스테이크
##저녁
중도금
변질
고소장을
밟고
폭은
안락
##설치
꿇
##나를
##리기도
예상을
##았으나
물러난
위원장으로
해준
##결과에
##선전
##론과
##플래닛
##처로
공천관리
업무추진
센트럴
민주당에
매체는
조선시대
단체의
진행돼
급하게
다니며
올리브
주소를
띄게
아메리카
##가인
##공군
말았다
내리면서
사서
한산
특성화고
##형사부
박희태
선고가
관측이다
농심
진한
##명까지
이사를
미화
##경수
학점
##가스를
연결되는
존재한다
구별
커피전문점
주재하는
한미약품
입영
Copyrightsc
##상부
##차이나
작아
장애를
마곡
일탈
##지역이
##활력
##형환
김영춘
4500
입장과
##마블
##보트
안녕하십니까
부과된다
순조롭게
세법개정
##센스
의견수렴
타운
종목은
##위원들이
매듭
근로복지
고객만족
마침내
임명을
과학기술정보통신
##화질
냄새가
나뉜다
줄면서
충돌이
옆에서
##위다
상승하는
죄를
옵
무너지
작업은
펑
박용진
입장입니다
FM
##코어
평양에서
도전하는
화산
##셨어요
##행진을
##생은
많으
부두
##(55
증축
##상사
##쟁이
가죽
햇볕
대신증권
느끼게
같다는
롯데는
수치가
학부모들이
넘어섰
사과하고
참가한다
##명중
대처할
언젠
저렇게
국기
바둑
##진입
생산량
##갈비
들어가면
버스가
정치인이
한부모
옥상
RO
방법도
민변
0.8
한파가
지점을
의식이
곤두세
주택가
##사실이
##좌파
공정거래법
##자리에서
대법원에
접대
##진다면
격차는
##라이브
대리인
연대를
3.2%
##여명과
2.2%
##2015
드러나고
신고하지
압도적인
##ae
신진
군사분
작가는
명명
남자가
##새정치민주연합
껍
##중립
##하드
있나요
종부
다음날인
사라질
##높은
##돕기
가량을
유공자
세월호를
심각하다
가입자가
##세도
##조약
g
노력과
아내를
##영입
소비재
통계청은
신주
펼치
장씨는
##YN
노려
곽노현
양구
달렸다
거시경제
##년만
##장비를
비율로
##겠으나
처리한
폭파
##스타트
##위원장으로
스케이트
##영호
##일까지는
알리지
샌프란시스코
생태계를
금융당국의
가솔린
명실
문서를
김중수
품목의
특징은
당선자는
연금저축
맞지만
돌이
휴대용
조정할
골절
개정이
이끌었다
##격은
구조조정이
##양과
##요한
##ince
모기
##나루
걸러
##단가
꼬리
엘리엇
짐을
현판
한국경제신문
카풀
##가계부채
안정성을
3.6
##(25)
반영하지
##왔는데
중앙위원회
금방
좌초
담그
졸음
##현대차
시총
대구의
요즘은
전승
##단체는
##했는데도
인사의
의대
잠재적
마약을
##DJ
하늘을
농작물
반대한다
##나가야
마련하겠다
주세요
##일명
##단협
차지해
죽어
##십니다
싸움을
보호하고
##지원에
록
깊게
낮을
##실명
##문제로
규모도
비무장지대
입찰에
대책으로
##ld
##지원사업
학부
##먹고
평택시
알고도
조합장
직무를
##승환
##컷뉴스
한마음
압구정
공개해
답변하는
##병과
##측정
지출이
1700
##장성
불륜
주둔
법조계에
지났
##마이크
##양군
옥수수
##(23)
홍종학
옴
좋겠다는
초동
러시아의
선택했다
아동복지
같다고
납세자
논리를
##안전관리
시점은
##것은
본회의장에서
##김대중
예고한
경기북부
합치면
##안도
결혼식
##야당이
업체에서
영업이익을
밤샘
구매를
모색하는
##격한
포스
현수막을
예견
하드디스크
스텔
안의
중단하라
##드리는
곤충
##권역
돌아올
특조위
자유선진당
히로
가난한
좋지만
추천하는
##티를
위장전입
구타
1.0%
능력과
잘하는
노태우
##하의
나누어
정당을
4·11
재산피해가
뉴스가
##세력의
단풍
##분야의
통합의
軍
##박정희
확인했다고
탄생한
##연구소가
소셜미디어
상응하는
무고
참가를
업무와
##nd
선정할
얻게
이용을
##장학회
지표가
나무를
사회적경제
접할
##무사
질문이
제청
##항만공사
순위를
근로자들이
내일은
공로를
재협상
나라에서
예방할
처벌에
만들어졌다
면치
색상
입체
중년
두지
550
1986
도심에서
##ack
##ial
부문을
개그맨
갤러리
표시했다
##지원금
오브
제주공항
##방식으로
##외대
##동반자
65%
애매
예년보다
##터슨
영상으로
##은행장
적절히
##벌레
건가
##(42
##현상이
투자로
허니
시비
막걸리
되었습니다
경관
경력단절
현행법상
다세대
보였던
당첨자는
정부로부터
##초에
##커리
##쳤다는
담당자
통치
비핵화와
해결책을
##월드컵
비율도
장애인의
의사의
입장에선
한마당
체중
구입해
변동성
##나가고
대부업체
##드린
기능과
##확산
청소년의
제반
성소수
##구축
학살
##포스코
건강이
##국이다
했다면
이야기다
아리랑
무색
답하는
불가피해
뒀
인정을
##체납
도입이
##ouse
배포한
의도를
##6%),
당첨금
##확충
상황도
얘기할
기소했다고
PF
싸우
보호에
##혁신센터
출마할
##식품을
나갔다
설계를
공단은
함유된
게재했다
##터디
장례식장에
흥덕
##번이
전원을
농림축산식품부는
##방안에
##중개사
##재건축
##대외
일제강점
벽을
우즈베키스탄
로열
협력의
시기입니다
접근을
##반떼
쓴다
BC
상금
이선
기차
영역에서
##재단에
분양을
무력화
판매해
시국선언
##고추
박수현
신메뉴
애플이
테러방지법
기대감
나라에
스프링
필요하면
##위기가
자신도
피우
##미용
합당
지능형
세력의
재정비
##로나
생각한
##동서
봄을
없어야
##라지
식이다
병영
서경
##오다
살리고
##덕수
않고도
구금
##net
##보스
사회복지공동모금
##텍은
##핵심
로버트
##태희
##현상
중대형
주제를
경쟁에
##유리
##공동선언
구치소
늘리기로
##카를
##롭다
전의
3.3%
뺨
군에
도봉구
##.14
오빠
돌리는
##어음
어려웠
로그
맞힌
성신
생산하고
못하면서
농가의
##투쟁을
살짝
##베이스
선출을
제동
수만
기사는
국방위
중에도
##게요
한은의
##어준
##테이션
손혜원
몰리면서
##수첩
공시가
IB
밝혀지지
##하청
예산에
군포
인터넷에서
지었다
집계됐습니다
때를
설사
CNN
의미는
##폴리스
이벤트가
수억
밝히기
3.8
이효
##천히
말아
김정훈
진출에
##상자
원료로
유령
경험할
팔달
동기보다
늘어났
124
##비만
##비어
##사옥
##(47
불투명한
이도
자초
##킬로
출두
##사건의
##소야
군민
의장을
또래
##패키
라오스
주택금융
사업화
##파괴
##중재
갈등으로
산소
##5%),
##파와
##느냐에
구속기소된
9,
돌풍
박씨의
##폭발
유도하고
##CP
국제적인
일입니다
거칠
이벤트에
JP
##상조
최전
대한민국은
결심공
예비타당성
필터
##~14
담을
콜롬비아
건물은
부연했다
수년
##재개발
쏘나타
이체
소송이
통하는
##드의
축제는
##3.0
강화될
##어린
본사와
부탁드린다
보통주
진주시
어우러진
##자원을
과정과
##실한
승객들이
지향하는
고층
원장을
##RA
역부족
##항목
창출하는
내려앉
명백히
##놓았다
실천하는
다이아몬드
분야에서는
기업도
한번에
쓰기
농업인
따르는
바라고
앞뒤
프로그램인
결정해야
분명하게
비닐하우스
##단지로
가파른
##로우
상처가
##잔치
동요
##아름다운
이재정
개량
거치면서
##쳐야
자리는
박홍
진지하게
집회에서
방법에
삼았다
중상을
판매는
구입하는
공정하고
##이석
##주부
##개월로
예산의
지방에
세미나를
##요건
에듀
업체로
수도권의
##해왔던
##소영
박씨
우윤근
연설에서
휴대전화로
##부적
##탈세
안정된
##재단의
##내수
##(80
3~5
사무국
쏠린다
법정으로
월급을
지방분권
##├──────
수평
없거나
풍성
사측
여행사
선언하고
역할은
토론이
버섯
실사
자문을
형사소송
SH
기초자산
##명으로부터
사회보장
우리나라와
비롯된
내국인
처음에
인터파크
##력도
막내
##히기
##냈다고
줄여야
퍼레이드
지폐
##IF
미사
삼성카드
생산할
쏟아지는
##클로
비는
앉은
이공
3.4
왔지만
쌀을
측면도
내세웠다
장학생
좁아
아이콘
##민주당이
헤이
##차관은
통째로
포스트
투숙
신선식품
결승
차질없이
##티넨
상조
석좌
##확률
국가로
미수
##(43
##(49
파우
오토바
노력으로
역할도
감독을
##깊은
##특위는
인정받고
##아래
없애는
내년에도
##(41
막론
행사의
형태를
##지리
불식
국면을
법적인
파키스탄
기여하는
있어서다
##경상
##처에서
##DTI
점검했다
서울시교육감
밀레
신안
발맞
##언이
요금제
재산은
대표들이
치우
발사를
##교육이
쉐보레
##인성
당선이
선제적
한반도를
확인됐다고
급증하는
증강
공개돼
##지도자
랭
운영과
##보고를
##었는지
##더드
미비
##억원대의
안전보장이
##kWh
광진
포기하는
##앤젤
미성년자
##형인
3.4%
지사와
서울시장은
주말에
##유족
부원장
집행유예를
##감독을
무용
공정성을
비정규직의
초속
이들과
##플란
##만하게
시선이
##경영자총
스포
긴장을
밸런
주말인
##스톤
##언제
1:1
마음은
호국
##세계닷컴은
고조되고
농업기술
사각지대
##법인이
챙겼다
650
##보의
앞다
##힘을
하소연
주택시장
시작했고
피했다
입구에서
단계적
밑에
사회관계망서비스
눌러
노출된
##·5
세워야
사인을
##저기
기자실에서
##골목
##니까요
##아베
엘시티
흔들림
국민참여재판
감소해
##다시피
스타일을
기흥
천만
산부인과
누구를
방송은
자발적인
구한
3.7
성과에
##처의
아동의
토론회에
해결이
1979
추위
DTI
정리해고
##하냐
일어났
##가격을
##은행에
정치권과
제출된
심각성을
##보선
불공정거래
##┴──────
참사를
##(24)
이에따라
끼고
넣는
##국민카드
평가와
활기를
달라지는
쾌적
생산량이
유지해야
정기예금
손잡
수반
정권은
강타
유권자들이
제네시스
##값에
기사문의
한국타이어
##Fed
##줬으면
비리에
요청해
##건수는
시작됐습니다
##학교는
##ICE
한화그룹
제재가
기자간담회
독감
발상
소유의
일문일답
##모는
완화하는
안도
##개국에
가격과
심경을
##단속을
보아
장래
치여
기조연설
목적은
식료품
둔갑
편의점에서
##PB
개포
##국가의
##보관
쫓아
국토해양부
##세프
펴고
감사드린다
유적
진전이
작용하고
보험을
박한
##만원권
경제부총
향토
논쟁이
늘린다
##교육감이
1,9
33%
압력이
개체
폴란드
교과서를
뽀
미쓰
회원들은
##기회
##대책본부
ECB
##나가겠다
살해하고
입장하고
월스트리트
일부에서는
당당하게
##했더니
세계가
외쳤다
킨텍스에서
아울렛
실효성이
Since
##ag
##당권
잘못이
공정위에
투자전략
##자회
홍석
김순
사망에
##.23
저비용
좋다는
최룡해
단합
신고로
##들한테
채용할
##이벤트
생수
국무위원장이
자매결
판결한
옥외
날이다
모델인
##대학교는
영천
교통사고로
결실을
국가채무
‘2014
자연스러운
중징계
##통의
##난민
거부할
##광화문
일으켰다
만기가
마땅한
##역량을
DB
약국
##해피
재적
##2012
링크
귀국한
주가조작
막힌
근무하던
사법연수원
현실이다
침략
폭주
전환해
재료를
안주
뛰어든
메르세데스
생계를
##기름
판례
##시설도
판매된
##선도로
단거리
##법원에
라이트
직무대행
이인영
법으로
##캐스트
정조
논의해
사법개혁
쓰면
##극을
관공
갔다가
##ice
##오피아
부탁을
벌금형
유권자의
##제리
##중의
기울여야
포기하지
자행
##7%),
업종별로는
##슬림
##비서관이
##점도
관장
##과학기술원
##블리
##)',
이르고
쏟아지고
치열하게
##태를
##역세권
나에게
##인공
잃지
아니에요
임명동의
다쳤습니다
개인은
본토
각하
김기식
마무리했다
프로그램의
경제자유구역
임시국회에서
엮
납품업체
유상증자
깨달
메카
장병완
##시간가량
폐지하고
씨앗
승부를
날씨에
오렌지
##주며
지지도
주제는
인내
피력했다
환자에게
전달했다고
##책에
박상기
비난이
출시할
가할
초보
근로자를
세무조사를
경품을
##필리
유포한
##양주
##보건기구
##혜영
오송
##천원으로
소금
식탁
테마로
로비를
협상에서
이직
출범을
##중도
흔드는
지금처럼
재판은
추진되고
제왕
그치
낮아질
##원으로서
1996,
##많음
대자
엘리트
##재호
##특화
안보를
##고루
##획정
고압
정권교체
각급
##블랙리스트
융복합
확대되는
농사를
표심을
쌍둥이
적용돼
##빅데이터
김용태
양상이다
우리은행은
##표는
기어
2.1%
가로수
설명한
임산부
##개다
고용보험
투표소
답변하고
선정하는
쓰레기를
##연구위원
오름세를
운동에
김씨와
국정조사를
세금으로
21%
화두
주의보
차별을
경진대회
시장도
##체결
김성환
〃
##상태가
##장수
도가
상경
접어든
##대로라면
역사적인
커지자
출구조사
섞인
틈새
호텔신라
위약
1,2
하락하고
모르지만
길거리
눈앞에
등장해
올해에는
어차피
추위가
벗고
지역발전
전문가들
##호와
고품
추방
창출할
태광
##추진위원회
##연구원장
##급은
바란
##오늘은
배심원
자원봉사자
비서실장과
##점인
모으는
조직원
3.6%
##정류
조계종
하락에
의원들에게
##전산
건물에서
퇴직금
오차범위
복선
경제위기
미치
네티즌들의
락
##무진
##이진
찾아내
##양구
##환을
환경과
##.50
탑재한
수출액은
##월엔
배에
중위
회사와
##인드
전까지는
##국수
운동이
독성
원형
##안전보건
##.22
인정받은
한몫
생략
132
준다는
교육부와
##119
상사
참사가
확인되면
무면허
##시설인
분쟁이
##부문의
원이다
##·19
물갈이
##캐슬
하자고
아침부터
절망
하순
강도가
##친노
##유권
입성
##경쟁력을
##시간대
치르는
터진
무상급
유가가
가덕
찍는
진선미
약관
##레이더
BNK
##피를
실시되는
##인명
다룰
감독의
후원하는
##은퇴
##뜩이나
전매
도의원
##전부터
잔액
숨지는
##르자
선도하는
##시간씩
담당한
##격차
허물
덕수궁
##평가가
마당에
##홍콩
일회용
##단지가
원치
열기가
탑승객
李
##(44
멈추지
최적화된
힘들게
##범죄수사대는
KAI
이희호
##사건이
##불명
강압
설명해
유죄를
합동분향
미끼
부모는
통행료
산하기관
정부부처
청구된
성실하게
손목
##8%),
정류
##다발
요르
분들을
출국금지
##원인을
구도가
모처럼
정무위
전월대비
안전자산
편안하게
관망
높기
##부담금
##통행
신현
기무사
##담이
언급은
즐겁게
폭발물
##교사가
##태극
제임스
적용됐다
55%
청년창업
패딩
벌였습니다
사무국장
##혐의로
그룹이
픽
기존에는
부회장과
거행
김기현
##현금
##학위
작곡
계속할
체온
판매한다고
전업
졸라
##9%),
##완주
얻지
지급했다
##우병
##품은
옥천
##새마을
도약을
말라는
##실내
밝혔고
##스코리아
이해와
##돌봄
센터장은
거고요
##페이지
청각
작성된
인연이
##(46
반영하고
##순찰
##촉구
##센터장은
##~60
솟
##유관
장제원
하한
'10
시작한다고
유출한
주말을
취임식
나눠보겠습니다
주기적으로
갖다
##버스터
판사가
처음입니다
퇴장
##사업비
한정판
경우엔
요구는
##워진
농구
원동
비공식
정도만
교란
적임자
푸짐
격인
평생교육
##쿠폰
존속
연산
사퇴한
선적
##중국의
한국전
##피고인이
짝퉁
공세에
##응급
세모그룹
다산
##법인을
직전에
크라우드
단서를
조합원들이
잔혹
구간의
방문이
6.13
떠날
높습니다
##취임
수돗물
##수배
한유총
시교육청
어린이를
연구기관
##학교에
도주한
##af
외통
한의
한국갤럽
여야간
받아들이고
##당사
##저지
핵을
관문
##선거를
##산지
안개
이들도
##책임을
국립서울
시너지를
당협위원장
전년동월
##여명에
##∼11
넘겼
장하성
측으로부터
주민자치
##청문회
##장벽
해경이
중징
강당에서
시달리는
코스닥지수는
##무니
것들
2.9
유통업계
생선
활용하면
##당장
##부다
수십억
##~25
권리와
중앙부처
##장학금
독자적인
새정치민주연합이
##(52
예정됐던
##구역을
범죄로
유익
개방형
때문이었다
AK
##산업체
답했습니다
한겨레신문사
##):
##환영
민주적
시민은
헌법재판소가
감귤
적을
부리고
사들여
##~13
받았을
돌파한
활동과
활용될
##대만
그랜
주영진
##퍼드
##결합
분단
##퍼블릭
##수현
묻지
##무근
의지와
반복되는
##앤드
##가지로
천천히
##라니
지출을
인력과
쿠폰을
##공정거래
교육부의
재량
대비해야
문화일보
조심스럽게
센텀시티
##하였으며
외부에서
째
마실
##라가
수요는
푸르지오
##농약
되는지
은행을
말입니다
##함으로
보였고
재외동포
나왔다고
허창수
웃는
부진이
구출
##천어
태화
등록금을
조직폭력
##경색
고온
입증할
##차례의
올해까지
##론의
대출은
##ust
기업이다
호평을
“200
전략은
검출됐다
진출해
소속사
##될까
휴게소
성과는
특전
##하도급
출석하지
##백억
##운동의
투자하고
대외경제
손해배
학내
해양플랜트
점퍼
현실은
##ICA
방송이
암매장
##주유소
미래부
진동
가져온
달하고
초등생
##뜻한
발주한
후보자로
##미국이
##극장
경기남부
부산지검
성명에서
비상대책위원장이
여중생
##만삭
미지급
하루를
이회창
군부대
사전구속
지역아동
도종환
##NH
##공구
계속하고
##계에서
##주최
##헌재
본사가
##생명의
영원히
한국도
##3'
선발해
##RP
환기
한국인의
빚었다
단연
##이야기
결선투표
농지
할아버지
좁히지
나왔지만
지방자치단체가
이것도
##법도
뚜껑
신설하고
언급하지
##가이드
뉴시스와
모란
지속하고
소셜커머스
##임은
##청렴
숙여
세단
김태년
금융정보
ISA
살아야
부쩍
##라늄
모르겠지만
##예산을
하였다
파악하지
되겠습니다
부르고
출신이다
형상
##반값
구성이
명과
2.1
23%
##새누리
동작을
##2011
돼요
당정청
업계가
그제
최진
##상담을
##정책은
맞추고
부위원장이
정장
차단하는
귀속
##관심
##지현
##펀딩
요금이
자택을
경우에만
##유병
어릴
##운동장
내곡동
대용량
운영의
두바이유
늘었다고
위원으로
비밀번호
증가는
금융시장의
정도면
지경부
건조한
##주사
##혈을
##ill
남북은
부른다
민간소비
안내를
아이들과
헌법소원
##수경
##인용
저임금
##자유무역
##(22)
차단하기
내부거래
생후
물고기
대출금리
##갔고
운전자의
##묘지
수당을
38%
진통
금융자산
기념식에
투입되는
##아르
##OA
리스
통증
데에는
법안의
##공조
3.9%
귀빈
##수출입
횡포
보기는
슬로건
소속으로
이튿날
편중
저질러
드디어
공기청정기
국회의장과
##려를
김이수
사항에
것이지만
시행될
전쟁이
서울시교육청은
자동차보험
건에
신민
그룹은
계룡
삼성과
하계
현대차의
##기원
장관도
취하는
##석에서
효율적
금융감독원이
##했음을
토지를
지급되는
부위
한남
##듯한
소매판매
상황이어서
구분해
여대생
볼거리
기대하기
##단장은
머물렀
징역형
즈
##법규
하반기에는
소개해
여객기
금리인하
피아
추진될
순자산
피하고
총장과
교무
존경하는
검찰을
당신이
주름
##층에는
강화된다
악수하는
충남지사
##age
중단한
##러브
##국회를
##으라고
##새누리당은
애완
출석하는
정제
보습
고객들은
스탠더드
##경궁
##후생
범인
99%
강경한
##위원들은
숭실
공학
필립
보장성
##전혀
탈취
145
##기준이
내다보고
현재로서는
선박의
봤습니다
액션
##리케이션을
착안
##ist
##주들이
온라인뉴스팀
##울을
일자리는
##인삼
##도민
##김용
요구했지만
##하자마자
##경협
##자립
##교수가
##하기까지
##대한통운
민주노총은
서정
광공업
사업비를
경쟁에서
토막
톡톡히
##연동
나자
##일엔
인천지검
갖지
우리와
##장에는
거북
##생명과학
오류가
##업체로
##시스템에
주도의
##덤핑
보시죠
재소환
설명한다
특활비
부총리가
양성평등
##호기의
발언과
##비치
비빔
말했고
사업체
##쳤던
제동을
2.0%
이날은
타개
부정하는
1/
횡성
##세대의
여사와
전전
##캠페인
책은
##사람이
놀랐다
농산물을
농진
변함
시험에
추석연휴
겸허
암살
장흥
않아야
촉촉
대회에
하루가
통신은
##한나라당
##~17
다큐멘
##스트로
획기적인
골고루
합수
유지될
##님과
버는
전원합의
황병
살피고
##our
수익형
신씨는
지자체는
현장으로
##죄는
근린
안은
재벌개혁
시키는
출석했다
상도
쳐다
국립서울현충
원칙이
##소셜
##진화
우리측
자사주
검찰총장이
메이저
불완전
농단
플라자
성차별
길고
옹진
##더러
##여성이
시설과
소비자는
##수련
신분을
내놔
사용될
빠뜨
하락해
유성구
러닝
드러내고
##블러
새해를
한국교육
전에도
##스파
고령자
산불이
##오기
관심도
민경욱
교육과정을
##십리
대통합
시달리고
##수술을
2400
CI
바리스타
##일자로
비로소
운영자
사냥
##선거운동
산유
노사는
##지구에
도깨비
구속했습니다
체포영장을
시작합니다
이산화탄소
감식
고용률
기부를
챙기고
감세
마련하기로
##수립
난무
맞붙
자활
호재
기념하는
스마트시티
대표자
##선교
점진적으로
말합니다
환자들이
##SYN
적절하지
홍익대
##금융그룹
사용한다
##원장은
당론으로
테니
접근해
155
##격에
염원
##프라이데이
재촉
댓글조작
온라인몰
##보급
##봉을
반갑
특정경제
사과의
부당이득을
수상자로
재범
##TEU
##중은
지하수
커진다
전기자동차
언론에서
무허가
크리스마
백성
회복할
조사에서는
분석하는
예측했다
정책기획
맞추기
도산
조치했다
##대상에
165
규제는
낱
상세히
통하여
황금연휴
##위협
##스텔
발표와
예비창업
높아진다
방수
보험에
##국립공원
전해드립니다
퀄
틀에서
카타르
프로포
##키즈
##파업을
성향이
폰
지각
한미일
##지성
때로는
증가했습니다
창업에
##비교
압도적으로
체험하고
시술을
법무부가
##그것이
교수도
전국동시지방선거
책상
무대를
무지
예방과
떠안
사용자의
##기밀
맺어
제출해
지금부터
女
##배기
걸어서
제출하지
홈플러스는
갖추지
취업포털
##운항
##보호구역
징역형을
##왜곡
표적
##인들
하차
김종훈
국민연금이
##한겨레는
최창
##황금
##원가
국무총리실
지켜볼
내사
면적이
##수저
##(51
##방망이
아니더라도
영빈
신한은행은
##탈북
정준영
고속버스
뷔페
자유한국당의
##악단
##애국
국회부의
막론하고
합리적으로
낯선
상류
##신고가
김영록
시도가
경기도와
편이
부산은
장소는
적정한
이우
질서를
##항공우주
공감하고
우려는
찍었다
##동북
中企
제외된다
선착순으로
##연대가
따지면
분석과
우려와
날려
##시키며
궁금한
##웨이트
되레
북측이
##모델을
부과할
##는다면
푸는
국회의장은
뛴
구성에
주고받은
##뚜기
##숭아
특검의
굴착
초기부터
대통령기록
착수할
추락해
열정을
##주시기
장관급
차은택
최소화할
당청
##김종
당시에도
심폐소생술
판매된다
준비된
요청했습니다
##고검
미네
의사와
##계속
단호한
이르렀
기용
##티넨탈
수사의뢰
한중일
대상자를
기름을
##데스크
명령했다
##ell
예탁
성향을
할인을
비난하는
평균보다
##힐링
사재
극복을
투자자들은
내부를
##축제를
그녀는
항생
자산이
##다스
제거하는
그로
측도
##계획이
명에게
댄스
##철학
지갑을
논란도
##진우
시멘트
##SOC
감형
화력
국면에
##크스바겐
##빨간
국가별
접수돼
선거제
근처에서
안타까움을
지도를
단행했다
린
검진
대화하는
나포
##생존
중심을
송년
##조건을
방재
달성한
성격의
랜
##았기
지정학적
##터로
부천시
음란물
##유성
##범행
CF
SKT
고정금리
사안은
활동도
##호실
신라면
##만주
명심
타이밍
경남도는
##학교에서
남편은
진에어
고민해야
##LBM
확대된
##어르신
영동고속도로
단수
시위가
전역에
##조직을
##선수권
불법행위
문창극
북한과의
제출하고
청소년을
상자
공동의
밀가루
##재배
사막
##여당이
경영권을
진료비
##맛을
기저귀
등에서는
베스트셀러
쏠림
##만달러를
##길로
도움으로
체포됐다
망가
매운
저와
열지
##사건에
APEC
시즌을
진실이
피해자들은
##(53
노조와
김종필
프로젝트에
적합업종
##주당
##천여만
##규명
옳은
1900
바른정당은
##시장에서는
폭침
축제가
분을
구원파
기득권을
나오는데
공정위의
무시하는
감당할
느끼지
쑥
겨울을
##억원까지
추산된다
후반기
기준으로는
도교육청은
어렵습니다
##ant
경무
관례
새벽부터
유권자들의
부산진
##명절
오비
모습이었다
쿠바
창업자
추월
이메일을
갑작스러운
근로기준법
소원
##집은
판다
##업체들은
일가가
##ult
##입국
##ech
피해에
발의했다
휴직
웃으며
##도르
스무
이가
##얏트
삶과
역행
##만원은
##껑충
원재료
무소속으로
##복수
여성들은
스마트폰에
괜찮은
##번을
분신
##차량을
프랑스의
##사항에
바비
대사가
##합창
##해라
부의장
소속된
씁
김규
노인이
##경에
##조현
기둥
마을을
##그레
노력한
사회안전
왔고
어떻게든
##이치
자세가
오디오
##제거
##리겠다
##조종
##식도
질이
##퇴진
정씨가
확고히
경찰청장이
##방으로
판단한다
활동으로
방통위
##취급
간부가
한나라당의
강호
##동양
##평했다
며느
##이날
대테러
##철호
##보합
똑똑
정대
수익금
전통의
##본부장을
##신속
질주
경제성장률이
##모리
##음과
확성기
감사하다
페어
사회공헌활동
하세요
보시면
복사
피어
박형
탔다
##sh
가입하는
방송사
##경찰의
현대그룹
나트륨
일으켰
1983
어머니의
##속초
##상하이
##강경
청계광장에서
성추행을
무엇보다도
##놓는
##수목
시ᆞ
예치
박차
김수현
##(-0.0
저축은행의
무안
뇌물공여
##VE
되게
이후부터
가파르게
분류된다
##ᆞ중
27%
대표인
##워터
##웨딩
지게
법안에
헌재의
##인원은
광범위하게
단체로
문화적
시와
지형
결과도
속보
##협의회가
두꺼
##다이오드
걸그룹
이동식
##체제로
불렀다
앞섰다
정리한
힘차게
원양
##억엔
어려움에
샐러드
콜라보
##저런
투자자가
##뉴스의
알아보겠습니다
##도쿄
열리지
##셨는데
이남
공판준비
기업에서
수습기자
##일대
##인들에게
장시
가나
퍼스트
가운데는
기정
말하기
##바람이
내외로
연구가
##억달러를
##위기에
파악했다
음모
갤러리아
##시효
신뢰할
유리하다
일관되게
인터넷으로
떠오르는
공장이
변액
1∼3
##비례대표
일단은
통합해
차관급
아동을
##보름
의미의
가족들에게
동두천
방식과
매력적인
이사장과
인텔
멀어
건강식품
공직기강
표정의
##병원이
아토피
관계의
등에서도
둘레
##사거리
병역필
기획재정부가
##신문이
가시화
##율과
수련
보도된
입법을
폭로한
여사의
##양육
말하기도
##더욱
적기
떴
방파
신성
가족들을
검색어
맥도날드
안타까워
##가습기
##금융은
경마
국립환경
본관에서
둬야
##매립
무단으로
5.5
통보한
기울이
##상습
급물
##예측
사업가
중국과의
##다드
윤창중
금호아시아나
홍보하고
##내각
두산중공업
글은
덩달아
한국무역협회
목재
탈피
태평로
분석했습니다
광역단체장
길러
137
명분으로
##처와
##저금리
안대희
중금속
상장을
유휴
스스로를
경실련
##여기
수행한
악화된
유지한
따뜻하게
##카는
압도적
분명하다
농협중앙
포화
##다니는
세웠
입구에
제시해
차관을
합의는
새마을금고
##잠재
재단은
떨어지면
##빈곤
운전기
투입할
공항에서
기념행사
##거주
하되
해달라고
속하는
##(+0.
치료에
##FI
궐
중랑구
통신사
이뤄지면
노동자가
곤혹
동물보호
다양하고
면이
직불
국내에서도
오존
진전을
덥
##보궐선거
물의
사하구
정체성
##즈가
##파울
##수소
##통화를
구조다
저평가
예멘
병원의
##업체들의
##보험금
재조명
스노
산하에
리스크를
##드니
피켓
대륙간
내년부터는
1.1
##광다이오드
경색
상기
##들보다
회사원
노스
실효성을
킨텍스
판결했다고
부검을
##벼락
##공학부
전한다
점유율은
트레일
한신
규제에
##들끼리
Korea
출발하는
##마라톤
시절부터
퍼부
KCC
동승
서문
##오피스
##요금이
##선정
송정
징벌적
자원개발
유발할
일본으로
부모를
피고인의
항일
중이었다
##들지
엇갈리고
성장해
특단의
임원이
휘둘러
항의하는
##메리
##디자
윤상직
##신용평가
익숙한
정치권에서는
##부담을
오스트리아
악재가
있는데다
조건부
위협하고
신용등급을
딛
내국
##유해
##브로드
안민석
##균형발전
##시키려는
침해하는
##축제는
잭
단계별
몰라도
동의하지
##근무를
##보완
##율의
“19
##불리
노선에
보상금
순국
적발해
쥔
워커
미치고
급급
1982
##지역과
중앙선거관리위원회
언론과
이적
탈당한
못했지만
보기에는
있느냐는
이사회에서
직업을
광주광역시
삽입
이태원
부처와
자신만의
##병철
것이나
아들과
업종이
앤드
변화하는
포기할
품목에
수출하는
요트
##서비스업
##성매매
병원이
##시설에서
뿌린
면적은
지원자
투입된다
##차에서
건강관리
수사결과
필요하다면
133
생계형
이불
내외의
지정돼
##대상을
업무는
매트리스
굶
##세에서
건의했다
취업에
효과로
기권
고도화
효력을
사람이다
##호기는
설명이
무언
수험생들이
출근하는
급한
##개국의
뒤흔
인과
검찰청
##리지널
살아온
이날까지
투표율은
공기를
##영재
사용된다
##대법
쓰나
탈모
다치게
접촉한
저자
행사와
습득
##경찰은
증진을
넘기는
##과일
##병원의
노령
있었다면
밤을
빠지는
계정을
긴장감이
합동참모
##만장
묻어
과거에는
##자원공사
##배럴
도덕성
참전용사
이병기
피곤
몰렸다
##ational
##체육관
##인들을
산업재해
사실관계
해당한다고
내신
소속인
찬성하는
##.21
홈페이지와
##(54
때에
소요될
업종에
판단했습니다
##부당
일단락
##관측
내면서
표결에
개선되고
비서관이
번거
방문에
##액에
4.0
응징
역삼동
융합과학기술
통과했다
##부장이
라인을
현대산업개발
아니라면
누리꾼들의
그릴
일몰
##발표를
##사업법
##캠핑
핵심적인
구석
예정이었다
최고인민회의
재확인했다
기관에서
여성들을
요청하고
##하였습니다
##숙이
원장과
철학을
정보화
내놨습니다
호조를
체포동의
종자
##포인트로
견줘
원론
역점을
캐릭터를
도를
##한지
시동
텅
##전두환
평창군
피해자들을
망설
컸던
국민연금의
불거졌다
천둥
영장실질심사를
기관지
법외노조
브랜드는
자이
##정윤
수천만
##어려운
##타워에서
모스크바
##이라고도
의심하고
파장을
흉기에
서한
위태
##천대
법치
부인과
야심
상임위원
서천
현명한
1>
광산구
정당공천
군데
일시적
생산되는
##받았습니다
알린
광장에
즉각적인
올라간
각기
경영지원
강기정
##노후
교수로
모색할
사무장
상향조정
30~40
지원된다
##디움
'20
아쉬움을
해군기지
##(56
낮다는
단기적으로
2>
모습에
진화됐다
서열
일주일에
혈중알코올
배로
환영한다
##지킴이
정말로
외형
6.
##개씩
##연합은
##면은
처분이
##방법을
건넸다
주목해야
내에서는
행사하는
파일을
수도권을
전략에
##WTI
끼칠
장기적
처리해
청구하는
~
수상자
충격에
##ep
모토
##들에겐
음료를
해소하는
##사실상
아내의
수목
까다로운
해결되지
##성대
구비
석촌
울려
##내며
상계
##보도를
높이의
주파수
진영의
완료했다
대표이사가
항변
군수는
##니지
##어와
##고정
계획이며
순위가
##앤젤레스
급속도로
부진으로
##배가량
기업형
##란도
##~30%
##재판장
보수가
부산시가
##OD
##발급
쿼
##주소
여왕
##바구니
기기를
##주공
택지
핵심이다
중소기업청
해소에
신한금융투자
##종이다
사회봉사
##추후
가습기살균제
노선은
행정처분
화답했다
추진했다
##씨티
340
놓치지
정씨의
언급하면서
했더니
공개한다
트라우
리빙
그만두
한숨을
해준다
경직
세대를
유족들은
선불
불길이
조항은
사무처장
신청해
주문한
월등
자민
##법인은
지금이라도
닥터
기능은
박유
캡슐
저수지
전시장
##ast
감사원장
수학여행
극한
다르다는
요구되는
검토가
매입한
##곡히
보러
지니고
##외곽
삼은
후인
##이사회
차례의
채택한
##(66)
직급
입국한
정호성
참사로
국내선
원칙과
않았으며
당정협의
선거인단
정책위
미친다
디자인이
앞장서고
##AC
조처를
불매
##예상
통과가
##건설의
매일유업
있잖아요
먹지
##편한세상
경제관계장관
##ear
##김정일
맞추는
일각의
상임위원장
남편을
스티븐
기본으로
##경로
##재민
후송
선진국의
큽
##로비
서울중앙지방법원에서
##사각
불복해
영업점
상황에서는
왜곡된
협상은
고착
##앞줄
누구에게
##증명서
한차례
제조업의
장녀
##손으로
관련법
위원장에
기리는
구조조정에
##학위를
의견에
##강원도
모자라
농경
하회
아이패드
##캐나다
단호하게
천연가스
신체적
저마다
순이익은
##하여야
##이종
모호
누리고
##양도
숙련
##공단에
화백
자긍
##밀하게
충분하다
수탁
증가했지만
반영될
정봉주
##거돈
당하고
조경태
##소인
노동시간
최소화하고
##(30.
유방암
작품이
장맛
##노예
실외
기초단체장
##내를
지켰다
낮부터
##.2016
인선을
손석희
테스트를
##문화유산
이어졌습니다
질책
조계사
##연구개발
당할
인하대
아태
##해철
총격
대변인도
##MP
##례회
아니어서
기념식을
신학
##칼텍스
폭우로
무기계약
지정하고
기획한
모르게
##한국시간
##CCTV
##2013
##(-3
페이지
5.4
않겠나
##계단
뉴스브리핑
##주의의
피트니스
공룡
용지
앞다퉈
지배적이다
명인
##대학의
##졸업
해임건의
친구들이
시범운영
##단원
##리터
합격한
##여일
뜻에
풍선
##뉴타운
연계된
캡처
##음식점
28%
##겠는데요
##격인
34%
10~20
##간접자본
국가재정
##여곡
일겠다
확산되는
고용이
키우기
##클린
##칠성
##상선
##포상
##지방검찰청
오픈을
채택을
##ob
노컷뉴스
내부에서는
##비시
뜨겁게
출사표를
##당초
마이클
양방향
건강검진
보장하고
##상황실
모였다
##민속
##환수
##수익률
##경마
##총액
연이은
근로자들의
##김진
##시스템이
존재하지
'2019
입장도
기관으로
배치에
절실한
##기다
트윗
전셋값
파동
지정하는
공약이
부사장의
인천에서
확보와
예방하고
서울북부
리터
추세에
학생에게
방명
가져가
사소한
비디오
고모
경선이
관리해
발돋
심신
경제채널
마감한
시그니
못한다면
객관적으로
찬양
##메이드
협력할
당일인
큽니다
의원들도
산모
##보니까
밀반입
문형표
##회전
##∼29
##hap
##공연을
5.8
넘고
난동을
치솟았다
청라
웃었다
방범
국민들을
국정교과서
안중근
떨어진다는
##소문
##취한
어리
##연희
부끄러운
과천시
##미와
개업
##이어티
##복원
자유와
지급해야
##혁신을
생산과
이상돈
금융감독원에
##피부
미팅
##성장과
##아울렛
응급실
새삼
근데
친절
##셨으면
개별적으로
안병
##각에서
##광복
USB
삼성에
전략기획
비서실장을
연석회의에서
##타입
##졌는데요
##경부
보잉
권한대행이
중단할
유가족과
##레나
발효된
##사립
밀린
##운동가
##서트를
백운규
비은행
애플은
적잖은
1981
찾아보기
연립
피하는
칼을
동종
계획인
배치된
내림
모드
일컫
37%
흔들고
##아일랜드
자란
##경보가
“20
인플루엔자
금지된
##아마
발명
세종대왕
놀란
대한문
##저도
약간의
주인공은
논현동
싶어요
청소년들의
요금은
##대화를
야근
방문한다
거뒀
인해서
투입돼
라스
자연재해
맹비난
목적에
그랬다
하방
조례를
부인하는
##제품의
사체
편도
손보
반영되지
상반기까지
아반떼
저서
키웠다
##orld
##남은
체제의
햇살
페이퍼컴퍼니
##래곤
개혁안
##척의
품격
부담도
##머리를
엔진을
##용은
##행성
##연기
체인
교육감의
##님께서
성접대
이의를
##뮤지
불우
##승무원
필기시험
##줍니다
시청하시기
들어보겠습니다
##카르타
계속해
우려로
지난번
구조적인
구조에
주문을
침체로
두드러졌다
통역
##기반을
상승폭이
주민등록번호
엉뚱한
나타낸
형성돼
경청하고
진행하기로
##맥스
기회도
페르
##전교조
강용석
계열사를
골드만삭
위원장에게
##주의료원
달아났다
업계에서
울산의
##정책관
황영철
혈압
위원이
##볶이
피크
기부한
유럽과
바르
방배
표현하는
치르고
##되었으며
넘어갈
참사의
연동형
##ec
##광물
141
모형
제도에
외국인들이
성과와
강화하겠다
##개시
원과
##리랑카
##~24
다변화
부산시와
##감축
NHN
공약은
차가운
단가
목표주
연합뉴스에
제대
수립하고
136
들어있는
취급하는
패러다임을
보호관찰
들며
42%
현장실습
빌려준
##클릭
##현역
발암물질
냈지만
##평가에서
분해
##크리스
투자자의
##김에
##되다
벽에
비용도
인명진
##꼴로
김의겸
왔다는
시스템의
현안이
하이트진로
##캠퍼
##곱미터
노력은
##겼다는
처벌하는
##실히
##베이징
가령
상황인
투자금
##수집
마르
묵념
정치공
검거됐다
중상
주저앉
##신경
람
아마도
이와함께
주겠다
##정규
하실
콘셉트
카페베네
##CSI
회복세가
##HE
성화
##텍사스산
명실상부
내비게이션
##고지
모독
경기침체
재배치
후원을
감사원이
푹
어머니를
꿰
갯벌
이루어질
예비후보가
조타
##과제로
가족들
쪽방촌
고승
대책의
도용
장갑
이내의
일평균
명지대
처리했다
돌고
김범
우산
##-50
##음성변조
디자인의
마사지
집중하는
시각장애
19%
##ME
##(20)
혼자서
##차선
주가를
6.4
##중간
공영방송
종전선언
김용균
방만
가능해진다
증언이
##틱스
불사
원본
내정된
김정은은
치중
그간의
##공이
##승차
확신한다
비슷하거나
발생을
장치가
관영
고수하고
투표율을
우여곡
많았지만
##정현
##찾기
##화도
처해
환담
오인
점검한
구룡
시설은
국회의원들이
##징역
공예
##텐데
설치가
##금감
간과
공약에
직면한
닭고기
피의자로
친문
##지구는
##서울포토
빌미로
무디
##리테일
138
만들지
소통하고
싱크홀
광주시는
재무제표
강남권
상승했고
##디야
##과학원은
차지할
차례나
딸은
더불어민주당의
관행이
##헬스케어
데일리
케이스
구애
배경에는
##번영
미래지향
##FOMC
세트를
##천억원을
##대박
여타
사업에서
##황교안
광고는
형편이
위원들이
존재를
크기가
줄기세포
지방선거에
##아무리
고구마
손자
불가피하게
꽃게
##딤돌
교사를
동국제
삼호
방위비
바다에서
모르겠습니다
##자금으로
확대해야
법인을
##희경
##국제도시
중앙선관
지도부에
쓰여
##챌린지
병원은
아쉽다
대비하기
신생
•
인연
해경에
손님을
백범
강점을
화훼
무더위
엄정하게
##소리로
회장으로부터
신분증
강도를
실무접촉
올해부터는
박철
부상자
CNBC
외국에서
##키아
성과로
한국경영자총
##으신
세월호의
에티오피아
강창
26%
파운드
적발되면
롯데면세점
##파울루
짧아
위기관리
##과열
액화
되니까
복제
내려야
10>
##가동
먼지
##은행을
지점에
##검찰은
가능합니다
건당
한자
합천
브라운
차는
##쿠르트
최하위
모색하고
부산지법
아르바이트를
임관
한국은행의
맞습니다
보험사기
이유로는
삼일
##소리가
당당히
화순
##더민주
보이기
회장도
희생된
들어오고
가로채
규정은
직전인
소유하고
신모
##메르
3>
않던
Pro
검찰개혁
때다
항목에
응급의료
지역이다
끼워
마리를
광주전남
급등했다
통과시켰다
돌진
기획전
조사대상
시민참여
기념사진을
대통령으로
냈고
버블
막지
최승
식자재
쇠고
차원이
비서실장은
정치자금을
협력하기로
##등산
##용기
최저가
리우
해석도
과정에서도
마지막까지
반복적으로
##(57
##현장의
쟁점은
마중
##단계를
부가세
##(18)
134
##얼마
사제
필요하지만
도정
온열
가르치는
연장하는
코코
##스틸
녹록
경의선
양적완
목사는
##원지
시작하면서
##평통
신병을
##으면서도
아꼈다
이야기하고
대비하고
시절에
이해관계가
더위
##천만달러
반발로
부사장을
알려지자
엄중히
확정한
##티콘
대책과
싶어서
유기준
리튬
지질
실수를
장병들이
평가받고
##변화를
보탬
시동을
승복
제출하는
##교육은
##희생
##고령화
##씨소프트
알리바바
##창한
##겠네요
##밀착
로컬
반잠수
버스에
올린다
가짜뉴스
전국교직원
리그
520
입주를
조직에
시절인
##House
모른다는
환경단체
날카
충주시
도시에서
풍요
GPS
좋았다
무역전쟁
중국어선
발행하는
공공임대주택
##대통령은
특허청
주민에게
합의했습니다
##농축
##물가가
책무
##하다면
여의치
점유율이
##지방국세청
국토교통부가
금은
원전의
집중돼
운영하던
신일
연말연
##태영
관리비
답답한
텐트
구직자
신상품
##2014
##산면
꿈이
옐런
정부중앙
##태그
##남해
##에코
완만한
##구이
국회선진화
구해
중순부터
소수의
형성하고
매매가
인상하는
수변
부린
비상저감
잦아
창문을
소급
420
애로사항
정리를
발돋움
강정마을
있으면서
조현오
LTV
긴장이
환경부가
검토하기로
규정돼
도우미
##품과
##해주길
대통령비서
쳤다
##교도소
펼쳐지고
온라인에서
달성하기
훼손하는
앞세운
##는다는
##모터쇼
삶은
애경
시신은
구내
##지는데
교문
전기전자
어쩌면
어린이와
이채
노인복지
흘려
연기금
물가안정
##...4
부딪혀
##만대를
##차림
##비디오
자부심을
밤늦게
짓을
무릎을
대기업은
녹아
놈
겹치면서
##심문
##유착
갖출
방한한
제품들을
들썩
##지도록
렉
문자메시지
정치인들이
발제
연제구
임단협
전통적
불법조업
##정착
선임했다
어묵
국세청에
##드름
기준치를
달라졌다
##대신
구강
피난
개헌안
성주군
##없어
131
공모한
승객을
부산시민
아파트로
받아들였다
이뤄지도록
HD
바뀌어야
보였지만
무의
기술력
세워진
탄핵안
표한다
유도하기
추진하기
전선
퇴사
흔들리는
보여주기
서울특별시
##bal
##정당인
지수를
최근엔
아이디어가
독도를
MBA
압박이
시정연설
공공성
##억원어치를
내며
유기한
질의응답
가량이
##분류
남다른
시도했다
녹조
##교육에
온누리
지카
4.2%
당사자가
원자
남성과
##식량
가입이
시상식에서
성장동력
유해물질
##박지원
돌아선
할인해
따르지
감안한
비전과
##보와
의거
플래그
이임
김성수
확충을
시장경제
##(),
##con
피를
대출금
##버려
절감할
새벽까지
##돌고
독창
패러디
준하는
##외버스
모델의
##악을
들어가지
##당하는
생산해
안면
여자친
YS
국무장관
##무슨
의욕
활동할
##송이
준법
개설해
##유플러스는
면책
##명이며
질의를
국면에서
기자들이
광주를
완료되면
##본인
익스
하는가
오던
##투갈
학교로
생방송
##공기
##지시
##경찰관
##세대가
뒤따라
정국을
지내는
불려
있기에
공정거래위원장
144
##있었다
내세우고
##말리아
제도와
보호할
최상위
##LTE
신년인
절실하다
남과
서기
발표하며
태풍이
공고히
다니던
##분해
##했으니
전관예우
##미어
패터슨
##우정
도착할
요청으로
##회사로
주치의
시한을
성남시장
감소했고
명분을
중단했다
전치
생산에
당직자
버렸다
이름의
##용의
신청자
사과문을
운항을
##염을
추종
재선거
중장년
심사위원
공무원들의
부정적으로
일시적인
못지않게
가입해
전국적인
##입원
드러났
반덤핑
조사도
친분이
##됐는데요
세계보건기구
##화돼
대피하는
현대경제연구원
지내던
형태가
얘기하고
여직
여기저기
##KI
##개최
쓰일
조작해
계급
딛고
CS
수성구
압박에
##크랩
추가했다
##성추행
감정이
개인별
빅데이터를
구축했다
논설위원
##도우
##것으로
저지를
케냐
벌어졌습니다
옮길
##코스닥
닮은
말에는
이전과
이어가는
고취
수출과
핵심으로
말자
한국도로공사
제각각
군과
기억을
과속
32%
끔찍한
의존도가
통화스와
총액은
##네스
##사이클
필수적인
##으러
드린
보이기도
동력이
제주에서
계량
협의하고
대응해야
##구요
세율
신입사
케이블카
인신
구축한
사법부의
처지에
##메드
##군산
루머
##마스터
도마에
환하게
##광명
##액과
밀양시
캠프에서
##가해
싸움이
폴크스바겐
임야
등에는
캐피
인사들은
직위
기울일
어렵기
의장과
고급스러운
##ᆞ여
배경은
연봉을
테이블에
사귀
최민
사건도
오신환
무방
점포에서
루이
개막식
남재준
넘어야
발판을
##도로를
시작해야
정회
운전자는
계좌에
모아야
조현민
##반기문
캠프의
대국민담
부과했다
여러분이
##얼굴
최규
290
##렸으며
권영진
재보궐
##반에
올레드
노년
구성할
병역거부
##객을
법은
출혈
타이틀
적금
인천항
있음
##SE
금연구
##┼──
추념
맡기는
##도매
소양
##네이션
##한인
##천만원의
새마을운동
##통한
아버지와
##od
##청약
인사들과
때에도
사상구
##산성
##인적
지시가
##채가
환풍
외부로
체감할
복귀를
야산에서
폭발적인
고갈
몰락
서북
##장병
안정에
잇따랐다
따를
##onhap
목적의
3.2
##날레
산업생산
한편으로는
##송금
누설
##중견
틈을
현대차가
##년말
1984
경제사회
묘역
##살롱
##유병언
추진이
##미소
대진
중국발
##현주
가석
서명운동
##다나
입원한
##덱스
서술
산업은
GP
매물
가뜩이나
과태료가
##버넌
경찰서에
남발
##기보다
높지만
몸담
##KTX
임씨는
##바른미래
잔뜩
##그릇
##ork
구상이다
매출과
확대하기
동급
분권
0.9
분리해
총체적
##피고인은
경량
머무는
절박
36%
##관리시스템
선수는
##간담회에서
설날
점수가
이룩
##더라면
하라는
##탄생
##(58
##여년간
기자재
무작정
개념이
통과해
네오
어려웠던
열악
##농성을
탈락한
입맛에
종목을
기반한
전달해
중단해야
드러나지
먹어
결합해
##수요를
극단적
비해서는
여론에
물질을
0.00
노동신문은
불행
최고가
전문가인
##노조가
##표지
검증된
지하경제
담당할
##적이지만
북측의
행자부
독립운동가
천장
##전무
와이파이
##물량이
광주와
더민주는
분양가는
대한변호사
##냈고
한국선
이월
적용한다
조성사업
정치쇄신
##압박
위의
빠져나가
##아이가
밝혀질
돌보는
시도하고
##고등학교에서
건물로
##박영
##테크노파크
##공포
은행들은
해당된다
치명적인
내빈
자본금
중요합니다
구토
##규어
##성준
##주길
팬택
전세자금
북방
상인들이
##체계가
##협정을
옮겨졌다
±3
방점을
FI
##질병
1975
확실시
부는
수족
커넥
최중
잡아야
돌린
선회
4409(
정례브리핑에서
##연석
가든
편성해
##오카
예비역
설정하고
않았으나
##종업
전략과
종목의
식음료
운행하는
##스카이
김치를
민병두
기간과
##야마
절박한
##추위가
##─────┤│
##적자
연구용
상큼
다음달부터
화장실에서
몰리고
대변하는
차량에서
##지청은
실현하기
##TP
1978
교육지원
##정책과장
##리브
결항
반발하는
춤을
##건이다
##잡을
외국에
##억여원
수의계약
선수를
현대카드
##리테
귀여
힘들고
운용하는
##내면
수수료가
##(59
노인의
매출액의
교사와
제창
갖춰져
비급여
활기
##큐브
심사가
예정이었으나
##당분간
##rama
##하였고
사실이지만
서울행정법원
경합
국화
임직원의
노무현재단
구멍이
시비가
##(2013
##┬──────────
##제윤
교두
웨어
##그룹에
적용이
액세서리
##침대
접점을
한지
기류가
생리대
참여했던
##텐트
##진다는
농협은
누르고
절차는
유럽에서
뇌졸
같지만
더해져
발매
##견이
퀴즈
로드맵을
초음
##분야에
강조해
##짬뽕
젊은이들이
경로당
불신을
사각지대에
살펴보겠습니다
142
개장한
국민의당과
##영은
사업주
##동아리
부정청탁
서울지방국세청
구성과
##조세일보
선수의
실형이
하락이
##~80
시스템과
엇갈렸다
갈비
북동
##쳤지만
상품인
##버리는
##작으로
단체장
회원을
총학생회
연봉이
알레르기
43%
개선됐다
통계청에
나왔고
##깁니다
##행복한
민간투자
##장현
##칭을
액면
제안한다
##이온
아프다
발이
언행
##쪽에서
김우성
탑승한
짓밟
한약
평화적
심정으로
##벙커
형법
BSI
달러가
거지
재일
##있다는
피의자가
##다지
연세대학교
##노스
##악의
여군
손해배상을
로고
우리투자증권
개학
그들
도입과
돌리고
완료된
기자들을
남녀노
경상북도
오랜만에
집배
국가들이
##수색
IOC
판결문에서
무역보험
영위
##더멘
완료할
유리하게
하면서도
##백한
##리엄
##모토
##환자가
전국교직원노동조합
발생했다고
궁금해
##거짓
##토론회에서
경남도지사
뛰는
풀릴
효과적
153
##검찰의
##태세
-2
흘리고
##유형
사들이
열띤
##김없이
기여를
공청회를
이찬
계약직
한국원자력
국장급
말하지
무더위가
병력
옮겼
교사들이
##테이블
국제공항
밝히기도
방호
싸이
##김재
그러니
##(70
##기념물
비비
대비할
##초교
재청구
위원장인
이별
신중히
끝났
투병
정해져
총정치
전화통화에서
하늘이
출시한다
오기
대표이사를
다수가
맞는다
왔으며
발맞춰
빼앗은
정황도
헌법상
h
힘들다는
민중총궐기
창문
터라
빼앗아
##규정을
##생명이
##onhapnews
##규모를
##대다
출시해
##셨습니까
제외됐다
80.
지금이
##초기
##푸르
백령도
경쟁률이
쏟고
##주의와
창단
아시아태평양
##남에
분도
사진으로
신은
어린이집을
##BSI
##저소득
억지
##정치가
##적용
##경제학
효율을
4·16
공천에서
##시장위원회
자체의
##원유
##다오
굳게
##오히려
도소매
김덕
문턱을
전환한
게시판에는
숫자를
양성화
열차를
페인트
불가피하다는
##패널
6.5
##휴가를
마을에
연구진은
박삼
무죄가
드럼
유가족들이
물티슈
억울함을
Drama
규정된
물놀이를
##익이
공산당
기대와
증세가
만들어낸
하락세로
속이
##end
##인제
불렀
##국정농단
제한된다
면적의
##우병우
각지에서
호텔롯데
질환을
향상과
##론으로
##ence
비효율
만드는데
활동의
종용
학문
##주의로
재외국민
조금이나마
##메이트
##었나
마셔
교통사고가
노래방
집중해
활용을
##일베
##라인드
참석자
##태섭
##푸른
기뻐
##그렇다
##생태계
채운
후보자와
기본권
정책도
주도해
건설업체
매출도
학교급식
취업준비생
훈련이
2023
##변이
##남자
구도를
##정체
4>
하원
오가며
위험성을
정씨
통화가
##교역
##탄압
##도지사
##비핵화
몰수
430
거치며
##포기
##시설공단
국정기획자문
##진술
낫다
참치
기준과
##·11
신고된
프로포폴
써서
##안에는
폭행하고
선뜻
##존스
##파에
발길을
##기자재
제주의
어깨를
조건에
개선방안
##)-
보성
경기는
돌입한
빠지지
위상
지적장애
포켓
네번째
##평창동계올림픽
울산시는
소용
정원을
##국장을
##저출산
환경미화
##니스트
##겠지
##포탈
원상
배경이
##연예
##월쯤
수온
햇빛
##시정
##보건복지
매장이
몰입
##절차가
위치하고
확보하지
시각장애인
추기
어서
에쓰
##네트웍스
보더라도
자동차의
##(19)
실업자
지속적
천재
작전을
6~7
국정농
##EP
안철
일대일
##과에
##단지는
국가들의
##천연가스
##동호
##단체에
진행이
특정한
인천지법
막강한
##임에
##정우
약자
##LNG
초과해
출마선언
센터를
주택의
금융지원
##YTN
##NO
국무총리와
명지
##습관
DramaHouse
##손실을
상해를
선박이
상당수는
##계열사
주택에
장세
##구조가
##뤘다
상황이라
##비서관을
손경식
##새누리당이
##양국
자릿수
지목한
기압
기정사실
떨어졌습니다
인종
산란계
##차단
건강하고
계열사에
하와이
세무사
결정했습니다
구속됐습니다
침몰한
2200
개설한
산행
예산과
##진실
##판결을
##사업체
하더라
##르던
개별소비세
##헤럴드
수원지검
재정이
시장점유율
변을
봄꽃
공매도
클래스
쿠웨이트
##음의
취미
통계에
##리사
만나게
보살
본인은
배당금
생기지
##품의
상승세
##장관회의
하락하는
한창이다
평소에
물색
받았으나
##멘토
거침
신설했다
작동하지
축사하는
독립유공자
완구
유급
맞이한
상호금융
##터치
팜
데이비드
서울고검
자격정지
##기환
기소의견
비판적인
김만
숙성
대사를
터무니
##시키면서
##문제연구소
남아있다
발부했다
진두
거라
화면에
##특혜
두려움
하청업체
##파라
단장으로
선박은
서비스인
##청와대가
가능성과
##만들기
분주한
실천을
조성될
분양권
기자회견에
##부머
월스트리트저널
뛰어나다
열매
타인의
분위기에
##화장실
유족이
진입한
##여명으로
끝낸
농기계
인지도를
##유한
신용등급이
최고기온이
김호
공대
소나기가
민정수석이
현상으로
커리
##ater
##우편
셔틀
143
주위
##미국은
수출입은행
##RC
안정과
근무할
점으로
꽁꽁
##되기는
맞출
작고
뱀
##무늬
매뉴얼을
넷마블
신사업
3·4
4∼5
뒷받침할
순수한
기침
분당구
우선협상대상
잘못한
절차와
감소에
##글을
한모
##개사를
자제하고
식품을
행보가
##평화의
않아요
온전히
자문위원
국정감사에
시뮬레이션
유서
광역시
##와서
취했다
직무유기
고품질
연준의
##출발
여론조작
임명동의안
한상균
##동화
명성을
기혼
작가가
##개척
교과부
봉화
##관계의
영향에
##Yonhapnews
북측에
##사업자가
후보와의
##래를
반발에
초고속
담당자는
##도덕
필요하지
최현
사라지는
대회가
일반분양
##적극
명태
체감온
아찔
이니
##리라는
##조원대
##집행정
##MEX
눈과
줄었습니다
##MG
##냐면
오거돈
소득대체
탈북민
중과
입주한
##정보가
새정치민주연합의
특색
+0.
추락했다
기만
분쟁을
영재
수집한
생활하는
합동수사
부대변인은
주도권
튜
나누기
출범했다
##무형
##eal
어린이들에게
지방자치단체의
##(67)
##발적
##되므로
녹화
##야당의
증가세
##여당의
국적을
높았던
탤
광주지역
서포터즈
사이가
사장단
주석은
##무력
##탈당
선로
계약금
연희
풋
판명
##중국은
박기춘
지장을
국회의사당
##기독교
##얼리
지지자들이
증언했다
##탈주민
##타리
믿어
시립
##양양
클리
한솔
##의학과
계획과
김포시
카페에서
북방한계선
직계
##클러스터
나눔로또
##SW
사드배치
후문이다
베란다
기대되는
현대중공업은
##억원씩
##복음
센서
차관의
##창당
##셨던
##────┼────┼────
차에서
어려워질
##무게
조력
제기해
오락가락
값을
##선수재
##대한항공
##비엔
고덕
했죠
올리며
거주자
반하는
질병관리본부
제한된
롯데홀딩스
입맛을
##죄에
##문제와
실패로
요격
그치는
기간의
증가폭이
최소화하는
공고를
내연녀
법안심사
피해도
밟을
찜질
##요금은
##크레
오키
##데시
같지
NGO
레미콘
##김현정의
옆으로
제주를
깊어지고
기조연설을
반영했다
이케아
##억원이었다
국가공무원
어떻습니까
할리
잃어버린
##회복을
##법안을
접속해
합의된
고용부는
거주하고
머리카
##기업들의
##경기장에서
##그리
서류전형
이마저도
어린이집에
김승연
파견해
뒷받침하는
마련했다고
입력하면
넣었다
##분기까지
일절
식구
KOTRA
##...5
##팰리스
감상할
차차
##렁크
예방하는
##병사
##중대
재앙
일대의
##┼────┼────
##CG
##당첨
실체를
139
폭우가
공여
자유로
관광객의
봇
캠프에
보드
이형
잠긴
펀드에
우버
절세
민관합동
챙길
##]"
##부회장
##천원에
직위해
프로그램과
##하우스는
반응이다
맡기고
유형의
##중국해
##단체를
##수사권
버리는
##약자
##구미
##보도록
오픈한
해결의
도입하기로
바른미래당은
향을
380
국민통합
임박한
##논문
##시기를
특검에
넋
투약한
4.3%
전당대회에서
조직적
##사무소를
교수에게
##시지
밀고
호가
수명
##영수증
##재단을
풀무원
##선택제
##금호
##돌아
##플러
유리창
##일가
공감대
##노령
프라임
충격으로
취소하고
껴
##이유
진위
투자자들에게
##코드를
통과된
무공천
사용하기
선보인다고
##분가량
##진주
돌렸다
원인에
##0%,
최은
속도는
실무회담
수동
기획했다
비교한
##상환비율
총을
공산이
편파
경기지역
테라
##시네마
공급한다
구조물
세계은행
##해양경비안전
백수오
중요성이
회원으로
팟
국가유공자
##관료
지켰
마일리지
나가지
일관된
##황이
공개된다
##개장
##제인
이루지
##인도네시아
전례
부진을
##론도
##집행을
단지가
종사하는
##잖아
하이마트
##화되는
건강보험료
##철폐
교양
문항
없나
ATM
##건수
##러스트
물가를
운영비
작업도
협약식
차상위
휠체어
라며
##아이폰
##법원에서
박주민
##만원이었다
제빵
논의하기로
시행해
정치와
펼쳐진
변제
##시대의
설치된다
펼쳐지는
탐구
놓지
칼슘
변경해
##]“
특별사면
예산도
대학원생
억압
명의를
도와주
부대행
신뢰와
이주민
임금은
자연스레
직접적
사업인
재추진
해석할
사무총장을
국토교통위원회
##폰서
브렌트
##픽스
희생을
비대위원장이
##성수
반대했다
달았다
##면제
대연
일정과
성과연봉제
효력
자리다
무역수지
배관
사양
의사일
종목에
학급
스미싱
##NP
잃을
151
박춘
전씨는
한수원은
##방지를
##lobal
진심
접목한
워터파크
시작했다고
##GF
지적하는
공무집행방해
주식회사
##기일을
전격적으로
지양
##상품으로
피해자들에게
설립하고
##바오
게스트
##새해
돌아간
박광온
보좌진
속인
투자금을
회삿돈
성금을
영장이
계열사가
불법체류
기술에
##헬로
175
지방에서
편리하다
##받았다고
'100
공급과잉
##이들
##사업인
권력이
아니지
동양증권
자금의
강조할
누리집
아스
##가맹점
370
감소를
예술의
캠페인에
산단
출렁
총회에서
확보해야
특이
통합에
화천군
##그네
저에게
##퍼레이션
진보정당
##서류를
급등한
내정자가
가깝게
정의를
##회사에서
k
##∼15
현재로선
##공원이
싶다고
허술한
##활성화를
현장에서는
##판문
판결로
횟수
여소야
걸맞은
청년이
공개했습니다
카르
산후조리
##기자단
지내고
농사
1948
시행되면
##씨로
빗방울
여유를
춘추관에서
일했던
최영일
손바닥
##간을
##세븐
##테르
세계로
##자랑
끊임없는
주목받는
주택은
아파트와
평안
##년도에
##틸리티
부분들이
##시키겠다는
##공원과
메뉴로
소화기
간통
달라진다
차장이
기록물
명복을
개입을
형식의
##더블
위로의
주택에서
팔린
##화이트
압박하고
테슬
혼외
##졌는지
발생시
둘러보는
##(2014
관람하고
나선다고
##전달
수유
역량이
##무선
입사한
롯데제과
전문성과
##TK
소극적인
##드리겠습니다
어머니와
머물며
취직
##도시에
##자원봉사
대우증권
동아대
승리의
도입된다
##주의보를
##수협
쓰게
대리운전
하마
연수를
업무의
촉발된
김밥
비호
코미
촘
##매년
시민단체가
강사로
고영태
경찰관을
제품도
숙명여대
제시됐다
지난달까지
##분만에
##경준
공문
정당에
군을
보여줘야
우회적으로
29%
전기료
함량이
지적됐다
택한
순서로
평생학습
##마한
두터
벨트
북중
##협박
인화
포트폴리오를
북측은
인생의
균형발전
외국인투자
모터쇼
얘기한
##(68)
##리본
##기회를
협력과
##현진
##학생들이
권순
순창
##금융지
##근거
##평가원
##확장
##출입국
후보인
방증
과학적
본사의
재난대응
##법조
대변인을
윤석열
##만두
아사
유례
##기기를
##하기만
사이드
##창작
책임과
서상
조심해야
크로
##주의자
각계각
상태여서
##망과
없었을
추경을
노출돼
완료하고
##역까지
##원이었다
내세우며
인정하기
국제유가가
않겠습니까
땅콩
예쁘
목록
미숙
비용과
효자
김종민
화합을
##도전
상점
쓰인다
##원조
이용자의
##ST
##배숙
자궁
휴면
활동했다
##곡을
##ISA
자리잡고
경남지역
판단에서다
##강서
짚어보겠습니다
실기
##하더니
응급처
##빌딩에서
5500
조세뉴스의
##보단
의석을
##초등
한복을
신설된
##임기
벌금에
법률상
##cont
육성에
통제하고
단어가
부처에
경고를
이상민
##수산식품유통
노예
##월중
머릿
치사
생존자
사망사고
##장치가
##마늘
146
상임위원회
##전면
쇼핑을
비노
여파가
이재만
움직임은
##일제
##콤한
서양
펜스
체험하는
구사
치어
##무소속
예쁜
바꾸기
룩
쫄
북항
##지영
##모아
청장이
임명장을
설립했다
선물세트를
가루
대답했다
##추모
딸과
논의도
대통령직인수
리본
경상남도
5>
시설의
간소
시도하는
이벤트로
검증이
발언한
않았다면
문건이
##지겠다
이전에는
의사소통
보탬이
훈련에
154
제보가
체제에
무거
##법인세
세율을
함평
농협은행
용량
##회장을
44%
마니아
들어오면
식이
하역
희망퇴직
##의약
음원
동원한
고속철도
()
##SM
148
받는다고
정리하는
##예탁
##신용등급
그보다
생각해야
선출됐다
배우자의
안된다는
폭행해
소말리아
지방교육
한국프레스
##희재
##등록을
##특징
##스크린
비판하며
피해자인
##고문
업종을
비아
국민소통
소집해
상암동
심사에
##헌법재판
남극
듀얼
4.1%
임직원과
##성호
오리지널
KF
나쁘지
지주사
악화될
맥주를
교육청이
##전보
##착오
##선동
152
##속이
##개국이
##편의점
유통업
##분야에서
배우자가
적성
원전을
정비를
여지를
확산하고
가요
만회
이해하는
등극
묵묵히
민주사회를
주장했지만
뿔
유임
임플란
항공기를
구자
재심을
교직
영화의
재정지원
추천한다
힘쓰고
항소를
미세먼지를
##림동
##형제
채무를
커피숍
김구
버스정류
디지털타임스
쏘아
##2016
나왔는데
##수엘
긁
쫓고
사업부
급감했다
연봉은
##항공기
침체된
하나만
농민들이
##올림
정의로운
취합
추적을
##란한
##지원이
번이나
버튼을
세출
대선의
유족과
인명구조
종합하면
안간
읽을
오케스트라
받자
30%,
한국거래소는
건설하는
나섰던

##이
##다
##.
##는
##에
##을
##고
##의
##지
##가
##한
##로
##하
##대
##사
##기
##서
##은
##,
##해
##를
##정
##1
##도
##0
##원
##인
##시
##자
##수
##부
##장
##전
##2
##일
##으
##국
##있
##했
##제
##"
##보
##리
##상
##과
##주
##어
##회
##'
##위
##라
##만
##들
##경
##아
##나
##성
##공
##구
##관
##조
##)
##3
##(
##스
##적
##동
##니
##업
##소
##등
##당
##선
##면
##문
##비
##것
##5
##중
##계
##화
##재
##개
##게
##진
##안
##통
##여
##4
##명
##신
##산
##내
##년
##금
##유
##행
##무
##세
##그
##연
##오
##와
##용
##민
##방
##6
##할
##발
##단
##치
##우
##실
##교
##거
##모
##영
##며
##9
##분
##7
##요
##후
##생
##미
##8
##간
##차
##마
##체
##입
##·
##청
##표
##출
##된
##학
##터
##습
##월
##법
##역
##%
##트
##강
##야
##최
##건
##울
##운
##현
##난
##반
##데
##식
##되
##합
##김
##“
##결
##권
##드
##려
##말
##설
##”
##직
##러
##포
##까
##박
##호
##남
##임
##물
##심
##속
##력
##예
##’
##‘
##양
##달
##매
##감
##점
##천
##불
##판
##근
##추
##각
##받
##씨
##었
##없
##바
##않
##노
##종
##석
##북
##찰
##증
##검
##급
##령
##외
##배
##본
##준
##품
##작
##확
##히
##열
##특
##처
##됐
##총
##환
##억
##파
##저
##두
##피
##때
##책
##르
##협
##형
##약
##밝
##평
##더
##련
##따
##담
##번
##날
##올
##S
##집
##태
##록
##음
##함
##료
##투
##던
##타
##참
##린
##래
##복
##격
##겠
##프
##규
##혔
##육
##질
##초
##광
##변
##새
##활
##능
##-
##크
##목
##군
##C
##른
##토
##항
##았
##또
##A
##향
##병
##편
##승
##별
##험
##론
##앞
##황
##같
##T
##및
##언
##늘
##축
##철
##─
##창
##술
##취
##망
##량
##송
##o
##채
##많
##온
##절
##택
##B
##알
##께
##카
##획
##e
##졌
##견
##m
##뉴
##순
##레
##벌
##람
##런
##누
##란
##코
##디
##될
##접
##농
##살
##범
##필
##였
##융
##=
##폭
##못
##높
##율
##측
##립
##삼
##버
##독
##I
##충
##족
##돼
##r
##류
##든
##c
##K
##손
##희
##친
##논
##키
##t
##a
##?
##응
##브
##객
##곳
##i
##돌
##맞
##길
##례
##액
##M
##침
##뒤
##루
##혐
##혜
##익
##줄
##홍
##>
##n
##D
##백
##워
##애
##혁
##메
##G
##쟁
##P
##득
##너
##극
##페
##E
##티
##N
##막
##악
##완
##존
##락
##네
##~
##센
##허
##탄
##효
##커
##핵
##글
##w
##림
##L
##층
##왔
##률
##갈
##걸
##럼
##져
##▲
##넘
##났
##징
##름
##찾
##롯
##균
##s
##느
##]
##테
##[
##겨
##색
##폐
##움
##플
##k
##<
##머
##헌
##죄
##앙
##패
##O
##랜
##착
##F
##좋
##긴
##휴
##:
##윤
##봉
##잡
##답
##큰
##혹
##퇴
##엔
##│
##베
##냐
##쳐
##탈
##렇
##l
##잘
##밀
##놓
##/
##몰
##g
##훈
##렸
##h
##랑
##압
##션
##V
##갖
##팀
##촉
##눈
##돈
##째
##즈
##쪽
##룹
##낮
##찬
##념
##케
##혼
##ᆞ
##붙
##먼
##풍
##첫
##엄
##R
##p
##볼
##블
##얼
##핑
##∼
##퍼
##귀
##힘
##럽
##염
##략
##큼
##숙
##빠
##골
##d
##텔
##녀
##납
##혀
##▶
##템
##뤄
##츠
##끝
##쓰
##탁
##밖
##뿐
##떨
##u
##잠
##낸
##H
##△
##숨
##U
##흥
##좌
##벤
##욱
##y
##램
##냈
##먹
##널
##죠
##릴
##춘
##덕
##b
##닌
##갑
##켜
##풀
##홈
##꾸
##끌
##암
##`
##쇼
##&
##폰
##십
##캠
##님
##클
##뜻
##떤
##팅
##떻
##둔
##콘
##컨
##넷
##J
##떠
##빈
##옥
##낙
##W
##맡
##끼
##둘
##갔
##쳤
##벽
##곡
##섰
##굴
##욕
##촌
##힌
##얘
##뢰
##칙
##덧
##싶
##팔
##털
##써
##맹
##◆
##델
##뷰
##웃
##듯
##렵
##싸
##쉽
##짜
##◇
##링
##값
##섭
##슈
##틀
##척
##랐
##왜
##킨
##첨
##픽
##씩
##녹
##휘
##봤
##캐
##칠
##즐
##싱
##춰
##왕
##졸
##맛
##밤
##빌
##얻
##엇
##쿠
##잇
##닥
##쇄
##!
##펀
##즉
##좀
##몸
##봐
##홀
##웨
##슬
##죽
##푸
##놀
##텐
##탕
##컴
##쯤
##X
##됩
##흡
##뇌
##혈
##궁
##턴
##v
##씀
##잔
##롭
##펼
##맥
##킹
##겸
##칭
##렌
##곤
##겼
##괴
##짓
##겪
##탑
##흐
##꽃
##겁
##늦
##뛰
##헤
##흘
##딩
##콜
##렴
##깨
##뜨
##펴
##빨
##찍
##꼽
##f
##딸
##웠
##흔
##럴
##셨
##촬
##켓
##솔
##쉬
##슨
##몇
##괄
##빼
##Y
##꿈
##옮
##빚
##냉
##묻
##듣
##랙
##셔
##칼
##빙
##춤
##■
##+
##봄
##횡
##땅
##엘
##┼
##깊
##삶
##짐
##즌
##▷
##릉
##섬
##챙
##픈
##럭
##삭
##탐
##낼
##셈
##벨
##싼
##곧
##꺼
##줬
##냥
##릭
##벗
##킬
##끊
##훼
##넣
##닷
##슷
##왼
##톡
##밥
##젝
##앵
##Q
##앤
##긍
##젊
##묘
##헬
##쌀
##폴
##핀
##듭
##켰
##*
##걱
##힐
##뮤
##묵
##텍
##콩
##즘
##륙
##롱
##믿
##빛
##◀
##톤
##읍
##앱
##쏟
##꼬
##컬
##꾼
##눔
##멘
##넓
##뒷
##Δ
##잃
##몽
##웅
##엑
##덜
##돕
##짝
##렀
##→
##룡
##줘
##닝
##렉
##쌓
##흑
##콤
##갤
##꼭
##빅
##룸
##뽑
##끄
##찌
##릿
##앉
##뭐
##셀
##닉
##뿌
##촛
##눠
##곽
##쓴
##랫
##쌍
##셜
##맨
##맺
##멸
##댓
##흉
##닐
##므
##꼼
##폼
##탓
##쓸
##뀌
##퓨
##밑
##렬
##옷
##셋
##녁
##몬
##北
##굉
##랍
##옛
##붕
##둥
##걷
##궐
##멀
##씬
##읽
##옆
##끈
##첩
##놨
##팎
##젠
##뱅
##슴
##튼
##닭
##훨
##팬
##잉
##엽
##꿔
##봇
##밭
##훔
##쾌
##벼
##팽
##뚜
##굳
##깔
##펜
##튜
##낭
##잖
##팩
##틱
##엠
##컵
##쿨
##떼
##숲
##美
##샤
##쏠
##겐
##쇠
##j
##똑
##섯
##큐
##딜
##녕
##넥
##롤
##덴
##췄
##짧
##옵
##中
##밸
##깝
##☎
##룰
##쁘
##틴
##윈
##젤
##끔
##멈
##빵
##z
##겹
##웹
##톱
##닫
##빗
##文
##朴
##밟
##됨
##Z
##쁜
##썼
##낌
##좁
##떡
##○
##띄
##컸
##덮
##띠
##맑
##듬
##숍
##뒀
##껴
##낳
##故
##딱
##앗
##잊
##숭
##┤
##├
##룬
##옹
##숫
##x
##★
##샘
##탱
##랩
##쏘
##갚
##뱃
##븐
##덩
##닙
##묶
##봅
##꿀
##턱
##륜
##쥐
##뚝
##땐
##낄
##듀
##꼴
##밍
##칸
##깜
##랄
##틈
##깃
##셉
##맘
##野
##칫
##쿄
##낀
##퀴
##밴
##벅
##짚
##텀
##與
##엉
##찮
##멤
##캔
##룩
##덤
##렛
##믹
##멍
##뼈
##靑
##얀
##렁
##컷
##렷
##↑
##솟
##갱
##쁨
##쫓
##뭔
##끗
##틸
##튀
##랬
##휩
##훌
##셰
##냄
##닛
##前
##탠
##햇
##몫
##긋
##日
##칩
##앓
##툼
##샌
##돋
##뭄
##팝
##쩍
##픔
##※
##핫
##윗
##뇨
###
##섞
##웰
##●
##댐
##찔
##뚫
##낚
##괜
##샵
##횟
##꼈
##둬
##갓
##□
##껏
##킴
##핸
##캡
##멕
##잦
##릇
##펌
##붐
##딪
##옳
##쉐
##▦
##팡
##넨
##뤘
##굿
##☞
##뀐
##눌
##롬
##붉
##싫
##랭
##맵
##뻔
##깎
##곱
##펙
##外
##둑
##곰
##넉
##꺾
##궤
##檢
##멋
##흠
##땀
##뜯
##톨
##댄
##|
##安
##킷
##뜰
##늄
##릅
##흙
##닿
##휠
##뭉
##흰
##텃
##―
##캄
##〃
##깐
##뷔
##뉘
##샷
##멜
##낡
##뭘
##짙
##챈
##캘
##붓
##엿
##잎
##볍
##콧
##韓
##눴
##꽁
##썬
##쨌
##볶
##꿨
##륭
##딘
##맙
##릎
##쉼
##퀘
##┬
##퉁
##젖
##씻
##놔
##벚
##돗
##찜
##푼
##햄
##썩
##젯
##쩔
##팜
##곁
##갯
##앨
##싹
##┴
##μ
##삽
##끓
##낫
##벡
##삐
##삿
##헨
##겉
##쩌
##켈
##섹
##굽
##낯
##펠
##싣
##↓
##탔
##툰
##닦
##쪼
##륨
##빔
##챔
##썰
##핏
##ᄀ
##뜬
##슐
##갇
##줌
##잣
##샀
##젓
##뚱
##펑
##솜
##헛
##꾀
##딴
##듈
##녔
##쑥
##뜩
##걀
##銀
##꽤
##볕
##뭇
##샐
##新
##±
##〈
##퓰
##껑
##쿼
##콕
##쭉
##쥬
##멧
##뺀
##놈
##女
##웍
##닮
##썸
##윌
##슘
##李
##굵
##大
##뀔
##얽
##헐
##넸
##돔
##옴
##軍
##뽀
##귤
##넬
##늠
##랴
##펄
##얹
##팍
##@
##넌
##▼
##뮬
##쉴
##넛
##뺑
##낱
##•
##對
##엎
##_
##쑤
##앰
##웬
##옐
##뽕
##짱
##깥
##©
##껍
##즙
##팟
##펫
##줍
##엣
##늑
##밋
##폈
##촘
##덱
##늬
##곶
##얇
##찢
##°
##씌
##‧
##人
##딤
##똥
##띈
##흩
##꽉
##샴
##뜸
##쎄
##∙
##꽂
##딛
##뱀
##깡
##렐
##金
##×
##궈
##럿
##q
##뻐
##男
##괌
##탬
##◎
##끽
##솥
##쌈
##폄
##냅
##쥔
##헝
##팥
##켄
##띤
##튿
##힙
##「
##뺏
##윙
##車
##풋
##比
##떳
##뉜
##企
##反
##톰
##챌
##팸
##뿔
##츄
##텅
##짬
##옌
##칵
##벙
##춥
##年
##푹
##쏜
##깁
##잭
##뽐
##툴
##非
##뤼
##뻗
##덥
##쿡
##겔
##東
##퀄
##섣
##탤
##탭
##♧
##꿇
##퉈
##팁
##無
##둠
##튬
##南
##뺨
##댔
##캣
##캉
##뎌
##몹
##떴
##얄
##첼
##벳
##팻
##딥
##뿜
##뱉
##國
##늪
##콰
##랠
##홉
##京
##핍
##룽
##얏
##빡
##렘
##三
##엮
##씁
##퀸
##딧
##찼
##똘
##뛴
##춧
##녘
##家
##팰
##쩡
##法
##쫄
##짖
##퐁
##댈
##平
##굶
##씽
##씹
##山
##뵙
##낵
##州
##콥
##왈
##큽
##꿰
##짠
##컫
##公
##싯
##첸
##큘
##췌
##海
##쿵
##一
##짤
##高
##넋
##샅
##긁
##ᄂ
##밌
##숯
##心
##댁
##社
##룻
##쭤
##땡
##톈
##近
##쉰
##習
##道
##쌌
##맏
##땠
##텝
##」
##上
##島
##빕
##┌
##┐
##츰
##;
##先
##市
##둡
##硏
##썹
##잼
##툭
##뗐
##쏙
##└
##不
##왓
##렙
##重
##發
##┘
##百
##늙
##▽
##깬
##쯔
##랏
##띔
##갭
##딕
##켐
##『
##親
##ᄋ
##숱
##퀵
##킥
##洪
##샹
##홧
##』
##英
##뻥
##궂
##셧
##뾰